#version: 0.2 - Trained by `huggingface/tokenizers`
a l
r o
t i
e r
Ġ d
Ġ s
e n
i n
o n
Ġ c
a s
a r
i s
e s
Ġ p
i c
a n
a t
Ġ m
o r
o s
Ġ t
o m
Ġ h
ro m
l e
p h
i a
y n
Ġ a
Ġ n
u l
Ġs yn
d rom
Ġsyn drom
i t
u s
y p
e d
e m
Ġ f
Ġd is
o p
Ġsyndrom e
Ġ in
Ġ b
y s
ti on
Ġ l
e l
a c
Ġ r
ti c
o c
Ġd e
u r
i d
i l
e c
e as
Ġ g
o l
Ġdis eas
Ġn e
en c
en t
v e
e t
l as
i al
at h
Ġ 1
t h
i ti
u t
Ġ e
Ġ v
Ġdiseas e
a m
g en
Ġh yp
Ġde f
Ġt yp
u m
Ġtyp e
a tion
os is
ar y
Ġd ys
ic i
ici enc
r a
Ġc h
o d
ul ar
s i
i m
i g
Ġdef icienc
u n
el l
Ġ an
om a
Ġc on
in g
Ġ 2
d er
i as
Ġin f
u c
Ġdeficienc y
Ġa c
ro ph
r an
ath y
o t
u ro
t er
i es
e p
o us
i r
a g
t e
Ġm y
u d
y m
c h
Ġ le
ti n
os om
ar d
Ġhyp er
or der
op las
y l
Ġdis order
Ġs p
iti s
em ia
e b
it al
Ġ at
Ġne uro
ac t
ro s
Ġ i
Ġ w
an t
or m
an c
e ph
a d
it y
in e
Ġs t
c l
Ġcon gen
Ġp ar
es s
ar c
o b
p las
eph al
i p
am il
amil ial
ys t
Ġa ut
Ġf amilial
ro n
Ġ al
Ġe p
si ve
i le
Ġinf ec
er eb
er m
Ġp r
roph y
oplas m
Ġ k
v er
us c
Ġcongen ital
at ed
Ġt h
ec t
Ġn er
Ġ 3
u b
Ġ ar
Ġh em
p le
ym ph
a tic
Ġne oplasm
Ġa d
e al
o ph
i b
as e
Ġ x
Ġr e
op athy
Ġin cl
r al
om as
Ġinfec tion
Ġc ell
Ġl ymph
Ġg l
t r
is m
ent al
plas ia
o g
osom al
a ti
ud ed
Ġincl uded
Ġp ro
os t
Ġdiseas es
es sive
o id
ac h
u k
Ġh er
u p
Ġdys t
oc y
Ġaut osomal
os es
en s
at e
Ġ j
Ġp er
i f
Ġt r
enc ephal
or y
Ġner ve
Ġc ereb
Ġa b
Ġle uk
on s
it ary
Ġs e
ur e
om y
s y
an g
' s
d es
y d
Ġm al
Ġ 4
a p
n e
Ġr ec
er al
Ġsyndrom es
Ġc om
Ġc anc
Ġcanc er
Ġ as
i z
en d
o x
Ġp ol
r e
p athy
in k
Ġh e
on d
Ġr et
o v
r ic
ti s
Ġp h
r h
um or
Ġdisorder s
n ess
ti b
Ġher ed
Ġt ra
ink ed
Ġl inked
Ġdys plasia
Ġ im
Ġa m
q u
a x
Ġhered itary
in al
op ath
a b
Ġt umor
il l
es is
an d
o gen
Ġs c
ig n
iti des
o th
Ġe x
Ġc or
ro c
l y
m ent
Ġtra um
Ġep ile
Ġepile p
Ġm ul
Ġm usc
m un
i on
ic al
k in
Ġi i
ut e
Ġneoplasm s
Ġdyst rophy
ro id
s e
Ġp al
t al
en al
o h
it h
Ġ encephal
il ity
Ġb l
arc in
Ġrec essive
u e
ar i
Ġm ental
Ġret ard
Ġretard ation
a f
os te
Ġp ost
on ic
Ġ oc
j ur
Ġin jur
as c
Ġpr im
Ġch rom
Ġinfection s
al l
Ġmul ti
ation s
g r
om at
Ġn on
s on
un c
d uc
o f
m on
ros is
in ant
Ġch ron
Ġm et
ro p
Ġchron ic
si on
ra in
Ġm ic
Ġc ard
ati ve
ic h
om inant
Ġac ute
or rh
ran s
Ġp a
Ġd ominant
ur al
k e
Ġl ip
Ġs ub
Ġ 5
ag e
ac ial
Ġf ib
Ġs h
o w
Ġar ter
ell ar
Ġp ul
Ġin t
usc ep
Ġmulti ple
te in
osom e
Ġs uscep
Ġsuscep tib
Ġ op
Ġprim ary
Ġsusceptib ility
Ġneuro pathy
Ġcereb ral
an e
oc h
tin al
Ġchrom osome
ar t
Ġ q
Ġb r
Ġde af
Ġb rain
em ias
Ġr el
Ġd ia
Ġc arcin
y c
am m
rom b
tin g
Ġc ol
Ġs yst
Ġg en
ocy t
on e
em ic
Ġtraum atic
Ġrel ated
mon ary
ent ric
i v
ran ial
act yl
Ġs ens
i or
Ġleuk emia
Ġ oste
Ġat ax
Ġad en
en ing
Ġepilep sy
ur es
Ġdeaf ness
y th
Ġ 6
Ġmusc ular
ti ve
Ġ is
ocy tic
e g
u v
Ġc o
Ġf r
Ġan g
er g
an n
s oc
en ile
Ġpul monary
actyl y
Ġc yst
Ġmy el
opath ic
Ġin duc
Ġ er
l ic
ti al
Ġdef ect
Ġth romb
g ia
an ti
ul l
Ġl i
iti es
Ġhem orrh
Ġatax ia
Ġinduc ed
Ġ id
at al
orm al
th al
se ud
Ġt rans
Ġp seud
Ġr enal
Ġsp as
e tic
Ġdeficienc ies
om al
Ġh ep
Ġper i
gr essive
on ia
a k
Ġa g
Ġf e
Ġhyper t
Ġs ch
od erm
ot or
Ġas soc
ro d
entric ular
er s
Ġm ening
Ġ o
Ġac id
Ġmy oc
Ġ end
es t
ar yn
Ġ ons
gen er
Ġons et
unc tion
Ġim mun
Ġd erm
ys is
Ġat rophy
i ated
ig h
Ġdia b
os ph
Ġj uv
c ul
Ġc at
Ġ ur
ro x
Ġjuv enile
er at
Ġt o
a v
y r
asc ular
f t
Ġin s
n ormal
at ory
Ġt ub
Ġa p
Ġp l
op ro
Ġlymph oma
Ġassoc iated
f f
en ti
Ġh yd
Ġ or
un g
ur ia
Ġab normal
ph a
Ġse iz
Ġcard i
Ġf orm
Ġb en
ane ous
os s
a y
os a
or t
Ġben ign
o od
e a
p r
Ġpa in
f orm
Ġm on
Ġab s
Ġinjur y
Ġpro gressive
Ġid i
Ġsc le
Ġc ent
Ġde gener
p er
Ġsyst em
Ġmy opathy
Ġinf anti
Ġ un
en ia
Ġidi opathic
n al
Ġp o
Ġm ac
u al
aryn g
Ġinfanti le
ro gen
at eral
Ġsp inal
r ial
Ġ ect
Ġc r
Ġc le
Ġhe ad
Ġf acial
Ġg ran
Ġan omal
ang i
Ġp os
as t
em a
enc e
es ia
ys m
is t
ic k
a ir
y t
oc al
Ġv er
Ġmal ign
ob las
Ġcom ple
opath ies
ter ior
oc ereb
us ion
thal m
Ġin tr
Ġc ar
ig ment
Ġcarcin oma
Ġto oth
Ġop tic
roc ephal
i an
r i
Ġ 7
a il
Ġhyp oplas
u g
ul t
Ġne ph
p ath
Ġc l
Ġep id
Ġang i
Ġd i
Ġ em
ph ys
icienc y
ir us
Ġp ne
Ġr es
il d
Ġner v
Ġ ob
tion s
roph ic
Ġmalign ant
Ġd ue
or tic
ul in
oph ag
Ġspas tic
Ġc a
ia c
Ġmal form
y roid
Ġs le
ogen ic
uc t
Ġer yth
Ġcent ral
Ġfe ver
Ġw ith
b in
ut aneous
si es
Ġpne um
o tic
if f
oph il
Ġnerv ous
ol ic
Ġcat ar
c ess
as ia
Ġp igment
Ġtumor s
e ro
Ġcancer s
l i
Ġpar tial
Ġ 8
ro ti
Ġn ec
Ġhe art
Ġin ter
Ġintr ac
iti ve
id ase
ati tis
Ġsle ep
le x
ac ter
og ic
al c
ys tic
Ġad ult
Ġint ra
Ġfr act
e f
s t
Ġr h
Ġal pha
l amm
Ġdiab et
Ġan emia
od yst
Ġcatar act
Ġinjur ies
Ġd em
Ġmyoc l
p t
ro w
igh t
v el
Ġ ul
Ġs m
id osis
Ġarter y
Ġd r
et a
Ġar th
Ġs ec
Ġac qu
Ġdiabet es
le tion
Ġf l
ox ic
ill ary
Ġgran ul
us e
Ġne on
roph ies
ocereb ellar
Ġm ed
ir ed
opro tein
Ġacqu ired
m s
o ut
iti v
Ġre f
Ġhemorrh ag
Ġgl yc
f unction
ias is
aryng eal
am in
ra d
Ġneon atal
os e
Ġl im
m a
on t
Ġs kin
is ti
Ġcardi omy
Ġm uc
Ġb one
Ġe ar
Ġv entricular
Ġcor n
i x
im mun
iz ed
r itis
in d
th y
Ġ 9
or ph
ros t
Ġre tin
Ġ ol
es tinal
h yd
Ġs in
Ġs up
Ġg ang
Ġinf lamm
Ġcereb ellar
Ġst en
Ġintrac ranial
v ul
et al
Ġdys function
Ġch ild
Ġde letion
Ġ es
as al
Ġ1 1
un d
Ġaut o
Ġhypoplas ia
y tic
od y
it us
Ġii i
Ġd iff
Ġcorn eal
s tr
path ies
phys eal
ro g
er t
ac k
Ġcom p
oderm al
Ġwith out
Ġhyp og
Ġsp in
Ġth yroid
Ġli ver
Ġc ranial
Ġm ari
ran i
sy ch
Ġcle ft
Ġm otor
on g
in t
oc k
ost osis
Ġgen eral
a e
er cul
Ġe y
ith el
Ġmet ab
Ġsens ory
Ġdegener ation
er v
gen esis
Ġbr ach
Ġres p
immun e
it u
Ġr ad
Ġpar a
Ġ ich
er ly
Ġform erly
l ob
Ġc rani
or e
Ġre tinal
Ġich thy
en sion
Ġa ph
Ġmari e
a uc
en ic
ol ar
Ġmusc le
vel op
Ġlim b
a ting
o le
Ġ ent
on ad
oph thalm
if orm
Ġpal sy
Ġis ch
is on
Ġp sych
Ġv ascular
Ġoc ul
Ġp ap
em at
Ġsin us
Ġpar al
i um
m ental
Ġde velop
Ġencephal opathy
w ar
rom at
im al
arc oma
Ġoc ular
yd actyly
odyst rophy
e ur
in emia
Ġtub ercul
Ġcard iac
Ġm it
Ġanomal ies
Ġepid erm
arc ot
omat ous
Ġcardiomy opathy
ol ysis
Ġch arcot
Ġal l
Ġad r
Ġhead ach
Ġb il
tic ul
Ġpro l
rocephal y
c r
Ġm es
od ef
anc e
Ġdis tal
Ġv es
Ġhyper s
er ative
Ġf ail
Ġperi od
Ġimmun odef
Ġauto immune
Ġl oss
Ġk id
Ġsh ort
Ġabnormal ities
Ġ ro
Ġp e
Ġm ar
Ġim p
str uc
Ġn od
yp osis
Ġl ung
si ons
ne y
Ġgeneral ized
an s
Ġf o
Ġal c
Ġd el
ic ul
Ġinf arc
ond yl
Ġcyst s
Ġdem enti
an th
omy el
Ġam yl
et h
Ġv al
i ons
y ph
ti des
ti v
Ġs ep
Ġtr is
och ond
f er
g e
ed ema
em or
em ent
Ġph osph
omat osis
oblas tic
itiv ity
Ġalc oh
Ġk erat
kin son
Ġimmunodef iciency
h er
yn e
op ia
Ġpro tein
Ġli ke
l er
n a
le ar
op l
Ġb ull
Ġpo ison
Ġchild h
Ġamyl oid
Ġ ov
Ġpar kinson
Ġhem at
Ġtris omy
Ġchildh ood
las e
Ġch ol
Ġl ow
Ġneuro l
Ġscle rosis
Ġc erv
Ġseiz ure
Ġpoison ing
Ġc utaneous
Ġneuro pathies
p s
u ff
on al
Ġv ari
anc y
Ġp itu
Ġb eta
Ġst at
esis t
ogen esis
Ġpitu itary
Ġs ym
Ġh isti
Ġr esist
Ġleuk emias
Ġcor d
Ġseiz ures
ut er
Ġcomple x
or n
Ġv en
Ġspin ocerebellar
Ġkid ney
Ġ1 3
Ġan eur
Ġmyocl onic
Ġpara ple
Ġaneur ysm
Ġg al
Ġhep atic
Ġdr ug
as is
ol ytic
Ġv it
ly c
le c
ph eral
Ġhemorrh age
ia tion
oc c
Ġne ural
Ġlymph ocytic
Ġdyst onia
Ġse ver
lic ation
Ġperi pheral
Ġul c
Ġey e
Ġb ody
Ġcongen it
Ġse x
Ġsever e
in osis
Ġ1 0
Ġv is
og ical
in ary
Ġde p
ophag eal
Ġdiff use
Ġp anc
Ġh air
ol ism
Ġint estinal
Ġinflamm atory
Ġc d
or age
Ġhyp ot
Ġst orage
Ġf ac
Ġdefect s
Ġpal m
Ġmet h
Ġob struc
Ġfail ure
Ġm ig
ys plasia
Ġsec ond
l ip
o k
Ġ en
os p
oc r
ant ar
Ġpr eg
Ġepilep sies
Ġd war
Ġc ir
Ġh and
ur g
Ġsp ondyl
Ġderm at
Ġpos terior
Ġpreg n
Ġdwar f
ro tic
Ġm em
ad der
eas t
ol ated
Ġect odermal
Ġhemorrhag ic
Ġall erg
m d
Ġm el
Ġgl and
Ġher n
Ġcarcin omas
ocyt op
Ġis olated
Ġparaple gia
Ġcongenit a
Ġp rost
Ġdementi a
Ġdwarf ism
i o
tic al
Ġabs cess
Ġichthy osis
r y
u tis
in s
Ġf ol
oc occ
ir d
h e
Ġ ec
ro l
ti ous
Ġm o
em p
Ġf ist
Ġde hyd
te b
Ġmic rocephaly
Ġmalform ation
Ġfist ul
b ran
i oma
Ġne ur
Ġencephal itis
m an
as s
and ib
ix ed
p ur
Ġ ophthalm
le t
Ġg i
act or
Ġvari ant
ro us
om el
ard ial
plas ias
Ġbl ind
Ġbr east
o encephal
Ġ ig
Ġm ixed
Ġf etal
Ġch or
Ġi v
ron ch
Ġgl uc
Ġgl auc
Ġdevelop mental
Ġneurol ogic
Ġ z
ar th
Ġp el
om er
oplas tic
if ic
Ġpol y
Ġear ly
Ġgal act
i i
ti l
Ġd up
Ġc alc
os in
Ġf ocal
Ġcon t
encephal y
ocyt osis
Ġins uff
Ġparal ysis
fer ase
k er
Ġm ell
om ic
ell a
y lase
is h
Ġp up
Ġhyp oth
Ġinfec tious
rogen ase
Ġadr enal
Ġmell itus
c le
Ġf ron
eg al
Ġdehyd rogenase
t ur
as tr
yp ical
Ġ1 2
Ġat ypical
Ġhyd rox
s d
oth el
roti d
a in
Ġs te
Ġf actor
ent er
ra x
Ġan terior
Ġex t
romat osis
it e
it t
Ġde pr
ur r
Ġdef orm
Ġmon osom
ithel ial
Ġd f
ig ital
rox ysm
Ġresp ir
Ġmit ochond
Ġ y
Ġt ran
Ġr ed
id e
Ġv ar
Ġmac ular
ocr ine
g ias
Ġh all
Ġcom bin
Ġdep end
Ġmonosom y
Ġcombin ed
i osis
Ġper son
lob ulin
Ġ ox
Ġd uct
Ġa ortic
Ġb ronch
Ġl ar
Ġpol yne
Ġsm all
Ġsten osis
Ġmeth yl
Ġpolyne uro
g l
Ġd ental
Ġs im
Ġch ond
Ġst r
Ġre ac
Ġpa roxysm
Ġfract ures
Ġgang li
Ġtran si
Ġ uter
om otor
Ġat r
ens itivity
Ġsyst emic
b l
n er
on ias
is s
Ġcon vul
of acial
ke le
Ġur inary
Ġfract ure
Ġpregn ancy
a it
es sion
plas tic
Ġhem angi
ati tides
oblas t
osin ophil
Ġmitochond rial
kele tal
Ġpseud o
Ġhypert ension
Ġcar b
Ġalcoh ol
Ġsecond ary
Ġperson al
ro pathy
as th
Ġv ag
ir al
Ġlymph omas
Ġrec urr
Ġves tib
u x
Ġtr emor
row th
Ġglyc ogen
Ġparoxysm al
r en
os yl
ros es
roc yt
Ġtraum a
Ġgi ant
i tic
n s
n es
ic ular
op ic
Ġr em
Ġg ast
um b
ir id
Ġw e
Ġas p
oderm a
Ġem b
a w
Ġc ystic
Ġdys kin
Ġbl adder
Ġmetab olic
andib ular
m ann
t on
Ġm a
op le
ol ogical
rans ferase
Ġor al
Ġmalform ations
i ary
Ġs w
Ġm r
oc arcin
Ġne g
ros p
Ġpal ate
Ġheadach e
ro f
ar ing
uc h
ne a
Ġinfarc tion
Ġbull osa
a ph
Ġin c
il ar
Ġmal e
Ġeryth ro
opl antar
Ġcerv ical
Ġpalm oplantar
Ġgl omer
Ġepiderm olysis
Ġfo ot
Ġdup lication
Ġ tis
Ġp ur
Ġe osinophil
Ġmyel oid
Ġdiab etic
Ġtis s
i ve
Ġb ar
Ġv asc
Ġref lex
Ġblind ness
Ġvasc ul
Ġh um
Ġin v
Ġl ateral
Ġhe aring
Ġco ron
lic ular
i k
i tion
at a
Ġa ud
Ġv iral
ias es
Ġat rial
Ġhem olytic
Ġtr ich
acter ial
Ġbil ateral
c op
Ġ os
Ġs al
om inal
Ġn ons
Ġv irus
ra g
Ġaden oma
Ġimp air
Ġa genesis
Ġb le
Ġl ate
Ġg rowth
gen ic
if erative
Ġex per
Ġthromb ocytop
teb ral
i er
ti a
on y
Ġh orm
ul f
us ions
Ġl ac
im ental
Ġmy c
Ġmy asth
Ġpar as
Ġca rotid
Ġglauc oma
Ġrecurr ent
Ġtiss ue
h l
i ed
der ma
Ġmy ot
Ġpr e
Ġj o
Ġim per
Ġsch iz
Ġabs ence
Ġpos itive
emp or
Ġexper imental
Ġimper f
Ġc ap
os um
ol ys
Ġcon tr
Ġcor tical
Ġmyoc ardial
Ġfl u
Ġrespir atory
i omas
m us
Ġd il
Ġt oxic
Ġneuro nal
ric h
Ġgast ro
b er
b las
d ominal
i e
Ġm or
Ġsyn th
it ory
Ġb e
tic ular
Ġ1 7
Ġhyper lip
Ġanomal y
Ġallerg ic
d actyly
k erat
al am
ro up
os idase
Ġt ach
Ġh iv
Ġa x
Ġne v
Ġtr act
Ġarter ial
Ġes ophageal
Ġaph asia
Ġpanc re
ococc al
Ġtransi ent
Ġc m
Ġp ath
Ġdys m
ad en
ver n
ver s
Ġco a
Ġretin itis
Ġval ve
Ġmel an
f ib
y al
Ġ ot
ti g
an ic
ip le
Ġpr emat
Ġresist ant
Ġlar ge
empor al
on us
at ase
or ac
Ġr ight
ve olar
ep t
Ġw il
Ġperiod ic
Ġpersonal ity
Ġhorm one
t ransferase
er c
es te
Ġp y
id s
Ġph en
Ġsub ac
Ġarter i
Ġend ocrine
opro l
Ġpigment osa
Ġgangli os
Ġaud itory
ti tis
on omic
Ġc las
Ġp at
yp t
ol ip
ari an
of ib
Ġsym pt
lec t
Ġinsuff iciency
Ġneg ative
b le
e le
n os
Ġ qu
Ġl oc
Ġ2 2
athy roid
Ġsp l
Ġas t
Ġpol ydactyly
Ġsens or
yth m
Ġprost atic
on i
Ġn yst
ag mus
qu am
Ġhypog onad
omel ic
Ġnyst agmus
i physeal
p l
z ing
Ġ Ã
Ġc al
ul b
Ġl aryngeal
ol ogic
ot rop
Ġle ft
Ġderm atitis
Ġophthalm ople
Ġatr esia
Ġpremat ure
Ġa plasia
Ġb as
Ġg ait
Ġne ut
im er
Ġan ti
Ġ2 1
roph thalm
Ġher p
Ġex tr
Ġov arian
Ġd u
en b
or d
Ġt e
ph osph
em al
oma tic
ine ural
Ġhep at
angi ect
Ġfol licular
Ġsubac ute
v ic
Ġc am
Ġdis s
Ġb acterial
Ġg ing
Ġg astr
Ġle thal
Ġaut onomic
omy c
Ġap rax
Ġven ous
Ġpolyneuro pathy
Ġ rod
er n
as ias
Ġl ob
tin e
Ġpal sies
Ġcol or
omyel itis
Ġglomer ul
y g
Ġh et
Ġg m
Ġan d
Ġmic rophthalm
Ġca vern
Ġarth ro
Ġpur pur
ony ch
o ac
al d
es ias
os yn
os cle
Ġg ra
Ġtr ig
oprotein emia
Ġhypoth alam
Ġuter ine
Ġimperf ect
oprol iferative
al ang
Ġm in
om n
ac ch
Ġ1 5
Ġhyper plasia
Ġpseud oh
Ġpain s
Ġclas s
Ġging iv
s ti
y ot
Ġ ve
ro r
Ġt or
Ġt onic
Ġf eb
op ec
ec h
Ġcon e
Ġneuro fib
up t
Ġtraum as
rod ysplasia
roti zing
Ġnec rotizing
Ġsim ple
Ġs keletal
Ġp ick
Ġf anc
Ġhyper c
Ġw h
Ġab dominal
yc ard
Ġacid uria
Ġcr ypt
Ġtubercul osis
Ġstat ure
Ġvit amin
Ġhet ero
Ġcavern ous
s is
t l
Ġ uro
Ġd en
in ating
es th
Ġn i
it ed
Ġl es
et ra
Ġal opec
Ġdi ver
Ġsensor ineural
Ġalopec ia
t s
Ġs ph
Ġc ox
Ġc yt
Ġn oc
Ġl ang
ec tive
Ġdys ostosis
oph aryngeal
Ġpro t
ach n
Ġthromb osis
Ġhypert rophic
ortic al
Ġhemorrhag es
Ġmetab olism
Ġhum an
Ġcoron ary
Ġjo int
Ġarthro gr
Ġimperfect a
b orn
Ġpr ess
Ġpol yc
ov ascular
Ġver tig
Ġparkinson ism
Ġdepend ent
c a
o roid
s or
Ġs arc
em ann
Ġal veolar
ect al
Ġoste op
Ġaden ocarcin
Ġhep atitis
Ġulc er
Ġfistul a
Ġimpair ment
quam ous
m atic
y el
Ġ tic
Ġh a
us s
Ġl o
el ing
Ġac h
Ġat t
act ory
ros ing
Ġpar ane
Ġal bin
orph yr
Ġbrach ydactyly
Ġsep tal
Ġdyskin esia
Ġparane oplastic
Ġd an
Ġm id
Ġt el
Ġn asal
Ġb or
Ġl am
el d
ec tion
Ġne u
Ġle g
Ġk et
Ġre g
Ġpol yposis
Ġbl ock
Ġprol ap
Ġmem bran
z o
Ġs arcoma
Ġs ulf
em in
Ġ1 4
ation al
Ġan k
Ġat rophies
Ġth orac
Ġleuk oencephal
Ġpup il
Ġpancre atic
Ġmicrophthalm ia
Ġdiver ticul
l os
r ile
in ation
Ġg r
Ġ1 8
Ġw a
Ġor g
Ġpneum onia
Ġol ig
Ġrad iation
Ġnod ular
Ġdel ay
Ġcalc ific
Ġrem od
Ġmr x
Ġtach ycard
Ġand rogen
sti tial
Ġarthrogr yposis
Ġpress ure
Ġalbin ism
e um
f usion
Ġ ic
Ġp las
Ġb ran
Ġg ird
Ġcon c
Ġas th
Ġmyocl onus
Ġcomp lic
Ġfeb rile
Ġgird le
n ing
ro v
Ġa ids
Ġsyn cop
Ġb re
Ġg roup
Ġe le
ra ine
Ġac cess
Ġneuro n
Ġcereb rosp
Ġoc cl
Ġgen ital
Ġtub ular
Ġmig raine
Ġdil ated
Ġbran ch
Ġaccess ory
Ġcerebrosp inal
Ġm c
Ġn ail
Ġf asc
op olys
Ġb asal
Ġhyp e
Ġdys genesis
Ġhyper g
rh ythm
Ġag nos
Ġinter m
rad e
Ġisch emic
Ġhypers ensitivity
Ġfron t
acch ar
o und
r itides
Ġ ed
Ġd igital
Ġc an
ar s
us h
em as
Ġde ath
ec k
Ġdys plasias
Ġrh eum
Ġcd g
Ġflu id
Ġhypothalam ic
d e
Ġ od
Ġs ick
Ġp yr
ul ation
it z
il ateral
Ġhyper p
ocy te
ab le
Ġcomple ment
irid ae
Ġschiz oph
Ġax onal
Ġast rocyt
Ġtel angiect
o ep
z he
Ġs l
Ġa vul
Ġb ov
Ġb ow
ter n
Ġimmun e
Ġins ulin
Ġabnormal ity
Ġsten oses
hl ers
ulb ar
Ġbov ine
g ic
Ġd es
on eph
rom a
Ġr upt
Ġe hlers
uc lear
Ġi b
Ġth umb
Ġam yot
Ġisch emia
Ġkerat oderma
Ġext ra
Ġcontr act
Ġhypogonad ism
Ġgastr ic
Ġhetero t
Ġdan los
e roid
Ġp le
Ġe qu
Ġv on
Ġgl ut
Ġencephal opathies
Ġfib rous
Ġaden omas
Ġacid osis
Ġfever s
Ġhall uc
Ġloc us
h ep
m al
o ur
Ġ up
Ġm ast
om et
Ġh yal
Ġb ur
ob acter
Ġobstruc tion
Ġeosinophil ic
Ġganglios idosis
Ġ tib
Ġ edema
Ġm an
om p
ol d
Ġneuro genic
ism s
Ġdyst rophies
omat oses
orrh ea
Ġsub c
och rom
ocyt oses
Ġmening itis
Ġun ilateral
Ġneph ropathy
Ġperiod on
Ġophthalmople gia
ro ch
in a
Ġl ong
enc h
Ġch oroid
ov entricular
Ġarth ritis
Ġheadach es
Ġhern ia
Ġthrombocytop enia
opolys acchar
l oc
n b
u th
Ġm e
or s
Ġa v
od actyly
Ġac et
ter nal
Ġsp ont
Ġal zhe
Ġper s
Ġleuk odystrophy
Ġph ot
Ġcor p
Ġcol ob
Ġcl onic
Ġinter stitial
Ġmuc opolysacchar
cr eas
lobulin emia
Ġalzhe imer
g er
o i
Ġc re
Ġp or
oc ele
Ġe ff
ate let
Ġbl ood
Ġo ut
Ġpl atelet
Ġgranul omatous
Ġgang l
Ġocul omotor
Ġte eth
Ġspont aneous
o arth
Ġs quamous
in o
Ġc utis
Ġb i
Ġv as
Ġdys ph
ous tic
yl transferase
Ġre ticul
Ġent ero
Ġchond rodysplasia
kerat osis
achn oid
Ġpers ist
Ġmucopolysacchar idosis
f ic
j unc
n ar
p ort
as es
at er
os arcoma
Ġh un
ed i
em inal
Ġg sd
ep ithelial
Ġat ri
oph osph
ox ylase
Ġlip odystrophy
Ġmed ull
Ġpurpur a
Ġfanc oni
Ġthorac ic
oi etic
junc tiv
a us
p id
Ġ ill
Ġc all
Ġt es
Ġh ip
ac tion
ur ic
ati d
of f
of usc
Ġlip ofusc
Ġfib rosis
Ġgen etic
int estinal
Ġpap ill
Ġvis ual
blas t
Ġnev us
Ġpolyc ystic
s ch
Ġs k
Ġc eroid
at or
Ġr ep
ra ph
od ys
Ġ4 6
Ġo rof
Ġrh in
ont ocerebellar
hep atic
Ġpersist ent
a u
l oss
v al
w ay
Ġ u
Ġc ns
as h
at t
Ġf unction
Ġl up
et s
Ġmy x
Ġtra it
amm ary
Ġend omet
Ġap p
Ġphosph ate
Ġamyloid osis
Ġsal iv
Ġmyasth enic
b s
c d
n ath
Ġd ent
en ess
in ase
Ġc il
at ent
Ġm ov
Ġh s
ph rag
am p
Ġch ole
Ġac oustic
Ġx x
Ġj aw
unc t
pr ession
Ġdegener ations
Ġect opic
ophil ia
Ġmem ory
Ġdysm orph
ept or
Ġdiss emin
d ural
rom as
Ġg u
Ġg onad
Ġan a
og lob
Ġse qu
Ġex ternal
Ġang le
Ġspas m
Ġag e
Ġderm atitides
Ġscle rosing
uct ase
Ġol f
Ġpel vic
Ġble pha
Ġbas ilar
Ġnoc tur
Ġlup us
l ing
Ġ ath
Ġ ess
al ass
en tial
ar athyroid
Ġp en
it on
ac c
ol es
Ġan imal
Ġcon duc
Ġth alass
ab ility
Ġmet a
amm ag
Ġrad ial
Ġbil iary
Ġchol est
Ġchol este
Ġpoisoning s
Ġresist ance
Ġcir rh
Ġvascul itis
Ġtrig eminal
Ġcorp us
Ġt ox
Ġhyp op
Ġac tin
ot yp
Ġmy opia
Ġrec eptor
rop ath
Ġhypoplas tic
Ġsex ual
Ġdeform ity
Ġconvul sions
Ġinv ol
Ġsympt om
Ġsimple x
Ġcomplic ations
Ġmov ement
Ġess ential
r enia
Ġ ir
en z
Ġr ing
oc utaneous
Ġch ain
uc c
ym e
Ġgl ob
Ġo ver
Ġsup er
Ġchor ea
oblast oma
Ġvestib ular
Ġnons yn
Ġneurofib romatosis
Ġni emann
Ġsk ull
Ġsaliv ary
Ġolf actory
Ġp orphyr
Ġp unct
Ġt w
om egal
Ġh igh
Ġa ir
Ġin her
Ġr ick
ron eal
Ġpol ym
Ġam el
ax ial
Ġbl ack
Ġcol l
Ġhypert en
Ġpl ag
Ġnec rosis
itiv ities
utis m
Ġhyperc alc
Ġremod eling
Ġconc us
s en
s es
v is
in uria
on drom
ar b
Ġp ag
ic it
Ġt ur
Ġh tl
Ġa ur
Ġf emal
Ġin born
oc ephal
Ġdef icit
der m
Ġle ber
Ġar g
Ġtr e
Ġcom mun
oste ron
Ġabs ent
Ġob es
Ġsec re
Ġabscess es
Ġvestib ul
Ġparas itic
Ġgastro intestinal
Ġcm t
Ġwh ite
Ġbor ne
Ġhype rost
Ġcolob oma
Ġcall osum
Ġnonsyn drom
Ġfemal e
d och
in f
on es
Ġp lex
Ġm ammary
Ġv ul
Ġv ocal
um s
Ġep is
Ġep ithel
Ġth ym
Ġgl oss
Ġbl ue
Ġbrach ial
Ġlow er
Ġneural gia
Ġdf nb
Ġaprax ia
Ġhtl v
y ros
Ġp ach
os us
os itis
Ġh ol
us t
Ġg est
Ġg auc
Ġep ithelial
Ġlymph edema
Ġencephal omyelitis
Ġdia phrag
Ġdem yel
Ġcrani ofacial
Ġbe h
Ġglomerul oneph
oscle rosis
Ġpseudoh yp
Ġlipofusc inosis
Ġinher ited
b il
f e
p d
er enti
Ġd am
Ġc ys
Ġsyn dactyly
Ġdis c
Ġin d
Ġb ile
Ġl ys
Ġl ocal
ent h
Ġ1 6
ici ent
Ġincl usion
ost oses
Ġnon p
Ġtrans m
Ġgingiv al
Ġcomplement ation
Ġdissemin ated
Ġnonsyndrom ic
s h
t a
Ġd na
Ġc og
as m
is is
Ġsyndrom ic
id rotic
Ġg all
ra w
Ġcon junctiv
Ġac anth
ot al
ot emporal
ov irus
Ġco ag
tiv ity
Ġstr ess
Ġnoctur nal
c t
s k
er yth
es es
Ġm ur
le y
it er
oc ard
et ric
ut z
Ġv ii
od ic
Ġal d
Ġar rhythm
Ġx y
Ġtr ach
Ġepilep tic
Ġsub dural
Ġfib r
och lear
ea e
Ġul nar
Ġaph asias
Ġpap illary
Ġvis c
Ġneur itis
Ġred uctase
Ġherp es
Ġtachycard ia
Ġtelangiect asia
mal onic
Ġup per
loss al
d en
t oxic
ic e
Ġdis loc
Ġv an
Ġv entric
Ġ2 4
ver tebral
Ġam nes
rop oietic
Ġoste oarth
aryn x
Ġver tebral
Ġcomple te
Ġdevelop ment
Ġhisti ocytic
Ġhypot rich
Ġfistul as
aph yl
Ġneut rop
Ġgonad al
Ġthalass emia
Ġgauc her
a uro
m ia
t ed
t osis
Ġ ia
Ġ ros
on tia
es ophageal
op ias
Ġv i
Ġch ore
ym al
Ġw al
erm ann
Ġlymph oproliferative
ogen ous
Ġoc c
Ġmet ach
Ġol iv
Ġes ophag
Ġpe rox
enter ic
vers al
otrop ic
Ġcolor ectal
Ġcox a
Ġdemyel inating
Ġhypotrich osis
b ert
f eld
ro b
er ap
ar ia
Ġm en
Ġm eg
Ġt yros
Ġh ir
ys es
Ġl ab
ac e
Ġdef icient
Ġch ang
od ysplasia
Ġst ate
ub er
Ġpro x
Ġend othel
Ġtubercul oses
Ġalcoh olic
Ġfac ies
Ġhern ias
Ġcal cul
Ġank yl
Ġfront otemporal
Ġod ont
arathyroid ism
Ġcholeste rol
Ġcommun ic
d raw
f an
h in
o on
p tion
r ation
Ġs eb
Ġm ax
Ġm egal
Ġt otal
le b
Ġn ight
it ation
Ġf ung
Ġdis k
Ġl iss
et ase
am o
Ġan al
Ġle p
Ġw eb
ap ul
Ġpol yp
Ġsc ot
Ġpul p
Ġmening ioma
Ġacid emia
Ġhyd atid
Ġcardi ovascular
Ġepid ural
Ġdi ar
Ġwith draw
Ġcrani osyn
yph il
Ġaneurysm s
ins ulin
Ġreac tion
enb urg
Ġclass ic
Ġles ions
ammag lobulinemia
Ġcholest asis
Ġprox imal
Ġwithdraw al
a ur
o ul
v ular
Ġ us
Ġd ig
os amin
Ġh om
ac i
oc ular
th romb
am ine
Ġan emias
Ġle v
Ġpar an
Ġep iphyseal
Ġpr es
Ġpr ec
Ġad d
Ġspas ms
Ġdysfunction s
Ġadr en
emor al
Ġhemat oma
Ġobstruc tive
Ġcarb oxylase
Ġden tin
Ġosteop o
Ġadenocarcin oma
creas ed
Ġentero pathy
Ġcirrh osis
a z
i ol
i ous
l ine
l ux
Ġs ial
in ogen
as ive
is ter
rom al
it o
Ġf el
Ġr ib
oc ys
Ġhyp ox
od igital
Ġ2 3
Ġmy opathies
Ġw ol
Ġper iton
Ġlip oprotein
ocyt oma
Ġer up
Ġsch w
Ġnec k
row n
Ġgranul oma
Ġro bin
Ġmo uth
Ġtremor s
Ġsynth ase
Ġcalcific ation
Ġequ ine
Ġobes ity
e lect
er ic
en tion
es tive
Ġm er
Ġt et
Ġde c
id oses
Ġg o
Ġhyp o
si ble
Ġle ak
Ġsp g
Ġk er
Ġhem ophag
Ġad h
Ġx anth
Ġex c
Ġfr ied
av ior
Ġhyd rocephal
eta physeal
Ġglyc osyl
Ġmit ral
Ġneural gias
Ġspondyl oep
Ġig m
Ġemb ry
Ġerythro derma
Ġcam pt
onych ia
Ġreg ion
Ġleukoencephal opathy
Ġschizoph renia
Ġtib ial
Ġcil iary
Ġvul v
Ġperox is
Ġcraniosyn ostosis
Ġhemophag ocytic
Ġhydrocephal us
c ent
e x
i oses
p os
ti tides
Ġp as
Ġp ter
or ial
om en
Ġh ms
rom atic
tion al
Ġr ig
Ġr ub
id a
Ġan t
Ġ2 0
Ġ2 5
Ġhyper tr
Ġsp ong
Ġst romal
ip ar
rod actyly
Ġmening eal
Ġdegener ative
Ġresp on
Ġkerat osis
Ġulc ers
til ity
Ġhydrox ylase
Ġdu od
esth esia
Ġplas ma
Ġbow el
Ġsubc ortical
ophosph at
Ġdiaphrag matic
Ġglycosyl ation
b al
b ital
c s
r atent
Ġ tin
er y
Ġs ud
is tic
Ġm ut
Ġm andibular
Ġb er
Ġb if
Ġl en
el es
id al
ath et
ine tic
Ġk o
Ġcom mon
Ġcom pression
Ġam auro
Ġmul tic
Ġencephal itides
Ġchrom osomal
Ġmultiple x
Ġop en
Ġmening iomas
Ġur et
odyst rophies
Ġparal yses
Ġbull ous
Ġvit re
tur b
Ġma j
Ġmyc obacter
Ġmyot onic
Ġextr em
Ġele v
Ġamyot rophic
Ġacet yl
Ġmeta physeal
Ġhir sch
Ġdiar rh
Ġhms n
Ġrespon sive
ratent orial
d d
l u
u le
os iform
Ġt roph
Ġf ing
Ġdis turb
op ontocerebellar
Ġl ich
Ġg amm
Ġg rade
ing s
Ġw or
ver se
Ġlymph oblastic
Ġq t
Ġfr uct
Ġthromb oses
Ġgran ular
Ġintra hepatic
Ġmed ial
Ġvar ia
Ġhemangi oma
Ġemb olism
Ġve in
etra ting
Ġrupt ure
Ġu ve
Ġchole doch
ucc in
Ġcoag ulation
Ġvisc eral
Ġmetach romatic
Ġoliv opontocerebellar
Ġweb er
b erg
d s
f or
l and
in emias
ar g
Ġm at
Ġt erat
Ġt roch
Ġf us
Ġf emoral
Ġb ack
Ġl ine
ec tions
ig m
ard enburg
Ġst ro
Ġhem iple
Ġper iv
Ġcereb ell
ap p
Ġam b
se ous
Ġmic roc
Ġsh e
Ġeryth emat
Ġsup ra
Ġec z
pur ative
Ġdf na
Ġtor sion
Ġvertig o
Ġwa ardenburg
Ġagnos ia
Ġatri oventricular
Ġtes ticular
Ġendomet rial
Ġair way
Ġrick ets
erenti ated
Ġdam age
Ġwal ker
k es
l s
o zo
Ġs ti
in ous
es e
or ic
os al
os ch
Ġb rown
Ġl enti
Ġde ep
il ities
Ġhyp ophosphat
Ġch ar
od g
Ġinf ant
ep end
Ġw ound
Ġst aphyl
erm aph
Ġse g
Ġsens itive
Ġer ror
Ġmes enteric
Ġcir cul
Ġpup illary
Ġfron tal
Ġmethyl malonic
Ġasp erg
Ġcap illary
Ġneu rom
Ġprolap se
Ġsulf atase
Ġsick ness
Ġpag et
Ġepis odic
Ġrig id
ermaph rod
g ue
j er
l in
s um
Ġ el
ti le
Ġs yphil
en ous
Ġc ock
is e
Ġm ann
om ia
Ġh p
ia tic
Ġn ut
Ġdys enter
icienc ies
ir ub
ch ol
ros s
Ġx p
Ġcell s
Ġas ym
re ich
oh n
Ġang ina
Ġmyel ogenous
Ġur eth
yroid ism
Ġintra epithelial
Ġhypog lossal
Ġichthy osiform
Ġphosph or
Ġdepr ession
Ġhyperlip oproteinemia
Ġha em
rov ascular
Ġastrocyt oma
Ġmedull ary
Ġana plastic
Ġhyperost osis
Ġgloss opharyngeal
Ġbeh avior
odg kin
a ut
i omy
l es
Ġs em
ar achnoid
Ġm il
Ġn ormal
ul monary
op erative
Ġr p
Ġac c
Ġle ad
Ġneuro toxic
ros arcoma
Ġst ra
Ġtr i
Ġret r
Ġmic rog
Ġsub arachnoid
Ġfib ro
Ġcol d
one uro
uv ate
omal ac
av irus
Ġpl ac
Ġpneum onias
li oma
Ġstat es
Ġox idase
Ġolig od
Ġdelay ed
edi ate
Ġsymptom s
Ġtroch lear
Ġperiv entricular
ermaphrod itis
d le
i oid
s pr
t ative
Ġd ip
in es
in ations
Ġc and
ic us
os eph
Ġt ong
Ġh h
le bran
Ġf or
Ġl ax
iti n
am el
ell i
ot t
Ġat elect
Ġi ia
Ġst ri
Ġpar ap
ver sion
Ġth ird
ect odermal
ost atic
ach er
Ġdyst rophic
Ġj unction
Ġper for
Ġab use
Ġbrain st
anti tative
Ġmening oencephal
Ġpl a
Ġcle ar
Ġneph ritis
Ġref lux
Ġfac i
Ġdermat ofib
Ġhydrox y
Ġvag us
Ġvag inal
Ġsynth etase
Ġmelan oma
Ġwil lebran
Ġqu antitative
Ġatt ack
Ġorg an
Ġhyperg lyc
ropath ies
Ġinvol v
Ġplex us
Ġcog n
Ġendothel ial
Ġfried reich
Ġhirsch spr
Ġbrainst em
Ġwillebran d
Ġhirschspr ung
a yne
d m
i ari
m e
r as
t d
Ġs id
Ġp sor
Ġm erc
om ach
ph al
op ulmonary
ur ias
il le
Ġg re
ran ul
ot oxic
eb ic
Ġi ron
Ġw ern
ens itivities
if est
Ġcereb ro
end othel
Ġhe x
Ġam n
Ġap nea
path etic
Ġem phys
Ġcir c
Ġwe ight
Ġtoxic ity
omyc osis
omn ia
Ġfasc icul
Ġcontract ures
Ġman ifest
Ġhyperten sive
Ġneutrop enia
Ġmax illary
Ġlenti g
Ġcock ayne
e w
g a
i us
k al
m n
y cl
Ġp ect
at ures
Ġm as
os ens
rom andibular
Ġa ff
Ġf ati
Ġin vers
Ġr ich
ol er
gen ital
Ġch em
Ġch iari
Ġan h
Ġan tib
Ġpar esis
usc ular
oh yd
Ġfib rom
Ġatax ias
Ġtrans fusion
Ġsm ith
Ġmuc olip
Ġinflamm ation
war eness
lip p
Ġcont usion
oblast omas
Ġsw ine
Ġmyasth enia
Ġcrypt ogenic
Ġsarc omas
Ġasth ma
Ġsyncop e
Ġdysmorph ism
erap y
Ġliss encephaly
e ros
k et
m in
o endothel
r um
r ate
Ġp p
Ġp em
Ġm ild
os c
Ġt as
Ġh odgkin
ph ig
Ġsyn ostosis
us ive
il i
Ġac ro
Ġhyper insulin
Ġw ill
anc ies
ab d
oh yph
Ġfib romatosis
Ġsens itivity
Ġangi opathy
orph ic
Ġocul ocutaneous
Ġpe roneal
Ġhisti ocytosis
Ġneur itides
Ġgluc ose
Ġmyot onia
Ġspl it
Ġlob e
alang eal
Ġconcus sive
Ġtur ner
osteron ism
Ġtransm is
eryth ropoietic
Ġfung al
Ġlich en
Ġmerc ur
Ġpem phig
k s
m ur
Ġs il
Ġs yr
en ias
in oses
on ec
Ġc md
is phosph
Ġh ur
Ġa utism
Ġb isphosph
ac tivity
Ġdys p
Ġcon d
Ġst omach
Ġpar ag
Ġal b
erm an
erm ia
oph ys
Ġlymph aden
ov enous
Ġph ase
ill ar
Ġint oler
Ġrh abd
Ġcataract s
Ġthyroid itis
Ġhypers ensitivities
Ġsep tic
Ġhypot ension
ok al
Ġcont usions
itt ent
Ġarteri ovenous
Ġmid dle
Ġsequ ence
Ġporphyr ia
Ġarg in
Ġglomeruloneph ritis
Ġmur mur
Ġus her
osamin idase
Ġfel ine
Ġsud den
Ġamauro sis
Ġline ar
Ġstaphyl ococcal
e z
e an
h ib
k inetic
m etric
Ġd ens
Ġd re
Ġs ign
Ġc ross
Ġp tosis
Ġt end
Ġh ab
Ġn k
ed ing
Ġf atal
Ġf ood
Ġf rag
op s
Ġb o
Ġr est
oc eles
Ġe k
ra p
Ġch l
Ġhyper bil
Ġat rophic
arc omas
ip ital
ub ert
Ġhem ian
encephal ies
ion e
Ġcol on
Ġcol onic
Ġfe atures
Ġor th
Ġmac ul
Ġpneum on
Ġfo ur
Ġdeform ities
Ġreac tive
Ġinv asive
Ġlac tic
Ġspl enic
Ġlang er
Ġorof acial
Ġpach y
Ġfruct ose
Ġcand id
Ġpla qu
Ġhyperbil irub
a emia
a und
b b
c o
d l
n iti
v irus
ti t
Ġs ac
on ate
Ġc oma
Ġp ure
at on
Ġh am
ia tive
us ter
Ġdis soc
oc las
Ġtyp es
un t
ias t
Ġle iomy
Ġneuro c
Ġk yph
Ġhem oglob
Ġre versal
Ġdyst onias
if uss
Ġpost operative
Ġnon c
ting ton
Ġsens ation
Ġoste ogenesis
Ġpl antar
Ġem ery
Ġretin osch
Ġcont act
Ġsympt omatic
Ġtic k
Ġorg anic
Ġbre ak
ochrom e
omegal y
Ġfibr ill
Ġmaj or
Ġtong ue
Ġdermatofib rosarcoma
Ġcogn itive
Ġantib ody
Ġtransmis sible
Ġdre ifuss
niti ne
t mann
Ġ et
Ġ onych
ro t
ar esis
ic ke
Ġm osa
Ġt etra
om e
Ġa f
Ġsyn ov
op ros
Ġl ing
oc ochlear
Ġne w
ut ter
um p
un n
Ġneuro de
Ġ3 2
Ġar s
Ġper ic
iz ation
Ġam ino
Ġop itz
Ġtrans ection
Ġins ensitivity
Ġor bital
Ġangi o
Ġmed ias
rad icul
Ġhypog lyc
Ġocul o
Ġpap ul
Ġstat us
Ġsym pathetic
Ġig a
Ġpoly radicul
Ġhypoth yroidism
Ġdepr essive
Ġos si
blas tic
Ġphen omen
Ġcyt ochrome
Ġprot uber
Ġdiverticul um
Ġinterm ediate
Ġavul sion
Ġhalluc inations
Ġpen etrating
Ġtox oplasm
Ġvestibul ocochlear
Ġhol opros
Ġgest ational
Ġlocal ized
Ġseb ace
oul der
Ġcampt odactyly
Ġtroph oblastic
Ġerythemat osus
Ġinvolv ement
Ġwern icke
Ġmosa ic
c c
i at
m ond
o athet
r eas
s m
al gia
er am
Ġd iast
Ġs j
Ġs ol
Ġs cl
or g
os ing
Ġt ard
em b
Ġb art
ac tin
Ġdys erythropoietic
ell ular
Ġac tiv
Ġle w
Ġhyper th
oplas ia
anc es
Ġx ero
Ġj ak
Ġsh ock
Ġcyst aden
Ġsch ist
Ġins t
rogen ic
Ġver bal
ocereb ral
Ġcl os
Ġpigment ed
Ġpigment ary
Ġglyc oprotein
Ġent rap
Ġisch emias
Ġinfarc tions
lyc an
Ġinsuff iciencies
Ġaprax ias
Ġmin imal
Ġuro genital
Ġmembran e
Ġinterm ittent
Ġrheum atic
Ġavul sions
Ġheterot opia
Ġcre utz
Ġamel ogenesis
Ġsecre ting
Ġlys osomal
Ġarrhythm ogenic
Ġchore oathet
feld t
Ġduod enal
Ġmycobacter ium
ermaphroditis m
Ġentrap ment
Ġcreutz feldt
a h
a ine
a wareness
m er
r ia
Ġs er
in os
Ġc ephal
ar ic
Ġp ros
ic tion
om on
Ġh en
Ġh ar
ia p
Ġn as
Ġn arc
it es
Ġr i
Ġg ers
ol i
ol iosis
am ps
Ġi x
Ġi ib
ob ulbar
Ġth y
ens tr
Ġj aund
Ġcereb rovascular
Ġab er
Ġab or
Ġpol ys
ab ilities
Ġpost axial
Ġsh ig
Ġsh oulder
erg ic
Ġtrans port
Ġtrans ections
Ġag gressive
Ġhypert rophy
Ġun awareness
Ġmac rocephaly
ri tion
ug h
Ġref r
Ġref sum
Ġthyroid itides
Ġent e
Ġdermat osis
Ġconvul sion
Ġdyskin esias
Ġpath ological
ald osteronism
Ġgangl ia
Ġconduc tion
sk i
Ġhypertr ich
Ġneurotoxic ity
Ġham art
Ġsebace ous
d h
y a
ro le
Ġc ycl
Ġp et
Ġm od
os keletal
Ġt er
om ening
it r
Ġin si
Ġb and
Ġb und
ac tile
id uria
Ġac yl
roph il
Ġmy ok
ard i
Ġhyper uric
Ġsp ot
Ġneuro ectodermal
ad r
Ġpar athyroid
Ġk le
Ġlymph atic
og y
Ġsub st
Ġoste ochond
erg ing
Ġfe et
Ġscle ro
Ġun ipar
Ġect rodactyly
Ġver teb
Ġcar nitine
Ġcomp lication
Ġpsych omotor
Ġdementi as
Ġhemat omas
Ġpanc reas
Ġprost ate
Ġgalact ose
Ġpolyneuro pathies
Ġhemangi omas
ik il
Ġdu ane
Ġadenocarcin omas
Ġsyncop es
Ġagnos ias
ars al
Ġhalluc ination
Ġhun tington
pid us
Ġill ness
ocephal y
Ġdisloc ation
Ġocc ipital
Ġureth ral
Ġmicrog nath
icus pid
Ġgers tmann
Ġinsi pidus
Ġmyok ym
Ġunipar ental
a j
b om
e u
g u
Ġs omat
Ġp ine
at ment
Ġm ps
os arcomas
Ġh id
ph en
Ġn ose
Ġf uc
Ġf all
oc l
ig in
Ġac rom
tin uria
ad ing
Ġar r
ill er
Ġsc iatic
oh isti
ith iasis
Ġpost p
Ġmic rod
Ġarter itis
Ġmening ococcal
enti l
Ġepid emic
Ġpigment ation
li omas
Ġinter vertebral
Ġepiderm olytic
Ġmes othel
uter ine
Ġste roid
Ġreac tions
Ġuter us
Ġasp ir
Ġbar r
omyc oses
Ġic tal
Ġav ian
otyp e
Ġhypercalc emia
Ġtre atment
Ġventric le
Ġvaria ble
Ġasperg ill
Ġretr action
Ġmucolip idosis
Ġek bom
Ġneurode gener
Ġjak ob
Ġhypertrich osis
e ar
f l
f ul
h yp
o at
s c
Ġs n
en atal
on tine
Ġc el
is c
Ġt emporal
it eal
Ġf ore
Ġf att
op enia
Ġb las
el f
ac eae
Ġne oplasia
am idal
Ġhyp okal
Ġac rocephal
ch er
Ġre ading
ost otic
oid s
Ġj oseph
Ġtr icuspid
ric an
oh um
rop s
Ġcol i
Ġpseud ot
Ġend ocard
yr ia
Ġpain ful
oprotein emias
opl iteal
Ġhair y
ocytop enia
Ġy o
bl adder
Ġglycogen osis
Ġuro l
Ġvertig os
ush ing
Ġastrocyt omas
blast oma
Ġmovement s
Ġgall bladder
Ġspondyloep iphyseal
Ġextrem ity
Ġfati gue
Ġparag ang
Ġfibrill ation
Ġxero derma
Ġchoreoathet osis
Ġarr est
Ġfatt y
a gen
a ud
d a
n old
s p
t y
y x
Ġ om
Ġs enile
en n
in c
Ġp opliteal
or ad
or nea
Ġt ension
Ġt emp
Ġt actile
om etaphyseal
Ġn emal
ul sive
Ġin app
Ġb ir
Ġb ulbar
Ġr ect
oc ortical
Ġde creased
ec ific
Ġne oplastic
Ġch r
Ġch ondrom
Ġinf er
Ġinf ancy
ot o
te x
Ġle igh
ad el
Ġar nold
Ġlymph oid
Ġas c
ov ag
Ġpal l
Ġdia mond
Ġmening itides
Ġcl uster
Ġres or
Ġinter nal
Ġintra v
Ġgranul omatosis
Ġprol ong
Ġfail ures
Ġdel ta
Ġglauc omas
Ġnev i
Ġpy ogenic
Ġneut rophil
Ġherp etic
Ġlam ellar
Ġsl ow
Ġactin ic
Ġpunct ata
Ġtw in
Ġadh es
Ġdiarrh ea
Ġcholedoch al
Ġshe ath
Ġneurom uscular
Ġparap aresis
Ġaff ective
oclas tic
Ġbund le
ohum eral
Ġnemal ine
e j
f ol
g nes
h a
k n
al p
al an
Ġs urg
in n
Ġc ur
Ġc itr
Ġm us
Ġm ole
Ġt rop
Ġb ab
ac et
Ġg or
Ġg ef
Ġe v
Ġhyp oma
Ġan ox
Ġcon g
Ġhyper l
Ġhyper plasias
Ġsp e
Ġsp erm
Ġw ater
ach ment
Ġph aryngeal
Ġam in
Ġsc a
oh yp
rop ri
Ġsub cl
Ġoste onec
Ġaden omatous
eg er
Ġag ammaglobulinemia
Ġhyd rops
Ġpo ro
Ġver r
Ġpigment osum
lex ia
Ġretin opathy
Ġpsych oses
Ġcerv ix
Ġven er
lyc er
Ġbronch ial
Ġbronch iol
erc ise
Ġphen yl
Ġgra vis
Ġles ion
Ġmembran ous
Ġmrx s
Ġpyr uvate
Ġperiodon tal
ench ymal
Ġchoroid al
val vular
Ġplag i
Ġtrach e
Ġosteopo rosis
Ġvitre ore
Ġstro ke
Ġintoler ance
Ġargin inos
Ġdens ity
Ġhyperbilirub inemia
Ġaf rican
Ġhypoglyc emia
Ġphenomen on
Ġholopros encephaly
Ġscl er
Ġjaund ice
Ġblas t
Ġinapp ropri
ej un
Ġhypoma gnes
Ġinappropri ate
o u
t ra
u age
z b
Ġ arc
Ġd o
Ġs itus
en h
ar a
ar ning
Ġp s
at um
at oid
Ġm u
Ġt ak
Ġn an
Ġf uch
Ġl yme
ac tive
oc on
Ġg erm
am s
ell iform
uc tal
Ġac th
ep tic
ag es
Ġle arning
tin opathy
Ġhyper keratosis
Ġhyper chol
Ġhyper activity
Ġw ell
ad a
Ġst oma
ess el
ip oproteinemia
Ġk n
ism us
Ġj ohn
Ġab duc
roc ytic
ow n
Ġcol itis
ior e
Ġthromb ophilia
rogen esis
Ġintra uterine
Ġepiderm al
Ġhypers omn
Ġmar row
Ġobstruc tions
Ġen amel
Ġchor iore
Ġpel iz
Ġcarb ohyd
Ġos seous
Ġble eding
Ġparas it
Ġlang uage
Ġosteop et
Ġlam bert
Ġoccl usive
Ġrupt ures
Ġcontract ure
Ġple ural
Ġorof aci
Ġath eros
Ġamnes tic
Ġparan oid
Ġschw ann
igm oid
Ġoligod end
Ġling ual
Ġsubst ance
Ġspe ech
Ġverr uc
Ġargininos uccin
Ġcarbohyd rate
Ġorofaci odigital
Ġatheros cle
e ti
e il
n itus
p yr
v es
v ens
y er
Ġd and
in opathy
Ġc ost
Ġp an
an i
Ġm cop
or ax
Ġt ay
Ġn oon
Ġb ro
Ġb roc
Ġl act
el or
Ġde ple
Ġde jer
ol l
Ġne ovascular
Ġv ol
Ġv essel
Ġcon n
Ġmy ositis
ereb ral
Ġar m
Ġgl ioma
og ranul
re tion
ov iridae
ion ic
kin ase
Ġoc cul
Ġsh ell
Ġoste olysis
Ġimmun oblastic
ocal c
Ġmed ian
ae us
Ġpsych osis
romat oses
Ġtubercul ous
Ġval g
Ġhypot onia
Ġfac e
Ġgalact osidase
Ġste vens
Ġvar ic
gl ut
rocyt osis
Ġinc on
Ġeosinophil ia
Ġthrombocytop enic
ĠÃ ©
enb erg
Ġcam p
yg ium
Ġach ond
Ġatt ention
Ġplas m
Ġoccl usion
Ġthumb s
Ġeff ect
fic ial
odys plastic
Ġcalcul i
Ġperiton eal
Ġerup tion
Ġmer zb
Ġpas sive
Ġpter ygium
Ġtin nitus
lu enz
Ġseg mental
Ġjunction al
Ġinvers us
Ġorth ostatic
Ġfour th
Ġretinosch isis
Ġcel iac
Ġyo ung
Ġgor lin
Ġvener eal
Ġhyperchol este
Ġjohn son
Ġpeliz aeus
Ġosteopet rosis
Ġnoon an
Ġdeple tion
Ġdejer ine
Ġmerzb acher
a um
g et
i uria
v a
Ġ on
Ġ eth
Ġs a
Ġs ing
Ġs ag
Ġs ymph
Ġc tr
Ġc bl
Ġm ass
Ġh ys
Ġh el
Ġn uclear
Ġf ir
Ġf re
el ia
Ġr en
tic k
Ġg yn
Ġ1 9
Ġdys arth
od ontia
im osis
Ġan us
Ġcon str
ing ement
uc le
Ġsp ect
Ġat opic
Ġneuro ax
Ġi le
ib osyl
Ġlymph angi
Ġlymph ocyte
og lobulin
Ġpro p
Ġtr ue
Ġhe at
ab sor
Ġsc id
Ġcor tex
Ġencephal omyel
Ġlip id
Ġsub m
ak ia
Ġend emic
Ġcat at
Ġur ine
av iridae
Ġpl us
Ġeryth ema
rad en
Ġsup purative
Ġdiff erentiated
Ġey el
emat ous
Ġro ot
Ġimp ingement
Ġov ine
Ġvis ion
omel ia
Ġred uc
Ġconvul sive
osyl c
Ġinc omp
Ġve get
Ġblock s
Ġprolap ses
Ġdiverticul a
Ġperiodon titis
Ġbi ogenesis
Ġblack fan
Ġepithel ioid
Ġadren ocortical
Ġperoxis ome
Ġspong iform
Ġelev ated
Ġerror s
Ġphosphor ibosyl
oneuro pathy
Ġdip l
Ġamn esia
Ġtas te
Ġmercur y
Ġbisphosph onate
Ġpachy onychia
Ġter ror
Ġcitr ull
Ġhypomagnes emia
Ġoligodend rog
Ġdand y
elor ism
Ġhypercholeste role
Ġneuroax onal
Ġveget ative
l o
o in
p y
p al
s tein
Ġ of
Ġd h
an k
at osis
or ch
Ġt yph
om ple
Ġh o
Ġh amm
Ġh orn
ph alangeal
yn dactyly
Ġn ig
Ġn md
Ġf em
Ġf il
Ġf usion
Ġdis omy
op e
Ġb al
oc ial
ol itis
et t
Ġe ating
Ġhyp osp
Ġhyp ocalc
Ġle vel
Ġsp le
ros y
Ġw all
ob struc
Ġep end
ub ular
Ġar achnoid
Ġhem och
Ġpro drom
Ġleuk ocyte
Ġam o
Ġex ercise
af f
Ġmic ro
Ġthromb otic
Ġtrans form
Ġap ical
Ġcr y
Ġcr amp
Ġcar til
igment ation
Ġangi oma
Ġangi itis
Ġgranul omas
Ġmuc osal
Ġsup ratentorial
rog rade
Ġent er
Ġloss es
Ġsep sis
lec tive
Ġdermat oses
Ġpregn ancies
Ġgluc osidase
Ġbronch opulmonary
Ġvascul itides
Ġreg urg
Ġank le
Ġtachycard ias
Ġele ph
Ġed s
Ġout let
Ġfunction al
Ġapp end
Ġhs an
Ġblepha roph
Ġir is
Ġthym ic
Ġvii i
Ġosteoarth ritis
Ġchang e
Ġlep rosy
Ġadd iction
Ġuret eral
Ġgamm a
Ġsyphil is
omalac ia
Ġcandid iasis
Ġars enic
Ġossi fic
Ġactiv ator
Ġinst ability
Ġacrocephal osyn
Ġoccul t
Ġctr ct
Ġspect rum
Ġincomp et
Ġepend ym
d p
n i
u es
Ġs an
Ġs and
Ġs omatic
Ġp ra
Ġp ann
os idosis
Ġa h
it s
Ġr ectal
oc ortic
ol ase
th es
th esis
Ġe bs
Ġe aton
Ġdys aut
od yn
Ġan os
Ġac in
Ġac ne
te roid
Ġmy opathic
Ġneuro path
Ġst em
Ġst ones
Ġal tern
Ġk inase
Ġk lipp
Ġth erapy
Ġx l
Ġlymph ohisti
if acial
iz omelic
Ġpol ar
oth i
Ġprim itive
omat oid
Ġgen e
Ġgen it
Ġmyel in
Ġmyel opathy
av ed
Ġor igin
Ġpo or
Ġmac rog
Ġneph rotic
acter istic
Ġcardiomy opathies
Ġcomp ulsive
Ġpsych ogenic
Ġneurol ogical
Ġcerv ic
Ġdepend ence
Ġox id
Ġmor qu
Ġpath ologic
Ġwil ms
Ġphen otype
Ġqu adr
Ġlob ar
Ġclass ical
Ġpupil s
Ġdes m
Ġib d
Ġcoll agen
Ġremodeling s
Ġchang es
Ġchar acteristic
Ġrigid ity
Ġlax a
Ġhex osaminidase
Ġemphys ema
Ġpect us
Ġtend on
Ġnew born
unn el
Ġsol itary
Ġshig ella
Ġmyokym ia
Ġtrop ical
Ġosteonec rosis
Ġporo keratosis
Ġfuch s
Ġeleph anti
Ġblepharoph imosis
Ġklipp el
f ish
h r
h ans
i otic
u ous
w a
Ġ ud
Ġ unc
in th
es sions
Ġp ot
ic a
at s
Ġm d
Ġm ach
or a
Ġt ons
Ġh l
Ġh ash
Ġn s
ed emas
Ġf ran
Ġb order
Ġl g
Ġl y
id emia
ec al
ec retion
Ġg old
Ġe b
Ġdys plastic
ig o
ran d
ch ond
tin ence
Ġhyper m
Ġw ald
ad o
ad ias
Ġep imer
Ġk all
Ġ3 1
Ġhem ic
Ġhem ophilia
Ġper c
Ġper iap
encephal ic
ap s
Ġpol i
Ġsc oliosis
Ġex fol
Ġlip idosis
Ġsyst olic
Ġtrans verse
Ġpseud op
Ġhep atitides
ak ary
Ġag raph
Ġur id
Ġto ur
Ġins omnia
Ġtub e
Ġscle roses
Ġdi hyd
roti a
Ġarth ritides
amin ase
Ġgang ren
Ġbrach y
ole p
Ġpsych otic
Ġves ic
icul o
Ġov ary
Ġrespir ation
gl uc
Ġma ple
Ġach al
Ġket oac
Ġneuron opathy
Ġrheum atoid
Ġdysph asia
acc id
Ġglob oid
Ġsuper ficial
Ġsecre tion
Ġpseudohyp o
enth al
Ġdig estive
Ġhypox ia
Ġfing er
Ġhypophosphat emic
Ġsyr up
Ġdysp rax
ophys eal
ione uro
Ġshell fish
osylc eram
Ġprodrom al
Ġpann icul
Ġneuropath ic
Ġepimer ase
Ġperiap ical
f d
f s
g el
i tions
k y
o ro
p p
Ġ ti
Ġd im
Ġs til
Ġs igmoid
Ġc s
as ting
Ġp il
Ġm andib
Ġm eck
Ġm iller
le olar
Ġn ic
us ual
Ġf et
Ġf if
Ġf inn
op a
Ġb ac
oc yst
oc ranial
Ġg ro
im oto
ir ium
Ġle yd
Ġw r
ron g
Ġar v
Ġhem is
ymph ocytic
og l
ost omy
Ġse a
Ġpol yd
oth orax
of ol
Ġsub epend
Ġmyel itis
Ġhypert elorism
Ġur tic
pr t
Ġun usual
Ġect opia
Ġcar in
Ġca us
ophil us
Ġrh izomelic
Ġfl accid
rad i
Ġinflamm ations
Ġresp ons
ophthalm os
imal leolar
Ġprol actin
Ġdel irium
Ġhemat ologic
Ġfac io
Ġmig ration
Ġgalact os
Ġimpair ed
Ġlac er
olys es
ĠÃ ¶
ord ial
Ġcan al
Ġschizoph ren
our inary
Ġreticul oendothel
inf lamm
Ġodont ogenic
Ġhom ocys
Ġprec oc
Ġbif id
Ġdisturb ance
Ġmann osidase
itin g
Ġdystrophic a
Ġsid ero
osens itive
Ġfibrom yal
Ġrhabd omy
ops ia
Ġpneumon itis
Ġlanger hans
Ġhemoglob in
Ġsj og
lycan opathy
Ġsclero derma
Ġpseudot umor
Ġprolong ed
Ġanox ia
Ġabduc ens
Ġhys ter
absor ption
Ġgenit ourinary
Ġmorqu io
Ġmeck el
Ġfinn ish
f m
k ers
l ess
l arg
o kinase
r ach
s s
al cul
Ġs of
Ġs ay
Ġs tick
on ent
Ġc ro
Ġc af
an ese
os ter
os ine
os itides
Ġt s
Ġh u
us ch
Ġf ul
Ġf lex
Ġdis pl
Ġb ones
Ġl arynx
Ġr a
oc ellular
Ġde g
Ġde vic
id ism
ec ker
Ġg yr
ol us
ol aryng
ol ence
enc es
ut ch
Ġe j
Ġdef ective
ell ow
Ġan tic
ran uclear
Ġmy ofib
osom iasis
Ġsp orad
Ġpar eses
Ġk ap
ub le
Ġad oles
Ġx q
Ġper in
Ġse lective
Ġmal aria
Ġph il
Ġim m
Ġam ebic
Ġex ostoses
Ġcor nea
roc ystic
Ġprim ordial
Ġmet at
art z
Ġbr un
Ġid dm
Ġpseud obulbar
Ġderm al
Ġun d
Ġpo ikil
Ġmac ro
Ġneph rogenic
Ġangi omatosis
Ġem erging
iac eae
isti an
ind ing
Ġcomp onent
Ġmes omelic
Ġves icular
Ġmar fan
Ġfo ve
Ġsym metric
Ġhisti ocytoses
Ġvit elliform
Ġulc erative
Ġmig r
Ġen larg
Ġallerg y
Ġpoly end
ish man
Ġy ellow
Ġstr ept
Ġasp art
Ġinc omple
ier re
Ġpseudoh ermaphroditism
Ġsph ing
Ġwa ke
Ġasth matic
Ġneuron opathic
Ġhyperg onad
Ġhyal ohyph
aus en
Ġblepha rosp
Ġthym us
Ġlab or
Ġcalcul us
leb itis
apul ohumeral
Ġgo iter
Ġcircul ation
Ġtri phalangeal
Ġplac ental
Ġfaci osc
Ġanh idrotic
Ġbart ter
Ġrefr actory
Ġhyperuric emia
Ġchr istian
Ġsurg ical
Ġgyn ec
Ġhyposp adias
Ġincompet ence
Ġlg md
Ġsidero blastic
Ġsjog ren
Ġdispl ac
Ġsporad ic
Ġincomple te
b ismus
i et
m m
n eas
n ith
o ol
o esophageal
u z
v i
x ia
ro ton
Ġd uctal
Ġs i
Ġs ur
Ġc av
an al
at tic
Ġt unnel
ia m
Ġn or
it ar
ed ull
Ġb ell
Ġl ight
Ġl attic
Ġde t
Ġg as
Ġg ust
ut rition
od e
Ġan te
Ġac rof
Ġmy h
Ġle ishman
Ġsp i
Ġneuro ses
Ġpr ed
Ġk ra
Ġk ne
Ġk ors
Ġhem ifacial
oid al
Ġdyst rog
Ġcor tic
orrh ag
Ġsub valvular
art um
Ġq ter
ocyt omas
Ġco al
Ġthromb oph
ak off
oderm ia
Ġcle id
rad ural
etal ipoproteinemia
Ġlimb s
cr ine
Ġmar ch
Ġlung s
Ġdep os
osp asm
Ġallerg ies
Ġec crine
Ġchor eas
Ġpel ger
Ġext radural
Ġatr esias
Ġpseudo obstruc
Ġpersonal ities
Ġinc is
Ġpre axial
Ġpat ella
Ġhypogonad otropic
esth esias
Ġbre ath
Ġcan ine
Ġhyperp arathyroidism
Ġglut aric
Ġbur k
Ġpor c
Ġaur icular
Ġconjunctiv itis
Ġald olase
Ġperoxis omal
pos ition
Ġmicroc ornea
Ġsti ff
Ġdysenter y
Ġstra bismus
Ġmanifest ations
Ġhur ler
Ġhen och
Ġfuc osidase
Ġpostp artum
Ġbir th
Ġcong estive
Ġdo uble
Ġmach ado
Ġborder line
Ġachal asia
Ġsof t
Ġblepharosp asm
Ġfaciosc apulohumeral
edull ary
Ġlattic e
Ġkors akoff
b d
d o
d ing
e letion
g d
g s
h i
i eld
Ġ irid
ro gressive
Ġs r
en a
ar is
es ter
Ġp k
Ġp yl
Ġp ust
Ġm is
Ġm ood
os tr
Ġh mn
ph ia
Ġn ag
ul itis
it ant
Ġdis ability
Ġin gu
Ġb usch
Ġl a
ac u
ur ity
id ual
Ġe lect
Ġhyp ov
Ġhyp omyel
si as
ell ing
Ġan irid
Ġan esthesia
Ġ2 7
Ġinf est
Ġinf ratentorial
uc k
Ġac yltransferase
roph ia
Ġw art
Ġw asting
Ġst age
Ġst one
cl es
ip olar
Ġal s
Ġar ticular
Ġad ip
ati sm
ocy th
ory lase
Ġse rous
Ġmal absorption
Ġ4 2
Ġret rop
Ġsc apul
Ġsc alp
Ġmic rotia
Ġlip oid
Ġlip omatosis
Ġis let
otor hin
Ġimmun oglobulin
av ian
Ġtub ul
Ġres idual
iff er
Ġintrac erebral
pt omatic
Ġarth ropathy
Ġhypers ecretion
Ġval vular
Ġven o
ok es
Ġen zo
ins ic
Ġig e
Ġfetal is
Ġcalc inosis
Ġdepr ess
Ġsw e
uch i
Ġglomer ular
Ġgastro enter
Ġpurpur as
Ġgra ft
Ġmin or
Ġprot ozo
Ġnail s
omp action
Ġpor encephaly
Ġrhin orrhea
Ġconduc tive
Ġhypop arathyroidism
Ġind epend
Ġnonp rogressive
Ġepileptic us
Ġros enthal
Ġembry onal
Ġecz ema
Ġatelect asis
Ġatelect ases
Ġperfor ation
ubert y
Ġnonc ompaction
Ġhyperth ermia
Ġpros thesis
Ġendocard itis
adel phia
Ġresor ption
Ġgef s
Ġsubcl avian
Ġhemoch romatosis
Ġregurg itation
Ġossific ation
Ġkall mann
Ġpseudohypo aldosteronism
Ġfif th
Ġleyd ig
Ġadoles cent
Ġphil adelphia
Ġpoikil oderma
Ġingu inal
Ġanirid ia
Ġenzo otic
Ġindepend ent
c k
h al
h ol
i atal
l oid
m r
n ik
o romandibular
Ġ ell
Ġs ach
Ġs ix
in elli
Ġc p
as tic
ar in
ar se
Ġp ud
Ġp ontocerebellar
Ġt a
Ġt ap
om orphic
Ġh dl
le in
Ġa w
Ġa z
ul a
it tal
em oglob
Ġf er
op ap
Ġin creased
Ġb od
Ġb ird
Ġb ite
Ġb ulb
Ġl ens
Ġl ute
Ġg il
et z
Ġv o
Ġv og
Ġv acu
ig u
Ġan der
Ġ2 6
Ġ2 8
ep s
ard inelli
Ġhyper phosph
Ġi h
Ġw est
Ġst able
Ġep i
Ġth erm
omas tia
Ġj ejun
Ġleuk odystrophies
Ġse ip
iz ing
Ġpol yn
Ġph aryng
ogen ital
Ġmusc ul
Ġmic ros
Ġfib rosing
Ġsh ar
Ġsh ap
Ġaden omatosis
Ġmyel oproliferative
Ġmyel omon
ull ous
Ġassoc iation
Ġo romandibular
av an
Ġmon ocl
Ġpos ition
Ġpneum ococcal
Ġnod e
Ġneur ile
Ġmethyl c
umb il
Ġmyc oplasm
Ġpath way
iple gia
Ġwil son
Ġpat tern
Ġsph e
Ġlang e
Ġimpairment s
Ġtib ia
Ġeff usion
Ġgangl ion
Ġmyx oid
enz yme
Ġsuper ior
Ġaur a
Ġdeficit s
Ġconjunctiv itides
Ġtrach eal
Ġdisloc ations
Ġmeg akary
Ġcommunic ation
Ġcommunic able
Ġscot oma
Ġscot omas
Ġhydatid iform
thromb in
Ġschw artz
Ġtet ras
Ġker atitis
Ġvulv ar
Ġber ardinelli
Ġmultic entric
Ġmultic ystic
Ġamb ly
Ġmeningoencephal itis
Ġattack s
Ġfascicul ation
Ġlentig inosis
ket on
hib ition
Ġplaqu es
Ġmedias tinal
Ġser um
Ġpine al
phen yl
Ġtemp oromandibular
Ġsperm at
Ġphenyl keton
Ġachond rogenesis
Ġeffect s
Ġsing le
orch idism
ope roneal
Ġmicro angi
Ġdysaut on
Ġly ase
Ġpoli omyelitis
Ġsubepend ymal
Ġhomocys tinuria
Ġprecoc ious
Ġdet achment
Ġcleid ocranial
Ġbusch ke
Ġdepress ed
Ġsix th
Ġhyperphosph at
Ġmyelomon ocytic
Ġmonocl onal
a ert
e qu
n p
p ut
r imal
s er
s yn
s essive
t rom
u y
u is
Ġ ili
er e
er fusion
Ġd ari
Ġd uch
Ġs ter
Ġs ert
Ġs ite
en ne
Ġc oc
Ġp rom
Ġp ontine
at ric
Ġm yp
Ġm utism
Ġm enstr
Ġf h
Ġf ilar
Ġb ied
Ġb ern
Ġl ister
oc cl
ol a
Ġne ed
ent s
Ġv in
Ġhyp oh
Ġhyp odontia
Ġdys c
Ġch est
Ġcon fusion
ran t
ous e
ud ative
Ġhyper al
Ġhyper am
Ġhyper phenyl
Ġsp ine
Ġsp ecific
Ġneuro epithelial
Ġw ied
Ġw ord
Ġar ticul
Ġgl om
Ġpro f
Ġpro duc
up ational
ens trom
Ġper ior
Ġtr iple
re g
Ġret rograde
Ġsc ar
Ġex udative
Ġnon ket
Ġbr ux
Ġoste odysplastic
Ġco enzyme
Ġtrans ferase
Ġsch on
rod yst
Ġo roph
Ġpl an
Ġcardi o
Ġneph ron
Ġdi genic
Ġob sessive
Ġhypog ammaglobulinemia
ore tinal
Ġhemat ological
ok erat
ocr inopathy
Ġhand s
Ġspondyl ometaphyseal
Ġec hin
Ġste at
Ġpalmoplantar is
Ġpancre atitis
Ġot orrhea
olip id
otrop in
Ġbranch ial
Ġbranch io
Ġdeath s
Ġamyot rophy
Ġglut en
Ġtes tis
Ġendomet ri
Ġpolym ic
Ġpolym orphic
Ġhypercalc iuria
Ġocc upational
Ġesophag us
Ġwol ff
Ġbif ida
Ġfing ers
Ġdisturb ances
Ġfus ari
Ġacc id
Ġstra uss
Ġplac ent
Ġhyperglyc inemia
Ġsign s
Ġsac ral
Ġdissoc iative
Ġclos ed
Ġmicrognath ia
Ġfore ign
Ġadhes ion
Ġmus cles
Ġincon tinence
Ġconstr ic
Ġencephalomyel itides
Ġoligodendrog lioma
Ġsple en
Ġanos mia
Ġwald enstrom
Ġmandib ul
Ġrespons e
Ġfibromyal gia
Ġful m
Ġhypergonad otropic
Ġdisplac ement
Ġdystrog lycanopathy
orrhag ic
Ġpseudoobstruc tion
Ġporc ine
Ġpyl oric
Ġsach s
Ġduch enne
Ġsert oli
Ġbied l
Ġhyperphenyl alan
Ġwied emann
Ġnonket otic
e k
r ight
y an
ro sies
ti er
er i
Ġd er
Ġs eas
in z
on ogenesis
Ġc as
Ġc op
Ġc ast
ar ter
Ġp erman
Ġp uberty
an der
Ġm s
Ġm ater
Ġm dd
Ġt al
Ġt en
Ġt erm
Ġh or
rom el
le uk
Ġn f
Ġn ad
ul osis
it ch
Ġf rom
Ġdis cr
Ġb og
ys teroid
Ġl af
Ġl aryng
ac iduria
oc ardial
Ġg ig
Ġv w
ation ary
od ent
im etaphyseal
Ġcon radi
Ġinf luenz
Ġle m
Ġhyper kal
Ġsp r
Ġat onic
ros ide
Ġw arb
Ġst ationary
ip p
Ġth an
Ġth iam
Ġ3 0
Ġhem i
oph th
oph aryng
Ġgl c
up purative
Ġcereb roside
Ġleuk opl
ne v
Ġret ro
ov a
Ġph ys
roc alc
Ġpa rotid
Ġfib roses
Ġto es
Ġor nith
Ġun i
Ġcr amps
Ġcle aved
Ġcl n
Ġem py
Ġpneum othorax
iff erentiated
Ġspin a
Ġro t
anth ine
Ġgalact osylceram
Ġhydrox ysteroid
itt ed
Ġvag in
Ġmr t
Ġerythro kerat
Ġtrich othi
Ġnons uppurative
Ġmor b
Ġmor g
phosph atase
Ġglomerul osclerosis
oscle rotic
alang y
Ġpolyc yth
Ġleg s
Ġcan avan
Ġphot osensitive
Ġpapill oma
Ġrep erfusion
Ġir r
Ġglob al
Ġhyperten sions
Ġplag ue
Ġcys tin
Ġosteoarth ropathy
Ġlep rosies
Ġparan asal
Ġhypox anthine
Ġwor ker
Ġsti m
Ġcircul ating
Ġmanifest ation
Ġsynov ial
Ġangio edema
Ġprotuber ans
Ġlew y
Ġpolys yndactyly
Ġhid raden
entil ation
Ġaspergill osis
Ġneurodegener ative
Ġvitreore tinopathy
Ġphosphoribosyl transferase
Ġtyph us
Ġamo ebic
ocortic oid
Ġhash imoto
Ġhemic ran
Ġgust atory
Ġburk itt
Ġvo ice
Ġvog t
Ġmethylc roton
Ġdari er
Ġbern ard
Ġhyperam mon
Ġproduc ing
Ġbog aert
Ġthiam ine
a i
g es
h s
m en
m el
n utrition
p en
t c
u j
u od
z en
Ġ use
Ġ ush
Ġ otorhin
Ġs ed
Ġc ushing
as ilar
ar k
is es
Ġp ig
Ġp enile
Ġp ort
at oph
Ġm p
or i
or um
Ġh osp
Ġh prt
ia tions
Ġa ort
ul ent
Ġf ar
Ġf ur
Ġdis tr
op al
Ġb ot
Ġb ecker
Ġl and
Ġl atent
el y
ac r
ur n
ur ge
id ine
il is
Ġg e
Ġg h
Ġg ol
Ġg out
ent ation
Ġv a
Ġv erm
am yd
Ġhyp n
um mer
Ġdys lexia
od ular
im a
un e
un ar
Ġac ral
ot ransferase
ag i
Ġle c
Ġle pt
Ġdisorder ed
Ġw ag
Ġst asis
Ġst okes
Ġst urge
Ġpar am
Ġaut s
Ġal port
Ġal ex
Ġep stein
Ġth om
Ġ3 3
tr ic
Ġpro te
Ġpro gr
Ġpro cess
Ġper st
Ġse rog
re tin
ric ult
ax y
ab ular
kin esia
Ġii ia
Ġmet ast
Ġmic rocephal
Ġlip ase
Ġfib ular
Ġfib rocystic
Ġop ac
Ġrel aps
Ġcarcin oid
Ġmyel ocytic
Ġthromb o
Ġthromb ocyth
Ġid e
ak ness
Ġag ricult
osph ate
Ġur emic
Ġver tical
Ġcar pal
ri x
Ġob st
ophil ic
Ġul na
Ġgranul ocytic
Ġmuc inous
Ġsup ranuclear
ole uk
ophthalm ia
Ġprol ymphocytic
Ġmar ines
Ġpalm ito
Ġmeth emoglob
Ġz oster
Ġpel vis
omic ron
Ġhall ux
Ġbronch i
Ġsim p
Ġtransi tional
Ġwe akness
Ġlac rimal
Ġlac unar
Ġgastro esophageal
Ġhyperlip oproteinemias
Ġpath wa
Ġextr am
Ġdiss ection
Ġcrypt orchidism
Ġnoc ard
Ġlo e
Ġneu roma
Ġed emas
Ġmast ocytosis
Ġhyal ine
blast omas
Ġpen is
Ġporphyr ias
Ġpunct ate
arb oxylase
ums cr
Ġglomeruloneph ritides
Ġtransm itted
Ġventric ul
Ġtyros inemia
amo eb
Ġpolyp s
Ġlev in
Ġlen tis
Ġvitre ous
Ġhemiple gia
Ġecz ematous
Ġasym ptomatic
Ġmil k
Ġpsor iasis
Ġcirc umscr
Ġwill i
Ġpemphig oid
Ġlymphaden itis
Ġchl amyd
Ġplaqu e
Ġprotuber an
Ġnarc olep
Ġabor tion
Ġente ropathies
Ġhamart oma
Ġmicrod eletion
Ġaspir in
Ġparagang liomas
Ġbroc a
oll is
Ġfir st
Ġenter itis
Ġdesm oplastic
gluc os
inflamm atory
Ġstick ler
Ġperin atal
Ġpolyend ocrinopathy
Ġacrof acial
Ġscapul operoneal
Ġtetras omy
Ġdysauton omia
Ġlister ia
Ġechin ococc
Ġhyperphenylalan inemia
Ġseas onal
Ġperman ent
Ġterm inal
Ġthan atoph
Ġstim ul
Ġhosp ital
Ġperst ans
Ġserog roup
Ġagricult ural
Ġobst etric
Ġmarines co
Ġpathwa ys
Ġthanatoph oric
a id
a tine
b e
e y
f ocal
k en
l d
m onic
q t
w e
y ing
y ositis
y amo
ti d
Ġd sd
Ġs ide
in emic
in hibition
Ġc ms
as ms
Ġp ox
Ġp anic
Ġp fe
Ġp eptic
an tic
at us
os seous
om andibular
Ġh ard
Ġh ist
ia e
ul i
Ġsyn ostoses
em an
Ġf a
Ġf at
Ġdis t
Ġdis tin
Ġb ard
Ġb rad
Ġb ix
Ġb ites
Ġl ig
Ġl aur
el s
el lect
ac yt
Ġde x
Ġde aminase
ur ation
Ġg am
enc y
et er
iti l
Ġe ro
Ġv om
Ġv ip
Ġv acc
Ġhyp oxic
Ġdys h
Ġan x
uro n
yl omicron
Ġst re
ron mental
Ġep ic
Ġk ik
ver ted
Ġth re
Ġ3 6
Ġar ch
Ġar achn
Ġad verse
Ġper thes
Ġmal le
tis m
Ġph ae
Ġim age
qu in
Ġex cess
Ġmul tis
Ġmul ler
Ġmulti focal
Ġnon f
Ġfib ros
Ġfib ers
Ġint ellect
Ġaden omatoid
Ġimmun o
igh th
av y
av icular
Ġap ple
Ġmon il
Ġun na
phys es
Ġdr y
Ġfl av
Ġgranul osa
iform is
Ġdel usion
Ġinfarc t
Ġphosph orylase
Ġen vi
Ġmo tility
Ġmo yamo
Ġste al
itt le
Ġvar us
Ġox y
Ġmethyl glut
ton asal
Ġma ha
Ġbar e
Ġos ler
Ġsal mon
Ġcap s
Ġmelan ocytic
Ġmelan otic
Ġpat ter
Ġspl en
Ġhepat o
Ġhepat ocellular
Ġsph en
Ġmid line
Ġgr am
Ġsick le
Ġple omorphic
Ġrep air
Ġrep eti
derm atitis
osteron e
Ġlys ine
Ġamnes ias
Ġmeg ac
Ġankyl osing
Ġexc itation
Ġspondyloep imetaphyseal
Ġtin ea
Ġembolism s
Ġterat oma
Ġhemiple gic
omalac ias
Ġperfor ations
Ġgre at
Ġalb right
Ġmacul opap
Ġri eger
Ġabor tions
Ġinfer tility
Ġhyperl ys
Ġplagi ocephaly
Ġchoriore tinal
Ġconn ective
Ġcamp omelic
Ġsag ittal
Ġeyel id
Ġcitrull inemia
Ġnmd ar
Ġacrocephalosyn dactyly
Ġsand h
Ġelephanti asis
Ġcaus ed
Ġschizophren ias
Ġkne e
Ġbod ies
Ġtherm al
Ġjejun al
Ġpolyn eur
umbil ical
Ġcoc aine
Ġplacent a
Ġwarb urg
rocalc inosis
Ġuni versal
Ġpolycyth emia
Ġbot ul
Ġrelaps ing
Ġbard et
Ġbix ler
Ġphae ohyph
Ġintellect ual
Ġenvi ronmental
Ġmoyamo ya
Ġmaha im
Ġmaculopap ular
a tin
c m
d actyl
g esia
h art
l ow
l amps
n c
n d
o al
o en
r s
r et
t um
x y
y te
z d
Ġ romb
Ġ ench
ti an
Ġd ur
Ġd yt
Ġs elf
Ġc b
Ġc ic
Ġp d
Ġp ub
Ġp ierre
Ġm n
Ġm ody
Ġm olar
Ġm anic
Ġm ga
or p
os i
os quamous
Ġt arsal
Ġa a
Ġn orm
em ens
Ġf oss
Ġdis abilities
op aus
Ġb d
Ġb un
Ġb all
Ġb acter
Ġb our
Ġb att
Ġl iv
Ġl umb
Ġr ay
oc ul
Ġde v
id rosis
id emias
Ġg az
ol ymph
et e
et erm
Ġe ighth
Ġv itil
Ġch eil
od ium
un istic
Ġac tivity
ran ean
ir ect
ud inal
yl ation
Ġneuro hyp
Ġw s
Ġw ool
ant om
Ġal ve
Ġinfec ted
Ġpr enatal
Ġk el
Ġk ear
Ġth in
Ġ3 4
Ġ3 5
Ġar e
Ġad ams
ib ri
Ġx ii
Ġlymph angiect
og raph
Ġj ack
if er
Ġmal nutrition
ne ys
Ġrec k
Ġhe avy
Ġph ob
Ġph antom
ab dominal
Ġex anth
ith in
Ġnon b
of asc
Ġpul monic
Ġop port
art ment
Ġis omer
Ġtrans c
Ġsch eu
rod ys
Ġo titis
Ġpl at
Ġun kn
Ġcar ney
Ġneph rosis
Ġneph ropathies
Ġcl ub
ophil a
ero us
Ġsm o
Ġdr us
Ġmed iter
Ġlim ited
Ġmuc ocutaneous
Ġretin a
Ġsin oat
Ġes otrop
Ġbrach ym
itu itar
Ġcrani opharyng
ore an
Ġkid neys
Ġaneurysm al
Ġneural gic
osp asms
Ġdepr iv
Ġox al
Ġchond rodyst
Ġerythro blast
Ġbar re
Ġjo ubert
Ġimperf or
Ġmor v
Ġcm h
Ġganglios idoses
ĠÃ ¼
Ġoccl usions
Ġmast ocytoses
Ġhyal inosis
Ġman son
Ġsubc utaneous
Ġdysmorph ic
ropath ic
Ġtw elf
ocephal ies
Ġacanth osis
Ġpres enile
Ġadd ison
ocys tis
Ġwol f
Ġperiton itis
Ġerup tions
Ġant enatal
Ġmat urity
Ġstro kes
Ġhp c
Ġdysenter ies
osens ory
Ġhyperinsulin emic
Ġrest less
Ġmedias tin
iat ric
org anic
Ġacrom egal
Ġneutrophil ic
Ġbab y
Ġstoma titis
Ġhypersomn olence
Ġargininosuccin ic
Ġsa int
Ġhorn er
Ġlymphohisti ocytosis
Ġpannicul itis
ogl ut
ofol licular
Ġhyster ical
Ġmyofib r
Ġmacro thromb
Ġgynec omastia
iet y
Ġglom us
Ġpolymic rog
Ġmater nal
Ġlaf ora
Ġornith ine
Ġmethylcroton yl
Ġlec ithin
Ġpalmito yltransferase
Ġpfe iffer
Ġvom iting
Ġanx iety
Ġmalle olus
Ġpatter son
Ġsandh off
lamps ia
oal veolar
Ġfoss a
opaus al
Ġvitil igo
Ġwool ly
Ġopport unistic
Ġscheu ermann
Ġunkn own
Ġmediter ranean
Ġsinoat rial
ituitar ism
Ġtwelf th
b a
c b
f man
i h
i genic
m as
o a
o as
o anal
r ias
r iasis
s ens
t ase
u tion
Ġ 0
Ġ oth
Ġ est
ro lase
er nal
Ġd ay
Ġs lipp
in ergic
on ema
ic ardi
Ġm g
Ġm ad
Ġm oles
or enal
Ġt ortic
Ġt enth
om b
om o
Ġh utch
Ġh iatal
yn s
Ġn ph
Ġn inth
Ġsyn ostotic
Ġf ish
Ġf sh
Ġin hib
Ġin hal
Ġb s
Ġb ed
Ġb io
Ġb eck
Ġb imalleolar
Ġb ipolar
Ġl h
el i
oc ost
id i
id er
ol yposis
et ts
am a
am ent
ary l
Ġdys raph
Ġdys syn
Ġch ann
ell osis
Ġan th
Ġcon version
ot roph
uro p
ag on
ag inous
ch ole
ard itis
ard ium
Ġsp ind
Ġw at
Ġst omat
Ġst rain
Ġpar k
arc t
ron uclear
Ġk l
ver rich
Ġhem im
ib ed
Ġincl usions
Ġlymph ocytopenia
Ġgl iomas
tr en
Ġj ap
Ġleuk ocyt
Ġ4 3
ox yl
Ġam eric
opath ia
and ular
oth erapy
Ġex ostosis
orrh eas
Ġfib er
Ġfib romas
Ġop ca
Ġcol ic
Ġgen u
Ġaden omatoses
Ġmyel opathies
lic k
ak ening
Ġag g
Ġimmun ologic
Ġap olip
pha ron
Ġmon oneuropathy
Ġcent ronuclear
Ġun verrich
Ġangi itides
Ġeryth ropoietic
Ġsec ret
Ġcomp artment
Ġprol iferative
anth us
anth oma
Ġchol ang
Ġparaple gias
Ġec h
Ġophthalm opathy
Ġpoly gl
Ġdepr essions
Ġvar a
Ġcarb amo
Ġvag ina
Ġhum eral
Ġcoron al
Ġdil at
alang ism
Ġsph inc
Ġcyt omegal
Ġlo op
Ġolig oph
Ġextra pyr
Ġheterot opias
ger ia
Ġrhin itis
Ġmyx oma
Ġsequ ard
otyp ic
Ġconcus sion
Ġepithel ioma
Ġnonp olyposis
sk y
Ġmegal encephaly
Ġhypo al
Ġexc essive
Ġmut ation
Ġelev enth
Ġuve itis
Ġmat ter
Ġwound s
Ġseg ment
Ġasym metric
Ġchem otherapy
Ġcond itions
Ġfrag ile
unt ary
Ġkyph osis
Ġtoxoplasm osis
Ġtard a
Ġtard ive
Ġnas opharyngeal
Ġspot s
Ġfall ot
Ġmesothel ioma
Ġaspir ation
fl ow
Ġhypokal emia
Ġhypokal emic
ovag inal
Ġintrav entricular
Ġmu til
Ġhypercholesterole mia
Ġtransform ation
Ġependym oma
Ġpra der
Ġud p
Ġurid yl
Ġstil l
rong yl
Ġurtic aria
Ġund ifferentiated
Ġmarfan oid
Ġsphing omyel
Ġsur f
Ġleishman iasis
Ġaw akening
Ġshap ed
Ġhypoh idrotic
Ġprof und
Ġcast le
nev ille
Ġerythrokerat odermia
Ġdistr ess
Ġthrombo emb
oleuk odystrophy
Ġcircumscr ibed
Ġkik uchi
Ġmultis yst
Ġmuller ian
Ġsalmon ella
Ġromb erg
Ġbour neville
Ġliv ed
Ġnonb ullous
Ġimperfor ate
Ġmyofibr illar
Ġoth er
Ġest rogen
Ġslipp ed
Ġtortic ollis
Ġbio tin
Ġchann el
Ġapolip oprotein
Ġunverrich t
Ġsecret ory
Ġpolygl andular
Ġsphinc ter
Ġextrapyr amidal
d i
f b
i ate
i etal
i ological
l ant
l itz
m ic
o ot
o yl
p or
r d
s ed
t z
u en
u ation
Ġ il
Ġ og
Ġ oh
Ġ ull
al ac
al amin
er a
Ġs at
Ġs tein
Ġs ummer
in oma
in ical
Ġc ob
Ġc of
Ġc ow
Ġc astr
Ġc ochlear
Ġc lick
as in
as si
ar rhythm
is ian
Ġp om
ic ore
an z
an ine
Ġm pt
or ide
Ġt dp
Ġh al
Ġh ib
le d
le quin
le pharon
ph e
ia ms
Ġa kinetic
Ġn a
Ġn o
Ġn uch
it or
yp an
Ġf uk
Ġf ow
Ġf iss
op yr
op oietic
Ġb p
Ġb inding
Ġl gl
Ġl qt
Ġr ath
Ġde b
Ġde terior
id ox
il tra
Ġg ar
Ġhyp oc
um atic
Ġdys g
od es
ig lycer
un ay
Ġan ophthalmia
Ġcon tin
Ġcon ver
Ġcon sc
Ġac rop
ag g
te ur
Ġmy algia
Ġle uc
Ġhyper ch
eb erg
act ant
Ġw er
Ġw ar
ad ian
ad ass
Ġst ric
Ġpar ietal
Ġal kal
ver sions
ect omy
Ġ3 7
ub ercul
Ġhem iat
Ġgl i
Ġpro geria
Ġher litz
ens tein
ens itive
Ġj adass
Ġtr ypan
ap tic
end al
ric ans
Ġph ak
roc on
oh l
Ġencephal omy
Ġpost tra
Ġpost chole
Ġlip odystrophies
Ġint es
och ondrom
Ġdia physeal
iv irus
Ġco ugh
Ġtrans por
Ġhypert rophies
Ġo i
Ġins ensitive
Ġmon ocular
Ġcr i
Ġcr yst
ocereb ros
Ġspastic ity
Ġcatar rh
Ġnec ro
Ġrh ythm
Ġfl ank
Ġear s
ert rophy
Ġrad io
Ġsinus itis
Ġmes odermal
Ġro land
Ġpe tit
Ġnod ule
ans ky
Ġprotein osis
Ġhisti ocyte
Ġmig rain
Ġen z
Ġdermat omy
omel an
Ġgluc ocorticoid
arth ritis
astr ic
Ġdeform ans
gl ot
ople gic
Ġblindness es
Ġmyc otic
Ġmyot ubular
Ġhyperlip emia
Ġhepat ocerebral
Ġgingiv itis
Ġneurofib romatoses
esth etic
Ġsarc oid
Ġsulf ate
Ġleukoencephal itis
Ġcalcific ations
Ġfasc icular
Ġpyr amidal
Ġpyr idox
Ġheterot axy
Ġphot o
creas e
Ġdysph asias
Ġhun ter
Ġapp ar
Ġchole c
Ġamel ia
derm as
Ġhyperost oses
Ġpseudohyp op
Ġmegal oblastic
Ġdec arboxylase
Ġleak age
Ġker asin
Ġregion al
Ġpas teur
Ġber ry
Ġuve al
Ġcerebell um
Ġsyphil itic
Ġmeningoencephal itides
phal ocele
Ġemphys emas
ew ski
Ġchem ical
Ġwill iams
Ġpemphig us
Ġsyr ing
Ġperic ardial
Ġdiast olic
Ġpet rous
omening eal
Ġmesothel iomas
Ġbarr ett
Ġneurodegener ation
Ġurol ogical
Ġinfer ior
Ġnan ism
Ġbro ad
Ġsymph ysis
Ġprop ionic
Ġsubm andibular
Ġterror s
Ġnig ricans
odyn ia
Ġtons illar
Ġhemis ph
Ġcro uz
Ġantic hol
Ġswe at
Ġpud endal
Ġaz orean
Ġmycoplasm a
Ġfilar ial
Ġvin cent
Ġschon lein
Ġstrauss ler
Ġmandibul ofacial
yan agi
Ġgig an
Ġtrichothi odystrophy
Ġotorhin olaryng
Ġmicrocephal ic
Ġdrus en
Ġameric an
Ġsurf actant
Ġull rich
Ġcastr ation
Ġmpt p
Ġconsc ious
Ġstric t
Ġjadass ohn
Ġposttra umatic
Ġtranspor ter
Ġantichol inergic
b or
b ut
c f
c tive
e ochrom
h ouse
i uric
k el
l en
m o
o j
o z
o ve
r id
r enic
v id
w s
ro plasia
ro tal
er ent
er iton
Ġd a
Ġd iplegia
Ġs en
Ġs or
Ġs ant
Ġs ad
Ġs itu
Ġs tern
Ġs uccin
en feld
in son
in ish
ar ate
is ata
es p
Ġp b
at r
Ġt ym
Ġt one
Ġt est
Ġh an
Ġh yg
Ġh idrotic
Ġh igm
yn ch
Ġn ar
ul es
it ers
Ġf is
op ar
op ian
Ġl c
Ġr ta
ut t
Ġe g
od al
un it
ter in
te gr
Ġhyper thy
Ġneuro tic
Ġw et
ob acterial
ip t
Ġpr em
Ġk enn
Ġlymph edemas
Ġpro g
ost asis
Ġdyst rophia
ap id
ap illary
re f
Ġret t
Ġph on
Ġph eochrom
Ġsc zd
omat a
Ġnon l
duc tal
rop od
Ġmic ron
Ġmic rop
Ġsub unit
Ġfib ula
ow sky
Ġarter itides
och oroid
Ġcol lec
Ġgen icul
iv al
Ġfr yns
Ġtrans loc
ak er
Ġend ocardial
Ġap neas
Ġhyd roc
pr int
Ġmalign ancy
Ġsle b
uct ural
Ġnec rol
Ġnec rob
Ġintra ductal
Ġmed ia
Ġcardiomy opathic
ack er
Ġpap ular
Ġnod oventricular
Ġinfarc ts
ondyl ic
fer r
Ġhisti ocytoma
orn eal
Ġpanc yt
osp ermia
Ġgland ular
ococc us
rol ithiasis
Ġz oon
ific ation
ain ed
ocarcin oma
Ġax enfeld
ept ual
ĠÃ ¨
Ġophthalmople gias
oscle roses
Ġsarc og
Ġlo uis
Ġleg g
Ġleg ion
Ġmembran oproliferative
rov irus
Ġbre ech
Ġmc c
Ġrheum atism
Ġequ in
Ġglut am
Ġperiodon titides
Ġcre atine
Ġhun t
Ġapp ear
Ġgu ill
Ġactin omyc
Ġepithel ium
Ġankyl osis
aur iculo
Ġdentin ogenesis
inogen emia
Ġxanth ogranul
Ġant ley
Ġduod en
Ġvaria bil
Ġcerebell o
Ġmann osidosis
Ġhaem ophilus
Ġsem antic
Ġoligod ontia
Ġsil ver
Ġcond ition
Ġmurmur s
Ġpneumon itides
Ġbreak age
Ġmosaic ism
Ġhar lequin
Ġkle ine
Ġillness es
Ġfall opian
Ġparagang lioma
Ġpall id
Ġplagi ocephalies
Ġparasit osis
Ġparasit oses
Ġon ly
Ġsymph alangism
Ġdysarth ria
Ġdipl opia
Ġdipl opias
Ġfem ur
Ġfem oro
Ġaltern ating
Ġpot assi
Ġperc eptual
Ġagraph ia
Ġgangren e
Ġdysprax ia
Ġdim inish
Ġgalactos emia
Ġreticuloendothel iosis
Ġcaf fe
Ġkap osi
Ġmigr atory
Ġenlarg ed
Ġthromboph lebitis
Ġincis or
Ġpust ular
Ġhypov entilation
Ġhypomyel inating
Ġretrop eriton
Ġtap et
Ġepi physes
Ġposition al
Ġnephron ophth
Ġgalactosylceram ide
Ġcystin osis
Ġlept omeningeal
Ġdistin ctive
Ġarachn odactyly
Ġmethylglut ac
Ġuniversal is
Ġcheil itis
Ġmorv an
Ġpolymicrog yria
Ġhutch inson
Ġinhib itor
Ġspind le
Ġleukocyt oclastic
Ġcarbamo yl
Ġcastle man
Ġnuch al
Ġdeterior ation
Ġmigrain es
Ġcrouz on
Ġtym p
Ġhyperthy rox
Ġcollec ting
Ġgenicul ate
Ġappear ance
auriculo vertebral
Ġpotassi um
Ġdiminish ed
Ġretroperiton eal
Ġnephronophth isis
b at
b um
b org
g f
g al
g rowth
i itis
j unction
k ing
p tic
r am
u er
v asive
w ith
w eger
y b
y e
z low
Ġ eas
Ġ umbilical
al gias
ro y
er ated
Ġd s
Ġd ow
Ġd own
Ġs ug
Ġs ore
Ġs ry
Ġs ella
Ġc yc
es si
Ġp c
Ġp v
Ġp ity
at ch
Ġm l
Ġm ang
Ġm ink
or is
or id
os uria
os ide
Ġt um
om ies
Ġh m
Ġh ort
Ġh ermaphroditism
le ptic
ph ilis
Ġa or
Ġa gr
Ġn aj
us es
Ġf um
op tic
op eric
Ġin version
ys p
Ġl ind
Ġl ca
Ġl ynch
el an
Ġr up
oc a
oc ar
ur sor
id erm
Ġg el
Ġg ard
Ġg ood
et te
Ġe ig
Ġv el
Ġv ill
Ġv acter
um m
Ġch il
Ġch oanal
ig ral
ell er
ell oses
ell weger
Ġan n
Ġan is
Ġan onychia
Ġ2 9
ran odal
ep tive
ep iphyseal
ag ia
ag nos
Ġneuro sy
Ġneuro sis
Ġneuro blastoma
Ġneuro leptic
Ġi is
Ġw orm
orm onogenesis
ad i
ad s
ob ar
ip roc
ron t
ron ous
Ġal acr
ile y
Ġpr ion
Ġpr eling
Ġk u
Ġk in
Ġth i
ect or
Ġad duc
oph or
ib le
og astric
ati al
Ġpro c
Ġpro ge
Ġper n
if t
omy x
Ġrec iproc
Ġcom bat
Ġph arynx
qu e
Ġex st
Ġpost c
unc al
of aci
Ġlip oat
Ġsub glot
Ġoste ochondrom
Ġer b
Ġtrans position
ak ias
Ġhypert onia
Ġsch e
Ġsch inz
Ġmening ocele
ea ting
Ġmon ocytic
Ġpo ol
Ġmalign ancies
Ġintr insic
Ġcl o
Ġangi omatoses
Ġarth ropod
Ġfl o
ind ness
Ġretin opathies
hyd e
hyd rotic
Ġsten osing
Ġes ter
Ġey es
Ġrad ius
Ġcrani ocerebral
Ġnod ules
Ġprotein uria
Ġfol ding
Ġophthalm opathies
Ġchor i
Ġz on
Ġz ellweger
Ġcalc ium
tur ed
Ġext ranodal
gl u
Ġstr uctural
Ġgangli og
bl indness
nes ic
Ġwe ill
Ġwe iss
Ġneg lect
Ġcap itis
Ġdysm nesic
Ġot o
orac ic
Ġarteri osus
Ġpat ent
ord ination
Ġfollicular is
Ġcolor blindness
Ġglomerul opathy
yg ous
Ġtrig ger
Ġden gue
Ġket otic
Ġket oglut
Ġgr isc
de hyde
Ġdes quam
Ġextra hepatic
Ġextra ocular
Ġbur ning
Ġdysph onia
Ġentero b
ophosph ate
Ġhip p
Ġdent oalveolar
Ġxx y
Ġjaw s
Ġover growth
Ġplag ues
Ġhol m
Ġcys tine
Ġcys tinuria
rob asilar
erap eu
Ġtyros inemias
Ġpolyp oses
Ġprec ursor
Ġadren oleukodystrophy
Ġhypertr iglycer
Ġko zlow
Ġuret er
Ġacetyl gal
Ġamb igu
Ġchar ge
Ġsickness es
Ġel astic
Ġnut rition
Ġsem d
Ġfascicul ations
Ġmas sive
Ġhyperinsulin ism
Ġmercur ial
Ġlymphaden opathy
Ġfrag ility
Ġhemoglob inuria
Ġsynov itis
utter ing
Ġschist osomiasis
omon as
enstr ual
Ġente roc
Ġverteb robasilar
Ġsomat osensory
Ġchondrom alac
acet oac
acet abular
Ġtrache oesophageal
Ġscler edema
Ġschwann oma
Ġargininosuccin ate
Ġatheroscle rotic
Ġneovascular ization
Ġdh mn
Ġbal tic
Ġcartil age
Ġaltern ari
Ġpoor ly
Ġoxid ative
Ġarv c
Ġlacer ation
Ġhu et
Ġfove al
Ġaspart ate
Ġsi emens
Ġbreath ing
Ġgastroenter itis
Ġprotozo al
ck eberg
Ġmuscul oskeletal
Ġphenylketon uria
Ġneed les
Ġdysc alcul
Ġconfusion al
romel ic
Ġdiscr im
ipp o
Ġempy ema
Ġmorb ill
Ġmorg ag
Ġhyperammon emia
Ġaort a
opal at
Ġnarcolep sy
Ġdysh ormonogenesis
Ġdelusion al
Ġench ondrom
Ġjack son
Ġplat ysp
Ġmediastin um
Ġmacrothromb ocytopenia
Ġbeck with
Ġdyssyn erg
Ġjap anese
Ġagg reg
Ġconver g
Ġcryst all
ocerebros idase
Ġroland ic
Ġenz yme
Ġpyridox ine
Ġgigan tism
Ġpancyt openia
Ġzoon otic
Ġcaffe y
Ġmethylglutac onic
Ġhyperthyrox inemia
Ġeas tern
Ġcyc le
Ġagr amm
Ġrup tured
Ġvacter l
Ġneurosy philis
Ġpreling ual
Ġproge roid
Ġsubglot tic
Ġschinz el
Ġketoglut arate
Ġgrisc elli
erapeu tic
Ġkozlow ski
Ġacetylgal act
a ple
a ortic
b ing
d on
e on
f oot
g lyc
h n
h an
h aus
n o
o e
o ast
p tions
p ecific
u tional
v ar
w er
y re
y ric
Ġ ure
Ġ roc
Ġd opa
Ġs ke
Ġs ting
en si
in as
Ġc er
Ġc ant
Ġc ann
Ġc ild
as emia
es c
es ani
Ġp ont
Ġp itt
ic c
at ums
Ġm ir
Ġm ay
or tion
Ġt n
Ġt ar
om ias
ph leb
Ġa i
Ġa qu
Ġa rous
Ġa icardi
Ġf le
Ġf und
Ġf ield
Ġdis inhibition
op enic
Ġb f
Ġb in
Ġb ing
Ġl und
ac yl
ac ea
Ġr ud
Ġr uss
ol mia
ol ogy
ut on
ary ls
Ġdys keratosis
od uod
ig it
Ġan e
Ġan oxic
uc ent
ot ubular
ot rach
Ġmy ofasc
ud e
osom iases
ard t
yl l
yl or
Ġsp ur
eb ius
Ġat el
Ġneuro t
Ġneuro sens
Ġi ic
Ġw in
Ġst uttering
Ġpar enchymal
ob ility
Ġal ar
Ġal ag
Ġal tit
Ġpr ur
Ġk jer
Ġth alam
oph ob
oph arynx
Ġx i
Ġre ticular
Ġre ye
og n
Ġdyst onic
Ġj er
Ġj amp
Ġtr ena
Ġse rop
Ġse rocon
ang l
Ġ4 5
Ġ4 7
Ġrec all
ox anthoma
Ġret ention
Ġhered it
Ġim d
Ġim bal
Ġam c
Ġex ocrine
oh ep
oh olic
Ġencephal ocele
Ġpost ural
Ġnon alc
Ġnon insulin
Ġpa uc
Ġdominant ly
Ġlip idoses
Ġsub aortic
Ġfib roid
Ġarter ies
Ġbr ittle
Ġsens ations
Ġoste osclerosis
Ġatax ic
Ġaden osine
Ġco arct
Ġfr eck
Ġmyel oma
Ġpseud oxanthoma
Ġag ain
Ġag ranul
Ġag angl
Ġfe il
Ġhypert onias
oderm as
Ġto e
Ġap ert
form is
Ġpo uch
Ġanomal ous
Ġneph rolithiasis
Ġem pt
Ġeryth rocytosis
Ġpneum ocystis
Ġinter val
Ġfl at
ind ler
Ġsup ern
Ġdiff erenti
rog lossal
ert rophic
Ġcomp ound
Ġaph th
Ġsinus itides
romat ous
romat opsia
Ġhypers omnia
yph en
Ġlow ry
Ġhypot en
Ġen gel
Ġspondyl ocost
utis ms
Ġmo ebius
Ġz yg
Ġgalact okinase
Ġfron tonasal
Ġhydrox yphen
Ġdepend ant
Ġnons pecific
Ġlate x
ulf atase
Ġflu ent
Ġbe at
Ġtach yp
fib r
Ġpy el
Ġarteri opathy
Ġanti thrombin
Ġextr ac
yg yria
ror enal
Ġprot ection
Ġlo ose
orphyr inogen
Ġprolap sed
Ġleukoencephal opathies
Ġremod elling
Ġhyperp igmentation
Ġhyperp yre
oep ithel
Ġbur n
Ġpor tal
Ġout put
Ġout flow
Ġbi phen
odys genesis
Ġdent ate
Ġcil ia
Ġgu anine
Ġath et
ammag lobulin
Ġhypop igmentation
Ġsexual ly
Ġrick etts
derm atitides
Ġpseudohyp ertrophic
Ġconjunctiv al
Ġarrhythm ia
Ġfibr illary
Ġros acea
Ġsial aden
Ġgo iters
Ġker atitides
Ġvulv a
Ġhemiple gias
Ġhp e
Ġphosphor ylation
Ġhaem orrhagic
Ġlax ity
ille d
Ġamn iotic
Ġhab it
Ġneuroc utaneous
Ġlew and
Ġnas opharynx
Ġthy roglossal
Ġrefr active
Ġpet ers
Ġom phalocele
Ġintrav ascular
Ġamin otransferase
ocon iosis
ocon junctiv
Ġstoma titides
Ġschwann omas
pyr uvate
Ġeth yl
Ġdysarth rias
Ġreduc tion
oin ter
Ġof c
Ġebs tein
Ġacin ar
Ġquadr iple
Ġagraph ias
Ġtour aine
Ġbrachy olmia
Ġdysprax ias
Ġnic ol
Ġbac illary
Ġarv d
Ġlacer ations
Ġsay re
Ġhyalohyph omycosis
Ġhyalohyph omycoses
Ġkra bb
Ġmarch esani
Ġdepos its
Ġtubul ointer
Ġta ylor
Ġgil bert
Ġneurile mm
Ġsphe rocytosis
Ġambly opia
Ġperior al
Ġnad h
Ġhemicran ia
Ġpig eon
Ġgol tz
Ġalex ia
Ġmethemoglob inemia
Ġsimp son
acyt oid
Ġrepeti tive
Ġbotul ism
Ġmn g
Ġbatt en
Ġkear ns
ibri o
Ġdepriv ation
Ġinhal ation
Ġdilat ation
Ġoligoph renia
Ġuridyl yltransferase
Ġfow l
Ġbp es
Ġcontin uous
Ġhyperch ylomicron
Ġphoto all
Ġhemisph ere
Ġnar row
Ġprem enstrual
Ġmicron ucle
Ġpity riasis
Ġgard ner
Ġlipoat rophic
Ġmorgag ni
Ġagramm atic
Ġarous al
Ġlund borg
Ġruss ell
aryls ulfatase
Ġthalam ic
Ġjamp el
Ġtrena unay
Ġserop os
Ġnonalc oholic
Ġagain st
Ġempt y
Ġsupern um
Ġdifferenti ation
Ġspondylocost al
Ġbiphen otypic
b i
b p
b urg
b ts
e v
e ker
e osinophil
f il
f ting
f old
j d
k d
k i
m ias
n eph
n ick
o ron
q tl
r ations
s n
v anc
v iridae
w ick
x ual
y arrhythm
z ell
ro te
ro toxic
Ġd on
Ġd ic
Ġd or
Ġd ol
Ġd av
Ġs et
Ġs uc
Ġs ound
Ġs ott
Ġs ocial
en ner
en orrhea
en etrating
in omas
in ate
on yl
Ġc od
Ġc atal
Ġc ps
Ġp f
Ġp n
Ġp in
Ġp ilar
Ġp edi
an ol
an ical
at ter
Ġm end
Ġm orph
Ġm iosis
Ġm ech
Ġm utisms
or ge
os ensitivity
Ġt m
Ġt og
Ġh b
Ġh ap
le tions
ph an
Ġn ond
Ġn ucle
ed ion
em erging
Ġf av
Ġdis p
op ard
op sias
op agnos
Ġin de
Ġb h
Ġb it
Ġb uck
Ġl enz
el me
ac tic
Ġr apid
oc ystic
oc olitis
Ġde letions
id ia
id ing
Ġg un
ol itides
ent ral
ut ane
Ġe is
Ġe ie
Ġv entil
Ġdys ostoses
Ġdys chond
ra um
un ited
ell ings
ell aceae
Ġan et
Ġan tis
Ġan ton
Ġcon j
Ġac ad
Ġac he
Ġac alcul
ot os
ot ence
ep tion
ep tid
ag ious
Ġmy ositides
ym ening
ch rom
Ġle opard
Ġhyper immun
Ġhyper kinetic
Ġhyper eosinophil
Ġsp arse
ad al
Ġpar ac
ob ronch
ob lepharon
ephal y
ip ple
Ġk a
Ġk i
Ġk r
Ġk ary
ver sible
Ġth ost
Ġth ick
Ġar ef
Ġhem ophilus
Ġad am
Ġad ie
oph yt
Ġre emerging
Ġlymph oplasm
Ġlymph ogranul
og oni
oid es
Ġj ob
Ġj bts
Ġleuk okerat
ang ial
ne um
Ġas d
ox y
ink ing
ab a
Ġtumor al
Ġbl enn
Ġpost phleb
rop ic
Ġint oxic
Ġbr ug
Ġgen ito
Ġaden ovirus
Ġaden ohyp
Ġfr ench
Ġur ach
yr yl
Ġtub al
pr s
Ġmac ros
ri er
Ġangi omas
Ġangi ofollicular
Ġdi ath
Ġdi etz
Ġdi eker
Ġres tric
Ġca ud
Ġpneum oconiosis
Ġintrac ellular
Ġintra ocular
vel y
Ġmed iated
Ġmuc osa
Ġsup pression
vul us
Ġauto inflammatory
Ġcleft s
Ġrad icul
Ġent amoeb
ticul ostr
Ġprol ifer
cr acker
Ġmes angial
Ġro us
Ġpe el
Ġmar g
Ġimp lant
Ġimp otence
eth yl
Ġkerat oconjunctiv
ins tein
Ġmo tion
Ġgi edion
Ġig g
Ġdup uy
Ġcont agious
Ġdf n
Ġvar as
Ġlar va
ait ser
Ġma rote
Ġsw eating
ocarcin omas
Ġbar aitser
Ġaud i
Ġsynth esis
Ġbe ats
Ġhyperlip idemia
Ġdysm yel
ofib roma
Ġophthalmople gic
Ġneut ral
Ġextr as
omn ias
yot onia
Ġcrypt ococc
Ġach romatopsia
orphyr ia
Ġmid b
Ġthorac o
Ġdiverticul osis
Ġgr n
Ġasth mas
Ġcomplic es
Ġhype rox
Ġpyr im
Ġhyperp rol
Ġsl iding
Ġacet yltransferase
Ġphot otoxic
Ġpor encephalies
Ġpapill omatosis
loss ia
Ġtrait s
Ġdent ofacial
Ġhs n
arathyroid isms
Ġcirrh oses
Ġinvol untary
Ġplex iform
Ġpach ymening
Ġnonp enetrating
Ġesophag itis
Ġankyl oblepharon
Ġmax ill
Ġus ual
iol ase
Ġxanth omatosis
Ġembry opathy
Ġmut ase
Ġlen ticulostr
Ġko j
Ġacetyl glucos
Ġtroph oblast
Ġterat oid
Ġfus ed
Ġasperg er
Ġel ast
Ġnut cracker
Ġdip etal
Ġhh t
Ġstri aton
Ġpsor s
Ġpsor iatic
Ġgre en
Ġinvers a
Ġrich ard
Ġalb ers
Ġcross ed
Ġbo eck
Ġdissoc iation
Ġneuroc ardi
Ġkyph oses
Ġkyph osc
Ġonych odystrophy
Ġtoxoplasm a
Ġtoxoplasm oses
Ġclos ure
Ġentrapment s
Ġpros opagnos
Ġri ver
Ġaber ration
Ġaber rant
Ġaber rations
Ġmod if
Ġkle in
Ġosteochond rosis
Ġfuc osidosis
Ġaspergill oses
Ġendocard itides
Ġurol ogic
Ġpall ister
Ġev ent
Ġhyperl ucent
Ġamin oac
Ġtrache obronch
Ġverruc ous
Ġcost a
Ġmcop s
Ġvol vulus
aum ann
Ġsag uen
Ġmass eter
Ġren otubular
Ġile al
Ġreduc ed
Ġcry opyr
Ġsan fil
Ġah us
Ġacin ic
Ġexfol iation
Ġtour ette
Ġrhabdomy osarcoma
Ġdeg os
Ġgyr ata
Ġej m
Ġmetat arsal
Ġbrun zell
Ġlight ning
Ġspi elme
Ġirid ogoni
Ġmis fold
Ġinfest ation
Ġinfest ations
nik ov
Ġell ipt
Ġshar ed
Ġmegakary ocytic
Ġspermat ogenic
Ġmicroangi opathy
Ġmenstr uation
occl usive
Ġhyperal gesia
Ġarticul ation
Ġbrux ism
Ġfulm inant
Ġvw d
Ġopac ities
Ġbronchi ect
Ġloe ys
Ġlig ament
Ġphaeohyph omycosis
Ġpub is
Ġneurohyp ophyseal
Ġsmo oth
Ġwat son
Ġprofund a
Ġpom t
Ġhib ern
Ġrath ke
Ġgar land
Ġphak omatosis
Ġpostchole doch
Ġconscious ness
Ġpheochrom ocytoma
Ġnecrol ysis
Ġguill ain
Ġvariabil is
Ġsug ar
Ġhort on
Ġann ular
Ġure a
Ġaqu ed
Ġneurosens ory
Ġalag ille
illed ema
Ġlewand owsky
Ġethyl malonic
Ġtubulointer stitial
Ġsott as
Ġpedi atric
Ġmech anical
Ġinde x
Ġeie e
Ġpostphleb itic
Ġbrug ada
Ġadenohyp ophyseal
Ġlenticulostr iate
Ġacetylglucos amine
Ġstriaton igral
Ġneurocardi ogenic
Ġsaguen ay
Ġspielme yer
Ġmisfold ing
a ux
c q
c ular
d in
f el
g c
g h
g n
h ausen
j ar
k an
k mann
l enia
m et
n ier
o is
o ke
o immune
o tine
p eral
r t
r el
s in
t o
u ate
v entricular
v eness
x ial
y der
Ġ '
Ġ igh
Ġ arylsulfatase
ro li
ti form
er r
er ate
Ġd ural
Ġd ba
Ġs o
Ġs omn
Ġs oul
Ġs ector
in eral
on tal
Ġc ub
Ġc omas
Ġc oh
Ġc pt
Ġc athet
Ġc eram
ar e
ar ticular
is ia
Ġp i
Ġp t
Ġp es
Ġp of
Ġp ott
Ġp ili
an a
Ġm os
Ġm ec
Ġm im
Ġm ag
Ġm ant
Ġm gr
Ġm adel
or ed
or tis
or he
Ġh og
Ġh ae
Ġh aw
Ġh off
ph et
ph yx
ia d
ia ting
yn aud
Ġa k
Ġa u
it one
Ġb m
Ġb est
Ġl ub
Ġl aw
el erated
ac ar
Ġr t
Ġr us
Ġr am
Ġr end
Ġr agg
Ġr icc
Ġde tr
Ġde bran
ur a
et ti
ath ion
ath isia
th e
Ġe w
Ġe lec
Ġv l
Ġhyp ob
od on
od is
si an
ig ler
roph akia
ran encephaly
ot r
ym ic
Ġhyper h
Ġsp ik
eb i
eb iasis
ros te
Ġw is
Ġst u
Ġst art
Ġpar v
ess or
ron eph
Ġal ter
Ġpr eterm
Ġk al
Ġk line
Ġ3 8
ub o
Ġad a
Ġad j
Ġre le
ral ogy
Ġcell ular
Ġpro ct
Ġper ine
if e
Ġtr ip
Ġ4 9
Ġas phyx
iz z
Ġpol io
Ġph ag
Ġph alang
Ġam phet
Ġsc r
Ġsc rotal
Ġex er
roc yte
Ġepilep tiform
ion osis
Ġii ic
Ġii ib
se g
oste ogenesis
Ġnon immune
of etal
rop ortion
Ġmic rom
Ġmic rovascular
Ġlip oma
Ġlip oproteinemia
Ġfib roma
Ġsh y
Ġsh print
Ġbr uc
Ġbr ill
Ġcol us
Ġsens itivities
Ġoste o
Ġoste oid
Ġco arse
Ġfr as
Ġang ioneuro
Ġmyel ofib
Ġsch m
Ġo ro
Ġmyoc ardium
Ġderm oid
Ġcat t
Ġur b
yr inth
Ġap ros
Ġmon ochrom
Ġcr cs
Ġcr igler
Ġgran d
Ġver lo
Ġintr am
ri tic
ug u
Ġneph rocalcinosis
Ġcl aw
Ġpne umor
Ġnec roses
Ġfl utter
amin a
Ġlim it
orph ous
rost omia
Ġdiff us
Ġspin obulbar
Ġrad icular
Ġpara inf
Ġpsych iatric
Ġparal ytic
Ġro th
Ġphosph atase
Ġamyloid oses
Ġov al
Ġparkinson ian
Ġvari eg
Ġhisti ocytomas
Ġcongenit as
Ġhypot onic
Ġmig rans
osp inal
Ġspondyl oarth
Ġmel kers
Ġmel nick
Ġhern iation
Ġfol lic
he im
Ġz one
Ġpoly chond
Ġduct us
Ġchond ro
asth enia
Ġemb olic
Ġerythro blastic
Ġvascul opathy
Ġnons phe
Ġmyc obacterial
Ġhyperlip emias
Ġmelan omas
erc ular
Ġarteri osclerotic
ĠÃ «
Ġbas ophilic
Ġte ebi
Ġgastr itis
Ġlob ular
Ġhyperc ortis
Ġtic s
Ġneu romas
Ġket osis
Ġpneumonia e
Ġremod ellings
Ġconc entric
Ġgenital ia
Ġfasc iitis
Ġfront o
Ġdes min
Ġeff usions
Ġmedull oblastoma
Ġill usion
Ġill usions
odys plasias
Ġcholeste at
Ġhypop ituitarism
Ġinvol utional
Ġglob ulin
Ġover lo
Ġtre e
Ġgest osis
Ġdiaphrag m
Ġcoag ul
ocard i
Ġtyros inase
Ġseb orrh
leb itides
Ġdisk s
Ġdig it
Ġpres entation
Ġwol man
Ġtet an
Ġtet ralogy
Ġrub ber
Ġmut ant
Ġmycobacter iosis
Ġgamm ap
Ġwor kers
berg er
Ġmicroc ystic
Ġhypophosphat emia
Ġasym met
Ġacc elerated
oneuro pathies
Ġfor es
Ġfor amina
Ġstri ate
Ġhydroxy acyl
Ġsid ed
min th
Ġsil v
Ġcandid iases
Ġsac ro
Ġleiomy omatosis
Ġperic arditis
Ġpolyradicul oneuropathy
Ġcycl ic
aj o
Ġmicrod ontia
Ġrect um
Ġasc ites
ovag in
Ġresor ptions
Ġbronchiol itis
Ġarc uate
Ġatheroscle rosis
Ġvol kmann
Ġvalg us
Ġhel minth
Ġcatat onia
Ġnmd a
aff in
Ġtransform ations
Ġappend ic
Ġacrocephalosyn dactyl
odyn ias
Ġlymphohisti ocytoses
Ġmacrog lobulinemia
Ġdihyd rop
Ġvesic o
Ġcarin atum
Ġcarin atums
Ġreticuloendothel ioses
Ġra ynaud
Ġdeg rad
Ġenlarg ement
Ġelect ro
Ġwart s
Ġander sen
Ġpharyng o
Ġprom in
Ġplan us
Ġdisplacement s
Ġlem li
Ġspr ue
Ġphys iological
Ġvagin itis
Ġthrombocyth emia
Ġdex t
Ġero sion
Ġvacc inal
uron idase
Ġepic anthus
Ġthre e
Ġare olar
Ġreck ling
Ġacromegal y
oxyl ate
Ġcholang itis
Ġmutil ation
Ġmultisyst em
Ġtrypan osomiasis
Ġcri tical
oj ejun
Ġfis her
tegr ation
uer peral
Ġdow ling
Ġmang anese
Ġtum our
Ġnaj jar
Ġlind au
Ġalacr ima
Ġplatysp ondylic
Ġcrystall ine
Ġane up
Ġmyofasc ial
Ġatel osteogenesis
Ġheredit aria
Ġagangl ionosis
Ġaphth ous
Ġhyperpyre xia
Ġnicol au
Ġkrabb e
Ġphotoall ergic
Ġdor fman
Ġtm j
Ġdisp roportion
Ġantis ocial
Ġlymphoplasm acytoid
Ġurach al
Ġmarote aux
Ġextras yst
Ġrichard son
Ġkyphosc oliosis
Ġmodif ier
Ġcryopyr in
Ġsanfil ippo
fel ter
Ġsoul ier
Ġcathet er
Ġmant le
Ġmadel ung
Ġrend u
Ġragg ed
Ġkline felter
Ġamphet amine
Ġshprint zen
Ġangioneuro tic
Ġparainf luenz
Ġmelkers son
Ġnonsphe rocytic
Ġhypercortis olism
Ġoverlo ad
b ow
d r
f ord
g m
h em
h ers
i q
i ella
k h
l an
l ory
o oste
p ed
p orphyrinogen
r up
s ia
t b
u it
v as
w orm
w ang
w art
Ġ ub
Ġ east
Ġ itch
al es
ti i
Ġd d
Ġd m
Ġd op
Ġd rop
Ġd rain
Ġd ors
Ġd ark
Ġs ut
en e
en i
en men
in i
on ne
Ġc c
Ġc f
Ġc ach
Ġc ecal
ar ias
ar ino
es mann
es omelic
es aur
Ġp ir
Ġp ch
Ġp ied
ic ogenic
at o
at z
at ure
Ġm h
Ġm i
Ġm eas
Ġm td
om ac
Ġh t
Ġh op
Ġh eal
Ġh ost
Ġh ak
Ġh ay
Ġh sd
le ph
Ġa ural
Ġn b
Ġn os
Ġn em
Ġn av
Ġn ermann
ul ous
ul oses
it ting
us or
us ory
em bran
Ġf al
Ġf air
Ġf rax
Ġf tl
Ġf emin
Ġf td
op enias
Ġin iti
Ġb c
Ġb u
Ġb ra
Ġb ase
Ġb urg
Ġb ins
Ġb ald
Ġl ock
Ġl ait
el ast
ac s
ac ob
ac ral
ac tiv
Ġr at
Ġr ash
Ġr iley
oc i
oc omelia
ur is
ur ysm
Ġg utt
ol on
ol ydactyly
Ġne ar
th er
Ġe ph
Ġe urop
Ġv ib
am i
Ġhyp omat
Ġhyp ochrom
Ġdys ch
Ġdys ref
ra e
Ġch a
Ġch yl
Ġch ik
od ental
od ion
im mel
ig er
un ya
Ġan encephaly
Ġan hydrotic
Ġcon tig
Ġcon sum
Ġac roc
ot es
ot rich
ter inary
ir e
te leph
tin es
osom es
Ġhyper plastic
Ġat fb
Ġneuro end
act able
ros in
Ġi on
Ġw id
Ġw ood
Ġw ea
Ġw he
Ġw bs
Ġw ohl
Ġst rongyl
Ġpar at
arc tion
arc omatous
ob il
ob ut
plas m
ip oprotein
ip pl
Ġal i
Ġep ul
Ġinfec tive
ereb rate
oplasm ic
Ġk ell
ver ulent
Ġth ph
Ġth esaur
Ġhem ipar
Ġad vanc
oph an
Ġre ent
Ġre versible
og lobulinemia
og lycer
Ġpro per
Ġpro thrombin
ost om
ach is
Ġj eg
Ġj acob
Ġtr ench
Ġtr imalleolar
Ġtr iad
Ġleuk o
ons tit
Ġmal tase
Ġmal lory
Ġ4 8
ne tii
Ġrec onstit
tis ing
Ġph lebitis
ax is
ab olic
ab ry
Ġsc ald
Ġex pos
Ġmul tin
Ġpost encephal
Ġoc h
of ac
Ġmet acar
rop tosis
ich sen
Ġlip omatoses
Ġlip osarcoma
Ġsub d
Ġ5 0
Ġ5 1
Ġ5 9
Ġpul verulent
ane urysm
och le
Ġbr enner
Ġoste oma
Ġoste omyelitis
Ġoste olyses
Ġis a
Ġang inas
Ġcyst athion
Ġmyel odysplasia
Ġmyel odysplastic
Ġinduc ible
Ġthromb ocytosis
Ġtrans fer
Ġag a
Ġsch indler
Ġsch aumann
Ġassoc iative
Ġend odon
Ġimmun ological
erat ure
av al
yr ias
Ġhyd rolase
Ġor b
ung unya
Ġect asia
Ġcle fting
Ġhead ed
Ġpos tin
Ġintr actable
Ġcar p
Ġcl ock
Ġangi omatous
Ġob li
Ġeryth rocyte
ophil ias
lex ias
Ġdiabet e
Ġmed ic
Ġmuc oep
vul sive
Ġes thes
Ġcomp ens
Ġpara esophageal
Ġcrani um
Ġcrani ometaphyseal
Ġcrani omandibular
Ġocul opharyngeal
Ġimmunodef iciencies
Ġro bert
Ġpe utz
Ġmar tin
Ġdel usory
Ġval ga
Ġsep tum
Ġphosph olipid
Ġhemat uria
Ġchol angi
Ġchol era
uff y
Ġhisti d
Ġven ez
occ id
osp oron
Ġspondyl o
Ġdermat ozo
Ġfol d
Ġfol ate
Ġec lampsia
let on
Ġgluc oseph
Ġgluc ocerebrosidase
Ġpoly angi
Ġvar iation
lobulin emic
Ġlar sen
Ġmethyl mal
Ġcarb on
Ġrem itting
Ġasp lenia
aw a
Ġbar ber
Ġtrich o
Ġtrich osporon
Ġthrombocytop enias
ier i
Ġpre inf
Ġschiz oid
Ġcontr action
Ġdil ation
Ġtoxic ities
Ġpy re
Ġarteri osclerosis
Ġganglios ide
ypt ophan
ofib romas
Ġextr insic
phosph ate
Ġhepat oma
Ġhepat orenal
Ġdiss ec
Ġmicrophthalm os
Ġgra ves
Ġtrig on
Ġve terinary
Ġfanc ier
Ġuro porphyrinogen
Ġcox iella
Ġvertig inous
yel itis
Ġmid f
Ġmc ard
Ġhyperg lobulinemic
Ġheterot opic
Ġmast ocytoma
Ġhyal inoses
Ġbur netii
omp ens
Ġme ig
Ġme esmann
Ġme rosin
Ġphot osensitivity
Ġcolob omatous
Ġeff ort
Ġvas ospasm
Ġdysph agia
Ġreticul osis
Ġreticul oses
Ġpapill omas
Ġrhin itides
val var
ash i
Ġmyx omatous
nath ia
Ġhs cr
Ġmeta plasia
Ġcholest atic
Ġover use
Ġpunct ure
omegal ies
Ġcoll ins
Ġcoll odion
Ġobes ities
Ġpach ygyria
Ġacanth ocytosis
Ġmur ine
Ġald osterone
Ġamnes ic
Ġesophag itides
Ġlab hart
Ġodont oma
Ġfung us
Ġliss encephalies
Ġlev y
Ġpres erv
Ġosteopo roses
Ġosteopo ikil
Ġfel ty
Ġrobin ow
Ġmer r
Ġdec erebrate
Ġrub ra
Ġspong e
Ġko yanagi
Ġsupra ventricular
Ġsupra valvar
Ġel bow
Ġureth ra
otoxic ity
Ġfascicul oventricular
Ġpect oris
Ġaff erent
Ġrich ieri
Ġanh ed
Ġfibrom yositis
Ġacro dermatitis
Ġhab ermann
Ġfood bor
ops oas
Ġpachy derm
co is
Ġretinosch ises
Ġtetra ple
Ġpapul osquamous
Ġbart on
Ġschist osomal
Ġinst abilities
Ġhar ada
Ġpolys eros
Ġverteb ro
Ġsomat otropin
Ġacrom esomelic
Ġtemp erature
Ġmus icogenic
Ġmole cular
Ġgef sp
Ġwater house
Ġsubcl inical
Ġbronchiol o
enh ar
Ġnan ophthalmos
Ġhypersomn ias
Ġtay bi
Ġvalg as
Ġvalg um
Ġplasm odium
Ġeth anol
Ġsubm uc
Ġcatat onic
Ġhamm an
Ġcartil aginous
Ġappend age
Ġmacrog lobulin
Ġelephanti ases
Ġtons il
Ġfran cois
Ġgold enhar
Ġexfol iative
ioneuro blastoma
Ġpannicul itides
Ġcs nb
Ġpil ocytic
Ġnic otine
Ġfet ofetal
Ġpolyd ip
Ġpolyd yst
Ġpseudotumor s
Ġcaf e
Ġflex ib
Ġbrun s
Ġsymmetric al
Ġstrept ococcus
Ġaspart yl
Ġcav us
Ġnor th
Ġspi roch
Ġpred is
Ġthromboph lebitides
Ġincis ors
Ġgastroenter itides
Ġprotozo an
Ġfer tility
Ġvacu olar
Ġpharyng oesophageal
Ġneurile m
Ġambly opias
uy ama
Ġili opsoas
Ġster ility
Ġbrux isms
Ġoroph aryngeal
Ġfulm inating
Ġhor se
Ġhemi hyp
Ġirr itant
ges ic
pen ning
Ġverm is
Ġwag r
Ġprote us
Ġextram edullary
Ġventricul omegaly
Ġstimul ating
Ġlaur ence
Ġvip oma
Ġstre ak
Ġfibros arcomatous
Ġsplen omegaly
Ġsphen oid
Ġcic atric
Ġgaz e
ograph ic
omo tion
aryl acetoac
Ġech o
Ġhypoal phal
Ġsat urn
Ġcof actor
Ġna eg
Ġfuk uyama
Ġdysg raph
Ġalkal osis
Ġintes tines
Ġnecro tising
Ġdermatomy ositis
Ġappar ent
Ġpseudohypop arathyroidism
Ġsitu ational
Ġtest es
Ġhyg roma
Ġfemoro acetabular
Ġfum arylacetoac
Ġchil aid
Ġreciproc al
Ġexst rophy
Ġzon ular
Ġambigu us
Ġelastic um
Ġchondromalac ia
Ġmorbill iform
Ġacetylgalact osaminidase
Ġfund us
Ġpyel oneph
Ġmng ie
Ġhap ple
Ġbit emporal
Ġeis enmen
Ġventil ator
Ġhypereosinophil ic
Ġintoxic ation
Ġmacros omia
Ġrestric tive
Ġintracellular e
Ġrous sy
Ġdupuy tren
Ġaudi ogenic
Ġmidb rain
Ġhyperox al
Ġdipetal onema
Ġiridogoni odysgenesis
Ġellipt ocytosis
Ġbronchiect asis
ored uctase
Ġdetr usor
Ġdebran cher
Ġhypob etalipoproteinemia
Ġschm id
Ġpneumor rh
Ġseborrh e
Ġfores tier
Ġsacro ili
Ġpir iformis
Ġmtd ps
Ġnav ajo
embran ous
Ġbins wang
Ġeurop ean
Ġhypomat uration
Ġhypochrom ic
Ġchik ungunya
Ġcontig uous
Ġneuroend ocrine
Ġwea ver
Ġthesaur ism
Ġadvanc ed
oglycer ate
Ġproper din
Ġreconstit ution
Ġscald ed
Ġmetacar pal
Ġobli que
Ġdermatozo ic
Ġpreinf arction
Ġfoodbor ne
Ġfumarylacetoac etase
b aum
c n
d ino
g o
g aris
h es
i ver
i qu
j ective
k l
k us
l och
l ers
m ed
m edullary
n h
o tile
p c
p ro
p ase
p ers
p olydactyly
r ing
s ps
u tier
u elan
u eller
x x
y tia
z y
Ġ enc
Ġ ung
ti me
er ary
er kal
Ġd ub
Ġd end
Ġd row
Ġd yx
Ġd irect
Ġs us
Ġs otos
en osis
en ostomy
in drom
on vulsive
Ġc t
Ġc yp
Ġc urr
Ġc acch
Ġc fe
Ġc igu
is sion
es tr
es idi
Ġp ic
Ġp ph
Ġp ep
Ġp dh
an o
Ġm un
Ġm af
Ġm iss
or etic
or bital
Ġt ob
Ġt ab
om m
om eta
Ġh g
Ġh us
Ġh ant
Ġh np
ia b
Ġa gen
Ġn id
Ġn esidi
ul oplasm
ul nar
it el
us is
ed ish
em s
Ġf m
Ġf amil
Ġf lec
Ġdis m
op o
op ur
op eri
Ġin verted
Ġin organic
Ġb es
Ġb ul
Ġb ick
Ġb ert
Ġb bb
ys ip
Ġl m
Ġl ad
Ġl ysis
Ġl amin
Ġl ux
Ġl pl
Ġl dl
el sen
ac il
ac illary
Ġr id
Ġr eb
Ġr ams
oc onus
ur nal
id es
il der
Ġg an
ol aryngeal
ut am
Ġe uth
am idase
am ide
gen ase
Ġhyp t
Ġhyp om
um ulation
Ġch er
Ġch ag
im otor
ell o
ell ig
Ġan l
Ġan ib
Ġan ast
Ġan aphyl
Ġinf und
Ġinf iltra
roph ag
ous ton
ud ness
ud ley
Ġhyper emia
Ġhyper and
yl v
Ġat roph
Ġat tr
Ġneuro p
Ġneuro dermatitis
Ġneuro dermatitides
Ġi e
Ġi p
ine a
ob alamin
yst ectomy
ron e
Ġal ps
erm ias
Ġpr une
Ġk art
Ġk au
Ġar b
Ġar md
Ġhem oside
Ġad ne
oph ytia
Ġlymph oretic
og lyc
Ġpro tr
ost oma
ach ond
ens or
Ġj erv
if orn
if ying
Ġab uses
Ġleuk emic
Ġmal occl
Ġ4 4
ap se
Ġrec ogn
Ġas eptic
iz ations
iz ontal
re y
re tinal
Ġret roc
ov es
Ġph ac
Ġph yt
Ġph yll
Ġim mer
Ġam put
Ġam enorrhea
ill us
oth oracic
Ġex otrop
ment ary
kin s
Ġii is
Ġencephal oceles
Ġbl ister
oste roid
Ġpost v
Ġoc a
Ġchrom osomes
Ġnon organic
Ġnon medullary
rop ia
Ġmic romelic
Ġpa v
Ġsub t
Ġsub lux
Ġ5 3
Ġsh w
Ġsh eld
Ġop a
Ġcol li
Ġoste odystrophy
Ġco ordination
Ġang el
Ġer ysip
Ġthromb asthenia
Ġtrans aminase
Ġpseud oc
Ġsch ueller
Ġend olymph
est one
unction al
Ġcat aple
rox y
Ġins ect
Ġap op
Ġhyd ranencephaly
ay as
Ġmon one
Ġcent r
Ġcent er
Ġun der
Ġcr iss
Ġcr isis
Ġgran ule
Ġneph ritides
Ġangi opathies
Ġangi okerat
Ġdi urnal
Ġca roli
Ġmalform ed
Ġpneum ocephal
Ġintra osseous
Ġintra abdominal
st rom
Ġsm a
Ġdr inking
Ġgranul omatoses
amin idase
rad ren
Ġmuc ous
thy retin
Ġretin oblastoma
rog l
Ġichthy oses
Ġaph onia
Ġpsych os
Ġocul ocereb
Ġepiderm oid
Ġmes oblastic
Ġmes enter
Ġshort ness
Ġro l
Ġro und
Ġmar kes
ans en
Ġkerat oses
Ġkerat oconus
Ġhemat opoietic
Ġen ur
Ġspondyl itis
Ġmo on
Ġneur aminidase
Ġgi er
Ġz en
Ġpoly arthritis
Ġgalact orrhea
Ġcalc ifying
Ġste ely
Ġdf sp
bl estone
nes ium
Ġsw edish
Ġerythro dermas
Ġtrich ophytia
Ġsal dino
Ġble ed
ier e
Ġmyc oses
Ġpre ec
Ġhyperlip idemias
Ġtach yarrhythm
Ġcm m
Ġpat ernal
Ġloc omotor
Ġsensor imotor
pl enia
Ġcal iforn
Ġhypothalam us
ech iae
Ġcrypt ophthalmos
Ġni elsen
Ġsph eroid
Ġjoint s
Ġlo udness
Ġatt achment
Ġleukoencephal itides
Ġgr uber
Ġcomplic ated
rov iridae
Ġbranch ed
Ġmc ph
Ġmc kus
ars k
Ġtelangiect atic
Ġbow en
Ġbow ing
Ġamyot rophies
Ġequ ival
Ġbur ns
Ġbur uli
Ġsubc orneal
Ġav ascular
Ġvas a
Ġvas ospasms
Ġvas oplegic
ater a
Ġhun ermann
Ġatri o
Ġmedull oblastomas
Ġgu adal
Ġgu inea
Ġana gen
Ġage us
Ġblepha roptosis
acc o
otyp es
Ġcoll oid
Ġtur c
Ġtre acher
Ġvul garis
Ġpseudohyp erkal
Ġdisc s
Ġind irect
Ġcog an
Ġarrhythm ias
Ġherpes virus
Ġneutrop enias
Ġchore atic
Ġscot t
Ġgo utier
Ġspg f
Ġrub instein
Ġmaj ewski
lu ent
Ġterat omas
Ġcerebell opar
Ġshe ep
Ġsupra valvular
ozo a
Ġneurom yelitis
Ġbehavior s
Ġbehavior al
Ġmil roy
Ġacc umulation
Ġfibro elast
ermaphroditis ms
ines ter
Ġhydroxy but
Ġlentig ines
Ġmucolip idoses
oendothel ioma
Ġpp k
Ġwill is
Ġpemphig oids
Ġhur st
Ġintoler ances
Ġrhabd oid
Ġhab itus
Ġhemian opia
Ġhemian opias
Ġhemian opsia
Ġhemian opsias
Ġmacul opathy
Ġnonc onvulsive
Ġplantar is
Ġoculo auriculovertebral
Ġdiast asis
Ġhyperth yroidism
Ġcystaden oma
Ġthy rotoxic
Ġshig a
Ġmyokym ias
aj ara
Ġhid radren
ocl avicular
Ġom odysplasia
Ġadhes ions
ohyp ertrophy
Ġbronchiol itides
Ġvitreore tin
Ġtak ayas
Ġwell s
Ġchoriore tinopathy
Ġlact ate
Ġstevens on
glut aric
Ġon c
Ġhel ic
Ġconstr iction
Ġcatat onias
Ġcitrull inemias
Ġoligodendrog liomas
Ġhamm ond
Ġhypocalc iuric
Ġependym omas
Ġoxid oreductase
Ġbrachy teleph
Ġti etz
ofol lic
Ġimm otile
Ġfove omac
Ġmigr ations
Ġbell y
Ġmyh re
Ġpust ulosis
Ġhypomyel ination
Ġhdl cq
Ġmegakary oblastic
equ al
Ġoroph arynx
Ġendometri um
Ġfusari osis
Ġfusari oses
Ġcop per
Ġtal ip
Ġhor izontal
odent ate
Ġinfluenz a
Ġleukopl akia
Ġpneumothorax s
Ġvagin itides
Ġport ugu
Ġthom son
Ġthom sen
Ġprocess ing
Ġthrombocyth emias
Ġechinococc osis
Ġnonf amilial
Ġnonf luent
Ġmonil iasis
Ġball oon
Ġlumb ar
Ġalve olitis
Ġkel oidal
Ġlymphangiect asia
Ġesotrop ia
Ġesotrop ias
Ġbrachym es
Ġcraniopharyng ioma
Ġcraniopharyng iomas
Ġchondrodyst rophy
Ġmethylcrotonyl glyc
agon oma
Ġkl ump
Ġsphingomyel inase
Ġthromboemb olism
Ġlived o
Ġoh do
Ġcob blestone
Ġencephalomy opathic
Ġradio ulnar
Ġsarcoid osis
Ġstrict ure
Ġsen ior
Ġeg g
Ġkenn ed
Ġsarcog lycan
Ġequin us
Ġtymp anic
Ġgood man
Ġholm es
Ġenteroc olitis
opalat odigital
Ġdyssynerg ia
Ġconverg ence
Ġbin asal
Ġbing e
oduod enostomy
Ġcoarct ation
Ġagranul ocytosis
Ġhypoten sions
Ġhydroxyphen yl
ammaglobulin emias
Ġhyperchylomicron emia
Ġsupernum erary
Ġbuck ley
Ġprolifer ation
Ġmarg inal
Ġmaxill ofacial
ineral ization
Ġcoh en
Ġmag nesium
Ġbm iq
roste osis
Ġscr atch
Ġfras er
Ġverlo es
Ġasymmet ry
Ġacrocephalosyndactyl ies
Ġpromin ent
ojejun ostomy
Ġaneup loid
Ġhak im
Ġftl d
Ġion izing
Ġkell y
Ġexpos ure
Ġvenez uelan
Ġmethylmal onyl
Ġmcard le
Ġosteopoikil osis
Ġmacroglobulin aemia
Ġnaeg eli
Ġcurr arino
Ġcfe om
Ġcigu atera
Ġmaf d
Ġtob acco
Ġbick el
Ġbert rand
Ġlamin ar
Ġrams ay
Ġchag as
Ġanast om
Ġinfund ib
Ġadne x
Ġjerv ell
Ġrecogn ition
Ġphyll odes
Ġimmer sion
Ġexotrop ia
Ġsheld on
Ġerysip el
Ġendolymph atic
Ġpneumocephal us
Ġcaliforn ia
Ġmckus ick
Ġequival ent
Ġguadal ajara
Ġpseudohyperkal emia
Ġgoutier es
Ġcerebellopar enchymal
Ġfoveomac ular
Ġportugu ese
Ġmethylcrotonylglyc inuria
b ur
b ite
e o
e us
e uk
f ec
f usions
f arin
g da
h iasis
i ent
j b
k it
k am
l ich
l ak
l onus
m or
n uclear
n aviridae
o tia
p ontine
r is
r ac
r ell
r ion
s z
s ad
s ug
t ac
u ent
u ft
v s
y os
z iger
Ġ rom
al i
ro om
ro plastic
ro intestinal
ro ugh
ro blastoma
ti um
Ġd enti
Ġs d
Ġs ic
Ġs un
Ġs ne
Ġs ak
Ġs na
en ohumeral
in ar
in ia
on c
on im
on ym
on ium
Ġc ac
Ġc ath
Ġc yl
Ġc occid
as mus
ar n
ar us
ar ch
ar son
Ġp m
Ġp ed
Ġp ec
Ġp ent
Ġp ock
Ġp uerperal
Ġp uffy
ic z
an ia
an tin
at ose
Ġm t
Ġm v
Ġm ol
Ġm ert
Ġm ush
Ġm ks
Ġm fm
or ia
or hin
os as
os oma
os ity
os edi
Ġt ro
Ġt on
Ġt od
Ġt rous
Ġt oni
Ġt amp
om ial
om embranous
Ġh c
Ġh r
Ġh ies
Ġh erm
Ġh yt
Ġh isian
le af
Ġa is
Ġa romat
Ġa plastic
Ġa arsk
Ġn r
Ġn yc
Ġn atal
Ġn emat
Ġn aff
Ġsyn ch
Ġsyn polydactyly
it amin
it able
yp sin
ed ia
Ġf ec
Ġf hl
Ġf itz
Ġf ecal
Ġf raum
Ġf abry
Ġdis tic
Ġdis junction
op d
op all
op terin
Ġin ad
Ġin ner
Ġin crease
Ġin equal
Ġb ud
Ġb ang
Ġb uch
Ġb az
ys titis
Ġl p
Ġl v
Ġl is
Ġl ler
Ġl ok
Ġl ump
ac ul
Ġr uv
Ġr cd
tic is
oc omial
Ġde w
Ġde crease
ur ida
id urias
ec tin
Ġg a
Ġg c
Ġg raden
Ġg jb
ent ulous
et ast
th le
ut sug
Ġe a
Ġe hr
am y
am ush
Ġhyp ochond
Ġhyp opharyngeal
Ġdys b
Ġdys seg
Ġch ds
Ġch udley
od ia
si le
si veness
im ia
Ġan ore
Ġan ca
Ġac l
Ġac amp
Ġac rorenal
ot arsal
ir rh
te ine
Ġmy ofacial
ym a
ym en
ym ethyl
Ġhyper v
Ġhyper kerat
Ġhyper aldosteronism
yl osis
Ġsp rain
Ġsp ider
Ġat d
Ġat od
act ed
ros e
ros us
Ġw el
Ġst ab
Ġst ability
Ġst abilities
Ġpar is
Ġpar tum
ip oproteinemias
Ġal pers
Ġal strom
Ġal euk
Ġpr ep
Ġk ing
ver leaf
Ġth ec
Ġth erapeutic
Ġ3 9
Ġar en
Ġhem ostatic
oph alangeal
Ġcell ulitis
Ġlymph otropic
Ġlymph omatoid
Ġgl m
Ġgl enohumeral
tr ypsin
og nath
Ġpro wer
uk i
Ġj oh
Ġj ew
Ġj anz
Ġper ia
Ġper im
Ġper ip
Ġper ineural
Ġper vasive
Ġtr yptophan
Ġleuk omalacia
Ġleuk omalacias
Ġse z
yd actyl
Ġcom atose
Ġas s
Ġas rt
re h
Ġret rob
Ġret ained
Ġph ocomelia
tib ial
Ġam ish
ax ia
ab as
ogen etic
Ġsc irrh
oth ymic
roc ard
ly te
mun d
kin esis
Ġii id
se au
Ġpal ms
oh isian
Ġbl unt
Ġpost men
all ow
Ġmulti min
gr ession
gr uent
omat ernal
Ġnon t
Ġnon ne
Ġnon cle
rop in
rop ion
ich ia
Ġfib romatoses
Ġsh ep
ow itz
Ġop d
Ġop soc
Ġop ales
och eil
Ġbr uton
Ġbr gda
yc ephaly
Ġgen omic
Ġgen ome
Ġoste omas
Ġoste osarcoma
ening eal
Ġis land
Ġco q
Ġfr ider
lic es
Ġtrans fusions
ak a
Ġag m
Ġag ing
Ġsch ilder
otor enal
Ġmening omyel
Ġo at
Ġcat ech
av a
yr im
Ġhyd roneph
ay er
Ġscle rosus
Ġcent rocytic
Ġun st
Ġpo int
Ġcr ushing
ast rointestinal
Ġver nal
Ġver ticis
Ġcar ies
Ġcar ey
Ġneph ros
Ġneph ropathic
Ġcl l
Ġangi osarcoma
Ġdi ph
Ġnerv osa
Ġob l
Ġeryth r
Ġheart s
Ġsleep er
lex ic
alc aba
ef e
st orp
vel d
Ġsm d
Ġsm ed
Ġfl ushing
Ġmed ium
amin ergic
ose xual
Ġsup pr
etal es
Ġes cher
Ġauto kinetic
Ġpsych osexual
Ġpap illedema
Ġtubercul oid
Ġmes enchymal
Ġves ical
Ġperiod ont
Ġro kit
Ġpe arson
Ġmar mor
Ġnod al
Ġnod ding
omyel ia
Ġsep to
Ġphosph oglycerate
Ġprotein s
Ġov otes
Ġlow e
uff ard
Ġ13 5
Ġgal en
Ġpalm ar
Ġpalm aris
Ġspondyl osis
Ġhern iated
Ġprost atitis
Ġchor io
Ġiv s
arth rosis
Ġpoly ostotic
til l
Ġhydrox ymethyl
Ġste atosis
Ġfactor s
Ġext ensi
Ġdf sps
Ġmitochond ria
Ġy in
Ġhall ermann
Ġox oprol
Ġox yphil
Ġbronch ogenic
Ġsim ian
bl att
Ġhemangi omatosis
Ġhemangi operic
Ġpseudo achond
osyl transferase
icular is
Ġemb olus
Ġsw allow
Ġtrich in
Ġtrich omonas
Ġtrich orhin
ulf ov
Ġschiz encephalic
ber y
Ġmor ax
Ġax ial
Ġdysm et
Ġot osclerosis
Ġot olaryng
Ġpy elect
Ġpy kn
Ġpat ellar
olip omas
Ġqu erv
Ġloc omotion
pl t
Ġcal ici
Ġanti phosph
Ġanti trypsin
Ġherp eti
Ġrod ent
osyn ov
Ġgra efe
Ġtrig lycer
Ġmin us
Ġmin eral
Ġmin icore
Ġgingiv itides
upt ed
Ġden tine
Ġcyt ogenetic
Ġprot op
Ġach es
Ġlam bd
Ġsulf atid
Ġgr inding
opolys yndactyly
acchar ide
Ġed entulous
ars eness
Ġsl o
Ġdes ulfov
Ġextra pontine
obacter iaceae
Ġme val
Ġme ara
Ġgangl ionic
Ġvas ogenic
Ġreticul um
edi ens
Ġatri ohisian
Ġpapill itis
nath ism
Ġsequ estr
Ġspasm odic
Ġath le
Ġthalass emias
Ġtox emia
Ġhypop nea
ucc inase
Ġover d
Ġover active
Ġpolym yositis
Ġcoll apse
Ġpag ets
Ġaur iculo
Ġarg inase
Ġvestibul opathy
ust ment
Ġgest ural
Ġcys titis
asm idia
Ġacanth ocheil
Ġoliv o
rob ial
Ġmeg a
Ġankyl oses
Ġanal gesic
Ġlep romatous
Ġpolyp loid
Ġhom onym
Ġlipoprotein emias
Ġrobin son
Ġadh d
Ġxanth omatoses
Ġembry o
Ġembry onic
Ġant ral
Ġspong y
Ġmultic ore
Ġextrem ely
ule an
Ġecz emas
Ġhypophosphat asia
Ġinfant s
chol ine
Ġstri atal
Ġstri ata
Ġhydroxy glutaric
Ġorgan othi
Ġhyperglyc emic
Ġcerebro ocul
Ġcirc um
Ġcirc adian
Ġweight s
Ġlentig inoses
Ġhodgkin s
Ġacro oste
Ġsil o
Ġcond yl
Ġparag onim
Ġseptic emia
Ġseptic aemia
okal emic
Ġorth omyx
Ġleiomy oma
Ġonych odysplasia
rot ropin
Ġling u
Ġpolyradicul opathy
Ġpolyradicul opathies
Ġossi f
emb erm
Ġschist osoma
Ġnarc otic
Ġthy rotropin
Ġcycl othymic
Ġmod els
Ġmod erate
adr enal
Ġosteochond rodysplasia
Ġverteb rae
Ġsteroid ogenesis
Ġurol ithiasis
Ġasc ar
Ġprolong ation
alan ine
Ġsurg ery
Ġcur sive
Ġbab es
Ġphenyl alanine
ou zy
Ġarc i
Ġtak o
Ġatheroscle roses
Ġbro ken
Ġvaric ose
Ġvaric ella
Ġeth m
Ġfre y
Ġlymphangi oma
Ġhypercholesterole mias
Ġho arseness
Ġhypocalc emia
Ġhypocalc iuria
Ġsple ens
Ġquadr iplegia
Ġcollagen ous
Ġud d
Ġunc ompens
Ġns rd
Ġfran c
Ġeb ola
Ġti me
Ġfet omaternal
Ġbac teroid
Ġgro en
Ġgro ove
Ġdelirium s
Ġschizophren iform
Ġcro hn
Ġts ubo
Ġts utsug
Ġgyr ate
Ġimm ediate
Ġmetat ropic
Ġgynec ologic
Ġante rograde
Ġleishman iases
Ġpk d
Ġnag a
Ġla ron
Ġadip ic
Ġretrop os
Ġell is
Ġbulb o
Ġbulb ospinal
Ġander son
eps in
Ġmuscul orum
Ġneed le
Ġarticul atory
Ġsteat ocyst
Ġendometri oid
Ġaccid ent
Ġaccid ental
Ġconstric tive
Ġcas pase
arter i
Ġten osynov
Ġlem ierre
Ġhyperkal emia
Ġleukopl akias
Ġretro verted
Ġphys ical
Ġhidraden itis
Ġhemicran ias
Ġfur row
Ġland ouzy
Ġge ographic
Ġverm icularis
Ġwag ner
Ġprote ostasis
Ġprogr essi
Ġmetast atic
Ġide omotor
Ġide ational
Ġextram ammary
Ġnocard iosis
Ġnocard ioses
Ġloe ff
Ġchlamyd ophila
Ġechinococc oses
Ġstimul us
Ġbrad ycard
Ġgam storp
Ġthre at
Ġmegac olon
Ġhyperlys inemia
Ġdur ing
Ġnorm okalemic
Ġbd plt
Ġbacter emia
Ġgaz ali
Ġxii i
Ġisomer ism
Ġclub foot
Ġmanson i
Ġstomat ocytosis
Ġstomat ognath
Ġcytomegal ic
Ġsphingomyel in
Ġlived oid
Ġstein ert
Ġfiss ure
Ġdeb re
Ġwar farin
Ġgli oblastoma
Ġcholec ystitis
Ġpasteur ella
Ġotorhinolaryng ological
Ġotorhinolaryng ologic
Ġsor es
Ġsuccin yl
Ġhan hart
ochoroid opathy
Ġnecrob iotic
ferr itin
Ġtapet oretinal
Ġaor titis
iderm oid
Ġkin esthetic
Ġadduc ted
Ġclo verleaf
Ġflo or
Ġdesquam ative
Ġhipp el
Ġmercurial ism
Ġdiscrim ination
haus er
Ġsting s
Ġcer ulean
Ġcant rell
Ġpont o
Ġfle a
Ġaltit udinal
Ġimbal ance
Ġfreck le
Ġengel mann
Ġtachyp nea
fibr inogenemia
oepithel ioma
Ġsialaden itis
Ġquadriple gic
Ġmicronucle i
Ġtog aviridae
Ġconj ug
Ġkary otype
Ġaref lexic
Ġcaud al
Ġthoraco abdominal
Ġaqued uctal
rel iosis
Ġigh d
Ġso uth
Ġsomn olence
Ġceram idase
Ġew ing
Ġelec tric
Ġstu art
Ġadj ustment
Ġrele ase
Ġphalang es
Ġexer tional
Ġmicrom etast
Ġmyelofib rosis
Ġcatt le
Ġroth mund
Ġsilv erman
Ġhelminth iasis
Ġdihydrop yrim
Ġelectro lyte
Ġdext rocard
Ġreckling hausen
Ġdors al
Ġmeas les
Ġnos ocomial
Ġfal se
Ġiniti ation
Ġcha uffard
Ġconsum ption
Ġwhe at
Ġpostencephal itic
Ġoch ron
Ġisa acs
Ġpostin fec
Ġmucoep idermoid
Ġpyre xial
Ġtrigon ocephaly
Ġpreserv ed
Ġcicatric ial
Ġchilaid iti
Ġeisenmen ger
Ġhyperoxal uria
Ġseborrhe ic
Ġbinswang er
Ġdend ritic
Ġdrow ning
Ġpic orn
Ġhant avirus
Ġhnp cc
Ġnesidi oblast
Ġdism emberm
Ġreb ound
Ġeuth yroid
Ġhyperand rogen
Ġarb ovirus
Ġhemoside rosis
Ġmaloccl usion
Ġcataple xy
Ġangiokerat oma
Ġmarkes bery
Ġpreec lampsia
Ġhydroxybut yric
Ġtalip es
Ġklump ke
Ġkenned y
Ġanastom otic
Ġadnex al
yos hi
Ġsna ke
Ġcath epsin
Ġmush room
osedi phosphatase
Ġtrous seau
Ġtamp onad
Ġaromat ase
Ġaarsk og
Ġnaff ziger
Ġfraum eni
Ġdistic hiasis
opall id
Ġbuch em
Ġlok en
Ġruv alcaba
Ġehr lich
amush i
Ġdysseg mental
Ġacamp omelic
Ġretrob ulbar
Ġscirrh ous
Ġpostmen opausal
Ġmultimin icore
Ġnoncle aved
Ġopsoc lonus
Ġopales cent
Ġfrider ichsen
Ġcatech ol
Ġunst able
Ġescher ichia
Ġrokit ansky
Ġovotes ticular
Ġextensi vely
Ġswallow ing
Ġtrichorhin ophalangeal
Ġantiphosph olipid
Ġherpeti formis
Ġhomonym ous
Ġtsutsug amushi
Ġstomatognath ic
Ġpostinfec tious
0 0
a emic
a gener
b u
c ad
c eral
c opic
e i
e rod
e orge
f ava
g able
h m
h el
h am
h of
i eth
l or
l enh
n f
n us
n ig
n ox
n air
p ar
p an
p ric
r elia
s son
s ack
t ter
u ated
u ill
u ana
u osity
v o
v r
w ater
y le
y han
z ation
Ġ it
Ġ ow
Ġ rog
al ign
ro duc
ti es
er ens
er uloplasm
Ġd k
Ġd ot
Ġs th
Ġs yd
Ġs ap
Ġs uff
Ġs ister
Ġs odium
en ed
en uated
in atory
on odular
Ġc i
Ġc en
Ġc um
Ġc ad
Ġc st
Ġc roup
Ġc ush
Ġc off
Ġc vid
Ġc jd
ar et
ar eses
is tr
es he
Ġp ental
Ġp orph
Ġp fic
Ġp cc
Ġp ads
Ġp utam
ic emia
an es
at es
at oses
at rial
at abolic
Ġm m
Ġm ies
Ġm ea
Ġm ik
Ġm hs
Ġm opd
or ectal
Ġt em
Ġt all
Ġt ort
Ġt au
Ġt sh
Ġt dh
Ġh fe
Ġh utter
Ġh ymen
ia fava
Ġa zo
Ġa uric
Ġa wareness
Ġa kinesia
Ġn at
Ġn ile
Ġn aus
Ġn ova
Ġn ckeberg
Ġn yhan
ul us
ul itides
ul ating
ul man
it rous
yp ass
ed er
ed don
em er
Ġf olic
Ġf ord
Ġf uj
op r
op y
op py
Ġb on
Ġb ic
Ġb os
Ġb ut
Ġb ony
Ġb aker
Ġb ypass
Ġl id
Ġl utz
Ġl az
Ġl osing
Ġl ayer
el on
el son
Ġr it
Ġr im
Ġr sh
Ġr ls
Ġr asmus
oc in
oc apillary
Ġde glu
ur ati
il ian
il obar
ec ial
ec ox
Ġg s
Ġg em
Ġg ord
Ġg nath
Ġg bb
ol ent
ol act
ent e
ent ary
ve x
et eral
Ġe ul
Ġe ec
Ġv ers
am ylase
am berg
Ġhyp oac
Ġhyp our
Ġdef erens
um in
Ġdys th
Ġdys cr
Ġdys kinetic
Ġch e
Ġch ot
od actyl
im entary
ig ar
un ning
Ġan orectal
oma virus
Ġcon us
Ġcon otr
Ġcon vex
ing er
Ġac s
Ġac tion
ran c
ies t
ir ection
Ġmy oglob
Ġmy opias
Ġmy omelan
ch al
Ġhyper esthesia
Ġhyper esthesias
Ġhyper ferritin
eb ral
Ġat p
Ġat rich
Ġneuro vis
Ġi ps
Ġw t
Ġw ard
Ġw ine
Ġw itt
Ġw iss
Ġw ester
Ġw ander
Ġw ieth
ad ia
ad ip
Ġst ap
Ġst arg
Ġpar ad
Ġpar ry
ob rach
ob loch
ip a
Ġep m
Ġpr ing
Ġk as
Ġk ink
Ġk och
Ġk uster
Ġth ro
Ġhem e
Ġhem eral
ymph oblastic
oph alangy
Ġre im
Ġre gression
Ġlymph ocytosis
Ġgl anz
ati s
ost rongyl
uk enberg
ens is
Ġj ones
Ġj ean
if ied
if unctional
Ġtr uncal
Ġtr ifunctional
encephal itis
Ġleuk osis
Ġleuk oses
Ġcom pr
Ġas a
Ġas h
Ġpol and
ink el
Ġhe ub
ov al
Ġph a
Ġph p
Ġph alangeal
ness es
qu ois
ab is
ill s
ill ing
oth iolase
Ġcor e
Ġcor ne
ion yl
ion asal
Ġpal atal
Ġbl o
Ġpost m
Ġprim e
all osal
gr en
omat osa
Ġnon inf
Ġnon go
Ġmet al
rop orphyria
Ġpa roti
ke y
Ġlip s
Ġlip osarcomas
Ġsub normal
Ġsub jective
Ġsh fm
Ġsh oke
Ġint ention
Ġop erative
Ġop pen
Ġop tb
yc e
Ġcol itides
Ġoste odysplasia
Ġoste oclastic
Ġaden yl
Ġis omal
Ġco le
Ġcyst oid
Ġmyel omas
Ġmyel opathic
Ġmyel oblastic
Ġmyel omening
Ġthromb us
Ġthromb openic
Ġid enti
Ġtrans thyretin
Ġperi os
Ġsch n
Ġsch oen
Ġsch amberg
ers tein
Ġmening oceles
Ġo vern
Ġacid oses
Ġend ophthalm
Ġtub erous
Ġhyd rocephaly
ay an
Ġmon oplegic
Ġmon ckeberg
Ġscle rodactyly
Ġun ipolar
Ġpo roma
Ġmac rocytic
angi ocapillary
Ġ7 9
Ġcl in
Ġcl ouston
Ġem erg
Ġeryth romel
Ġ8 4
Ġnec rotic
Ġsleep ing
Ġintra operative
Ġdr ess
Ġsec kel
Ġfl oppy
Ġgranul omatosa
Ġglyc ine
Ġ9 1
Ġretin oblastomas
Ġol iver
Ġol sz
Ġchild ren
Ġes tren
Ġspin o
sych iatric
Ġgeneral isata
Ġbrach ydactyl
itu ation
Ġlimb ic
Ġent eric
iform e
Ġpsych ological
Ġall odynia
Ġall oimmune
Ġbil irub
Ġmes ial
Ġmes omelia
Ġmes angiocapillary
Ġmar k
Ġimp ul
Ġval ley
Ġpanc oast
Ġen g
ocytop enias
Ġprost atitides
ins ky
ins ser
he ad
Ġneur inoma
Ġfetal i
Ġgluc osamin
Ġgluc osylceram
Ġz inc
Ġz insser
arth ritides
Ġpoly omavirus
til aginous
Ġste ele
Ġste phan
Ġdeform ing
Ġy ang
bl ing
ait o
Ġrecurr ence
Ġrecurr ences
Ġgast aut
Ġcystic erc
Ġsw iss
Ġinc o
Ġhum ero
Ġhorm onogenesis
Ġmyot onias
Ġcap ital
Ġcontr active
Ġbe emer
Ġot sc
Ġot opalatodigital
Ġarteri oscleroses
Ġpat ell
Ġqu ad
Ġast atic
Ġcal v
Ġbas ement
Ġand rade
Ġgra vid
Ġve ins
Ġtor ti
ech t
Ġhyperc atabolic
Ġhetero z
Ġcox pd
Ġcox sack
Ġcyt otoxic
Ġatt enuated
Ġbor relia
Ġsyncop al
Ġcan adian
ars us
Ġtelangiect asias
Ġdes bu
Ġple urop
our eteral
Ġup sh
Ġhyal oid
Ġhernia tions
Ġme ier
Ġav ium
creas es
Ġcre e
Ġcre veld
Ġbi phosphate
Ġvas ovag
Ġdysph oric
Ġill um
atid yl
Ġpapill itides
Ġrep roduc
odys plas
Ġnoctur nus
Ġpen a
acc ular
Ġtox in
Ġover activity
Ġtw ins
Ġconcus sions
arb amylase
Ġpag on
Ġvestibul opathies
Ġcmt x
Ġdam eshe
Ġacanth oma
eryth ro
iter ans
ocard iac
Ġald rich
Ġxy y
Ġros ai
Ġmetach ronous
rob i
Ġmen iere
Ġtyros ine
Ġlab yrinth
uber tal
Ġendothel ioma
Ġodont omas
Ġcommunic ating
Ġdig its
Ġdig eorge
Ġhom oz
thromb inemia
Ġsial ic
Ġsial uria
Ġperiton itides
Ġmer kel
Ġleak s
Ġleak ages
Ġcampt omelic
Ġrub ella
Ġlen ticular
Ġlen nox
dd r
Ġlich the
Ġgamm opathy
Ġuve itides
Ġline age
Ġdysenter iae
Ġhh f
Ġstri opallid
Ġorgan izing
Ġmas titis
Ġfati gable
Ġrich ner
Ġanh idrosis
oendothel iomas
Ġhyperinsulin emia
Ġlichen oides
Ġhur thle
ophys ial
Ġhab ituation
Ġhemian opic
dl r
Ġneuroc yt
Ġonych olysis
Ġtetra hyd
Ġholopros encephalies
Ġcystaden omas
Ġcystaden ocarcinoma
Ġcystaden ocarcinomas
Ġschist osomiases
Ġcephal gia
Ġpolys plenia
Ġhamart omatous
Ġhamart oblastoma
Ġhyperuric emic
Ġosteochond ritis
Ġosteochond roses
Ġpostp rand
Ġsn eddon
Ġfore ar
Ġfore head
Ġarrest s
Ġscler ae
Ġblast omycosis
Ġkn uck
Ġkn iest
Ġkn obloch
Ġverruc iformis
Ġmcop cb
Ġvessel s
Ġvaric es
Ġvaric elliform
Ġachond roplasia
Ġplasm inogen
Ġcbl d
Ġfir e
Ġfre e
Ġile itis
Ġprop ionyl
Ġof d
Ġof ds
Ġwall enberg
Ġenter itides
ni os
Ġpra ecox
hr ig
Ġunc inate
Ġhl a
Ġfran k
Ġgold berg
Ġgold blatt
Ġhyperm obility
Ġperc eption
Ġurid yltransferase
Ġdihyd roxy
Ġvesic oureteral
Ġketoac idosis
Ġketoac iduria
Ġwr iting
Ġhemis p
inflamm ation
Ġflex or
Ġstrept ococcal
Ġstrept oz
Ġmarch iafava
Ġdepos ition
Ġsr ps
Ġpk u
Ġtubul opathy
Ġcp eo
Ġpud lak
Ġgil ford
Ġmicros copic
Ġmicroangi opathies
Ġdetachment s
Ġhyperphosphat emia
Ġsteat ohep
Ġconstric tions
Ġms ud
Ġfrom mel
Ġinfluenz ae
Ġhyperkal emic
Ġspr ing
Ġempy emas
Ġmorg ell
Ġirr itable
Ġfar ber
Ġge hrig
Ġva ult
Ġparam yotonia
Ġprogr ession
Ġprocess es
Ġmetast asis
Ġsimp lices
Ġdsd s
Ġhard ing
Ġhist ological
uron ate
Ġepic ondyl
Ġapple baum
Ġcaps ular
Ġpolyneur itic
Ġphaeohyph omycoses
Ġbun ion
Ġdev iation
Ġalve olitides
Ġreck lenh
Ġphob ia
Ġtransc arbamylase
Ġoxal osis
Ġmaternal ly
Ġhemim otor
Ġcolic s
Ġcytomegal ovirus
Ġhypoal bum
Ġcob alamin
Ġcow den
iltra ting
Ġhemiat rophy
Ġstrict ures
Ġsant os
Ġsad d
Ġpb c
Ġnonl ymphocytic
Ġnonl ymphoblastic
ochoroid al
Ġhydroc eles
Ġlegion nair
Ġxanthogranul omatous
Ġtapet ochoroidal
bum inemic
Ġgel ine
Ġvill onodular
ofaci oskeletal
Ġsche ie
glu tin
Ġgangliog lioma
Ġgangliog liomas
Ġhypertriglycer idemia
Ġalternari osis
Ġalternari oses
Ġdyscalcul ia
Ġdyscalcul ias
Ġaggreg ate
Ġcann abis
otrach e
Ġneurot rophic
Ġwin ter
Ġserocon version
Ġpauc i
Ġzyg omatic
Ġathet oid
Ġseropos itivity
Ġdol ich
Ġset ting
Ġsuc rose
Ġpin pric
Ġfav re
Ġdyschond rosteosis
eptid ase
Ġhyperimmun oglobulinemia
Ġkr ukenberg
Ġadam antin
Ġlymphogranul oma
oxy genase
Ġdiath esis
Ġkeratoconjunctiv itis
Ġkoj ew
Ġprosopagnos ia
Ġaminoac iduria
Ġhibern ation
Ġcub ital
Ġmec onium
Ġak athisia
Ġlaw ler
Ġrus sian
Ġvl dlr
Ġstart le
Ġparv ovirus
Ġasphyx iating
Ġurb ach
Ġparainfluenz a
Ġub iqu
Ġdop amine
Ġdrain age
Ġsut ural
Ġmi yoshi
Ġnb ia
Ġfemin ization
Ġbald ness
Ġvib ration
Ġacroc allosal
obil inogen
Ġmultin odular
ofac ionasal
Ġcystathion ine
Ġcarp enter
Ġesthes ioneuroblastoma
Ġmidf ace
Ġpachyderm operi
Ġsubmuc ous
Ġpredis position
Ġhemihyp ertrophy
Ġpyeloneph ritis
Ġhg prt
Ġinfiltra tive
ylv ian
Ġneurop sychiatric
Ġkart agener
Ġpav or
Ġpsychos ocial
Ġmesenter itis
Ġenur esis
Ġgier ke
Ġzen ker
Ġtelangiectatic a
Ġfibroelast osis
inester ase
Ġvitreoretin ochoroidopathy
Ġtakayas u
Ġhydroxyphenyl pyruvate
Ġsic ca
Ġcyl indrom
arn yx
Ġmv cd
Ġsynch ronous
Ġfec d
Ġlv nc
Ġlump y
Ġgraden igo
Ġanore xia
Ġacl f
Ġwel ander
Ġjew ish
Ġsez ary
Ġhydroneph rosis
Ġobl iterans
Ġsuppr essor
Ġmarmor ata
Ġquerv ain
Ġtriglycer ide
Ġossif ying
Ġgroen ou
Ġprogressi va
Ġconjug ate
Ġdextrocard ia
Ġochron osis
Ġhyperandrogen ism
Ġrog ers
align ment
Ġsth ag
Ġsyd enh
Ġcush ion
Ġcoff in
Ġpental ogy
Ġporph obilinogen
Ġmies cher
Ġtort uosity
Ġhutter ite
Ġazo ospermia
Ġnaus ea
Ġford yce
Ġrasmus sen
Ġdeglu ti
Ġgord on
Ġgbb b
Ġhypour icemia
Ġchot zen
Ġconotr uncal
irection al
Ġmyomelan ocytic
Ġhyperferritin emia
Ġatrich ia
Ġneurovis ceral
Ġwander ing
Ġwieth e
Ġstarg ardt
Ġkink y
Ġglanz mann
Ġnoninf iltrating
Ġnongo itrous
Ġshoke ir
Ġoppen heim
Ġidenti ty
Ġschoen lein
Ġolsz ewski
Ġglucosamin ide
Ġcoxsack ie
Ġdesbu quois
Ġupsh aw
Ġvasovag al
Ġreproduc tive
Ġdameshe k
Ġhomoz ygous
Ġlichthe im
Ġstriopallid odentate
Ġpostprand ial
Ġknuck le
Ġrecklenh ausen
Ġhypoalbum inemia
Ġpinpric k
Ġubiqu itin
1 0
a ke
b ank
c itation
d al
d yn
d em
d igit
d nig
f ly
f ield
f ront
g b
g th
g esias
g astrointestinal
h d
h t
h isti
h orn
h avior
h ardt
i ef
k t
k ott
m p
m etal
m ans
n m
n ant
n ogenic
p m
p at
p et
p ox
r ase
r uct
s ph
s uit
u i
u osp
u erstein
v ie
w or
w ill
y ers
z ilian
Ġ ond
Ġ uv
Ġ erg
Ġ ito
al e
al yc
al buminemic
ro in
ro blastomas
ti m
ti de
er ius
er itone
Ġd g
Ġd os
Ġd ac
Ġd anc
Ġd ail
Ġd md
Ġd iple
Ġd erc
Ġs s
Ġs ul
Ġs ir
Ġs ack
Ġs emin
Ġs oles
Ġs onne
en is
in ess
in izing
in vasive
on emias
on idal
on siveness
Ġc z
Ġc ari
Ġc row
Ġc ement
Ġc bs
Ġc pd
Ġc ada
Ġc gd
Ġc prs
as p
as ic
ar ation
ar ria
is junction
es tion
es ch
es igenic
Ġp ell
Ġp end
Ġp ill
Ġp oste
Ġp ow
Ġp gl
Ġp ct
Ġp bd
ic idal
an ut
an ter
an ub
at as
at om
Ġm b
Ġm ob
Ġm md
Ġm isc
Ġm umm
or b
or eg
os igmoid
Ġt b
Ġt ular
Ġt angi
Ġt ail
Ġt empor
Ġt auro
Ġt ylosis
om id
om ous
om ocys
om phal
Ġh eb
Ġh ad
Ġh yst
Ġh ymph
Ġh one
Ġh uss
Ġh iat
Ġh yb
Ġh istr
rom y
rom ial
le vo
Ġa at
Ġa it
Ġn he
Ġn bl
Ġn ominal
Ġn ostr
Ġn avicular
Ġn ipple
Ġn aito
ul o
ul oma
ul ant
ul ative
ul icz
Ġsyn des
Ġsyn dactyl
Ġsyn aptic
Ġsyn echiae
it a
it an
it ol
it udinal
us te
ed o
em eral
Ġf g
Ġf in
Ġf as
Ġf ig
Ġf ox
Ġf alc
Ġf cd
Ġf gs
Ġf oci
Ġdis function
Ġdis ori
op el
op ontine
op ituitarism
Ġin tegration
Ġin activ
Ġb a
Ġb am
Ġb ig
Ġb ies
Ġb ron
Ġb oth
Ġb erg
Ġb etal
Ġb eur
Ġb ass
Ġb cc
Ġb atter
ys ian
Ġl r
Ġl s
Ġl og
Ġl ign
Ġl av
Ġl eri
Ġl ittle
Ġl prs
el and
ac tions
ac ylase
Ġr ac
Ġr ab
Ġr na
oc rani
oc erv
oc erc
oc oni
oc amp
oc ornea
oc aval
Ġde cl
Ġde acylase
ur us
ur itis
id ed
id od
il ob
il tr
Ġg t
Ġg us
Ġg las
Ġg ond
Ġg ug
Ġg ass
Ġg arg
ol en
ol or
ol este
ol ithiasis
ol pyruvate
Ġne th
enc ycl
ve front
et ch
ial dehyde
ath e
ath ione
th s
th erapeutic
th rough
Ġv s
Ġv am
Ġv ir
Ġv hl
Ġv ater
am b
am e
am en
am es
Ġhyp os
Ġhyp esthesia
Ġhyp omelan
Ġdys lip
Ġdys rhythm
Ġdys inhibition
Ġdys albuminemic
ici ous
Ġch n
Ġch ias
Ġch and
Ġch urg
Ġch ylomicron
od a
od ont
od isc
im ean
un ken
Ġan omic
Ġan odontia
Ġan arch
Ġan atom
ing u
ing osine
Ġinf iltr
Ġac atal
Ġac rosp
Ġac rodys
ot ass
uro nal
ies is
ep tal
ep iderm
ag nant
Ġmy d
ud wick
ym pathetic
ch ester
ch ocerc
Ġle tal
tin ism
Ġhyper function
Ġhyper ex
Ġhyper neph
yl ic
Ġsp ren
Ġsp ecial
eb l
eb row
eb iases
Ġat kin
Ġneuro be
Ġneuro gastrointestinal
ros hi
ros eptal
Ġi od
Ġw ing
Ġw enstein
Ġst orm
Ġst up
Ġst ases
Ġst rong
Ġst agnant
cl p
Ġpar son
arc e
ob ac
ob ullous
ob asilar
ephal ic
ip ec
ron tonasal
ron ectin
Ġpr l
Ġpr inz
Ġk b
Ġk ab
Ġk inetic
Ġk ines
Ġcongenital ly
Ġth c
ect opia
ub erg
Ġar cl
Ġar sen
ple xia
Ġad ysplasia
eal ed
Ġx e
Ġre iter
Ġre verse
Ġlymph omatous
Ġlymph osarcoma
Ġlymph osarcomas
Ġlymph ofollicular
Ġgl ial
Ġgl ue
ati o
ati vis
ach e
ach y
ach es
ach man
up ing
Ġj ux
Ġj uberg
Ġtr ep
Ġtr itan
Ġcereb rum
Ġab d
Ġleuk openia
Ġse eman
ure tic
ang anes
yd ii
Ġmal t
Ġ4 0
Ġ4 1
ne uronal
Ġrec eptive
ox ical
ox ide
re w
re ad
Ġhe el
Ġhe roin
Ġret rof
Ġret urn
ov arus
tis h
Ġph encycl
qu ito
qu ency
ab ach
ill a
ogen es
Ġsc n
Ġsc orp
Ġex it
Ġex pan
Ġex omphal
Ġcor ectopia
ly tic
ion al
kin esias
kin esigenic
Ġpal p
oh r
Ġencephal omalacia
Ġbl ow
Ġprim um
omat ose
Ġnon thromb
Ġnon neph
Ġnon chrom
Ġnon occlusive
Ġnon therapeutic
Ġnon epiderm
Ġnon kinesigenic
of ruct
of rontonasal
Ġmic rocyt
Ġmic rosp
Ġlip omas
Ġsub s
Ġsub ling
Ġ5 5
Ġsh uff
Ġsh ift
Ġpul sion
Ġint ranuclear
Ġop ioid
Ġop ercular
Ġbr ief
yc omb
Ġgen otoxic
ocyt es
iv ided
Ġoste itis
Ġaden oid
Ġaden omy
Ġis oval
Ġco in
Ġco up
Ġfr uste
erg y
Ġmyel inosis
Ġthromb ocytoses
anti d
Ġtrans ves
Ġtrans neuronal
Ġpseud omembranous
Ġhep arin
Ġperi aneurysm
Ġag s
Ġag nathia
Ġag glutin
Ġag nogenic
Ġfe uerstein
Ġfe tish
Ġsch ulman
Ġsch illing
ers inia
Ġo yanagi
Ġacid emias
Ġacid urias
Ġend omy
Ġend ogenous
est osterone
Ġderm opathy
Ġderm oids
Ġcat s
Ġur acil
av atum
Ġins omnias
Ġap ocrine
Ġpl s
Ġpl umb
ff ner
enti a
Ġhyd ro
Ġhyd rotic
Ġcardi ogenic
Ġform e
Ġmon on
Ġmon oblastic
Ġmon ostotic
Ġmon ophosphate
Ġmon oxide
Ġabs tinence
Ġidi ocy
Ġscle rocystic
Ġcent rot
Ġpo uter
Ġpo romas
Ġmac rostomia
Ġect d
Ġect asias
Ġect ropion
Ġcr ib
Ġcr est
Ġcr ack
Ġcr imean
Ġpos itivity
ist ling
igment ed
Ġoptic a
ri e
Ġneph roses
Ġcl aud
Ġcl inical
Ġepid id
Ġangi omy
Ġangi ogenesis
Ġdi phosphatase
Ġdi oxygenase
ortic ate
Ġeryth erm
Ġeryth emas
Ġeryth rodys
Ġeryth rophag
Ġcentral is
Ġpneum onic
Ġpneum ocyst
Ġpneum ophila
li el
Ġinter se
Ġinter digit
lex y
Ġintra dural
Ġdr unken
Ġgranul omous
Ġneon ator
rad iation
Ġcorn elia
Ġretin ae
Ġol li
Ġauto inflammation
Ġcomp reh
Ġhypog ammaglobulinemias
Ġthyroid al
Ġey ebrow
Ġcrani o
Ġaph onias
ole y
ole iomy
Ġent hes
Ġisch aemic
Ġpsych ophys
Ġocul odent
Ġpap a
Ġtubercul in
cr eta
Ġves icul
Ġpe ep
Ġpe eling
Ġpe anut
Ġpe arce
Ġmar burg
Ġimp ulsive
Ġnod es
Ġnod osum
Ġalc ap
Ġdel usions
Ġsep aration
Ġphosph oen
Ġphosph atidyl
Ġphosph ofruct
Ġhemat opo
Ġchol ester
Ġlow enstein
Ġvari x
Ġvari ola
Ġcomplex es
Ġven a
lec anthus
Ġvis uosp
Ġhair s
osp ir
osp len
osp orid
Ġmel orhe
Ġgland s
tical ly
rol ateral
Ġmo ore
Ġmo unt
Ġmo ya
Ġdehyd roch
Ġfistul ae
Ġneur inomas
man i
Ġophthalm ia
Ġvariant s
Ġbreast s
Ġgluc osyl
Ġpoly arter
Ġcont rol
ish ing
Ġpup pet
Ġy ersinia
Ġlar sson
Ġmethyl transferase
Ġchond rocalcinosis
Ġchond rogl
Ġstr ump
Ġstr etch
Ġstr udwick
Ġgangli ocytoma
Ġtransi tion
ner i
Ġpseudo ex
Ġpseudo inflammatory
Ġcarb am
Ġwe ar
Ġwe il
Ġwe ars
Ġasp g
Ġsw elling
Ġmr d
Ġneg ativis
rof ol
Ġerythro leuk
Ġfoot wart
Ġpur ulent
Ġpur suit
Ġeosinophil ias
Ġdiabetic orum
Ġtiss ues
Ġreflex es
Ġinv ag
Ġcoron avirus
Ġsal ih
Ġmyc osis
Ġpre ex
Ġpre tibial
Ġpre invasive
Ġschiz o
Ġschiz otyp
Ġcontr actions
Ġcortical is
Ġflu oride
Ġpath ology
Ġpremat urity
Ġsubac romial
Ġloc oreg
pl ant
Ġcal f
Ġcal ve
Ġte lecanthus
Ġhepat osplen
Ġcam urati
oac ral
Ġhypothalam o
alang ia
Ġtor re
Ġtor sad
Ġtor ranc
Ġneurofib romas
Ġwh istling
Ġles ch
Ġdiver g
Ġcyt os
Ġcyt opathy
Ġarthrogr yp
Ġha emat
Ġlo uping
Ġach m
Ġlam b
Ġket o
Ġmembran es
Ġgr utz
Ġwa vefront
Ġandrogen etic
Ġic p
Ġic eland
Ġconc ealed
Ġfasc iol
Ġfront obasilar
Ġed m
Ġed md
Ġcdg i
Ġcdg ii
Ġpyr uv
Ġtelangiect ases
zhe v
Ġcontract ural
Ġple uris
Ġglut athione
Ġup s
Ġlong itudinal
Ġacet abular
Ġphot ophob
ger igar
Ġbi ological
Ġbi etti
Ġreticul oid
Ġlipofusc in
Ġpapill on
Ġrep lication
Ġrhin orrheas
Ġrhin otrache
ash es
Ġdent atus
Ġdissemin ata
Ġgu am
Ġgonad otropin
Ġana plasm
Ġconduc ting
Ġactin obac
Ġir radiation
Ġsuper inf
Ġpolym y
Ġaur icul
Ġtre ated
Ġcommun ity
Ġthym ine
Ġgest ation
Ġbeh c
bil ane
Ġdam ages
Ġcys titides
Ġind iffer
Ġind olent
Ġlocal isata
sh ot
Ġvisc er
Ġvan ishing
Ġneutrop enic
Ġros enberg
Ġvi ib
Ġesophag o
Ġmen kes
Ġmen opausal
Ġcommunic ative
Ġmegal ocornea
Ġtotal is
Ġhom g
Ġpres b
Ġpres yn
Ġprec alyc
Ġdentin s
Ġerup tive
Ġdec orticate
Ġhypo aldosteronism
Ġhypo kinesia
Ġadh al
Ġxanth omatous
Ġexc avatum
Ġvulv ovaginal
Ġspong i
Ġsud ek
Ġmut ations
Ġlen gth
Ġko zhev
Ġamauro ses
Ġdiarrh etic
Ġwor k
Ġuve opa
Ġmat uration
Ġfus ospir
Ġcerebell oretinal
Ġamb ulation
Ġsupra optic
Ġchar levo
Ġpaget oid
Ġichthyosiform e
Ġichthyosiform es
Ġphosphor us
Ġhaem orrh
Ġsem ilobar
Ġsem ialdehyde
Ġfibro histi
Ġfibro athe
Ġtong ues
Ġfor est
Ġparap areses
Ġorgan oid
Ġhyperglyc inemias
Ġinvolv ing
Ġcogn ition
Ġsid erius
Ġcerebro retinal
Ġhex ose
Ġmas och
Ġchem ot
Ġpp a
Ġhyperinsulin isms
onec tin
Ġbisphosph ate
Ġlymphaden itides
Ġargin ino
Ġbo ydii
Ġchl oride
Ġmacul a
Ġfour nier
Ġdissoc iations
Ġleiomy osarcoma
Ġbreak s
Ġbreak through
Ġfibrill ations
Ġet f
rot estosterone
Ġangio edemas
Ġhypoglyc emias
Ġpapul osis
Ġpolyradicul oneuropathies
Ġactiv ated
Ġlew is
Ġhyperth ermias
Ġix a
omening itis
Ġband s
Ġsclero dermas
Ġverteb rogenic
Ġmicrognath ism
gu es
Ġpine ocytoma
hyp opituitarism
Ġsn yder
Ġpseudot ubercul
ty oca
orad icul
Ġrect us
Ġchr ist
Ġchondrom anub
Ġpall idal
fol iation
Ġev r
Ġev ents
ohyp ogastric
Ġgerm in
Ġpan hypopituitarism
Ġlact ation
Ġincon tin
Ġplasm acyt
Ġon chocerc
Ġhel ena
Ġfre quency
Ġencephalomyel opathy
Ġeyel ids
Ġeyel ashes
Ġimpingement s
Ġhypercholesterole mic
Ġho ard
Ġhamm er
Ġnig ra
Ġbal antid
Ġamo ebiasis
Ġregurg itant
Ġossific ans
Ġdysaut onomic
Ġmyelin oclas
Ġmyelin oclastic
Ġcervic o
Ġpot ter
Ġhyperm anganes
aps ulating
Ġdihyd rotestosterone
Ġvesic ovaginal
gluc ose
Ġcs f
Ġpil omat
Ġpil onidal
Ġfet us
Ġgro und
ogl uc
Ġurtic arias
Ġfacio auriculovertebral
Ġgalactos emias
Ġcanal e
Ġcanal icular
Ġflex neri
Ġdevic e
Ġej acul
Ġantic ip
Ġcav a
Ġcav ity
Ġante roseptal
Ġante rolateral
Ġpred ominant
Ġkne es
Ġcortic ostr
Ġcortic otropin
Ġcoal wor
Ġsr xy
Ġnag er
Ġelect ron
Ġhypov ole
Ġveno occlusive
Ġswe et
nik ow
Ġlute oma
Ġlute inizing
Ġih ps
Ġshar p
equ ate
Ġili ocaval
Ġili ohypogastric
Ġster e
Ġster ile
Ġmenstr ual
Ġdysc ephalic
Ġhyperal gesias
reg ulation
Ġschon berg
Ġbranchio otorenal
Ġaccid ents
Ġmandibul oacral
Ġmdd ga
Ġmdd gb
Ġdiscr ete
Ġgalactosylceram idase
Ġpapilloma virus
Ġhidraden itides
Ġhypn ic
Ġhypn ogenic
Ġmethemoglob in
Ġnarcolep tic
uli ar
Ġmonil iases
Ġrepeti tion
Ġhyperlys inuria
Ġbotul isms
Ġcb as
Ġmolar s
Ġbun y
Ġbacter icidal
Ġdev iations
Ġneurohyp ophysial
Ġphob ic
Ġisomer isms
rodys plasias
Ġsmo ke
Ġbrachym orph
Ġerythroblast osis
Ġmanson ella
Ġaddison ian
Ġwolf ram
Ġacromegal oid
Ġsaint on
Ġday time
Ġnph p
Ġfsh d
Ġbs cl
Ġdysraph ism
Ġanth rax
Ġcholang itides
Ġsegment ation
Ġudp glucose
Ġthromboemb olic
Ġmultisyst emic
Ġil io
Ġog uchi
Ġcof s
Ġno ise
Ġwer dnig
ubercul ous
Ġintes tine
Ġcatarrh al
Ġnecro lytic
Ġdermatomy ositides
Ġappar atus
Ġpseudohypop arathyroidisms
esp onsiveness
esp read
Ġlc at
Ġkenn y
Ġprog nathism
Ġmicrop ol
Ġmicrop enis
Ġtransloc ation
Ġhydroc ele
Ġlegion ella
Ġequin ovarus
Ġglutam ate
Ġdiminished s
ram nios
Ġhm g
operic ardium
Ġvel opharyngeal
Ġvill ous
adi olar
Ġkin inogen
Ġpern icious
Ġpostc omatose
Ġclo ud
Ġflo ating
Ġhipp ocamp
Ġxxy y
Ġdiscrim inatory
Ġmethylglutaconic aciduria
oast rocyt
Ġske w
Ġske leton
Ġmir ror
Ġtn dm
Ġrud imentary
otrach eal
Ġspur s
Ġwin chester
Ġalar m
Ġserocon versions
Ġ45 0
Ġextrac erebral
Ġseropos itivities
Ġdic tyoca
Ġdav is
Ġmorph ine
Ġnond isjunction
Ġanet oderma
Ġka roshi
Ġki enb
Ġleukokerat osis
Ġleukokerat oses
Ġblenn orrhagic
Ġcryptococc osis
Ġcryptococc oses
Ġhyperprol inemia
Ġhyperprol actin
Ġpachymening itis
Ġpachymening itides
Ġmos quito
Ġmim s
Ġhoff man
Ġrt as
Ġricc i
Ġspik es
Ġwis kott
Ġalter ations
Ġproct ocolitis
Ġperine ur
Ġphag ocyte
Ġapros encephaly
Ġintram edullary
Ġfollic ulitis
Ġpolychond ritis
Ġcholesteat oma
Ġcoagul ations
Ġgammap athy
ovagin itis
Ġappendic eal
Ġdegrad ation
Ġextrasyst oles
Ġhop f
Ġfair bank
Ġfrax e
Ġbra zilian
Ġburg er
Ġdysch romatosis
Ġwid espread
Ġwohl will
Ġali en
Ġreent rant
Ġjeg hers
Ġsubd ivided
Ġendodon tically
Ġmedic ation
Ġglucoseph osphate
Ġdissec ting
Ġmerr itt
Ġpolydyst rophic
Ġsaturn ism
Ġschmid t
Ġenc apsulating
Ġcacch i
Ġagen eses
Ġnid dm
Ġfamil y
Ġlux ation
Ġcher ry
Ġanl age
Ġanaphyl actic
Ġatroph oderma
Ġkau fman
Ġretroc ochlear
Ġphac omatosis
Ġshw achman
Ġapop lexy
Ġrol ling
Ġbleed ings
Ġtachyarrhythm ia
Ġspheroid s
Ġturc ica
Ġhelic obacter
Ġbrachymes ophalangy
Ġinfundib ular
Ġrom ano
Ġsak ati
Ġcoccid ioid
Ġpec uliar
Ġtro is
Ġnr clp
Ġinad equate
Ġbud gerigar
odia physeal
Ġhyperv entilation
Ġaleuk emic
Ġthec a
Ġnont uberculous
Ġpoint es
Ġdiph ther
Ġhydroxymethyl bilane
Ġoxyphil ic
Ġpseudoachond roplastic
Ġacanthocheil onema
Ġacrooste olysis
Ġcondyl oma
Ġparagonim us
Ġascar id
Ġsteatocyst oma
Ġloeff ler
Ġdihydropyrim idine
Ġow ren
eruloplasm inemia
Ġsap osin
Ġcum ulative
Ġmik ulicz
Ġhymen olep
Ġauric le
Ġnat ural
Ġfuj imoto
Ġeul enburg
Ġconvex ity
Ġmyoglob inuria
Ġwiss ler
Ġwester mani
Ġstap es
Ġparad oxical
Ġpring le
Ġkas abach
Ġthro at
Ġhemeral opia
Ġreim ann
Ġheub ner
Ġblo om
Ġadenyl os
Ġerythromel algia
Ġimpul se
Ġglucosylceram ide
Ġstephan urus
Ġcysticerc osis
Ġpleurop neum
Ġillum inating
Ġsadd an
Ġgeline au
Ġgroenou w
Ġsydenh am
havior al
sph ingosine
Ġond ine
Ġdac ry
Ġdanc ing
Ġdail y
Ġsonne i
Ġcari ous
Ġposte x
anter ic
Ġmisc arria
Ġtangi er
Ġtempor ary
Ġhyst rix
Ġhymph ohisti
Ġhone ycomb
Ġhiat us
Ġhyb rid
Ġhistr ionic
Ġnhe j
Ġnbl st
Ġnostr as
Ġsyndes m
Ġdisori entation
opel vic
Ġbies ecker
Ġbron z
Ġbetal ipoprotein
Ġbeur en
Ġbatter ed
Ġlign ac
ocerv ical
oconi oses
idod ip
ilob ular
Ġgond ii
Ġgug liel
Ġgarg oyl
oleste rol
Ġvam as
Ġchias matic
Ġanarch ic
Ġanatom ical
Ġacrosp i
Ġspren gel
Ġneurobe havioral
Ġstrong yle
Ġparson age
Ġprinz metal
Ġkines igenic
Ġarsen ical
Ġseeman ova
Ġretrof lex
Ġphencycl idine
Ġscorp ion
Ġexomphal os
Ġnonneph ropathic
Ġnonchrom affin
Ġnonepiderm olytic
Ġsubling ual
Ġshuff ling
Ġgenotoxic ant
Ġperianeurysm al
Ġagglutin in
Ġplumb ism
Ġcentrot emporal
Ġerythrophag ocytic
Ġinterdigit ating
Ġneonator um
Ġcompreh ension
Ġvesicul obullous
Ġphosphoen olpyruvate
Ġphosphofruct okinase
Ġvisuosp atial
Ġdehydroch olesterol
Ġchondrogl adiolar
Ġstrump ell
Ġpseudoex foliation
Ġnegativis tic
Ġpreex citation
Ġschizotyp al
Ġlocoreg ional
Ġhepatosplen omegaly
Ġtorranc e
Ġiceland ic
Ġprecalyc eal
Ġcharlevo ix
Ġfibrohisti ocytic
Ġchondromanub rial
Ġcorticostr iatal
a un
b h
b m
b r
b ed
b ility
c ation
c ious
d x
e ol
e ogenic
e zing
e ou
e une
g ve
g rown
h ole
h odgkin
h ara
i ro
i ph
i eur
i ologic
i ello
j oen
k a
k m
k os
k le
k ed
l ism
l hof
m y
m olar
n atal
n cr
o ect
o ea
o aden
o onych
o axial
o osseous
p k
p x
p as
p ing
p ect
p ast
p igin
p otarsal
r b
r us
r ed
r ine
r esponsiveness
s ter
s ang
t or
t ensi
t amy
u ori
u edo
u ysian
v d
v p
v t
v en
w h
w itz
w inkel
z ol
Ġ ut
al v
al ister
ro tein
er emia
er ich
er upted
Ġd c
Ġd p
Ġd ra
Ġd actyl
Ġd rag
Ġd yg
Ġd pd
Ġd unn
Ġd utch
Ġs g
Ġs ost
Ġs ly
Ġs ock
Ġs uccinase
en oses
en fl
in opathies
in tegration
on asal
on omo
Ġc ph
Ġc ed
Ġc ot
Ġc ca
Ġc cm
Ġc ochle
ar ticul
is obut
is ylvian
es ian
es tern
Ġp g
Ġp ac
Ġp ant
Ġp pr
Ġp ts
Ġp omp
Ġp its
Ġp fm
ic es
ic eptive
an eal
at ous
at rophic
Ġm ard
Ġm arc
Ġm orn
Ġm ele
Ġm ioses
Ġm osch
Ġm ott
Ġm obility
Ġm ohr
or us
os h
os yst
os amine
os acral
os accular
Ġt c
Ġt d
Ġt at
Ġt op
Ġt ow
Ġt sc
om ed
Ġh d
Ġh f
Ġh ig
Ġh ag
Ġh itt
Ġh bl
Ġh pl
Ġh eck
Ġh ga
Ġh ugh
Ġh ermaphroditisms
ph ot
ia tiv
Ġa ip
Ġa ure
Ġa utis
Ġa plasias
Ġa fibrinogenemia
Ġn d
Ġn ys
Ġn ov
Ġn ance
ul osa
Ġsyn erg
it as
ed ural
ed ow
em per
Ġf c
Ġf s
Ġf ro
Ġf ine
Ġf ormal
Ġf ug
Ġf ix
Ġf emor
Ġf ors
Ġf cs
Ġdis org
Ġdis accharide
Ġdis integration
op p
op ol
op eritone
Ġin n
Ġin att
Ġin ability
Ġin grown
Ġb t
Ġb el
Ġb ol
Ġb uc
Ġb ann
Ġb ord
Ġb ucc
Ġl in
Ġl op
Ġl ut
Ġl ag
Ġl ud
Ġl ib
Ġl ass
Ġl ah
Ġl uton
Ġl uft
Ġl ncr
Ġl erich
el ess
el ock
el berg
ac unc
ac ytic
Ġr s
Ġr y
Ġr um
Ġr ms
Ġr aph
Ġr ippl
Ġr unning
oc o
oc ochle
ur ed
ur amine
id g
id emic
id ium
id irectional
il ogy
il ibri
il joen
il itas
ec o
Ġg p
Ġg on
Ġg ill
Ġg ay
Ġg ero
Ġg ren
Ġg pd
Ġg unn
Ġg itel
ol in
ol ia
ol ith
ol pos
ol ences
ol uysian
ol opp
ent eral
ent ration
et ting
et ella
ath ies
ath oracic
iti formis
iti zation
Ġe ag
Ġv c
Ġv oh
Ġv iv
Ġv cf
Ġv ibrio
Ġv kh
Ġv iljoen
am ents
Ġhyp or
Ġhyp opro
Ġhyp ero
Ġhyp oproteinemia
Ġhyp esthesias
um atoid
um arin
Ġdys equ
Ġdys regulation
ra v
ra ft
Ġch at
Ġch ap
Ġch ok
Ġch edia
od igit
ular e
si er
im in
im ke
im itar
ig an
Ġan ophthalmos
Ġan ogenital
Ġcon st
Ġac d
Ġac tive
Ġac rod
Ġac eta
Ġac rodysplasia
Ġac umin
roph osphate
ot ox
ot onia
ot rophic
ag h
Ġmy my
ch ior
Ġle ud
ard itides
Ġhyper ek
Ġhyper ref
yl er
yl sphingosine
Ġsp ax
Ġsp ace
Ġsp atial
eb e
eb aut
eb etalipoproteinemia
Ġneuro retin
Ġneuro blastomas
Ġneuro bor
ros arcomas
ros molar
Ġi id
Ġi ra
Ġi omid
Ġw adia
Ġw estern
anc erous
ad e
Ġst atic
Ġst raw
Ġst ump
Ġst rand
Ġpar s
Ġpar ina
Ġpar esthesia
Ġpar esthesias
Ġpar enteral
ess in
Ġal g
Ġal k
Ġal obar
erm elon
Ġpr ene
Ġpr ieur
Ġk ar
Ġk os
Ġk ur
Ġk ob
Ġk ann
Ġk ug
Ġk uss
Ġk lu
Ġk iller
Ġk fs
Ġk ohl
Ġk immel
Ġk olopp
Ġth ur
Ġth omas
Ġth ri
Ġth iolase
ub ral
Ġhem olysis
ple d
ple mentary
oph yma
ib acillary
ib rey
Ġx yl
Ġre in
Ġgl b
Ġgl y
Ġgl iosis
tr idium
oid ism
ach i
up r
Ġdyst asia
ens en
Ġj c
Ġj ug
Ġj orge
Ġj ansen
Ġj ames
Ġj eune
Ġj ensen
Ġper itone
Ġper isylvian
if ting
Ġtr ic
Ġtr unc
Ġtr ilogy
Ġab ri
Ġab ras
Ġab rup
Ġleuk ostasis
ons cious
ap n
ap t
ne kam
Ġrec r
Ġcom m
Ġcom itant
iz in
end ing
Ġret e
Ġret rog
Ġph leb
Ġph hi
Ġph lor
Ġam eg
Ġam yt
Ġam ebiasis
qu ez
ab i
Ġtumor igenic
and ez
ogen eses
Ġsc ax
Ġsc ars
Ġsc do
Ġsc imitar
Ġex sang
Ġcor tis
Ġmul ibrey
ical ly
Ġpal atin
ith er
Ġencephal itic
Ġencephal oclastic
Ġencephal omalacias
Ġbl v
Ġbl och
Ġpost syn
Ġpost natal
Ġchrom ophob
Ġchrom affin
gr ediens
Ġnon obstruc
Ġnon hodgkin
Ġnon phot
of emoral
Ġmic h
Ġcard ior
rans ferr
Ġsub fer
Ġfib ronectin
Ġsh ield
Ġarter io
Ġint ellig
Ġdia per
Ġcarcin omatosis
Ġcarcin omatoses
Ġcol um
ocyt opathy
ocyt oid
Ġoste omalacia
Ġoste opathia
Ġoste ocar
Ġoste ophyt
Ġoste ohypertrophy
Ġoste odysplas
Ġaden ofibroma
yth ms
Ġis ochrom
Ġco unt
Ġco umarin
Ġfr ias
Ġmyel odis
Ġer ections
lic ations
Ġli eou
Ġid uronidase
Ġid uronate
Ġtrans plant
Ġtrans grediens
Ġpseud og
Ġpseud orhe
ak ut
Ġag gr
Ġag yria
Ġhypert yros
Ġsch immel
Ġsch imke
Ġo edema
Ġo rotic
Ġmyoc arditis
Ġend odermal
Ġimmun oproliferative
Ġjuv en
Ġur ic
av age
av uori
Ġtub ercular
Ġap kd
Ġpl ant
Ġhyd r
ung ual
Ġform imin
ay ama
ea u
pr ech
Ġmon g
Ġmon oneuropathies
Ġmon key
Ġinfanti lism
Ġun ex
Ġun erupted
Ġmac le
Ġcr s
Ġcr itch
Ġpos itivities
ick ness
Ġver a
Ġver y
Ġintr athoracic
Ġoptic al
ri tional
Ġ7 0
Ġhypoplas ias
ult y
Ġneph roma
Ġcl ot
Ġcl ls
Ġcl ausen
Ġdi encephalic
Ġres ting
Ġca ve
Ġca rol
Ġpneum oconioses
Ġ8 1
Ġheart be
Ġinter nuclear
Ġrh ythms
Ġul eryth
Ġdr ash
Ġdr acunc
Ġdr ifting
Ġarth romy
Ġfl ow
Ġfl uct
Ġfl dem
ms en
function al
ma ul
Ġmuc inosis
Ġmuc ha
immun ity
Ġsup ine
Ġsup plementary
Ġdysfunction al
Ġauto immunity
Ġdiff icul
ert on
Ġcomp os
Ġspin ulosa
Ġrad i
Ġpara ph
lob ular
Ġaph akia
ophthalm ic
Ġves iculo
Ġhypers tim
Ġpe e
Ġpe oa
Ġmar ble
Ġmar sh
Ġmar ks
Ġimp acted
Ġnod ofasc
ondyl y
Ġamyl o
eth re
Ġval ves
Ġval pro
Ġsep iap
Ġtris omies
Ġkerat oac
Ġkerat odermas
na i
Ġhemat ocele
Ġhemat oceles
Ġhisti ocytoid
Ġdrug s
Ġneural ly
Ġ10 0
Ġcd a
Ġcd ls
Ġhypot ony
Ġmeth ion
ok inetic
Ġen ergy
Ġspondyl ometa
Ġmel ker
Ġmel chior
Ġhern andez
Ġfol ling
Ġec a
Ġec ch
Ġec cent
Ġec onomo
rol actin
emp ers
oencephal opathy
Ġig d
Ġgluc osaminidase
Ġgluc uronidase
Ġgluc agonoma
Ġz im
arth roses
omer ic
ific ial
til lo
Ġdup re
Ġcalc inoses
Ġ12 10
Ġext ensor
Ġdeform ed
roxysm al
Ġhall gren
Ġdepend ency
Ġduct s
Ġbronch ospasm
Ġreac ting
bl a
bl ad
Ġhemangi oendothelioma
Ġcarb oxy
iral es
Ġglycogen oses
Ġrem ission
Ġwe gener
Ġwe yers
Ġemb oli
Ġma gen
Ġsw yer
Ġsw ami
ocarcin osarcoma
Ġerythro hepatic
Ġbar b
Ġtrich oepithelioma
Ġos ter
Ġos tium
Ġble b
Ġparas omnia
Ġparas omnias
Ġpre v
Ġcontr e
ber ry
ie w
Ġmor sier
kerat otic
Ġtract s
Ġmelan osis
Ġot c
Ġwil hel
Ġpy oderma
Ġphen otypes
olip idosis
Ġqu inc
ythm ic
Ġbas edow
Ġgait s
Ġanti di
Ġdu hr
Ġte ar
Ġhepat omas
Ġgastr in
Ġlob stein
Ġlob ster
oac id
oac oustic
Ġgra ham
Ġmin er
sti el
Ġtor iello
Ġneurofib roma
Ġwh yte
Ġhetero chrom
Ġuro pathy
Ġcyt oplasmic
Ġnoc iceptive
Ġpress ures
Ġparkinsonism s
Ġsarc omatous
Ġulcer ans
yel ocytic
Ġket othiolase
Ġgr ebe
Ġolig odactyly
Ġic e
Ġconc entration
Ġbre eder
Ġneuron opathies
Ġmc alister
Ġhype ropia
Ġhype rosmolar
Ġed ematous
Ġcan ker
Ġhyperp ipec
Ġschizoph renic
Ġsl en
Ġsl sn
Ġbow ed
oneph osphate
Ġple uro
Ġple ocon
Ġman z
Ġme atal
Ġav oid
Ġav sd
Ġphot opa
Ġcorp se
Ġcre tinism
Ġbi phosphatase
Ġvas opr
Ġreticul ate
Ġreticul ata
Ġatri um
Ġlipofusc inoses
Ġsk ills
ator ubral
odys ostosis
au er
Ġfunction s
Ġmyx edema
cd s
Ġdent atorubral
Ġxx x
Ġath e
Ġath abas
Ġmeta plasias
Ġtox emias
Ġglob in
Ġporphyr in
Ġpolym orphous
Ġamel oblastic
Ġhypercalc iuric
arb oxyl
Ġtur k
Ġcmt d
Ġepis odes
Ġgloss itis
fe v
Ġgall st
Ġacanth omas
Ġacanth olytic
ocard ia
Ġald osteronism
Ġfibr inogen
Ġosteoarth ritides
Ġvi is
Ġchore ic
Ġperox idase
Ġmen et
Ġtyros inosis
Ġendothel iomas
Ġanal gesia
apul o
Ġhydatid osis
Ġhydatid oses
aur icul
Ġlev ine
Ġlev ator
Ġprec ancerous
Ġadd ic
az i
Ġsial urias
Ġhypox ias
Ġhypo adrenal
Ġxanth oma
ex is
pos itions
ipar um
Ġuret eric
Ġmyotonic a
Ġextrem e
Ġextrem ities
Ġdiarrh eogenic
Ġgamm opathies
Ġwor inger
Ġcholedoch ostomy
Ġcholedoch oduodenostomy
Ġcholedoch ojejunostomy
uccin ate
Ġterat ocarcinosarcoma
app ing
Ġmicroc ytic
Ġshe e
Ġerythemat o
Ġsupra umbilical
Ġstaphyl ococcus
Ġnut ritional
Ġmil ker
Ġretr usion
Ġfor amen
Ġfor elock
amel ia
Ġdystrophic as
Ġfaci ocardi
Ġgre ither
otoxic osis
Ġpect ori
ohyd rolase
Ġfibrom uscular
Ġpp n
Ġtas ting
Ġlichen oid
Ġsil ic
Ġbisphosph atase
Ġsign ific
Ġbo uill
Ġrest enosis
Ġchl o
Ġhyperbilirub inemias
Ġleiomy omas
Ġleiomy osarcomas
Ġtetra amelia
Ġpapul ous
Ġpapul oses
Ġpapul osa
Ġphenomen ons
Ġsol id
Ġshock s
Ġcystaden ofibroma
Ġcystaden ofibromas
Ġclos tridium
ah r
ah ara
Ġser pigin
inos itol
Ġcephal gias
Ġcephal othoracic
Ġhen nekam
Ġnarc osis
oli omyelitis
Ġjaund ices
Ġcycl ohydrolase
Ġhyperuric emias
Ġkle ffner
Ġmicrognath ias
Ġmicrognath isms
Ġsomat otroph
ocl onus
Ġpostp oliomyelitis
Ġacrocephal opolysyndactyly
Ġrect ocolitis
Ġrect osigmoid
Ġasc ending
Ġcur v
acet onephosphate
Ġanox ias
Ġosteonec roses
Ġporo k
Ġscler a
enh all
Ġps aum
Ġps uedo
Ġhypersomn olences
Ġchoriore tin
Ġlact ose
Ġvol untary
Ġsa ethre
Ġcbl a
Ġcbl b
Ġren o
Ġren penning
ucle osis
Ġlymphangi omas
Ġtyph oid
Ġfil amin
Ġbal o
Ġbal kan
Ġhemoch romatoses
aff ective
Ġcry ing
Ġcartil ages
Ġsand row
Ġpra ev
Ġah c
Ġanos mic
Ġmyelin olysis
Ġoxid o
Ġdesm oid
Ġns aid
Ġly ell
Ġeb v
Ġexfol iativ
Ġpseudop seud
Ġpseudop sych
akary ocytic
Ġgangren es
Ġketoac idoses
ioneuro blastomas
Ġstil ling
Ġstil ls
Ġmandib le
Ġwr ist
Ġpolyd actyl
Ġcarin ii
Ġcaus algia
Ġrespons es
Ġgalactos amine
Ġbifid um
Ġfibromyal gias
Ġrhabdomy omas
Ġrhabdomy osarcomas
Ġhyster ia
Ġperin eph
Ġmetat arsus
Ġpolyend ocrine
Ġacrof ront
Ġpred iab
Ġcoal ition
Ġdepos it
Ġbreath ings
Ġla ing
Ġelect roc
Ġadip ose
Ġadip onectin
Ġaw adi
Ġbulb oca
Ġlute um
Ġlute omas
Ġvacu oles
Ġwest phal
Ġmicros omia
Ġmicros phe
Ġpattern ed
Ġsphe rophakia
Ġganglion itis
Ġspermat ozoa
Ġphenylketon uric
Ġhyperphosphat asia
Ġhyperphosphat asemia
Ġprom yelocytic
Ġfh m
Ġhypoh idrosis
Ġperior ificial
Ġbranchio otic
Ġconstric ted
Ġcas tillo
Ġcop roporphyria
Ġmdd gc
Ġtal us
Ġvw m
Ġinfluenz as
Ġtrichothi odystrophies
Ġhyperammon emias
uj i
Ġport osyst
Ġmp gn
Ġaort opulmonary
Ġfur unc
Ġland au
Ġgol abi
Ġgout y
Ġmetast ases
Ġventricul omegalies
glucos amidase
Ġhist amine
Ġdist emper
Ġdist empers
Ġlaur ylsphingosine
Ġero sive
Ġvacc in
Ġstre iff
Ġoxy gen
Ġhepato erythropoietic
Ġhyperlys inemias
Ġpolyneur itiformis
Ġcic atr
Ġpub ic
Ġaa a
Ġnorm an
Ġlumb osacral
Ġkel oids
Ġkear n
Ġare ata
Ġlymphangiect asis
Ġphob ias
Ġexanth em
Ġtransc obalamin
Ġdepriv ations
Ġchondrodyst rophic
Ġerythroblast openia
Ġmg ors
Ġdysraph isms
Ġwat ermelon
Ġhemim elia
Ġawakening s
Ġil iac
Ġsat ur
Ġno ack
Ġfiss ured
Ġhypoc upr
Ġacrop apulo
Ġwer ner
Ġwer lhof
Ġhemiat rophies
Ġgli oblastomas
Ġtrypan osomiases
Ġencephalomy opathy
Ġcatarrh s
Ġcholec ystectomy
Ġchemical ly
rid ic
Ġsant avuori
Ġhan ot
Ġphon ation
Ġsarcog lycanopathy
Ġactinomyc es
Ġduoden um
Ġpallid oluysian
Ġds ap
Ġpv nh
Ġaor titides
ocar potarsal
Ġgood past
Ġanis omet
Ġku fs
Ġthi ebaut
Ġproc edural
omyx oma
Ġosteochondrom atosis
Ġester ase
Ġchori ocarcinoma
Ġneedles tick
Ġenchondrom atosis
Ġdyssynerg ias
Ġaggreg ation
Ġconverg ent
Ġcann ot
Ġmir izz
Ġmay er
Ġneurot ox
Ġaltit ude
Ġreticular is
Ġjer ash
Ġpauc ibacillary
Ġtachyp neas
oepithel iomas
Ġricketts ial
Ġsialaden itides
Ġquadriple gias
Ġneurilemm oma
Ġneurilemm omas
Ġmicronucle us
ev nikov
Ġdon nai
Ġsound s
Ġcatal eptic
Ġpilar is
Ġmend enhall
Ġanet odermas
Ġacalcul ia
Ġhyperimmun oglobulin
Ġlymphogranul omas
Ġdiath eses
Ġentamoeb iasis
Ġentamoeb iases
Ġkeratoconjunctiv itides
Ġdfn x
Ġpyrim id
Ġkoj evnikov
Ġprosopagnos ias
Ġevent ration
Ġhoff mann
Ġlub s
Ġricc ardi
Ġhyperh idrosis
Ġalter ed
Ġbruc ellosis
Ġbruc elloses
Ġflutter s
Ġoval ocytosis
Ġspondyloarth ropathy
Ġpolychond ritides
Ġchondro ectodermal
Ġcholesteat omas
Ġgammap athies
ovagin itides
Ġappendic itis
Ġextrasyst ole
Ġpied ra
Ġpied ras
Ġht x
Ġbu erg
Ġlock ed
Ġgutt ata
Ġdysref lexia
Ġdysref lexias
Ġchyl ous
ippl es
Ġepul is
Ġepul ides
Ġhemipar esis
ostom iasis
ostom iases
Ġjacob sen
Ġorb ito
Ġrobert s
Ġrobert son
Ġpolyangi itis
Ġpolyangi itides
Ġtrichosporon osis
Ġtrichosporon oses
Ġmeig e
Ġelbow s
Ġanhed onia
Ġanhed onias
Ġtetraple gia
Ġtetraple gias
Ġpolyseros itis
Ġpolyseros itides
Ġpolydip sias
Ġpolydip sia
Ġaspartyl glucosamidase
Ġneurilem oma
Ġneurilem omas
Ġstreak s
Ġhypoalphal ipoproteinemia
Ġhypoalphal ipoproteinemias
Ġdysgraph ia
Ġdysgraph ias
Ġpneumorrh achis
Ġpneumorrh achi
Ġsacroili itis
Ġsacroili itides
Ġthesaurism osis
Ġthesaurism oses
Ġcyp rus
Ġmun ch
Ġbes nier
Ġbul imia
Ġlm ph
Ġrid ges
Ġhypom ineralization
Ġphyt anic
Ġamput ation
Ġpostv iral
Ġsublux ation
Ġoculocereb rorenal
Ġhidradren oma
Ġbrachyteleph alangy
Ġballoon ing
bur y
Ġherm ansky
Ġnyc t
Ġinequal ity
Ġhyperkerat oses
Ġsprain s
Ġnephros o
Ġmineral ocorticoid
Ġprotop orphyria
Ġsulfatid osis
Ġcerebroocul ofacioskeletal
Ġlingu ofacial
Ġtenosynov itis
Ġbradycard ia
Ġcatechol aminergic
Ġcen ani
aret rovirus
Ġputam inal
Ġtem tamy
Ġlaz y
Ġrit ter
Ġrim med
Ġvers us
Ġips ilateral
adip ic
Ġcompr essions
Ġisomal tase
Ġschn yder
Ġovern utrition
Ġheteroz ygous
Ġforear m
Ġmorgell ons
Ġpachydermoperi ostosis
Ġdg i
Ġderc um
Ġsir en
Ġcada ver
Ġpell ag
Ġait d
Ġfin eman
Ġfalc iparum
Ġneth erton
Ġacatal asemia
Ġacrodys genital
Ġhyperex tensi
Ġkab uki
Ġtrep on
Ġexpan sile
Ġendomy ocardial
Ġmonon ucleosis
Ġolli er
Ġmelorhe ostosis
Ġmount ain
Ġcarbam yl
rofol ate
Ġerythroleuk emia
Ġschizo affective
Ġphotophob ia
Ġbehc et
Ġindiffer ence
Ġplasmacyt oma
Ġhypermanganes emia
Ġcoalwor ker
Ġbrachymorph ia
Ġhippocamp al
Ġtrois ier
Ġadenylos uccinate
Ġgugliel mo
Ġgargoyl ism
zol amide
Ġdrag er
Ġdyg gve
Ġdunn igan
enfl uramine
Ġcph d
Ġcochle osaccular
articul ation
Ġmard en
Ġmarc us
Ġmorn ing
Ġmele da
Ġmott led
Ġhig ashi
Ġhpl h
Ġaure us
Ġautis tic
Ġfix ation
Ġdisorg an
Ġbuc y
Ġbann ayan
Ġbord etella
Ġbucc al
Ġlut emb
Ġraph e
Ġrippl ing
ilibri um
Ġeag le
Ġvoh winkel
Ġdysequ ilibrium
Ġchedia k
Ġconst ant
Ġaceta zolamide
Ġhyperek plexia
Ġstraw berry
Ġstrand berg
Ġparina ud
Ġprene oplastic
Ġkug elberg
Ġkuss maul
Ġklu ver
Ġkimmel stiel
Ġthri ve
Ġjug ulare
Ġtrunc us
Ġabri kos
Ġabras ion
Ġphlor izin
Ġameg akaryocytic
Ġamyt rophy
Ġexsang u
Ġpostsyn aptic
Ġchromophob e
Ġnonobstruc tive
Ġnonphot osensitive
ransferr inemia
Ġsubfer tility
Ġshield s
Ġintellig ence
Ġosteocar tilaginous
Ġosteodysplas ty
Ġmyelodis plastic
Ġpseudorhe umatoid
Ġschimmel penning
prech aun
Ġcritch ley
Ġdifficul ties
Ġhyperstim ulation
Ġnodofasc icular
Ġsepiap terin
Ġspondylometa epiphyseal
Ġmelker son
Ġeccent ro
Ġcarboxy kinase
Ġwilhel msen
Ġpleocon ial
Ġphotopa roxysmal
Ġvasopr essin
Ġathabas kan
arboxyl ic
Ġbouill aud
Ġpsaum e
Ġexfoliativ a
Ġacrofront ofacionasal
Ġbulboca vern
Ġmicrosphe rophakia
Ġportosyst emic
Ġhyperextensi bility
7 8
a am
a rop
a etales
b ec
b est
b ites
c ar
c end
c ross
c ipital
c ystectomy
d heim
e h
e roph
e ron
e hl
f r
f art
f ull
g em
g art
g gia
g av
g astr
g nos
g dh
g erous
h b
h h
h o
h ythmic
i ot
i plas
i oph
i rosis
i omatous
i aria
j a
j s
j me
j uana
k op
l a
l l
l ot
l ov
l av
l ithiasis
l oride
m all
m ers
m ium
m aker
n y
n ut
n ian
o y
o ag
o til
o vertebral
o ocular
o tian
o ude
p a
p e
p ps
p ez
r m
r es
r ig
r yst
r ated
r ect
r iform
r amel
r nith
r inogenemia
r essor
s ums
t w
t ag
t omy
t end
t ophyma
t aretrovirus
u ve
u ations
u ium
v us
v ital
v ival
w al
w ig
w ard
w he
x s
x ias
y on
y ch
y ron
y ogenic
z inc
z we
z berger
Ġ um
Ġ orm
Ġ oph
Ġ oss
Ġ omen
Ġ umbil
ti mal
ti ficial
er er
er in
er ed
er tion
er iaceae
Ġd l
Ġd t
Ġd yp
Ġd ed
Ġd id
Ġd og
Ġd oh
Ġd ump
Ġd sm
Ġs ox
Ġs ab
Ġs pha
Ġs li
Ġs aph
Ġs acch
Ġs ternal
Ġs unct
Ġs ds
Ġs ump
Ġs ites
Ġs ss
Ġs iam
Ġs oci
en ey
en opausal
in er
in ed
in osa
in odent
in vas
in till
on ial
on ch
on olact
Ġc ec
Ġc ing
Ġc ran
Ġc ch
Ġc ros
Ġc cl
Ġc est
Ġc gl
Ġc ble
Ġc fd
Ġc pp
Ġc utane
as omy
as itic
ar act
ar ge
is ic
is th
is son
is ural
is ella
is cher
es er
es ophag
es othel
es etting
Ġp od
Ġp ong
Ġp md
Ġp ass
Ġp ca
Ġp igm
Ġp isc
Ġp np
Ġp tc
ic an
ic ulty
an otic
an arin
at onic
at rogenic
at aceae
at aract
Ġm ap
Ġm ow
Ġm ain
Ġm pd
Ġm iet
Ġm agg
or th
or tin
or ine
or sion
or pha
or sions
or ipa
os ud
os ening
os ive
os ympathetic
Ġt k
Ġt t
Ġt us
Ġt ol
Ġt ang
Ġt aus
Ġt aci
Ġt cs
Ġt td
Ġt enn
Ġt ensor
om an
om st
om orpha
Ġh ed
Ġh ell
Ġh ot
Ġh ob
Ġh art
Ġh ole
Ġh ie
Ġh our
Ġh ors
Ġh oles
Ġh dd
Ġh app
Ġh cf
Ġh gf
Ġh atter
Ġh ansen
Ġh nf
rom eric
rom elia
le ft
le do
ph ysis
ph omotor
ph avirus
ph renic
ia phrag
yn eb
Ġa o
Ġa ase
Ġa version
Ġa ih
Ġn h
Ġn p
Ġn it
Ġn ull
Ġn cf
Ġn ipples
ul as
ul am
ul tr
ul ate
ul ator
ul avirus
Ġsyn s
Ġsyn tac
Ġsyn kinesis
it ons
us al
us er
us ia
us tr
us sion
ed al
ed enic
em oid
Ġf f
Ġf im
Ġf ad
Ġf ap
Ġf ill
Ġf ont
Ġf ind
Ġf ixed
Ġf pd
Ġf az
Ġf iller
Ġf its
Ġf unnel
Ġf gd
Ġf nd
Ġdis b
Ġdis ch
Ġdis per
Ġdis use
Ġdis rup
Ġdis articulation
op t
op tosis
op neum
op achy
op eau
Ġin oc
Ġin ert
Ġin ocul
Ġin versions
Ġin tegr
Ġin timal
Ġb b
Ġb et
Ġb anc
Ġb ign
Ġb rod
Ġb ea
Ġb out
Ġb arth
Ġb ech
Ġb fic
Ġb jer
Ġb td
Ġb utter
ys tis
Ġl ond
Ġl ice
Ġl ithiasis
Ġl ouse
Ġl ife
el le
el atase
ac y
ac er
ac ile
ac opl
ac idemia
ac inar
Ġr d
Ġr in
Ġr ate
Ġr ule
Ġr cm
Ġr are
Ġr rm
oc ent
oc ont
oc arb
oc arboxylase
oc orneal
oc olitides
oc utane
oc tophyma
Ġde ut
Ġde ter
Ġde creases
ur ing
ur iasis
ur icular
ur ata
ur iases
id p
id en
id ian
id ae
il onychia
il vie
Ġg d
Ġg er
Ġg ul
Ġg arc
Ġg ob
Ġg ron
Ġg alc
Ġg ulf
Ġg erman
Ġg radi
Ġg bd
Ġg be
Ġg els
Ġg ba
Ġg gf
Ġg omm
ol k
ol y
ol der
ol ian
Ġne iss
Ġne oin
ent ea
ve t
et yl
et obacter
et off
et ozo
et oj
th ec
th etic
iti da
ut a
ut ed
Ġe un
Ġe ug
Ġe lective
Ġv ur
Ġv ig
Ġv itus
Ġv sd
Ġv lin
Ġv entral
Ġv ddr
Ġv idian
am ellar
am pt
am ura
Ġhyp on
Ġhyp olip
Ġhyp ohyd
Ġhyp oproteinemias
Ġhyp ophyseal
Ġhyp ogenital
Ġtyp ical
Ġdys soc
Ġdys hydrotic
ra tia
Ġch anc
Ġch ester
Ġch anarin
od ep
od ect
od end
od ulin
si g
si ella
si fic
si mm
im an
im ination
ig eminal
ig uous
ig raft
un is
un der
ell ino
Ġan c
Ġan o
Ġan s
Ġan ad
Ġan ap
Ġan ank
Ġan ni
Ġcon struc
Ġcon sti
Ġcon gruent
ing ual
der h
der ia
der son
der mal
der gem
Ġac a
Ġac n
roph aryngeal
ot omy
ot retin
uro tomy
ter ew
ep ing
ep ithel
ous tical
ir cul
ir ick
ir urida
ir hythmic
ag ogic
ag ittal
Ġmy ers
Ġmy oep
Ġmy ophosph
Ġmy oblastoma
Ġmy oblastomas
ym oma
ym ptomatic
ym aker
ch off
Ġle b
Ġle an
Ġle th
Ġle tter
Ġle fev
Ġle prechaun
Ġle iden
Ġhyper b
Ġhyper ph
Ġhyper ac
Ġhyper re
Ġhyper esthetic
Ġhyper zinc
yl obacter
Ġsp ort
Ġsp okes
Ġsp atz
Ġsp irurida
itis h
ital ized
Ġat rophia
Ġat lant
Ġneuro genesis
Ġneuro hepatic
Ġneuro enteric
Ġneuro thec
Ġneuro epithel
ros thetic
Ġi in
Ġi ud
Ġi atrogenic
Ġw dh
Ġw axy
Ġw oude
ant ral
ant omastia
eph renic
ad t
ad ren
ad naviridae
Ġst ar
Ġst un
Ġst occ
Ġst ain
Ġst gd
cl ap
Ġpar ental
Ġpar tur
Ġpar kes
Ġpar tington
ob ia
plas ma
ip avirus
ip ient
Ġaut osome
Ġaut olysis
Ġaut olyses
ron odular
Ġal per
Ġal me
Ġal phal
Ġal eu
Ġal tid
Ġal dehyde
Ġal phavirus
Ġep ig
Ġep ib
Ġep ire
ile th
Ġpr ea
Ġpr ick
Ġpr itz
Ġpr iap
oplasm osis
Ġk e
Ġk h
Ġk im
Ġk ir
Ġk ost
Ġk ill
Ġk orn
Ġk ash
Ġk leb
Ġk inn
Ġk tc
Ġk ey
Ġk tw
Ġth omp
Ġth rob
Ġth eil
Ġth ai
Ġth under
ect rodactyly
ub al
ub itus
Ġar h
Ġar gen
Ġar ias
Ġar rh
Ġar hin
Ġar tificial
Ġhem idia
Ġhem pas
Ġad n
Ġad yn
ib rion
Ġx u
Ġre is
Ġre ich
Ġre ovirus
Ġre oviridae
Ġcell ulitides
Ġlymph ocytoses
Ġlymph ostatic
Ġlymph ofollic
Ġlymph ocytes
og r
og onad
Ġpro b
ost enosis
oid osis
oid ea
oid ocephaly
Ġher s
up lication
up edal
ens ory
Ġj eb
Ġj ail
Ġj arg
Ġper ich
Ġper sian
Ġper itons
Ġper igraft
Ġtr emat
Ġtr ps
Ġtr ifacial
Ġtr emens
encephal ia
Ġcereb roc
Ġcereb ri
Ġcereb rov
Ġab idi
Ġab iot
Ġleuk onychia
Ġleuk aemia
Ġleuk emoid
Ġse roton
Ġse itel
omy otonia
ang inal
des cend
Ġmal let
Ġmal united
Ġmal arias
Ġmal acopl
Ġmal dergem
ap omp
ap illedema
ne val
Ġcom min
Ġas l
Ġas yst
Ġas best
Ġas choff
iz e
Ġpol len
re a
re in
ink er
Ġret rol
Ġret rot
Ġret rovirus
Ġret roviridae
Ġret ropharyngeal
tis ms
Ġph th
Ġph asmidia
Ġph arnyx
tib acillary
Ġtra bec
Ġtra pez
Ġim idodip
Ġam y
Ġam yg
Ġam az
ab yrinth
ill osis
ill oses
ill aceae
ogen osis
Ġsc d
Ġsc ann
Ġsc rof
Ġsc aph
Ġsc kl
Ġsc rew
Ġsc otian
Ġsc intill
oth rix
Ġex pl
Ġex ophthalmic
Ġcor i
Ġcor rect
Ġcor yneb
roc arcin
roc ecal
ly ing
ment s
ment emic
Ġmul tibacillary
se y
Ġpal ato
oh emeral
Ġbl au
Ġbl omst
ari um
ari oidea
Ġretardation s
oste al
oste osis
oste ohypertrophy
Ġpost per
Ġpost dural
Ġpost gastr
Ġpost anginal
Ġprim ate
all ic
Ġmulti form
Ġmulti inf
Ġnon aut
Ġnon leuk
Ġnon arteri
Ġnon ente
Ġnon odont
Ġnon functional
Ġnon vital
son ia
of lav
Ġmet opic
Ġmet allic
rop o
rop erative
Ġmic tur
Ġmic rostomia
Ġmic robial
Ġpa h
Ġpa rov
ke a
ke full
Ġlip d
Ġlip o
Ġsub wa
Ġsub chond
Ġsub ungual
Ġsub phrenic
Ġ5 2
Ġ5 4
Ġ5 8
Ġsh ow
Ġsh fl
Ġsh ope
Ġsh ashi
ow ski
Ġarter ivirus
Ġpul pl
tein emia
Ġsusceptib ilities
Ġop enb
Ġop iate
Ġbr idg
Ġbr itish
Ġdia gnos
Ġcarcin omatous
yc osis
yc oses
amm omatous
ocyt ogenes
iv iridae
iv ibrio
Ġsens e
Ġsens es
Ġsens itization
Ġoste ogenic
Ġaden osis
Ġaden osarcoma
Ġaden oviridae
Ġaden osquamous
Ġaden ophor
Ġaden ocystic
Ġ6 0
Ġ6 3
Ġ6 5
Ġ6 8
Ġis otretin
eg o
eg ler
Ġco at
Ġfr en
Ġfr amb
Ġang ular
Ġcyst osarcoma
Ġmyel os
Ġmyel osis
Ġmyel oses
Ġmyel ophth
Ġmyel odysplasias
Ġmyel oradicul
Ġer ection
Ġer dheim
atal es
Ġpseud osclerosis
Ġpseud oneuro
Ġpseud ocyst
Ġpseud omonas
Ġpseud oglyc
Ġpseud ogluc
Ġpseud omyxoma
Ġrenal e
Ġhep adnaviridae
Ġperi ocular
Ġperi anal
ak ic
Ġag onad
Ġag pat
Ġfe om
Ġfe eding
Ġhypert onic
Ġsch o
Ġsch ol
Ġsch ut
Ġsch ool
Ġsch erer
rod uod
Ġmening othel
Ġo rotid
Ġo otorhin
Ġacid opathy
Ġacid opathies
Ġacid ophil
Ġacid ophilic
Ġend osteal
osph atase
Ġcat ast
Ġur ge
Ġur ination
Ġto rovirus
Ġto ledo
yr in
yr ing
Ġins ertion
Ġtub ule
Ġap e
Ġap ic
Ġpl sd
Ġpl ummer
Ġhyd e
Ġor phan
Ġcardi odys
Ġcardi ovirus
ort ed
ort em
Ġmon o
Ġmon te
Ġmon omorphic
Ġmon ocytogenes
Ġabs ences
Ġidi oventricular
Ġcent romeric
Ġcent rocecal
Ġun int
Ġun united
Ġun responsiveness
Ġun descend
Ġpo ultr
Ġpo rocarcin
Ġmac k
Ġmac rop
Ġmac ronodular
Ġect opar
Ġcr is
Ġcr ural
Ġcr ush
Ġcr utch
Ġcr ises
Ġcle avage
angi omas
Ġpos tr
ist ocytic
ick es
Ġver sive
Ġver tex
Ġcar rier
Ġcar rion
Ġcar neval
Ġ7 2
Ġ7 7
Ġneph roid
Ġneph romas
Ġangi oid
Ġangi oblastic
Ġangi ospasm
Ġangi ospasms
Ġangi olipomas
Ġdi h
Ġdi octophyma
Ġdi ego
Ġem g
Ġem ission
Ġob tur
ophag aceae
Ġca isson
iac eus
iac inar
Ġeryth rogenesis
Ġcentral opathic
Ġpneum ovirus
Ġpneum ogastric
Ġ8 2
Ġ8 8
Ġinter na
acter ium
acter aceae
acter iaceae
alc ification
Ġintra articular
Ġintra orbital
Ġintra par
Ġintra dermal
ef ul
st s
st ro
st on
st rong
Ġrh us
odyst rophic
Ġdem ineralization
Ġul tr
Ġsm ell
Ġsm dp
Ġsm older
Ġdr ift
Ġarth us
Ġarth ropathies
Ġsec und
Ġsec ern
Ġfl orid
Ġref err
Ġref sums
Ġref etoff
ma ack
Ġmuc opur
Ġcorn ual
immun oblastic
Ġ9 5
Ġretin ocochle
Ġol d
hyd ramnios
Ġsin cipital
Ġsup ras
Ġdiff iculty
ert oe
Ġspin ning
Ġthyroid s
Ġmari juana
int s
erv ord
Ġbrach mann
Ġbrach ycephaly
Ġrad iating
Ġpara hem
Ġpara arteri
Ġcrani odiaphyseal
Ġcrani ocervical
Ġaph asmidia
Ġaph alangia
velop mental
Ġlimb ed
Ġpsych opathic
Ġpsych oac
Ġpsych obacter
Ġpsych osensory
Ġocul osympathetic
Ġsinus es
Ġtubercul oids
Ġmit e
Ġbil ophila
Ġprol idase
Ġmes omyc
Ġmes encephalic
Ġmes ulam
Ġro yer
Ġro chal
Ġpe roperative
Ġmar ker
Ġmar tine
Ġmar antic
Ġnod osa
Ġnod ose
Ġdel taretrovirus
omyel ias
yph oid
yph alangy
tiv irus
opl ida
Ġchol ine
Ġneurol abyrinth
Ġvari ol
Ġsym b
Ġgal e
Ġgal k
Ġgal t
Ġgal ns
Ġdep th
Ġcd an
Ġhypot elorism
Ġpalm o
Ġmeth acr
ok worm
Ġen fl
Ġen ven
Ġen oplida
osp or
osp ondylic
Ġhand maker
Ġspondyl arthritis
Ġdermat ooste
Ġmel as
ins ki
Ġfol iaceus
Ġec th
Ġec yt
rol ine
rol ingual
Ġneur itic
Ġneur enteric
ass an
Ġiv a
Ġiv y
Ġgluc osuria
ific ations
Ġpoly hydramnios
Ġgalact ocerebrosidase
Ġgalact osyltransferase
til o
Ġdup lications
Ġcalc ane
Ġcalc iph
Ġcalc aneal
Ġfocal ly
Ġinsuff icient
omic romelic
Ġpup ill
Ġhypoth ermia
Ġhydrox ylation
ain ing
Ġste wart
itt ant
Ġdeform ational
Ġy osh
Ġy olk
Ġtran eb
Ġhall opeau
Ġhall ervord
Ġox oacid
Ġduct ular
Ġaortic opulmonary
Ġmethyl but
Ġmethyl acetoac
Ġsim pl
Ġsim mond
Ġchond roid
Ġchond rosarcoma
Ġgangli ons
Ġgangli ocytic
iss urotomy
Ġhemangi o
Ġhemangi omatous
Ġhemangi oblastic
Ġhemangi omata
Ġpseudo aneurysm
Ġcarb oxylate
ren oocular
Ġrem ittent
Ġgast roduod
ople gia
Ġsw amp
rosp inodent
rof tian
Ġinc ipient
Ġpur pos
Ġpur tilo
Ġvascul opathies
Ġvascul ature
Ġinv as
Ġcoron aviridae
ik rein
Ġtrich ofollic
Ġtrich ostrongyl
Ġtrich odisc
Ġsal t
Ġsal aam
Ġnons mall
Ġparas ite
Ġparas agittal
Ġjo ag
Ġcap rine
Ġcontr eco
Ġflu o
Ġtoxic o
Ġtoxic odend
Ġmor tis
Ġbe ard
Ġbe are
Ġax on
vers ary
Ġmelan chol
Ġot a
Ġot ogenic
Ġot osp
Ġot ological
Ġot ologic
Ġot omandibular
Ġpy orrhea
Ġpy gm
Ġarteri ohep
Ġclas sific
olip oma
ofib rinogenemia
Ġqu ery
Ġast rocytic
Ġast roviridae
pl ained
Ġbas ophil
Ġbas osquamous
Ġanti orth
Ġhepat oblastoma
Ġhepat opulmonary
Ġcam r
Ġcam era
Ġging f
omyc in
Ġrod s
Ġrod rig
Ġlob o
yg yrias
Ġhet erod
ald osteron
Ġgra y
Ġgra phomotor
Ġimperfect as
Ġmin ors
Ġpseudoh em
Ġpseudoh ermaphroditisms
Ġgingiv a
Ġgingiv ostoma
Ġtor g
Ġtor us
Ġtor sions
Ġpick s
Ġwh ipple
Ġwh iplas
Ġcrypt ococcal
Ġden gues
Ġni jme
etra hyd
Ġcyt ophagaceae
Ġprot an
Ġprot ective
Ġprot oplasmic
Ġosteop enia
Ġha es
Ġha iley
Ġha user
Ġha ymaker
Ġlo u
Ġlo osening
Ġdan ks
Ġbor j
Ġbor reliosis
Ġlam eness
Ġneu hauser
Ġket oses
Ġket osteroid
zo on
Ġsulf amidase
Ġank yrin
Ġdiverticul ums
Ġgr acile
Ġolig oastrocyt
Ġcalcific ans
Ġaids s
Ġele mentary
Ġoccl uded
Ġoccl usal
Ġbranch er
Ġmc d
Ġinterm ittant
Ġfront ocortical
Ġcdg s
Ġod di
Ġpyr roline
Ġhyperp arathyroidisms
Ġhyperp otass
Ġsl it
Ġavul avirus
Ġbow man
Ġdes at
Ġib s
Ġextra uterine
Ġextra vas
Ġequ ina
Ġmast ocytomas
obacter ium
roch anteric
roch elatase
Ġchoroid eremia
uth er
Ġme h
Ġav ellino
Ġphot ocont
Ġcorp oris
Ġcre eping
Ġeff erent
Ġgangl ias
Ġvas omotor
Ġvas odep
Ġentero virus
ophosph onate
Ġmedull aris
Ġcall os
Ġcall osal
Ġpapill a
Ġpapill omatous
Ġu hl
Ġu adt
Ġmyx opap
Ġapp eti
Ġsaliv osud
Ġdent e
Ġdent o
Ġdent ure
Ġcil ioph
Ġhs u
phrag m
Ġxx xx
Ġgu ion
Ġgu yon
Ġana emia
acc inal
ropath ica
Ġglob us
Ġover j
Ġsuper normal
Ġsuper invas
Ġtw itch
Ġair flow
Ġamel anotic
Ġblack water
arb ane
Ġarg yll
Ġplex opathy
Ġepis ode
Ġhol ocarboxylase
Ġgauc hers
Ġdisc olor
Ġind ian
Ġind eterm
Ġind ustr
Ġlocal ization
Ġcog whe
Ġacanth ocytoses
Ġacanth amoeb
Ġald ob
Ġtrach ea
Ġherpes viridae
den um
Ġventric ulitis
Ġros eol
Ġvi ia
Ġchore iform
Ġwal king
Ġesophag opharyngeal
Ġesophag otracheal
Ġmen kea
Ġmeg arbane
Ġlab ile
Ġlab rea
Ġodont otrich
Ġdig ito
Ġlev ocardia
Ġpres ymptomatic
Ġprec onc
Ġadren ocortic
Ġadren ogenital
Ġosteopo rotic
Ġsial idosis
Ġsial ometa
Ġrib oflav
ocys titis
Ġmer etoj
Ġtet rach
Ġtet ramel
Ġdec alv
Ġdec ubitus
Ġdec alcification
Ġgo at
Ġxanth ine
Ġexc retion
Ġpas sey
Ġrub ral
Ġrub ivirus
Ġrub ulavirus
Ġant et
Ġ25 6
Ġbowel s
Ġber lin
Ġko ilonychia
Ġamauro tic
Ġacetyl choline
Ġdisturb ed
Ġwor th
Ġwor ld
Ġfruct osediphosphatase
Ġuve omening
land ular
Ġfus iform
Ġfus obacteriaceae
Ġfus obacterium
Ġamb iguous
Ġmicroc oria
Ġmicroc ryst
Ġsupra orbital
ozo ospermia
Ġsti p
Ġlenti virus
Ġinfant um
Ġcircul atory
Ġneurom yotonia
Ġrigid ities
Ġel imination
Ġmann ose
chol inesterase
Ġxp b
Ġhaem olytic
Ġsem irhythmic
Ġmil iary
Ġmil iaria
Ġtri ang
Ġtri atrial
Ġretr usions
Ġmicrog landular
Ġfibro epithelial
Ġlax ova
Ġparap sor
Ġmeningoencephal itic
Ġfaci ocutane
Ġorgan ophosphate
Ġgre y
Ġgre enberg
Ġwern ickes
Ġcerebro atrophic
Ġcerebro tend
Ġhex osediphosphatase
Ġcirc ovirus
Ġcirc oviridae
Ġlentig o
ew orm
Ġmas on
Ġmas ked
Ġchem odect
Ġpp cd
osc rotal
Ġtas k
Ġtas er
Ġacro keratosis
Ġacro dermatitides
Ġacro renoocular
Ġsplit ting
Ġlichen iform
Ġdysp nea
Ġcond ens
Ġalb a
Ġlymphaden opathies
Ġrhabd oviridae
Ġrhabd itida
Ġseptic emic
Ġcross united
Ġfrag ment
Ġchl orine
ione u
Ġmacul es
Ġmacul opathies
Ġhyperbilirub inemic
Ġpure tic
Ġleiomy omata
Ġneuroc ogn
Ġneuroc ircul
Ġbreak ages
Ġet l
Ġtetra pl
Ġsynov itides
Ġneurode velopmental
Ġars a
Ġars b
Ġperic entral
Ġperic arditides
Ġamino adipic
Ġangio osteohypertrophy
Ġangio immunoblastic
Ġpapul es
Ġdiast ema
Ġdiast rophic
Ġdiast ases
Ġsj a
Ġscl eral
Ġtard bp
emb ly
Ġminimal ly
Ġser ratia
Ġhen ipavirus
Ġhar rod
Ġnarc oses
Ġri eg
Ġthy rolingual
Ġhamart omas
Ġcycl itis
Ġmod el
Ġspot ted
Ġsclero atonic
Ġsomat omed
Ġpine oblastoma
Ġacrom ic
Ġacrom el
Ġsciatic a
Ġmicrod uplication
entil ations
Ġmesothel ial
Ġsn ow
Ġsn apping
aud itory
yx oviridae
Ġbir t
Ġbir naviridae
Ġrect ovaginal
Ġchondrom eta
Ġchondrom atosis
Ġasc orb
Ġintrav enous
Ġadhes ive
Ġsheath s
kn ife
Ġcur ry
Ġcur ling
Ġbab esia
Ġev ans
Ġcong o
Ġsperm atic
Ġbronchiol oalveolar
Ġtrache omalacia
Ġvitreore tinal
Ġblast ocystis
ou in
Ġarc us
Ġps oas
Ġps ammomatous
Ġtak ahara
Ġschwann omatosis
Ġverruc osa
Ġcost al
Ġcost oclavicular
Ġpan leuk
Ġpan lobular
Ġpan acinar
Ġmcop ct
Ġbro oke
Ġbroc ks
Ġlact otroph
Ġneovascular izations
Ġarm strong
Ġincon gruent
Ġcamp ylobacter
Ġplasm acytic
Ġsing leton
Ġhys p
Ġfir esetting
Ġren ocardiac
Ġile us
Ġile um
Ġlymphangi omy
Ġlymphangi oleiomy
Ġsubm esothel
Ġroot s
oin ed
Ġdh tr
omple mentemic
Ġho okworm
Ġhamm ertoe
Ġnig rospinodent
Ġfil oviridae
Ġfil iforme
Ġfil arioidea
ett es
Ġarachnoid itis
Ġappend ix
Ġappend icular
Ġincompet ent
ocortic ism
Ġebs s
Ġacin etobacter
Ġacne iform
Ġxl mr
Ġmacrog lossia
Ġcervic ogenic
Ġcervic ofacial
Ġcervic obrach
Ġquadr upedal
Ġunc onscious
Ġmd c
Ġmd r
Ġhl d
Ġhl h
Ġhl cs
Ġhyperm et
Ġhemic ord
Ġperc ussion
Ġpseudop yogenic
Ġpseudop oly
Ġpseudop apilledema
Ġurid ine
Ġgangren ous
Ġgangren osum
Ġbrachy ectrodactyly
Ġpseudohypo aldosteron
Ġfinger print
Ġdim orphous
Ġbac illaceae
Ġwr iter
Ġhemis ensory
Ġflaccid ity
Ġprecoc ity
Ġbifid obacterial
Ġej ection
Ġimm itis
Ġimm ature
Ġund ulant
Ġsphing olipid
Ġsphing olipidosis
Ġhypergonad otrophic
Ġlabor atory
Ġdisplac ed
Ġsi we
Ġsur do
Ġsur vival
Ġnor rie
ode v
Ġcortic otroph
Ġcortic osteroid
Ġburk hol
Ġbirth s
Ġirid ocorneal
Ġsr td
Ġmis alignment
Ġnag lu
Ġcp x
Ġta enia
Ġtap eworm
Ġfer rochelatase
Ġvacu ol
Ġepi phys
Ġjejun um
Ġpolyn esian
Ġshar ps
Ġmycoplasm atales
Ġganglion itides
Ġschwartz man
Ġphenylketon urias
Ġmicroangi opathic
Ġhyperphosphat emic
Ġmenstr uations
Ġvin son
rant an
Ġprof ound
Ġperior bital
Ġscar let
Ġplan ocellular
Ġcardio auditory
Ġsteat oses
Ġpolymic robial
Ġwolff ian
Ġfusari um
Ġten der
Ġgig antomastia
Ġhyperkal emias
Ġleukopl akic
nev ie
Ġretro version
Ġretro versions
Ġrot or
Ġrot avirus
Ġmorb id
Ġhidraden oma
Ġotorhin olaryngeal
Ġmp v
Ġfar mer
Ġfur cation
opal atine
Ġgh ost
Ġhypn agogic
Ġhypn apomp
ima ea
Ġlept osp
Ġparam eningeal
Ġparam yxoviridae
Ġalex ander
Ġmicrocephal ies
Ġopac ity
Ġide okinetic
Ġbronchi olar
Ġweakness es
Ġnocard ia
Ġventricul itides
Ġchlamyd ia
Ġchlamyd ial
Ġchlamyd iaceae
Ġobstetric al
Ġpox virus
Ġpox viridae
Ġdist orted
Ġdistin ct
Ġlaur in
Ġdex tr
Ġgam bling
Ġdysh idrotic
Ġmonil ial
Ġflav oprotein
Ġflav ivirus
Ġflav obacteriaceae
Ġflav iviridae
Ġoxy uris
Ġoxy urida
Ġcaps ule
Ġsplen ogonad
Ġsphen oidal
Ġsphen opalatine
Ġmegac onial
Ġmegac ystis
Ġpolyneur itis
atin ous
Ġench ond
Ġdur s
Ġcb x
Ġbatt le
Ġdev italized
ograph ism
ograph ical
Ġjack knife
Ġexanth ema
Ġexanth ematous
Ġexanth ems
Ġisomer ase
Ġtransc ortical
Ġclub bed
Ġoxal ate
icardi otomy
Ġmg ca
Ġnph s
Ġinhal ant
Ġbed nar
Ġbed ouin
ocost oclavicular
ament osa
Ġanth ony
Ġanth rac
Ġkl ats
Ġech ovirus
Ġdilat ations
Ġmutil ans
Ġbiotin idase
Ġog ilvie
Ġhal o
Ġrath kes
Ġhypoc omplementemic
Ġacrop igmentation
Ġleuc ocyth
Ġphak omatoses
Ġpostchole cystectomy
Ġpasteur ellaceae
Ġsyring omas
Ġsyring omyelia
len ozoa
mo ad
Ġstern ocostoclavicular
Ġsuccin ate
Ġpb gd
Ġtest otoxicosis
Ġlc cs
Ġprog on
Ġphon ological
Ġphon ology
Ġtransloc ase
Ġtransloc ations
Ġnecrob iosis
Ġmcc une
Ġactinomyc ete
Ġactinomyc etales
Ġxanthogranul oma
Ġxanthogranul omas
yb denum
Ġds ma
Ġgel atinous
Ġthi opur
Ġreciproc ating
Ġexst rophies
Ġpostc omm
Ġpostc ataract
Ġsche inker
Ġchori omeningitis
Ġneglect s
Ġneglect ed
Ġenterob acterial
Ġenterob ius
Ġenterob acteriaceae
Ġhypertriglycer idemias
Ġchondromalac ias
Ġmorbill ivirus
Ġacetylgalact osamine
aple gic
no iti
Ġroc k
Ġcant u
Ġtar ui
Ġtar lov
Ġai roc
Ġbf is
Ġbin der
Ġprur itus
Ġjer k
Ġimbal ances
Ġcoarct ations
Ġhypoten sive
Ġhydroxyphen ol
Ġextrac utaneous
Ġricketts ia
Ġricketts iaceae
Ġhabit ual
Ġhyperchylomicron emias
Ġnarrow ing
Ġsupernum ary
Ġdic arboxylic
Ġdav id
Ġcatal ase
Ġpf km
Ġpf hb
Ġmend elson
Ġtog avirus
Ġhb v
Ġhb oc
Ġnond eletion
Ġnucle o
Ġgun shot
Ġconj oined
Ġacad emic
Ġache i
Ġacalcul ous
Ġparac ecal
Ġparac entral
Ġka eser
Ġkary otypes
Ġthick ness
Ġaref lexia
Ġcaud a
Ġdysmyel opoietic
Ġriver a
Ġpostcholedoch ostomy
Ġpostcholedoch oduodenostomy
Ġpostcholedoch ojejunostomy
Ġurea plasma
Ġaqued uct
Ġpt oses
Ġpes tivirus
Ġmos sy
Ġmim ae
Ġhog g
Ġlaw sonia
Ġram b
Ġstart s
Ġparv oviridae
Ġperine al
Ġtrip lication
Ġtrip loid
Ġpolio encephalitis
Ġphag edenic
Ġosteo articular
Ġoro antral
Ġurb an
Ġmonochrom atism
Ġmonochrom acy
Ġintram uscular
Ġdiffus a
Ġdiffus um
Ġvarieg ate
Ġfollic le
Ġchondro itin
Ġdigit ate
Ġtetan y
Ġdegrad ations
Ġtumour s
Ġparainfluenz ae
Ġitch s
Ġdark ness
onne use
Ġhop kins
Ġheal ed
Ġheal ing
Ġfrax a
Ġrat bite
Ġgutt ural
Ġwohl fart
Ġstrongyl ida
Ġparat ubal
Ġparat yphoid
Ġali ivibrio
Ġhemipar aplegic
Ġreent ry
achis ch
Ġjeg her
Ġleuko erythro
Ġsubd iaphrag
Ġ51 78
Ġendodon tic
Ġmedic amentosa
Ġcompens ated
Ġcompens ative
Ġhistid ine
Ġfold ed
Ġglucoseph osphatase
Ġdissec ans
Ġbarton ella
Ġbarton ellaceae
Ġpolydyst rophy
Ġflexib acteraceae
Ġspiroch ete
Ġspiroch aetales
Ġsaturn ine
Ġung uium
Ġdub in
Ġsus ac
Ġsus pect
Ġct pp
Ġpep tide
Ġmiss ed
Ġtab es
Ġfm fd
Ġflec k
Ġflec ks
Ġbes noiti
ellig ible
Ġattr ib
Ġattr ition
Ġlymphoretic ulosis
Ġlymphoretic uloses
Ġamput ations
Ġblister s
Ġpostv accinal
Ġsubt otal
Ġsublux ations
Ġangel man
Ġpseudoc left
Ġmonone uritis
Ġmonone gav
Ġcentr ilobular
Ġcentr iacinar
Ġunder lying
Ġcriss cross
Ġageus ic
Ġhidradren omas
Ġtietz e
Ġtympanic um
Ġerysipel othrix
tac ortical
Ġdenti tion
Ġdenti gerous
Ġcac d
Ġpock et
Ġpock ets
Ġmt bs
Ġmol ybdenum
Ġmert en
Ġmert ens
Ġton eless
Ġtod d
Ġhies s
Ġnemat ode
Ġnemat omorpha
Ġfitz simm
Ġbaz in
Ġga a
Ġgc cd
Ġdysb etalipoproteinemia
Ġstab bing
Ġaren avirus
Ġaren aviridae
Ġjoh ne
Ġperia or
Ġperim eningeal
Ġperim enopausal
Ġperip apillary
Ġperip rosthetic
Ġass embly
Ġerythr emic
Ġsepto optic
Ġoxoprol inase
Ġhemangioperic yt
Ġhemangioperic ytic
Ġmorax ella
Ġmorax ellaceae
Ġotolaryng ological
Ġotolaryng ologic
Ġpyelect asis
Ġpyelect ases
Ġpykn o
Ġcalici virus
Ġcalici viridae
Ġlambd oid
Ġlambd oidal
Ġdesulfov ibrio
Ġdesulfov ibrion
Ġmeval onic
Ġmeval onate
Ġsequestr ation
Ġsequestr ations
Ġathle tic
Ġathle te
Ġoverd ose
Ġorganothi ophosphate
Ġorganothi ophosphonate
Ġcircum anal
Ġorthomyx ovirus
Ġorthomyx oviridae
Ġethm oid
Ġethm oidal
Ġuncompens ated
Ġuncompens ative
Ġfranc esch
Ġfranc isella
Ġbacteroid es
Ġbacteroid aceae
Ġretropos ition
Ġretropos itions
Ġfurrow ed
Ġthreat ening
Ġthreat ened
Ġdrowning s
Ġpicorn avirus
Ġpicorn aviridae
Ġnesidioblast osis
Ġnesidioblast oses
Ġdismemberm ent
Ġdismemberm ents
Ġtamponad e
Ġtamponad es
Ġit ai
Ġsuff er
Ġcad mium
Ġbon nevie
Ġbut ton
Ġgem istocytic
Ġgnath ostoma
Ġdysth yroid
Ġdyscr asias
Ġwitt maack
atis ms
Ġash erman
Ġcorne ae
Ġpostm ortem
Ġparoti tis
Ġsubnormal ity
Ġmyelomening ocele
Ġperios titis
Ġendophthalm itis
Ġclin odactyly
Ġdress ing
Ġbilirub in
Ġeng man
Ġpatell ae
Ġquad rantan
Ġgravid ar
robi opterin
Ġlenticular is
Ġtetrahyd robiopterin
Ġdihydroxy acetonephosphate
Ġhemisp inal
Ġstreptoz ocin
Ġsteatohep atitis
Ġepicondyl itis
Ġlegionnair e
Ġdolich oect
Ġadamantin ous
Ġkojew nikow
Ġdegluti tional
Ġcoxsackie virus
Ġerg ot
Ġdiple gic
Ġsul zberger
Ġsemin oma
Ġpend ular
Ġpow assan
Ġmob ius
Ġmumm ification
Ġtular ensis
Ġtail or
Ġheb ephrenic
Ġfig urata
Ġinactiv ation
Ġbig foot
Ġbass en
Ġlr at
Ġls il
Ġdecl ine
Ġgus b
Ġhypos ecretion
Ġhypomelan osis
Ġchn g
ingu inal
Ġhyperneph roid
Ġjux tacortical
Ġpalp ebral
Ġnonthromb openic
Ġmicrosp ora
Ġsubs ternal
Ġisoval eric
Ġtransves tic
Ġuracil uria
Ġcrib riform
Ġcrack ed
Ġclaud e
Ġepidid ymal
Ġerythrodys esthesia
Ġinterse x
Ġeyebrow s
Ġenthes itis
Ġpsychophys iological
Ġalcap a
Ġphosphatidyl inositol
Ġhematopo etic
Ġpolyarter itis
Ġdiverg ence
Ġcytos olic
Ġarthrogryp oses
Ġpyruv ic
Ġanaplasm ataceae
Ġactinobac illus
Ġpresb yc
Ġpresyn aptic
Ġkozhev nikov
Ġuveopa rotid
Ġfusospir illary
Ġhaemorrh age
Ġfibroathe romatous
Ġchemot actic
Ġpseudotubercul osis
Ġgermin oblastic
Ġincontin entia
Ġmyelinoclas is
Ġejacul atio
Ġhypovole mic
Ġstere otypic
Ġilio inguinal
Ġdictyoca ulus
Ġperineur ial
Ġcoccidioid es
Ġascarid ida
Ġhymenolep is
Ġpostex ercise
Ġsyndesm otic
Ġbronz ed
Ġut p
Ġdra vet
Ġpomp e
Ġtop ographical
Ġtow nes
Ġhag eman
Ġhitt ner
Ġhugh es
Ġaip l
Ġnd nc
Ġsynerg istic
Ġfs gs
Ġfro ehl
Ġfug ax
Ġfemor acetabular
operitone um
Ġinn ocent
Ġlud wig
Ġlass a
Ġlerich e
Ġgay et
Ġgitel man
Ġviv ax
Ġhypopro thrombinemia
Ġhypero rnith
Ġchok ed
Ġleud et
Ġneurobor reliosis
Ġrein hardt
Ġgly oxylate
Ġperitone i
Ġcomm isural
Ġcardior enal
Ġisochrom osome
Ġpseudog lioma
Ġmong olian
Ġunex plained
Ġclot ting
Ġfluct uation
Ġcompos ite
Ġmethion ine
Ġecch ym
Ġmagen is
Ġbarb ae
Ġquinc ke
Ġantidi uretic
Ġduhr ing
Ġheterochrom ic
Ġhyperpipec olic
Ġpleuro dyn
Ġmanz ke
Ġavoid ant
Ġmenet rier
Ġhypoadrenal ism
Ġshee han
Ġppn ad
Ġserpigin osum
Ġpseudopsych opathic
Ġprediab etic
Ġgoodpast ure
Ġanisomet ropic
Ġmirizz i
Ġneurotox in
Ġbuerg er
Ġnyct ohemeral
Ġsiren omelia
Ġpellag ra
Ġtrepon emal
Ġdisorgan ized
Ġlutemb acher
Ġexsangu inating
car nitine
eroph orus
zwe ig
Ġorm ond
Ġoss icular
Ġumbil icus
Ġdyp las
Ġded ifferentiated
Ġdid moad
Ġdump ing
Ġspha erophorus
Ġsaph o
Ġsacch arop
Ġsiam ese
Ġsoci opathic
Ġcing ulate
Ġcest ode
Ġpong idae
Ġpigm enti
Ġpisc irick
Ġmiet ens
Ġmagg ot
oripa rous
Ġtus sive
Ġtaus sig
Ġtenn is
Ġhors es
Ġhdd d
Ġhapp y
Ġhnf j
Ġnit rogen
Ġsyntac tical
Ġfill ers
Ġfind ings
Ġfaz io
Ġdisper sion
Ġdisrup tive
Ġinoc ulation
Ġinocul ative
Ġbanc roftian
Ġbign ami
Ġbout onneuse
Ġbech terew
Ġbjer rum
Ġbutter fly
Ġlond e
Ġdeut an
Ġgarc ia
Ġgob let
Ġgron blad
Ġgradi ent
Ġgels olin
Ġneiss eriaceae
Ġneoin ti
etozo ea
Ġeun uch
Ġeug lenozoa
Ġvig il
Ġvlin cl
ampt odactyly
Ġhypogenital ism
Ġdyssoc ial
Ġanad ysplasia
Ġanap olip
Ġanank astic
Ġanni versary
Ġconstruc tional
Ġmyoep ithelial
Ġmyophosph orylase
Ġletter er
Ġlefev re
Ġhyperzinc emia
Ġsport s
adren ocorticism
Ġstocc o
Ġpartur ient
Ġalme ida
Ġalphal ipoprotein
Ġaleu tian
Ġaltid udinal
Ġepire tinal
Ġprea uricular
Ġkost mann
Ġkill ian
Ġkorn zweig
Ġkleb siella
Ġkinn ier
Ġktc n
Ġkey hole
Ġthomp son
Ġthrob bing
Ġtheil er
Ġthunder clap
Ġhemidia phragm
Ġjarg on
Ġperich ond
Ġperitons illar
Ġtremat ode
Ġcerebrov entricular
Ġseroton in
Ġcommin uted
Ġretrol ental
Ġtrabec ular
Ġtrapez oidocephaly
Ġimidodip eptidase
Ġamyg dal
Ġscann ing
Ġscintill ating
Ġexpl osive
Ġcorrect ed
Ġcoryneb acterium
Ġblomst rand
Ġpostper icardiotomy
Ġpostgastr ectomy
Ġmultiinf arct
Ġnonaut oimmune
Ġnonleuk emic
Ġnonarteri osclerotic
Ġnonente ropathic
Ġnonodont ogenic
Ġmictur ition
Ġparov arian
kefull ness
Ġsubwa kefullness
Ġsubchond ral
Ġshfl d
Ġpulpl ess
Ġopenb ite
Ġadenophor ea
Ġisotretin oin
Ġmyelophth isic
Ġpseudoneuro tic
Ġpseudoglyc ogenosis
Ġpseudogluc agonoma
Ġagonad ism
Ġmeningothel iomatous
Ġorotid ylic
Ġootorhin olaryngeal
Ġcatast rophic
Ġunint elligible
Ġundescend ed
Ġpoultr y
Ġectopar asitic
Ġcarneval e
Ġobtur ator
Ġintrapar enchymal
Ġsmolder ing
Ġsecund um
Ġsecern entea
Ġreferr ed
Ġmucopur ulent
Ġretinocochle ocerebral
Ġsupras ellar
Ġpsychoac oustical
Ġmesomyc etozoea
Ġrochal imaea
Ġmartine z
Ġenven om
Ġcalciph yl
Ġyosh ida
Ġhallervord en
Ġmethylbut yryl
Ġgastroduod enal
Ġpurpos eful
Ġtrichofollic uloma
Ġtrichodisc omas
Ġcontreco up
Ġtoxicodend ron
Ġarteriohep atic
Ġclassific ation
Ġantiorth ostatic
Ġheterod is
Ġwhiplas h
Ġnijme gen
Ġextravas ation
Ġphotocont act
Ġvasodep ressor
Ġmyxopap illary
Ġappeti te
Ġsalivosud oriparous
Ġcilioph ora
Ġindeterm inate
Ġindustr ial
Ġcogwhe el
Ġacanthamoeb a
Ġroseol ovirus
Ġpreconc eption
Ġadrenocortic otropic
Ġriboflav in
Ġmeretoj a
Ġtetrach loride
Ġtetramel ic
Ġdecalv ans
Ġuveomening oencephal
Ġmicrocryst al
Ġfaciocutane oskeletal
Ġcerebrotend inous
Ġneurocogn itive
Ġneurocircul atory
Ġsomatomed in
Ġascorb ic
Ġsubmesothel ial
Ġnigrospinodent atal
Ġcervicobrach ial
Ġpseudohypoaldosteron isms
Ġbifidobacterial es
Ġburkhol deria
Ġhypnapomp ic
Ġsplenogonad al
Ġpostcomm issurotomy
Ġleukoerythro blastic
Ġsubdiaphrag matic
Ġmononegav irales
Ġtoneless ness
Ġfitzsimm ons
Ġdesulfovibrion aceae
Ġfroehl ich
Ġhyperornith inemia
a al
a ed
a ys
a ins
a epiphyseal
a qtl
a illa
b es
b ell
b ulbar
c i
c y
c tion
c id
d or
d ad
d ay
d ontia
e ks
e oretinal
f h
f n
f acial
f mann
f enfluramine
g eral
g ow
g ers
g az
h ar
h or
h ip
h ier
h isc
h emoglob
h omocys
i os
i od
i ant
i itides
i ers
i ospasm
i aris
j ug
j ew
l ar
l itis
l ane
l anti
l oids
m ci
n u
n is
n ers
o ia
o ros
o ver
o eth
o uch
o eck
o ese
o amel
p f
p w
p in
p tive
r c
r l
r p
r in
r ies
r ens
r ist
r iac
r illary
r ison
s f
s r
s ic
s ma
s utism
s idi
s arrhythm
s ubo
t us
t rans
u a
u an
u der
u ity
u ib
u hara
v ine
v ascular
v enth
x e
x osidase
y as
y drom
y ral
y gia
z a
z s
z er
z ani
z oster
Ġ ard
Ġ tia
Ġ omp
al t
al ia
al ytic
ro et
ro ot
ro ff
ro blast
ro hem
ro thrombinemia
ti o
er as
er es
er ia
er plasia
er up
er son
er ian
er tia
er ha
Ġd n
Ġd al
Ġd in
Ġd ial
Ġd uc
Ġd ib
Ġd unc
Ġd est
Ġd ual
Ġd ian
Ġd ance
Ġd enb
Ġd ust
Ġd dd
Ġd td
Ġd gs
Ġd izz
Ġs f
Ġs on
Ġs ard
Ġs ine
Ġs ib
Ġs qu
Ġs und
Ġs war
Ġs sd
Ġs aw
Ġs qt
Ġs umm
Ġs iew
Ġs ize
en um
en tin
en sive
en ate
en inemic
en orrheas
in v
in y
in olysis
in uric
in urias
in hib
on ys
on ig
on osteosis
on jug
Ġc n
Ġc im
Ġc up
Ġc asc
Ġc ert
Ġc yan
Ġc umm
Ġc nm
Ġc akut
Ġc cds
as il
as ing
as tia
ar an
ar ial
ar iasis
ar gic
ar apid
ar alytic
is ed
is ons
is thesis
is atas
es z
es on
Ġp it
Ġp ink
Ġp and
Ġp yc
Ġp ns
Ġp ata
Ġp rag
Ġp de
Ġp cd
Ġp ck
Ġp rone
Ġp ddr
Ġp ths
Ġp xe
ic as
ic ation
an ur
an ch
an son
an ug
at ellar
at tia
at ologic
at ts
at rix
Ġm las
Ġm th
Ġm ous
Ġm itis
Ġm ib
Ġm ism
Ġm ill
Ġm and
Ġm age
Ġm amm
Ġm ft
Ġm cle
Ġm bs
Ġm enz
Ġm amo
Ġm mr
Ġm tc
Ġm bp
or al
or ation
or ie
or house
os er
os omatic
os mia
os idoses
os mias
Ġt g
Ġt y
Ġt yr
Ġt ast
Ġt pt
Ġt eth
Ġt aw
Ġt aur
Ġt uft
Ġt pm
om es
om eg
om itant
om phalocele
om ania
Ġh i
Ġh re
Ġh pt
Ġh ts
Ġh amel
Ġh tc
Ġh utt
Ġh echt
yn ess
yn ah
Ġa ar
Ġa ic
Ġa us
Ġa tic
Ġa im
Ġa un
Ġa uj
Ġa oa
Ġa erod
Ġn c
Ġn oma
Ġn af
Ġn ae
Ġn sd
Ġn ie
Ġn bs
Ġn berg
Ġn td
Ġn ai
Ġn no
Ġn elson
ul omas
ul iasis
ul iases
ul oskeletal
Ġsyn cy
it te
it ay
it ri
it ance
it ans
it amura
us ias
ed ule
em ase
em ond
em ark
Ġf ed
Ġf ra
Ġf og
Ġf lamm
Ġf pl
Ġf rob
Ġf sp
Ġf asting
Ġf oster
Ġf mr
Ġf cm
Ġf ih
Ġf kt
Ġf oley
Ġf bh
op ing
op apul
op aresis
op alp
op atellar
Ġin osine
Ġin creases
Ġin ertia
Ġb ag
Ġb ub
Ġb eal
Ġb ric
Ġb of
Ġb rov
Ġb de
Ġb da
Ġb alan
Ġb aum
Ġb pp
Ġb esc
Ġb adal
Ġb idirectional
Ġl f
Ġl ann
Ġl pr
Ġl ack
Ġl cd
Ġl fs
Ġl uj
Ġl iab
Ġl uder
Ġl anug
el a
el in
el sch
ac ca
ac idurias
Ġr b
Ġr m
Ġr ut
Ġr md
Ġr ise
Ġr cc
Ġr sts
tic us
tic ks
oc ated
oc orac
oc itr
oc oria
Ġde hisc
ur ase
ur itides
ur acil
id us
id ars
il es
il hier
ec eptor
Ġg g
Ġg ub
Ġg ib
Ġg ap
Ġg ab
Ġg ian
Ġg ole
Ġg ele
Ġg upt
Ġg aba
Ġg bm
Ġg yral
ol og
ol ling
Ġne tter
et y
et oma
et omas
las sic
ut es
ut ase
Ġe um
Ġe hm
Ġv d
Ġv f
Ġv m
Ġv ies
Ġv md
am n
am ic
am ia
am ate
am orph
am ber
gen mann
gen eses
Ġhyp of
Ġhyp ogenesis
Ġhyp omelia
Ġhyp sarrhythm
um a
Ġdys emb
Ġdys lexias
Ġdys keratotic
ra y
ra eli
Ġch h
Ġch ed
Ġch st
Ġch amp
Ġch mp
Ġch eney
Ġch itay
Ġch amber
si gh
im e
im oses
im otos
ig estive
un k
un ier
un ts
ell iasis
ell iases
Ġan i
Ġan hyd
Ġan omia
ing old
Ġac g
Ġac las
Ġac rocephaly
Ġac ps
Ġac rol
Ġac nes
Ġac athisia
Ġac eruloplasminemia
Ġac uity
ot ti
ot el
ot ri
ot ocin
ot subo
uro sis
ter us
ter idine
ies er
ep elin
ag land
te rohem
Ġmy osis
Ġmy oses
Ġmy iasis
Ġmy algias
ym omas
ch ez
ch horn
ch aed
ch rist
Ġle h
Ġle iner
tin en
tin ian
ard iac
Ġhyper n
Ġhyper emias
Ġhyper ren
Ġhyper kinesia
Ġhyper fibr
Ġhyper kinesias
oplas tin
yl ia
yl ate
yl li
Ġsp d
Ġsp eck
Ġsp da
Ġsp elling
Ġsp pk
Ġsp ahr
eb s
eb rain
eb ald
Ġat s
Ġneuro re
Ġneuro ser
Ġneuro vascular
ros itis
Ġi j
Ġi ow
Ġw it
Ġw ms
Ġw ie
Ġw omen
Ġw fs
Ġw ss
Ġw pw
anc tis
ad h
ad uod
Ġst l
Ġst yl
Ġst ove
Ġpar t
Ġpar ak
arc erated
ephal ies
ip s
Ġaut ophag
ron ych
Ġal ves
Ġal gs
Ġal anine
ile ction
erm itte
Ġpr ps
Ġk ent
Ġk yr
Ġk indler
Ġk pps
Ġk yas
Ġk onig
Ġk itamura
Ġk ieser
ver gel
usc uloskeletal
Ġcongenital e
Ġth ann
Ġth md
Ġth orax
ect s
ect asia
ub ism
Ġar ak
Ġar ts
Ġar hr
Ġar ima
Ġar roy
Ġhem ophilias
Ġad m
Ġad apt
ib ility
ib erg
ib eri
ib ayama
Ġx k
Ġx m
Ġx ls
Ġre if
Ġre absorption
Ġlymph ocytopenias
Ġgl ioses
tr uc
tr ical
tr ich
ism ann
og lossia
ati an
ati te
ati va
Ġpro pt
ost omandibular
ost atin
oid iasis
oid iases
ach t
ach lan
Ġdyst asias
ens ity
ens ae
Ġj t
Ġj al
Ġj ps
Ġj ansky
Ġj atz
Ġper ei
Ġtr im
Ġtr ismus
Ġtr unk
encephal itides
Ġcereb rom
Ġcereb rof
Ġab l
Ġab cd
Ġab etalipoproteinemia
Ġab derh
Ġleuk oma
Ġse e
Ġse venth
omy opathy
ang le
Ġmal es
Ġmal onic
Ġmal her
Ġmal rot
Ġmal alignment
Ġmal attia
ap ular
ap illar
Ġrec ti
Ġrec omb
iz ian
ox idase
re ting
Ġhe id
ov ic
ov itamin
ric oma
ric eps
Ġph d
Ġph le
Ġhered oat
Ġhered opathia
Ġim pression
Ġam l
Ġam mon
Ġam ebiases
ab e
ab s
Ġtumor i
Ġsc ur
Ġsc otia
oth enate
Ġex ag
Ġex ogenous
Ġcor ino
roc ornea
ment ed
Ġepilep sia
ion inemia
Ġii e
Ġpal at
tal ity
tal opia
ith iases
Ġencephal ofacial
Ġbl s
Ġbl ond
Ġbl and
ue z
Ġretard ed
oste role
Ġpost zoster
onic a
asc in
Ġprim us
Ġmulti loc
Ġmulti dr
Ġnon immun
Ġnon kerat
Ġnon nuclear
Ġnon aka
Ġnon erup
of orm
of err
inant s
Ġmet amorph
rop ody
Ġmic roti
Ġmic rov
orrh oea
Ġpa i
Ġpa ulo
ke ys
ke witz
Ġlip omatous
Ġfib rol
Ġsh sf
Ġsh ibayama
ow ay
Ġpul s
och ol
Ġq azi
Ġbr v
Ġbr es
Ġbr uck
Ġcarcin osarcoma
Ġcarcin oids
Ġgen iospasm
iv ian
iv ocerebellar
Ġoste osarcomas
Ġoste osclerotic
Ġaden itis
Ġaden opathy
Ġaden itides
Ġaden opathies
Ġaden ofibromas
Ġaden osyltransferase
Ġ6 7
Ġis s
Ġis odis
Ġis raeli
eg m
uv ant
Ġco ast
Ġco ats
Ġco oley
Ġco unts
Ġfr ts
Ġfr da
Ġfr acca
Ġcyst oides
lic a
Ġthromb ocytopathy
Ġthromb oplastin
anti a
Ġpseud od
Ġpseud arthrosis
Ġpseud omyotonia
Ġpseud ovitamin
omal y
ak eb
Ġag u
Ġag itation
Ġfe ar
Ġfe ingold
Ġsch ad
Ġsch roet
Ġsch edule
oderm ic
oderm at
ers ch
Ġmening o
Ġmening es
Ġmening ovascular
Ġo a
Ġo av
Ġo esophageal
Ġo titides
Ġo ophor
Ġo kam
Ġo kt
Ġend e
Ġend otox
est on
Ġderm opathies
Ġcat c
Ġcat el
Ġcat cn
av son
Ġins ensitivities
Ġap c
Ġap s
Ġap mr
Ġor i
Ġcardi opathy
Ġcardi oencephal
Ġcardi oskeletal
Ġcardi ocranial
ood ont
ea ux
pr essive
Ġmon ocyte
Ġmon ocarb
Ġmon ileth
Ġscle rotic
Ġscle rocornea
Ġun inhib
Ġpo ads
Ġmac rocephal
Ġmac derm
Ġmac rodactyly
Ġect romelia
Ġcr d
Ġcr eas
Ġcr st
Ġcr uve
angi oma
angi omatous
Ġver ner
Ġcar ring
Ġoptic as
Ġoptic oacoustic
ri um
Ġ7 1
Ġ7 3
Ġneph rotoxic
Ġneph roblast
Ġcl oac
Ġcl ark
Ġangi ostrongyl
Ġem esis
Ġnerv es
Ġca h
Ġca yler
Ġeryth roid
Ġeryth rocyt
Ġwith in
Ġpneum atosis
ero l
Ġpartial is
Ġ8 9
Ġinter phalangeal
Ġinter leuk
Ġadult orum
st ad
Ġsm ile
Ġsm ax
Ġsm ok
Ġsm mci
Ġarth ritic
Ġacqu is
Ġgranul ocytopenia
Ġglyc inuria
Ġglyc eric
Ġglyc osuria
Ġglyc erate
amin uria
rad ial
Ġlim itation
Ġmuc ositis
Ġmuc inoses
Ġmuc ositides
Ġmuc kle
Ġear ed
Ġear lob
Ġcorn eas
rost omias
hyd rox
hyd ria
Ġsin onasal
Ġsup pur
Ġinflamm ator
Ġcerebellar is
ack ova
Ġhypog lossia
Ġspin opontine
Ġliver s
Ġcranial is
ock i
ae k
Ġbrach yc
Ġbrach yphalangy
Ġpara omphalocele
Ġcrani odigital
Ġcrani ooste
Ġcrani ofrontonasal
Ġaph akias
Ġent angle
Ġisch aemia
Ġpsych ic
Ġocul ocerebral
Ġocul opalat
Ġocul ocrani
Ġtubercul oma
Ġtubercul omas
Ġmit otic
Ġall odynias
Ġprol ine
cr d
Ġmes ench
Ġperiod s
Ġshort ening
Ġro cher
Ġpe yron
Ġmar les
Ġmar sidi
Ġimp lanti
Ġnod ulosis
Ġdel ays
anth ocytosis
eth ioninemia
fer i
Ġkerat ocyst
Ġkerat odermia
Ġprotein opathy
Ġprotein oses
Ġprotein opathies
Ġbull ae
Ġbull osas
Ġov ari
Ġchol eras
Ġlow n
Ġvari ety
Ġsym mers
Ġcord is
orn er
Ġintestinal is
Ġcd l
Ġcd cd
Ġhypot onias
Ġhypot ransferrinemia
Ġmig ran
ok pp
Ġspondyl ol
Ġspondyl arthritides
Ġspondyl ocarpotarsal
Ġhemorrhagic a
he iro
he xosidase
Ġec d
Ġec g
Ġec l
rol iferative
Ġmo orhouse
Ġmo ynah
Ġmo ersch
Ġdehyd rated
Ġophthalm ias
Ġig f
Ġig an
Ġchor d
Ġiv b
Ġiv emark
Ġz ap
Ġz eta
Ġz ie
Ġz olling
Ġpel iosis
Ġpoly glucos
Ġcont agi
omic rotia
Ġhypoth ermias
Ġadrenal itis
Ġadrenal itides
cle rosis
astr ia
Ġste rol
Ġext ensive
Ġmonosom ies
Ġvar adi
Ġbronch itis
Ġbronch ospasms
Ġbronch opneum
Ġmethyl oxidase
gl eston
Ġsim osa
Ġchond rodysplasias
Ġchond rosarcomas
Ġstr id
Ġstr iae
Ġstr ebl
Ġstr uma
Ġparoxysm s
bl ain
bl ings
Ġhemangi osarcoma
Ġhemangi oblastoma
Ġhemangi oblastomas
Ġhemangi oendotheliomas
Ġpseudo aut
Ġpseudo angiomatous
ren odigital
Ġwe ismann
Ġemb olia
Ġcystic a
Ġma ia
Ġma ke
Ġma int
ople gias
rof acial
rof ilar
Ġinc arcerated
Ġpur ine
Ġbar sy
Ġbar abas
Ġtrich omegaly
Ġtrich ophyt
Ġtrich odental
Ġcap itides
Ġcap lan
olys osomal
Ġcontr ast
Ġflu ency
Ġtoxic osis
ie z
Ġmor el
Ġmor ris
Ġmor rison
Ġmor tality
Ġcm o
Ġcm pd
aden oma
aden omas
Ġmelan olysosomal
Ġot odental
Ġperiodic a
Ġpy rophosphate
Ġclas p
Ġclas ped
Ġpat ton
Ġqu estion
Ġast ley
ĠÃ §
Ġcal orie
ord inations
Ġhepat olen
Ġdiss ections
Ġgastr itides
ern ail
Ġcolor ado
Ġglomerul ocystic
Ġarthro chal
Ġpurpur ic
oac tive
ald en
osyn dactyly
Ġgra ying
alang ic
Ġgingiv o
Ġneurofib rillary
upt mann
Ġfanc d
Ġhyperc apn
Ġcrypt omicrotia
Ġuro facial
Ġden ys
Ġden ny
Ġcyt openia
Ġmetabolism s
Ġulcer ation
Ġulcer ating
Ġha ar
Ġha im
Ġha uptmann
Ġach ol
Ġach ylia
Ġalbin oidism
Ġtel omeric
Ġlam y
Ġket on
Ġket ron
Ġreg ions
Ġreg ulator
Ġsulf hemoglob
Ġdiverticul itis
Ġgr d
Ġ18 0
Ġwa ist
Ġwa genmann
Ġorg asm
Ġic terohem
Ġplas min
Ġasth enia
Ġasth enias
Ġgroup ed
Ġmc m
Ġmc alp
Ġmc fd
Ġmc dr
Ġfasc itis
Ġfasc itides
Ġfasc iitides
rhythm ic
Ġfront ometaphyseal
Ġrheum atisms
Ġrheum atologic
Ġod d
Ġod ed
Ġhyperp igmented
Ġtelangiect asis
Ġsl c
Ġdes ire
Ġdes truc
Ġib m
Ġib gc
Ġple onosteosis
Ġglut amine
Ġhalluc inosis
hep ator
our i
Ġup gaz
Ġperiodon tium
uth auer
Ġme an
Ġme yer
Ġacet on
Ġacet oac
Ġplatelet s
Ġgangl ioneu
oarth ritis
Ġbi emond
Ġbi elsch
Ġvas oactive
Ġdysph asic
Ġpersist ence
Ġatri ums
Ġtes ch
Ġpapill omatoses
sch utter
raph ic
Ġrhin encephalic
au f
Ġu aqtl
Ġfunction ing
Ġmyx ed
Ġmyx omas
Ġdent es
Ġhs as
Ġhs il
Ġchole lithiasis
Ġdysmorph odystrophy
Ġdysmorph odystrophies
Ġgu erin
Ġblepha roch
Ġath elia
Ġpen oscrotal
Ġmeta physes
Ġcholest ases
Ġtox oc
Ġhypop igmented
Ġactin omycosis
Ġactin omycoses
Ġir vine
ucc i
Ġpunct atas
Ġair e
Ġinher itance
Ġcoll es
Ġtur keys
derm ia
Ġvestibul itis
Ġvestibul ocerebellar
Ġnonsyndrom al
Ġepis p
Ġepis cl
Ġepithel iomas
Ġthym oma
Ġhol l
ust ained
Ġdemyel in
Ġbeh mel
fe et
pd c
Ġnonp uerperal
Ġnonp roliferative
Ġgall oway
Ġconjunctiv a
sk a
Ġmur k
Ġald ren
Ġosteoarth ropathies
Ġmeg aduod
Ġtyros inoses
Ġhir sutism
Ġhir chhorn
Ġlab ial
Ġlab and
ace k
Ġankyl opoietic
Ġankyl oglossia
Ġmegal ocytic
Ġmegal odactyly
Ġmegal encephalies
Ġmegal encephalic
Ġnight time
Ġpolyp osus
Ġpolyp osi
Ġpulp al
Ġcraniosyn ostoses
Ġhom ocitr
Ġhom olog
thromb otic
Ġlev ior
Ġlev enthal
Ġlev entin
Ġepiphyseal is
Ġadd isons
Ġsial idase
Ġsial olith
Ġrib s
Ġrib ose
Ġrib bing
Ġwol tmann
Ġhypo adrenocorticism
Ġker atin
Ġxanth omas
Ġexc it
Ġexc essi
Ġexc reting
Ġfried man
Ġcampt omicromelic
Ġvulv ae
Ġvulv odynia
Ġvulv odynias
pos able
Ġpter ygia
Ġant agon
Ġber ylli
Ġber iberi
athet osis
Ġmycobacter ioses
Ġelev ation
Ġacetyl glut
Ġhirsch horn
Ġdiarrh eas
Ġdiarrh eal
Ġfing ernail
Ġqt c
Ġfruct osuria
for th
Ġmat n
Ġterat ogenic
Ġback ache
Ġback aches
Ġperiv ascular
Ġcerebell opontine
Ġamb ras
Ġsupra esophageal
Ġsupra bulbar
Ġhypophosphat emias
Ġmann osidoses
Ġxp f
Ġxp g
Ġxp ter
Ġhaem ophilia
Ġtri hexosidase
Ġretr actile
Ġmicrog astria
Ġfibro blastoma
Ġfibro blastomas
Ġcand f
Ġhh c
Ġhh ts
Ġfor bes
Ġfor ebrain
Ġiia e
Ġparap rotein
Ġjunction s
Ġmeningoencephal ocele
Ġfaci ogenital
Ġfaci odigit
Ġdermatofib rosis
Ġhydroxy isobut
Ġorgan omegaly
Ġhyperglyc emia
Ġhyperglyc emias
Ġhyperglyc inuria
phal ipoproteinemia
Ġgre ig
Ġcerebro oste
Ġcerebro ocular
Ġcerebro renodigital
Ġcerebro hepator
Ġlentig os
Ġmas a
Ġchem ke
Ġantib iotic
ohyd rocytosis
min ans
Ġpp b
Ġpp ks
Ġtransmis sion
onec rosis
Ġdysp neas
Ġalb opapul
ophys ic
ez e
Ġfatal s
Ġfrag ilis
Ġfrag ilitas
Ġbo erha
Ġrest enoses
Ġrest oration
aund ler
Ġreversal s
Ġnonc lassic
Ġet fb
Ġonych o
rot en
Ġnew c
Ġpapul oves
Ġpolyradicul itis
Ġpolyradicul itides
sm ark
Ġsj s
Ġsol ente
Ġactiv ation
Ġjak sch
Ġrheumatic a
Ġser pen
Ġcephal ocele
Ġcephal algia
Ġcephal algias
Ġcephal opolysyndactyly
Ġhen derson
oli otic
Ġaber feld
Ġunawareness es
Ġente ropathica
Ġpet echiae
omening ocele
Ġbund les
Ġacyl carnitine
Ġkle ebl
Ġsubst antia
Ġpine oblastomas
igin osa
fl ake
Ġom sk
Ġom ani
Ġchondrom atoses
Ġcur th
Ġcur se
Ġcitr in
Ġbab inski
Ġev il
Ġcong ophilic
Ġwater y
Ġamin obut
Ġscler itis
Ġscler itides
Ġblast oma
Ġblast omycoses
Ġblast ocyst
Ġarc s
Ġdo yne
Ġps np
Ġmu ir
Ġtak ats
Ġtak otsubo
Ġnan ophthalmia
Ġgerm inal
Ġkn ock
Ġkn ife
Ġabduc tion
Ġverruc osas
yer aal
Ġcost en
Ġcost overtebral
Ġcost ocorac
Ġpan encephalitis
Ġpan encephalitides
Ġbroc k
Ġbroc q
Ġlact ase
Ġlact oferr
Ġarm field
ogranul omatosis
Ġcamp omelia
Ġcamp ailla
Ġcamp bell
Ġjunctional is
Ġsa o
Ġcbl c
Ġcbl f
Ġcbl g
Ġfre ire
Ġfre iberg
Ġren ovascular
Ġgyn and
Ġlymphangi oendothelioma
Ġlymphangi oendotheliomas
absor ptive
Ġencephalomyel opathies
Ġreduc tions
Ġtyph litis
Ġho yeraal
Ġfil ip
Ġfil ippo
Ġfil aments
ett o
Ġwall erian
Ġamo ebiases
Ġcry ohydrocytosis
Ġenter ically
Ġsan chez
Ġah d
Ġxl a
Ġxl p
Ġmyelin ated
Ġcervic itis
Ġcervic itides
Ġcollagen oma
Ġud a
Ġunc onjug
Ġpot ocki
Ġmach acek
Ġeb vs
Ġhyperm elan
Ġhyperm ethioninemia
Ġwald mann
Ġwald enstr
Ġkall ikrein
Ġpseudop uberty
Ġtour ettes
Ġachal asias
Ġketoac id
Ġketoac idurias
oro ugh
Ġdim itri
Ġcs nu
Ġpil z
Ġnic ola
Ġleyd en
Ġwr ink
Ġurtic arial
Ġcaus ing
Ġrhabdomy olysis
Ġhyster ias
Ġful minans
Ġdeg root
Ġdevic s
Ġmyofib romatosis
Ġkap osis
Ġkap osiform
artz man
Ġbrun ner
Ġund eterm
Ġmacro orchidism
Ġsymmetric a
Ġchristian son
ool ivocerebellar
Ġsi egal
Ġnor rb
Ġgust avson
Ġspi egler
Ġpred ilection
Ġkra jew
Ġkra urosis
Ġkra epelin
Ġdystrog lycan
Ġcortic osterone
Ġstiff ness
Ġsr xx
Ġpk an
Ġmis sile
Ġnag uib
Ġhypov entilations
Ġscapul o
Ġlipoid osis
Ġlipoid ica
Ġinguinal e
ck d
Ġell ison
Ġaz ar
Ġfer rand
Ġgil christ
Ġepi physis
Ġshap e
Ġmycoplasm al
Ġsphe rocytic
Ġtibia e
Ġtetras omies
Ġspermat ogenesis
Ġdysauton omias
Ġfilar iasis
Ġfilar iases
Ġosteodysplastic a
rodyst rophy
Ġoroph arnyx
Ġplan a
Ġplan itis
Ġwaldenstrom s
Ġcop d
arter ial
Ġten ascin
Ġlaf er
Ġrot es
Ġrot ational
Ġerythrokerat oderma
Ġmorb us
Ġcystin oses
Ġhidraden omas
Ġburkitt s
Ġmethylcroton oyl
Ġsed t
Ġland ry
Ġva quez
Ġauts x
Ġalex ias
Ġprogr ediens
rix oma
Ġechinococc is
we ight
tid ase
Ġside rosis
Ġfa a
Ġdist ensae
Ġbrad y
Ġbrad yarrhythm
Ġbrad bury
Ġdex fenfluramine
Ġgam blings
Ġero sions
Ġvip omas
Ġstre eter
Ġarachn idism
Ġimmuno osseous
Ġflav im
Ġmethylglut aryl
Ġrepair s
Ġpolyneur itides
Ġcic atrix
Ġpd b
Ġpd gf
Ġbd b
Ġbun ions
Ġkel oid
Ġlymphangiect ases
Ġoxal uria
Ġmorv ans
Ġrestless ness
Ġmediastin itis
Ġpolymicrog yrias
cb x
Ġ0 00
Ġmad d
omb es
Ġlh ermitte
Ġdyssyn ostosis
Ġanth onys
Ġstrain s
Ġhemim egal
Ġagg rav
Ġloop ed
Ġsequard s
Ġfallot s
Ġprofund as
Ġchannel opathy
Ġpom gn
Ġhal al
Ġhal tia
Ġna unay
Ġfuk ase
Ġfuk uhara
Ġfow ler
Ġfiss ures
opyr amidal
Ġhypoc eruloplasminemia
Ġcontin ua
Ġalkal i
Ġalkal oses
Ġsarcoid oses
Ġcholec yst
Ġpasteur ellosis
Ġsyring oma
Ġhemisph eres
Ġvincent s
Ġda roff
Ġsor eness
Ġsor auf
Ġsad ism
Ġsad isms
Ġsuccin ic
atr emia
Ġhyg romas
Ġlc ata
Ġeg gleston
Ġpheochrom ocytomas
Ġnecrol yses
Ġglutam yl
Ġglutam yltransferase
Ġguill aine
Ġduoden o
Ġduoden itis
Ġvariabil i
Ġpallid us
Ġpallid opyramidal
essi veness
Ġmang e
Ġmink owski
Ġtum idus
Ġgel astic
Ġvel o
Ġvel ocardi
Ġchil blain
Ġanis ospondylic
Ġanis ocoria
Ġworm ian
Ġalacr imia
Ġku f
Ġadduc tor
ophor ia
Ġpern iosis
Ġpern ioses
Ġosteochondrom a
Ġosteochondrom as
Ġosteochondrom atoses
Ġsche uthauer
Ġchori ocarcinomas
Ġzon ana
Ġdesquam ation
Ġelastic ums
Ġenchondrom a
Ġenchondrom as
Ġplatysp ondyly
don tism
haus ens
no ea
Ġroc a
esc ens
Ġpont oolivocerebellar
Ġfle gel
oduod enal
Ġprur itic
Ġprur iginosa
Ġfibroid s
Ġfreck les
Ġagranul ocytoses
Ġengel br
Ġzyg odactyly
Ġathet osis
Ġebstein s
Ġnarrow ings
Ġdol oros
Ġsuc rase
Ġcatal ep
Ġcps q
Ġpf aundler
Ġpn ca
Ġpin heiro
Ġnucle i
Ġbuck lers
Ġdyschond roplasia
Ġacalcul ias
eptid uria
Ġthick ening
Ġthick ened
Ġradicul opathy
Ġradicul opathies
Ġprolifer ations
Ġdysmyel inating
Ġdysmyel ination
Ġpyrim idine
Ġelast osis
Ġaminoac ylase
Ġtracheobronch omegaly
Ġtracheobronch omegalies
Ġhibern ian
gh izian
xial is
Ġceram ide
Ġpi ebald
Ġpt os
Ġmec p
Ġhaw kins
Ġlub insky
Ġrus se
Ġram os
Ġew ings
Ġelec trical
Ġvl cad
Ġhyperh omocys
Ġspik y
Ġkal a
Ġkal ischer
Ġ38 8
Ġadj uvant
Ġrele asing
Ġexer tion
Ġmicrom elia
Ġmyelofib roses
Ġcatt an
Ġmonochrom atic
Ġdiffus as
Ġvarieg ated
Ġspondyloarth ritis
Ġcoagul opathy
Ġtetan ies
Ġsilv ermann
Ġhelminth iases
Ġdihydrop teridine
Ġdext ro
Ġreckling hausens
worm s
Ġdop aminergic
Ġdrain ages
atz nik
Ġhay ward
Ġfemin izations
Ġbc g
Ġbra uer
Ġburg dor
Ġrash es
otrich odysplasia
Ġwood s
Ġorb it
Ġcarp otarsal
Ġesthes ioneuroblastomas
Ġmartin elli
Ġhistid inuria
Ġspondylo ench
Ġmidf acial
Ġmerr f
Ġsubmuc osal
Ġcsnb ad
Ġnorth ern
Ġpyeloneph ritides
Ġcacch ione
Ġpdh c
Ġmiss ouri
Ġtab atznik
Ġagen esia
Ġbbb g
Ġlux ations
Ġrid den
Ġgan ong
Ġcher ubism
Ġanl l
Ġatroph odermia
Ġkau fmann
Ġprotr usion
Ġprotr acted
Ġshw artzman
Ġapop tosis
Ġrol land
Ġround worms
Ġtachyarrhythm ias
Ġageus ia
Ġonc ocytoma
Ġbrachyteleph alangic
Ġbrachymes omelia
Ġthromboembolism s
Ġsarcoglycan opathies
Ġaneuploid y
Ġinfundib ul
Ġerysipel as
Ġsd ty
Ġsne ezing
Ġsne eze
onc iny
Ġpm g
Ġpent asomy
Ġpent tinen
Ġmol lica
Ġhc v
Ġhr pt
Ġnyc talopia
Ġfitz geral
Ġinequal ities
Ġrcd p
Ġdew ind
Ġhypochond riac
Ġhyperkerat otic
Ġprep ubertal
Ġprep aralytic
Ġperia xialis
Ġmeningomyel ocele
Ġmeningomyel oceles
Ġerythr emia
Ġoxoprol inuria
Ġtrichin ellosis
Ġtrichin elloses
Ġdysmet ria
Ġdysmet rias
Ġsulfatid oses
Ġmega epiphyseal
Ġlingu a
Ġbabes iosis
Ġbabes ioses
Ġadipic aciduria
Ġtenosynov itides
Ġmicrometast asis
Ġmicrometast ases
Ġci ip
Ġmm vp
Ġtau opathy
Ġbic eps
Ġbut yryl
Ġdysth ymic
Ġdyscr asia
Ġche yne
Ġwitt wer
Ġparoti tides
Ġmyelomening oceles
Ġperios titides
Ġendophthalm itides
Ġclin ic
Ġemerg ency
Ġinco ordination
Ġinco ordinations
Ġhumero radial
Ġpatell ofemoral
Ġquad riceps
Ġhyaloid eoretinal
Ġlabyrinth ine
Ġneurocyt oma
Ġneurocyt omas
Ġdihydroxy aden
Ġhemisp atial
Ġstreptoz otocin
Ġsteatohep atitides
Ġgehrig s
Ġepicondyl itides
Ġlegionnair es
Ġkojew nikov
Ġcylindrom as
Ġdegluti tion
Ġdmd a
Ġsack s
Ġcz p
Ġtauro dontia
Ġtauro dontism
Ġdisfunction s
Ġbam berger
Ġbam forth
Ġrac ouch
Ġrac emase
Ġrab son
Ġgt p
Ġglas gow
Ġvir il
Ġdysrhythm ia
Ġdysrhythm ias
Ġchylomicron emia
Ġinfiltr ation
Ġletal i
Ġletal is
Ġstup or
Ġmicrocyt emia
Ġmicrocyt emias
Ġfetish ism
Ġfetish isms
Ġcats per
Ġhydro a
Ġangiomy olipomas
Ġerytherm algia
Ġerytherm algias
Ġdrunken ness
Ġdrunken nesses
Ġcranio ectodermal
Ġoculodent odigital
Ġoculodent oosseous
Ġcholester yl
osporid iosis
osporid ioses
Ġfootwart s
Ġinvag inations
Ġtorsad e
Ġtorsad es
Ġhaemat ological
Ġpleuris y
Ġpleuris ies
Ġrhinotrache itis
Ġrhinotrache itides
Ġsuperinf ection
Ġsuperinf ections
Ġpolymy ositides
Ġpolymy oclonus
Ġauricul otemporal
Ġgestation is
Ġviscer um
Ġviscer ums
Ġadhal inopathies
Ġspongi oblastoma
Ġspongi oblastomas
Ġforest omach
Ġmasoch ism
Ġmasoch isms
Ġetf a
Ġetf dh
Ġchrist mas
Ġonchocerc iasis
Ġonchocerc iases
Ġhoard ing
Ġhoard ings
Ġpilomat ricoma
Ġpilomat rixoma
Ġbuny avirus
Ġbuny aviridae
Ġaddisonian ism
Ġmicropol ygyria
Ġmicropol ygyrias
Ġcloud man
Ġkienb ock
Ġkienb oeck
Ġdiphther ia
Ġdiphther ias
Ġpleuropneum onia
Ġpleuropneum onias
Ġdacry ocystitis
Ġmiscarria ge
Ġmiscarria ges
Ġhymphohisti ocytosis
Ġhymphohisti ocytoses
Ġacrospi roma
Ġacrospi romas
Ġdactyl olysis
Ġsg bs
Ġsock et
Ġpant othenate
Ġhbl r
Ġformal dehyde
Ġfors ter
Ġinatt ention
Ġbol ivian
Ġlop ez
Ġlib man
Ġrum ination
oco ele
Ġgill es
Ġgero derma
Ġhypor eninemic
Ġchap elle
Ġacrod yn
Ġhyperref lexia
Ġneuroretin opathies
Ġira k
Ġparenteral ly
Ġkos aka
Ġkur u
Ġkann er
Ġkohl schutter
Ġthur ner
Ġtric eps
Ġrecr uit
Ġcortis ol
Ġpalatin us
Ġmich eli
Ġaggr essiveness
Ġhypertyros inemia
Ġjuven iles
Ġhydr atase
Ġformimin otransferase
Ġmacle od
Ġheartbe at
Ġuleryth ema
Ġarthromy odysplasia
Ġmarsh all
Ġvalpro ic
Ġzim m
Ġoster tag
Ġprev ia
Ġgallst ones
Ġaddic tions
Ġsignific ance
Ġchorioretin opathies
Ġpraev ia
Ġpseudopseud o
Ġperineph rium
Ġvaccin iforme
Ġsatur ine
Ġhypocupr emia
Ġpyrimid inemia
Ġmunch ausen
Ġabrikos ov
Ġbulbocavern osus
gart en
ja erg
Ġoph ry
Ġomen n
onolact one
Ġcec um
Ġcran ior
Ġcch s
Ġcros ti
Ġcutane a
Ġpnp o
Ġmow at
Ġmain zer
Ġtang les
Ġhell p
Ġhob aek
Ġnp ca
Ġfont aine
Ġintegr in
Ġbrod y
Ġgul onolactone
Ġhypohyd ridic
Ġanc yl
Ġacn inv
Ġleb ers
Ġleth argic
Ġatlant oaxial
Ġneuroepithel ioma
Ġwdh a
Ġepig lot
Ġpritz ker
Ġpriap ism
Ġkir ghizian
Ġkash in
Ġargen tinian
Ġarrh en
Ġadn atum
Ġreich el
Ġcerebroc ostomandibular
Ġseitel berger
Ġmalacopl akia
Ġamaz on
Ġmultiform e
ropo iesis
Ġframb esia
Ġscho enberg
Ġcardiodys rhythmic
Ġmonte ggia
Ġmack lin
Ġmacrop rolactin
Ġpostr eceptor
Ġultr arapid
Ġparahem ophilia
Ġdermatooste olysis
Ġecth yma
Ġcalcane us
Ġtraneb jaerg
Ġsimpl ified
Ġsimmond s
Ġbeard ed
Ġmelanchol ia
Ġcamr q
Ġrodrig uez
etrahyd rofolate
Ġborj eson
Ġhyperpotass emia
Ġdesat urase
Ġmeh mo
Ġcallos ities
Ġodontotrich omelic
Ġtriang ular
Ġparapsor iasis
Ġtetrapl oid
Ġsnow flake
Ġepiphys i
Ġtender ness
Ġleptosp irosis
Ġklats kin
Ġthiopur ine
Ġnucleo tidase
Ġachei ropody
Ġhemangiopericyt oma
Ġfrancesch etti
Ġgravidar um
Ġpresbyc usis
Ġsaccharop ine
Ġneointi ma
Ġamygdal o
Ġcalciphyl axis
homocys teine
Ġduc los
Ġdunc an
Ġdest ombes
Ġdian zani
Ġdenb orough
Ġson oda
Ġsund s
Ġswar m
Ġsiew ert
Ġcup ped
Ġcert onciny
Ġcumm ing
Ġpata u
Ġprag matic
atts chaed
Ġmlas a
Ġmth fr
Ġmib elli
Ġmism atch
Ġmill ard
Ġmand p
Ġmage e
Ġmcle od
Ġmenz el
Ġmamo u
Ġtyr sn
Ġtast es
Ġteth ered
Ġtaw il
omeg aepiphyseal
Ġhre idars
Ġaim ah
Ġauj esz
Ġaerod igestive
Ġnaf ld
Ġnie vergel
Ġnai robi
Ġsyncy tial
Ġfrob oese
Ġfcm te
Ġfkt n
opalp ebral
Ġbeal s
Ġbrov ca
Ġbaum garten
Ġlann ois
Ġlpr d
Ġluj an
Ġliab ility
Ġlanug inosa
Ġdehisc ence
Ġgub lar
Ġgian otti
Ġgele ophysic
Ġgupt a
Ġehm ke
Ġvies eaux
Ġhypof unction
Ġdysemb ry
Ġchamp ion
Ġchitay at
sigh ted
Ġacrol ocated
agland in
Ġhyperren inemic
Ġhyperfibr inolysis
Ġspeck led
Ġneurore tinopathy
Ġneuroser pin
Ġiow a
Ġwie acker
Ġparak erat
Ġkyas anur
Ġkonig smark
Ġthann hauser
Ġarak awa
Ġarroy o
Ġadapt ation
Ġreif enstein
Ġjatz kewitz
Ġperei ra
Ġabderh alden
Ġmalher be
Ġmalrot ation
Ġrecomb inant
Ġheredoat axia
Ġammon ia
osterole mia
Ġmultiloc ular
Ġmultidr ug
Ġnonimmun es
Ġnonerup tion
Ġmicroti as
Ġmicrov illus
Ġfibrol amellar
Ġfracca ro
Ġschroet ter
Ġokam oto
Ġcardioencephal omyopathy
Ġmonocarb oxylate
Ġuninhib ited
Ġmacrocephal ies
Ġmacderm ot
Ġcruve ilhier
Ġcarring ton
Ġnephroblast omatosis
Ġangiostrongyl iasis
Ġinterleuk in
Ġsmok ing
Ġinflammator ies
Ġcraniooste oarth
Ġoculocrani osomatic
Ġmoynah an
Ġzolling er
Ġpolyglucos an
Ġpseudoaut osomal
Ġhepatolen ticular
Ġorgasm ic
Ġicterohem orrhagic
Ġmcalp ine
Ġupgaz e
Ġbielsch owsky
Ġmegaduod enum
Ġankylopoietic a
Ġhomocitr ull
Ġleventin ese
Ġexcessi vely
Ġantagon ist
Ġacetylglut amate
Ġfaciodigit ogenital
Ġcerebrohepator enal
Ġalbopapul oid
Ġpapuloves icular
Ġserpen tine
Ġkleebl attschaed
Ġtakats uki
Ġcostocorac oid
Ġlactoferr in
Ġunconjug ated
Ġundeterm ined
Ġnorrb ott
Ġkrajew ska
Ġaggrav ated
Ġpomgn t
Ġvelocardi ofacial
Ġengelbr eth
Ġdoloros a
Ġburgdor feri
Ġfitzgeral d
Ġhypochondriac al
Ġracouch ot
Ġhreidars son
Ġnievergel t
Ġkleeblattschaed el
' d
0 1
7 5
a o
a es
a ve
a ron
a emias
a roten
b y
b an
b it
b ation
b ir
b ch
b ly
b one
b ronch
b urn
b olia
c z
c ard
c ephal
c ax
c ill
c gr
c ence
c fd
c obar
c aval
c owitz
d t
d ens
d onal
d irectional
e is
e at
e ac
e roc
e aring
e tig
e zo
e eding
e rogenic
e ola
e roneph
e roporphyria
f c
f x
f ar
f ur
f et
f ous
f nd
f erous
g am
g erm
g re
g ood
g ian
g ement
h f
h k
h en
h ed
h um
h ry
h eck
h izomelic
h uana
i oc
i oste
i omatosis
i vers
i quin
i rovirus
i ene
j i
j orn
j ald
j hn
j eac
k ab
k ist
k orn
k ie
k awa
k owitz
k rp
k cfd
l am
l end
l son
l sd
l ns
l atter
l agh
l achlan
l ackova
m l
m x
m mal
m pc
n k
n up
n ke
n ow
n osin
n eberg
o el
o omy
o qu
o rod
o tility
o ugh
o oping
p o
p u
p ch
p etic
p est
p ain
p oni
p pd
p aresis
p kd
q i
r f
r ism
r atory
r iases
r ational
r itin
r uz
r upted
r insky
r ebetalipoproteinemia
s a
s l
s o
s ol
s te
s ons
s man
s till
s ickness
s uring
t ar
t le
t ys
t roph
t ub
t ox
t ose
t aphyl
t utional
t rochanteric
u w
u rom
u ple
u tions
u ert
u emp
u fting
u fous
v h
v x
v ulin
v itamin
w c
w k
w m
w ell
w cr
w ash
w ean
x d
x u
x ill
y w
y opathy
y eur
y uan
z e
z t
z ay
z ena
z gre
Ġ <
Ġ athy
Ġ enti
Ġ ema
Ġ tig
Ġ upt
Ġ eld
Ġ off
Ġ otorenal
al a
al s
al en
al id
al ias
al ach
al asis
al gic
al az
al sia
ro plasias
ro plasm
ti p
ti as
ti ary
ti tious
ti ts
ti zation
ti ferous
er us
er yl
er ling
er den
er ford
er ichsen
Ġd j
Ġd ar
Ġd yn
Ġd oss
Ġd ms
Ġd und
Ġd our
Ġd sh
Ġd co
Ġd dh
Ġd oll
Ġd dp
Ġd uck
Ġd ai
Ġd uffy
Ġd rough
Ġd xs
Ġd wm
Ġs b
Ġs es
Ġs om
Ġs ia
Ġs el
Ġs ve
Ġs am
Ġs ra
Ġs oma
Ġs ill
Ġs oh
Ġs amm
Ġs ids
Ġs ors
Ġs eminal
Ġs acc
Ġs bb
Ġs ah
Ġs enn
Ġs oto
Ġs ipple
Ġs ylv
Ġs sad
Ġs accular
Ġs ylvian
Ġs bla
Ġs uther
Ġs ticks
Ġs anctis
Ġs ustained
en et
en der
en ke
en tions
en ite
en go
en loch
in um
in ig
in ca
in burg
on z
on astr
on orch
on avicular
on igral
Ġc e
Ġc x
Ġc is
Ġc es
Ġc em
Ġc et
Ġc ary
Ġc ep
Ġc te
Ġc eb
Ġc act
Ġc ory
Ġc ab
Ġc roc
Ġc oste
Ġc och
Ġc ft
Ġc anth
Ġc na
Ġc ass
Ġc iss
Ġc ocarcin
Ġc pl
Ġc tl
Ġc ts
Ġc ta
Ġc bb
Ġc nc
Ġc ws
Ġc vs
Ġc idp
Ġc inca
as ed
as se
as tian
as burg
as plenia
ar ies
ar qu
ar ren
ar iases
ar axis
ar tilaginous
ar ita
is per
is sions
es us
es tin
es lagh
Ġp us
Ġp um
Ġp ing
Ġp cl
Ġp erm
Ġp asc
Ġp int
Ġp ps
Ġp ie
Ġp este
Ġp tl
Ġp ash
Ġp pd
Ġp sh
Ġp ta
Ġp cs
Ġp ds
Ġp dm
Ġp me
Ġp co
Ġp da
Ġp inn
Ġp ica
Ġp fd
Ġp uj
Ġp fb
Ġp ubertal
Ġp ingu
Ġp uert
ic ial
ic co
ic olor
an il
an osis
an ish
an esth
an odontia
an ophilic
an oyl
at ell
at emia
at opathy
at uria
at ri
at ogenesis
at ogenous
at ayama
Ġm k
Ġm ys
Ġm orm
Ġm cl
Ġm erm
Ġm eral
Ġm oss
Ġm ort
Ġm st
Ġm ma
Ġm ans
Ġm bl
Ġm ts
Ġm ca
Ġm ds
Ġm oll
Ġm va
Ġm aff
Ġm fd
Ġm fs
Ġm mm
Ġm ouse
Ġm abry
or in
or am
or ase
or tive
or ff
or ian
or st
or ain
or aph
or ums
or ini
or hydria
or hizomelic
os o
os il
os inemia
os ulf
os accharide
Ġt f
Ġt ul
Ġt am
Ġt romb
Ġt ung
Ġt ma
Ġt cd
Ġt ga
Ġt oler
Ġt co
Ġt do
Ġt eller
Ġt arsus
Ġt ufting
om us
om ens
om ian
om ide
om etra
om pression
om ez
om ophth
om odulin
om utase
om usculoskeletal
Ġh j
Ġh os
Ġh ch
Ġh umor
Ġh of
Ġh yc
Ġh yr
Ġh yph
Ġh ps
Ġh ord
Ġh ca
Ġh arb
Ġh bb
Ġh cc
Ġh we
Ġh icc
Ġh dr
Ġh ouston
Ġh asp
Ġh ydrom
Ġh okpp
Ġh icco
rom uc
rom egal
rom odulin
ph y
ph ar
ph thalm
ph atase
ph ocomelia
ph rey
ph alangia
ph orase
ia doch
yn g
yn n
yn ur
yn old
yn ski
yn ostotic
Ġa as
Ġa os
Ġa om
Ġa em
Ġa eg
Ġa ird
Ġa esth
Ġa romatic
Ġa ugh
Ġa ica
Ġa fibr
Ġa idp
Ġn n
Ġn t
Ġn ot
Ġn ap
Ġn ax
Ġn iv
Ġn ak
Ġn ms
Ġn cr
Ġn ps
Ġn ii
Ġn iss
Ġn umb
Ġn pc
Ġn ame
Ġn lsd
ul op
Ġsyn sp
Ġsyn otia
Ġsyn gam
it um
it osis
it ob
it ations
us k
us uscep
us ka
yp e
yp nea
yp tian
ed s
ed ias
ed yl
em esis
em enti
em matic
em enite
Ġf d
Ġf en
Ġf ph
Ġf it
Ġf las
Ġf oth
Ġf amm
Ġf ull
Ġf ast
Ġf rost
Ġf ong
Ġf cc
Ġf ah
Ġf ss
Ġf inding
Ġf gf
Ġf ipa
Ġf echt
Ġf ame
Ġf enfluramine
Ġf unis
Ġf jhn
Ġf krp
Ġf vh
Ġf estin
Ġdis ulf
Ġdis app
Ġdis omies
Ġdis germ
op si
op ari
op ont
op rost
op ust
op oul
Ġin i
Ġin active
Ġin hibition
Ġin creta
Ġb ys
Ġb eas
Ġb ent
Ġb ath
Ġb ob
Ġb oh
Ġb och
Ġb iv
Ġb anti
Ġb av
Ġb cr
Ġb eth
Ġb orn
Ġb ids
Ġb bs
Ġb ds
Ġb ott
Ġb dm
Ġb mn
Ġb icuspid
Ġb uz
Ġb etalipoproteinemia
Ġb uen
Ġb aumann
Ġb yler
Ġb iman
Ġb jorn
ys rhythm
ys sp
Ġl om
Ġl uc
Ġl ental
Ġl ap
Ġl amm
Ġl itt
Ġl ord
Ġl cs
Ġl ds
Ġl uis
Ġl rs
el ial
el od
el ap
el ian
el ae
el ica
el eni
ac ulation
ac rimal
ac usis
ac anthocytosis
ac romegal
Ġr x
Ġr an
Ġr ach
Ġr iz
Ġr iv
Ġr sd
Ġr att
Ġr ds
Ġr unt
Ġr ift
Ġr uther
Ġr achisch
Ġr ufous
tic a
oc orm
oc ondyl
oc ecal
oc olpos
oc apillar
Ġde ox
Ġde uter
Ġde iod
Ġde kab
ur s
ur ri
ur amin
ur ings
ur uta
id y
id in
id ity
id uct
id ose
id roses
id ases
il s
il ymph
il iac
il ution
il sky
il aments
ec an
ec ed
ec rotic
ec tile
eas y
Ġg k
Ġg id
Ġg ut
Ġg ag
Ġg ros
Ġg ual
Ġg ans
Ġg rol
Ġg ain
Ġg ata
Ġg aci
Ġg ross
Ġg oll
Ġg umm
Ġg sn
Ġg ulo
Ġg fnd
Ġg omez
Ġg urri
ol ab
ol ateral
ol acrimal
Ġne um
Ġne oplas
Ġne gr
Ġne ug
enc ies
ent up
ent aff
ent amoeb
ent ooste
et ate
et roc
et rop
las emia
ial s
ial idosis
ial etto
ath an
ath exis
th ew
th orax
th elial
iti de
ut ra
ut sch
ut rophil
ut orian
Ġe e
Ġe an
Ġe ard
Ġe ich
Ġe ik
Ġe hs
Ġe verted
Ġe oca
Ġe oe
Ġv z
Ġv ia
Ġv sp
Ġv ector
Ġv roli
Ġv orner
Ġv bch
Ġv kcfd
Ġv ialetto
am eth
am ensis
gen hal
Ġhyp oderm
Ġhyp odysplasia
Ġhyp onychia
Ġhyp omen
Ġhyp osal
Ġhyp olact
Ġhyp ogeneses
Ġhyp ofibrinogenemia
Ġdef iant
Ġtyp us
um e
um ar
um ada
um bling
um pled
Ġdys l
Ġdys n
Ġdys s
Ġdys ge
Ġdys gl
Ġdys eryth
Ġdys esthesia
Ġdys plasm
Ġdys fibrinogenemia
Ġdys encephalia
Ġdys geneses
ra f
ra ult
Ġch s
Ġch in
Ġch ick
Ġch itt
Ġch aud
Ġch avan
Ġch alaz
Ġch utorian
od i
od or
od ies
od ops
od ilution
si bly
im pl
im idodip
ig ne
ig ration
ig gs
ig rational
un cles
Ġan on
Ġan op
Ġan ep
Ġan encephal
Ġan ov
Ġan och
Ġan tine
Ġan encephalies
Ġan orch
Ġan omias
Ġan otia
oma xill
Ġcon f
Ġcon ical
Ġcon ns
Ġcon val
der vanc
der pest
uc e
uc ine
Ġac y
Ġac it
Ġac ran
Ġac ros
Ġac hl
Ġac ule
Ġac creta
Ġac uta
roph age
roph ied
roph inopathy
ran ger
ran encephalies
athy rism
ot emia
ot ubercul
ot omus
ter y
ter na
ep in
ep ens
ep sis
ep korn
ous us
ous se
ous tian
ir ia
ir ias
ir re
ir atory
ag o
ag onia
ag eria
te us
Ġmy oma
Ġmy of
Ġmy osin
Ġmy osclerosis
Ġmy ring
Ġmy oencephalopathy
Ġmy otil
Ġmy odystrophic
Ġmy algic
ud ing
ud ts
ud esc
ym as
ym es
ym ann
ym atous
ch ing
Ġle d
Ġle e
Ġle isti
Ġle roy
tin um
tin emia
ard on
Ġhyper d
Ġhyper pr
Ġhyper ech
Ġhyper arg
Ġhyper imidodip
order line
yl ys
yl id
yl lob
Ġsp um
Ġsp aring
Ġsp ata
Ġsp itz
Ġsp arg
Ġsp oro
Ġsp onastr
Ġsp ranger
eb le
eb ec
eb old
eb ased
ital ism
Ġat c
Ġat ony
Ġat ld
Ġat actic
Ġat ransferrinemia
Ġneuro s
Ġneuro sch
Ġneuro the
Ġneuro dyn
Ġneuro asp
Ġneuro anesth
Ġneuro acanthocytosis
act oid
act asia
act atio
ros ch
ros itides
ros aden
ros yring
Ġi f
Ġi k
Ġi o
Ġi q
Ġi im
Ġi ig
Ġi ran
Ġi if
Ġi pd
Ġw g
Ġw m
Ġw erm
Ġw ins
Ġw arth
Ġw ts
Ġw ors
Ġw nd
Ġw yb
Ġw inking
ant ap
ant ly
ant oni
ant oin
anc ed
ad y
ad ed
ad ione
Ġst x
Ġst rom
Ġst ut
Ġst and
Ġst unn
Ġst ages
Ġst oll
Ġst unning
Ġst ains
Ġst umbling
cl usion
Ġpar age
Ġpar etic
Ġpar astr
Ġpar atr
ob ias
ob art
ob iol
ob ilities
ob ezo
plas min
ron emias
ron iere
Ġal an
Ġal ad
Ġal og
Ġal str
Ġal orain
Ġal actasia
Ġep d
Ġep p
Ġep s
Ġep ist
Ġep imetaphyseal
Ġep erythro
Ġep pk
ile d
ereb ro
erm atogenesis
Ġpr ata
Ġpr iet
Ġk j
Ġk am
Ġk ym
Ġk end
Ġk and
Ġk oh
Ġk iv
Ġk aw
Ġk sh
Ġk cs
Ġk app
Ġk ras
Ġk td
Ġk ah
Ġk ats
Ġk uz
Ġk orean
Ġk enner
Ġk wash
Ġk atayama
Ġk umar
Ġk ousse
Ġk antap
ver teb
usc um
Ġcongenital es
Ġth d
Ġth e
ect oro
ub ak
Ġar hi
Ġar wh
Ġar edyl
Ġhem os
Ġhem ib
Ġhem obil
Ġhem opt
Ġad actyl
Ġad cad
Ġad iadoch
oph onic
ib aud
ib ution
ib omian
Ġx o
Ġx s
Ġx v
Ġx las
Ġx iv
Ġx hm
Ġre ar
Ġre ed
Ġre av
Ġre vers
Ġre eling
Ġre ves
Ġre ynold
Ġre ardon
ral gia
ral ateral
ral gias
ral tar
Ġlymph ang
Ġlymph omat
Ġlymph ocele
Ġlymph openia
Ġgl a
Ġgl ab
Ġgl oomy
tr ation
tr eal
tr ens
og nos
og astrointestinal
ati v
ati le
ati de
ati vus
Ġpro pr
Ġpro ble
Ġpro gu
ost enoses
oid oses
oid uronate
ach am
ach ies
uk es
uk yuan
Ġher sh
Ġher tz
Ġdyst oc
Ġdyst rans
Ġdyst opia
Ġdyst opic
ocy cl
Ġj a
Ġj p
Ġj ar
Ġj ph
Ġj et
Ġj od
Ġj ag
Ġj ud
Ġj ae
Ġj me
Ġj ank
Ġj equ
Ġj abs
Ġj lns
Ġj actatio
Ġper form
Ġper he
Ġper sis
Ġper creta
Ġper tus
Ġper ilymph
Ġper rault
if man
Ġtr p
Ġcereb ritis
Ġcereb ritides
Ġcereb romal
Ġab b
Ġab asia
Ġab ilities
Ġab lepharon
Ġab ruz
Ġleuk oderma
Ġleuk omelan
Ġse eding
Ġse rositis
omy osin
omy oclonus
yd ysrhythm
Ġmal a
Ġmal s
Ġmal ak
Ġmal ta
Ġmal position
Ġmal onyl
Ġmal pu
ap at
ap ill
ap ore
ap ton
ne ous
ne uramin
Ġrec ession
Ġrec essions
Ġcom mo
Ġas ial
Ġas kin
Ġas lan
end o
end ocr
ox an
ox ia
ox ane
ox anth
ox oplasmosis
Ġpol g
Ġpol l
Ġpol yt
Ġpol yph
re otic
re versible
Ġhe ifer
Ġhe erford
Ġhe ymann
ond rodysplasia
ov en
ov iral
tis ic
Ġph o
Ġph ox
Ġph yc
Ġph ases
Ġph gdh
Ġph ymatous
Ġim pr
Ġam d
Ġam eb
Ġam st
Ġam orphous
Ġam astia
Ġam cbx
qu at
ax ias
ax ies
ab h
ab ies
ab ion
ab olism
ill in
ill ie
and ing
ogen s
ogen it
ogen tisic
Ġsc t
Ġsc an
Ġsc ra
Ġsc iss
Ġsc ids
Ġsc rot
Ġsc apular
Ġsc alen
oth romb
oth orac
oth alid
Ġex cl
Ġex pression
Ġex hibition
Ġex haus
Ġex acer
Ġex odev
Ġex pressive
Ġex terna
Ġcor s
Ġcor es
Ġcor rid
roc yst
roc utaneous
roc orneal
roc oel
roc artilaginous
ion ec
ion itis
ion itides
kin eses
Ġii h
Ġii j
Ġii ids
se xual
Ġpal indrom
Ġpal ates
Ġpal agonia
tal gia
oh at
oh em
oh ue
Ġencephal on
Ġencephal ito
Ġbl u
Ġbl urr
Ġbl izz
af fer
oste ochond
oste rol
Ġpost uring
Ġpost trans
Ġpost thrombotic
Ġpost absorptive
Ġpost wean
Ġpost urings
onic um
Ġoc rl
asc orb
Ġchrom oblast
Ġchrom atid
all at
Ġmulti directional
gr as
Ġnon bl
Ġnon att
Ġnon eryth
Ġnon ocular
Ġnon reas
Ġnon hem
of ront
Ġchron ically
Ġchron obiol
Ġmet agon
rop ical
rop ions
rop terin
rop orphyrinogen
Ġmic rogen
Ġmic rol
Ġmic rolithiasis
Ġmic pch
orrh exis
Ġpa rod
Ġpa use
Ġpa uses
Ġpa ronych
Ġpa kist
ke e
Ġlip omyel
Ġlip ochond
Ġlip oblast
Ġlip osclerotic
Ġlip olymph
Ġlip oyl
Ġlip omembranous
Ġlip odermat
Ġlip ogranulomatosis
Ġsub p
Ġsub epithelial
Ġsub endothel
Ġ5 6
Ġ5 7
Ġfib rosarcoma
Ġfib rocartilaginous
Ġsh in
Ġsh ak
Ġsh unt
Ġsh fd
Ġsh ipp
Ġsh alt
Ġsh ohat
Ġint uss
Ġint ususcep
Ġop p
Ġop s
Ġop ta
Ġop position
Ġop isth
Ġop posable
och ez
Ġq rs
Ġbr ks
Ġbr uis
Ġbr iqu
Ġbr ubak
Ġdeaf fer
Ġdia phys
Ġdia gn
Ġdia phorase
Ġcarcin ogenic
Ġcarcin ogenesis
yc oprost
Ġcol lic
Ġcol av
Ġcol ick
Ġcol ds
Ġcol oves
ocyt oclastic
iv ation
iv eness
ior k
Ġoste itides
Ġoste oplastic
Ġoste odystrophies
Ġoste orad
Ġoste ogl
Ġoste odysgenesis
Ġoste ocrani
Ġaden ine
Ġaden oses
Ġaden osyl
Ġaden osylc
Ġaden olymph
Ġ6 2
Ġ6 6
Ġis c
Ġis ole
Ġis sd
Ġis odic
Ġis obut
Ġis ospor
uv rier
Ġco e
Ġco en
Ġco inf
Ġang inal
Ġang uill
erg ill
Ġcyst olith
Ġmyel itides
Ġmyel ok
Ġmyel oencephal
Ġinduc ibility
Ġer ick
Ġer uct
Ġer ectile
lic ated
Ġthromb omodulin
Ġthromb oxane
ull er
thal us
Ġtrans ferr
Ġtrans positions
Ġtrans sexual
Ġpseud odyst
Ġpseud olymph
Ġpseud oscleroses
Ġpseud olithiasis
Ġpseud ochol
Ġpseud othalid
Ġhep atis
Ġperi hep
Ġperi impl
ak i
ak is
Ġag at
Ġag ed
Ġag itans
Ġag oraph
Ġfe er
Ġfe vr
Ġhypert rophied
Ġsch a
Ġsch latter
Ġsch epens
oderm atitis
oderm atitides
Ġassoc iations
rod igit
rod entooste
Ġmening omyelitis
Ġmening oradicul
Ġo rot
Ġo ki
Ġo kl
Ġo esophag
Ġo romuc
Ġo udts
Ġo rodigit
Ġacid s
Ġacid ified
Ġmyoc ardi
Ġend ole
Ġend osal
Ġend otoxic
Ġend ocrinopathy
Ġend arter
gener ative
Ġimmun ity
Ġimmun ore
Ġimmun oneuro
Ġderm ochond
Ġderm ographism
Ġcat ch
Ġcat ania
Ġur ia
Ġur ugu
Ġur ioste
rox ine
Ġto uch
av ic
yr ate
ft c
Ġtub eros
Ġap o
Ġap oc
Ġap ud
Ġap ld
Ġap oe
Ġap atite
Ġap noea
opro teus
Ġhyd m
Ġhyd role
Ġhyd raden
Ġhyd rosyring
Ġor is
Ġor ch
Ġcardi opulmonary
Ġcardi otoxic
Ġcardi omegaly
Ġcardi ofaci
Ġform ed
Ġform ation
Ġben acer
Ġmon k
Ġmon osome
Ġmon omelic
Ġmon odactyl
Ġmon oplegia
Ġmon iez
Ġmon treal
Ġabs orp
Ġscle roma
Ġscle romas
Ġscle rosteosis
Ġcent ro
Ġdegener ativus
per c
per son
Ġsystem s
Ġun ion
Ġun iform
Ġun seg
Ġun ilobular
Ġun idirectional
Ġun ste
Ġpo ems
Ġmac rophag
Ġmac donal
Ġmac lachlan
Ġmac rophage
Ġspinal is
Ġect ol
Ġect opy
Ġcr ac
Ġcr ps
Ġcr esc
Ġcr umpled
Ġpos ther
Ġpos ticus
Ġpos sibly
ast le
ist ed
ick nesses
air e
yt oin
Ġver as
Ġcar lson
Ġtooth s
Ġtooth less
Ġoptic ospinal
Ġ7 4
Ġ7 6
Ġ7 8
ug o
Ġcl aus
Ġcl cd
Ġcl avicular
Ġcl onorch
Ġcl arren
Ġcl avic
Ġangi ogranul
Ġangi oleiomy
Ġangi olipoma
Ġangi ohem
Ġdi eter
Ġdi uretic
Ġdi rofilar
Ġdi entamoeb
Ġem d
Ġem ac
Ġem eses
ild ing
Ġnerv us
Ġnerv osas
Ġob jective
Ġob rinsky
Ġca e
Ġca q
Ġca uv
yroid isms
Ġpneum opericardium
ero emb
ero atrial
Ġpartial ly
Ġ8 3
Ġ8 5
Ġ8 7
Ġnec ator
Ġheart worm
Ġheart water
Ġinter trochanteric
Ġintrac ardiac
Ġsleep iness
Ġsleep wal
acter iosis
acter ioses
ystic erc
Ġadult s
st anding
Ġrh uc
Ġrh ino
Ġrh pd
Ġrh onch
Ġrh egm
Ġrh esus
Ġrh odops
odyst rophia
Ġdem ise
Ġsm c
Ġsm oulder
Ġsm ear
Ġdr d
Ġdr yness
Ġarth rodentooste
Ġfl or
Ġfl ail
Ġfl ait
Ġfl ush
Ġfl au
Ġfl ynn
oprotein emic
Ġref low
Ġref eeding
Ġglyc inemia
Ġglyc inemias
Ġglyc oas
Ġglyc eroneph
amin es
Ġlim itus
Ġlim iting
Ġcardiomy ocyte
Ġmuc orm
thy osis
Ġ9 3
Ġ9 4
Ġ9 6
rost aglandin
Ġretin ol
Ġol lend
hyd rolase
hyd ranencephaly
hyd roxy
Ġsin opulmonary
Ġsten ose
Ġsten otroph
etal ipoproteinemias
Ġes odev
Ġes cobar
Ġ11 5
rog raphic
Ġcomp elling
Ġhypog alac
Ġhypog eus
Ġmari huana
sych otic
ong ue
Ġgeneral ised
ae ophor
Ġresp irovirus
Ġrad ii
Ġpara immun
Ġpara quat
Ġcrani ums
Ġcrani osch
Ġcrani ofaci
Ġcrani ocarpotarsal
Ġcrani ostenosis
Ġichthy ose
Ġaph alangy
ole vulin
Ġent ry
Ġent omophth
Ġocul ofacial
Ġocul opal
Ġocul omaxill
Ġocul ogastrointestinal
Ġpap p
Ġpap as
Ġpap pat
emat osa
emat osus
Ġsinus oidal
romat a
Ġmit ch
Ġmit omycin
Ġepiderm itis
Ġepiderm odysplasia
Ġepiderm ophyt
Ġcharcot s
Ġall o
Ġall an
Ġall ach
Ġall och
Ġall oxan
Ġbil har
cr atch
Ġmes oneph
Ġmes oaxial
Ġro yal
Ġro ts
Ġro zd
Ġro ifman
Ġpe x
Ġpe ak
Ġpe rodactyly
Ġpe ho
Ġpe tits
Ġpe roniere
Ġmar ek
Ġmar inum
Ġmar ugo
Ġimp act
Ġimp action
Ġimp etig
ans ki
Ġfo ar
Ġfo ix
ondyl ism
ondyl omegaepiphyseal
anth em
anth omas
omyel itides
omyel oneuropathy
Ġamyl opec
eth adione
Ġval ine
yph odysplasia
Ġsep ses
Ġphosph ogluc
Ġphosph oeth
Ġkerat opathy
Ġkerat opachy
Ġprotein uric
Ġov oid
Ġov aries
Ġov iduct
Ġhemat uric
Ġhemat omyelia
Ġhemat ocolpos
Ġhemat ochez
Ġneurol ymph
Ġresist ances
Ġcord s
Ġcord x
Ġven ogenic
Ġven osus
Ġ13 75
Ġmyoclonic a
Ġhepatic a
olytic a
Ġsever ity
Ġulc eron
Ġulc erogenic
Ġcd b
Ġcd h
Ġcd pd
Ġcd tb
Ġcd px
Ġfac es
Ġfac titious
ok i
ok s
ok oro
Ġen olase
osp araxis
Ġspondyl ar
Ġspondyl arth
Ġspondyl odysplasia
Ġspondyl odis
Ġspondyl operi
Ġspondyl odisc
Ġdermat ologic
Ġdermat ophyt
Ġdermat opol
Ġdermat odysostosis
Ġdermat ographism
Ġdermat osparaxis
Ġmem ber
md u
Ġmel ioid
Ġhern don
ocytop enic
Ġdwarfism s
io vertebral
ins el
ins ons
Ġfol ie
Ġmo esch
Ġmo unier
Ġneur asth
Ġophthalm ic
Ġophthalm oparesis
Ġgi ard
Ġig ad
Ġig da
Ġchor ist
Ġiv c
Ġgluc okinase
Ġgluc agon
Ġgluc ocerebros
Ġz iter
Ġz app
Ġz we
Ġz err
Ġz asp
Ġz uska
Ġpel vi
omer ang
Ġpoly uria
Ġpoly arth
Ġpoly asplenia
Ġgalact osyl
Ġgalact osidosis
Ġgalact ocoele
Ġcont ralateral
Ġadrenal s
Ġhydrox yp
Ġext rophy
Ġext rophies
Ġext ension
itt ac
Ġdeform ations
Ġy akut
Ġy unis
Ġy emenite
Ġdepend ences
Ġox oglut
Ġox ycephaly
Ġox othiolase
Ġmethyl t
Ġmethyl acyl
Ġmethyl enet
Ġchond ritis
Ġchond ritides
Ġchond roplasia
Ġchond roste
Ġstr at
Ġstr iations
Ġstr uemp
Ġstr asburg
Ġgangli ocytomas
Ġuter i
Ġatr x
iss istic
Ġpseudo ophthalm
Ġpseudo aph
Ġpseudo arylsulfatase
Ġpseudo arthrosis
Ġpseudo anodontia
Ġpseudo acromegal
Ġcarb ox
Ġcarb onic
asth enias
Ġvag inosis
Ġvag inoses
ux etic
ren ias
rocyt oses
Ġrem issions
Ġgast rop
Ġgast rosch
Ġwe ary
Ġwe instein
Ġasp icular
Ġma a
Ġsw ift
uch is
nea u
Ġfoot s
Ġeosinophil s
Ġdiabetic s
Ġdiabetic orums
Ġbar el
Ġbar ak
Ġbar row
Ġbar nes
Ġbar rier
Ġvascul ogenic
Ġvascul itic
Ġvascul itide
Ġhum erus
Ġlateral ity
ik ar
ik off
Ġtrich ocephal
Ġtrich oepitheliomas
Ġtrich oodont
Ġtrich obezo
Ġtrich orrhexis
Ġos med
Ġos cill
Ġos good
Ġos ebold
Ġsal em
Ġsal ping
Ġsal eh
Ġnons emin
Ġnons taphyl
Ġble bs
Ġble phar
Ġexper i
ier es
ier res
Ġlac az
Ġlac tiferous
Ġmyasth enias
Ġparas yst
Ġparas ympathetic
Ġpre us
Ġpre hyp
Ġpre leuk
Ġschiz encephaly
Ġcap m
Ġcap os
Ġcap gras
Ġflu oro
Ġtoxic oses
ber ling
ie u
Ġbe j
Ġbe zo
Ġbe ukes
Ġnev o
Ġnev oxanth
Ġcm l
Ġcm tr
Ġdysm otil
Ġdysm otility
Ġdysm igration
aden ed
Ġmelan oamel
Ġmelan odermic
yal gia
Ġot ocephaly
Ġot ofaci
Ġot to
Ġot otoxicity
Ġwil m
Ġwil kinson
Ġwil kie
Ġwil dervanc
este rone
Ġpy rom
Ġpy le
Ġpy oh
Ġpy rogl
Ġphen oc
Ġarteri ol
Ġarteri ogenic
Ġarteri olar
Ġarteri oles
Ġganglios idose
Ġpat el
olip idoses
ele tions
Ġqu iver
Ġqu ivers
Ġqu ebec
Ġloc ation
athyroid al
Ġspl anch
Ġast asia
Ġast rog
Ġsensor i
pl ing
Ġcal ves
Ġcal led
Ġcal var
Ġcal pain
Ġbas aran
Ġanti gen
Ġanti plasmin
rophthalm ia
Ġherp ang
Ġdu h
enb acher
Ġte ars
Ġte utsch
Ġhepat ocarcin
Ġhepat ofac
angiect atic
vic ollis
Ġlethal ity
Ġlob ulitis
Ġglomerul opathies
yg otes
Ġand roblastoma
Ġcavern itis
Ġcavern itides
onych ias
oac ylase
osyn thesis
Ġgra witz
Ġmin ers
Ġpseudoh ermaphrod
yot onica
Ġtor cid
Ġtor ulop
Ġpick wick
Ġfanc iers
Ġhyperc k
Ġhyperc ement
Ġhyperc alp
Ġhyperc oag
Ġhyperc aroten
Ġwh im
Ġwh ooping
Ġwh isper
Ġhetero plasia
tl es
Ġuro thelial
Ġden tic
ca i
Ġsarc ocyst
Ġsarc osine
Ġsarc optic
Ġha as
Ġha an
Ġha jd
Ġha uw
Ġlo a
Ġlo ops
Ġach ard
orphyr ias
Ġdan ish
Ġbor k
Ġbor rone
Ġlam a
Ġlam bl
Ġleg al
Ġblock age
Ġblock ages
Ġblock ade
Ġsulf ur
Ġsulf ite
Ġsulf otransferase
Ġsulf atide
Ġsulf oiduronate
Ġthorac olaryng
Ġdiverticul as
los sias
Ġgr dx
Ġgr easy
Ġgr iggs
Ġolig omen
Ġolig ospermia
Ġolig ozoospermia
Ġolig oarthritis
Ġmrx sc
Ġandrogen s
Ġic r
Ġic ca
Ġic terus
Ġasth en
Ġbre vicollis
Ġele jald
Ġneuron itis
Ġneuron itides
Ġmigraine urs
Ġmc i
Ġmc t
Ġmc kd
Ġmc far
Ġhyperg ammaglobulinemia
Ġhyperg ammaglobulin
Ġinterm edia
Ġinterm edias
Ġfront oot
Ġfront ofacionasal
Ġfront opari
Ġed a
Ġed sm
Ġed inburg
ars acral
eck y
Ġod g
Ġod or
Ġod od
Ġod dd
Ġod ontal
Ġod pf
Ġhyperp eps
Ġhyperp rostaglandin
oep iphyseal
Ġsl s
Ġsl ack
Ġavul sed
Ġinsulin oma
oneph rosis
uclear ity
Ġib ids
Ġib mp
Ġhypogonadism s
Ġheterot axies
Ġglut eal
Ġglut aryl
Ġhalluc al
hep atopathy
Ġmast opathy
Ġmast oid
omet ras
Ġbur s
Ġtib ias
Ġtib io
Ġman ia
Ġman itob
omp licated
Ġchoroid itis
Ġme iotic
Ġme ibomian
Ġme acham
Ġav m
Ġav itamin
Ġpers aud
Ġphot omyoclonus
Ġcolob omas
Ġmucopolysacchar idoses
ger ated
Ġout bur
Ġout standing
Ġgangl ioneuroblastoma
Ġbi osynthesis
Ġreticul ohisti
Ġreticul olymph
Ġentero tox
Ġmedull omy
sch er
sch ild
Ġrep ens
odys ostoses
Ġrhin ol
Ġrhin oscle
Ġu ip
Ġu fs
Ġu romodulin
att oproteus
Ġlup ski
ets u
Ġmyx omatosis
Ġmyx omatoses
Ġapp alach
nath isms
Ġdent s
Ġmov ed
Ġhs mn
Ġacoustic o
Ġxx xy
Ġdysmorph ia
Ġdissemin atum
Ġgu ibaud
Ġgonad oblastoma
Ġgonad otroph
Ġana uxetic
Ġsequ ences
Ġsequ elae
Ġolf action
Ġnoctur na
Ġath eroemb
oles ter
oles cent
Ġconduc t
Ġthalass emic
Ġcirrh otic
Ġtox asc
Ġtox ocar
Ġtox opachy
Ġhypop neas
Ġhypop rocon
Ġhypop otass
Ġhypop rebetalipoproteinemia
otyp ies
Ġir itis
Ġir reg
Ġir reversible
Ġring ing
Ġover l
Ġsuper activity
Ġsuper fet
Ġnonsyn ostotic
Ġtw o
Ġtw isted
Ġrick er
Ġrick et
Ġpolym yalgia
Ġamel oblastoma
Ġhypercalc emic
ondrom atosis
arb onate
Ġtur no
Ġtur ban
Ġaur as
Ġaur is
derm ic
Ġarg onz
Ġarg entaff
Ġtre hal
Ġcommun is
Ġvestibul itides
Ġcmt a
Ġcmt b
Ġcmt di
Ġhyperost otic
Ġgloss opy
Ġgloss optosis
Ġhol zgre
Ġbeh r
Ġbeh nke
Ġglomeruloneph ropathy
pd m
Ġcys teine
Ġdisc oid
Ġind ig
Ġind uration
Ġlys inuric
Ġnonp oli
Ġnonp apillary
Ġnonp sychotic
Ġcog ans
asm as
Ġacanth olysis
Ġmur ray
Ġmur phy
Ġfibr in
Ġvisc eroatrial
Ġvan hor
Ġosteoarth rosis
Ġros si
Ġchore oac
Ġesophag ogastric
Ġmen ger
Ġmen opa
Ġmen inig
Ġmen ieres
uber ties
Ġodont ohyp
Ġseb orrhea
Ġseb astian
Ġmegal ocephaly
Ġmegal odactyl
Ġfung emia
Ġwithdrawal s
aur icular
osamin uria
osamin urias
osamin idases
Ġhom ocar
Ġhom ogentisic
Ġparan oia
Ġpres acral
Ġadren oleuk
Ġadren omyeloneuropathy
iol itis
Ġsial idoses
Ġsial olithiasis
Ġsial oaden
inogen emic
Ġfel tys
Ġrib osuria
Ġwol mans
Ġlipoprotein osis
Ġmer kle
Ġdec ap
Ġdec ay
Ġdec ompens
Ġdec ompression
Ġhypo kinesias
Ġhypo ascorb
Ġxanth inuria
Ġfried erichsen
Ġcampt ocorm
Ġtibial is
Ġvulv ovaginitis
Ġrig or
Ġrig gs
Ġant ons
Ġant opol
Ġhypertr yptophan
ophosphat asia
cs oy
Ġsud anophilic
Ġber k
Ġber ti
Ġbif ocal
Ġbif unctional
Ġko olen
Ġko eh
Ġuret eroc
Ġmaj ors
Ġmyotonic as
Ġelev en
Ġacetyl cholinesterase
Ġacetyl neuramin
Ġhirsch owitz
Ġdiarrh oea
Ġhmsn p
Ġwor king
Ġfruct os
Ġuve oretinal
arg es
Ġmat thew
Ġtroch anteric
Ġcerebell otr
Ġmicroc olon
Ġshe en
Ġerythemat osis
Ġerythemat otel
Ġsupra glot
Ġstaphyl oma
Ġseg awa
Ġfrontal is
Ġasperg ers
Ġneurom yopathy
Ġepisodic a
Ġrigid us
Ġel aeophor
Ġel attoproteus
Ġsyphil i
Ġcock ett
Ġhp v
Ġhp ns
Ġhp mr
Ġhp abh
Ġasym bolia
reich er
Ġhaem och
Ġhaem onch
Ġhaem obart
Ġsem ela
Ġmil ia
Ġacc utane
Ġstra ight
Ġtri phosphatase
Ġtri hydrox
Ġtri atri
Ġtri phalangia
Ġfibro plasia
Ġfibro plasias
Ġfibro odont
Ġdip ylid
oseph osphate
Ġhh h
Ġhh v
Ġlax ities
Ġstri atum
Ġperfor ated
Ġperfor ans
Ġmeningoencephal oceles
Ġfaci othorac
Ġhydroxy ethyl
Ġhydroxy vitamin
Ġorgan omegalies
Ġfriedreich s
me ier
Ġmerc apt
ranul ocytic
Ġiron s
Ġwern ers
Ġcerebro arterial
Ġhex a
Ġhex okinase
Ġhex osaminidases
Ġemphys ematous
Ġcirc ump
Ġmas titides
Ġfati gues
Ġinvers as
Ġfibrom y
Ġfibrom yx
min ing
Ġpp ox
Ġpp pd
Ġpp nd
Ġacro kerat
Ġacro keratotic
Ġsil engo
Ġhur lers
Ġdysp eps
Ġdysp rothrombinemia
Ġdysp alsia
Ġstomach s
Ġalb umin
Ġalb escens
illar ger
Ġargin ine
ez as
Ġsign et
Ġtend in
Ġtend ons
Ġtend ovaginitis
Ġtend ovaginitides
Ġhab ronemias
Ġnk h
Ġfrag oso
Ġbo y
Ġbo omerang
Ġek d
Ġek v
Ġchl orac
Ġchl orid
Ġatrophic a
Ġatrophic as
Ġatrophic us
Ġatrophic ans
Ġorth ode
Ġfour ni
Ġpachy onychias
Ġsac rum
Ġdissoc iated
iast rophic
Ġneuroc ysticerc
Ġnonc omitant
Ġbreak bone
Ġet m
Ġonych olyses
Ġonych odysplasias
Ġonych ogr
Ġonych otrichodysplasia
rot raum
rot ectin
Ġtetra paresis
Ġtetra phocomelia
Ġaf d
Ġperic oron
Ġperic ementi
Ġamino isobut
Ġoculo ot
Ġoculo auricul
Ġpapul opust
Ġpolyradicul one
Ġossi um
Ġphenomen a
Ġsebace us
Ġdiast emat
Ġsol berg
Ġscl c
org ement
Ġtard as
Ġchoreoathet oid
Ġchoreoathet oses
ah oma
Ġser ies
Ġcephal odactyly
Ġcephal opelvic
aric aciduria
Ġpros tration
Ġhen neberg
Ġhar el
Ġhar per
Ġhar ley
Ġhar ris
Ġnas opharyng
Ġnas opalpebral
Ġnas olacrimal
Ġnarc issistic
Ġix b
Ġix c
Ġix d
Ġthy roc
Ġthy roxine
Ġente rop
role an
Ġcycl itides
Ġcycl ical
Ġcycl ospor
Ġpet ty
Ġmod ed
Ġmod eling
Ġter rey
Ġter tiary
omening itides
Ġsubst ances
Ġosteochond rodysplasias
Ġillness e
Ġsomat ostatin
Ġsomat oform
Ġhid rac
Ġhid rosaden
Ġhid rocyst
Ġfall s
Ġmicrod eletions
Ġbarr etts
Ġaspergill us
Ġaspergill ose
Ġsn r
Ġsn or
Ġsn iff
Ġsn akeb
Ġcel si
Ġblas ts
rops ia
Ġpseudot oxoplasmosis
agen ers
Ġom od
Ġom ental
inc k
Ġbir k
Ġrect ocolitides
Ġchondrom a
Ġchondrom as
Ġcluster s
Ġtwin ning
kn echt
Ġcur ly
Ġtrop omyosin
Ġgor ham
Ġcong estion
Ġhyperl act
Ġamin opterin
Ġamin olevulin
ohyp op
Ġvener eum
Ġblast omas
Ġhypomagnes emias
ou f
enh ain
enh orst
Ġps s
Ġps at
Ġps ittac
Ġmu eller
Ġmu hh
Ġmu enke
Ġtak ao
Ġnan bh
Ġwell ness
Ġstoma tin
Ġkn o
Ġabduc tor
Ġenamel s
Ġparasit emia
Ġschwann omatoses
Ġverruc osis
Ġverruc oses
pyr uv
Ġcost ello
Ġpan ophthalm
Ġpan bronch
Ġbro adened
Ġbroc as
oll agen
Ġvol ume
Ġoccul ta
Ġplasm acytoid
Ġsa al
Ġsing apore
Ġcbl h
Ġhel io
Ġfre eman
Ġgyn atr
Ġile ocecal
Ġlymphangi osarcoma
oglobulin emias
Ġprop ortion
Ġprop rotein
Ġheat stro
Ġscid x
Ġreduc ing
Ġphosphoribosyl py
stein er
Ġof uji
Ġdh d
Ġdh h
Ġdh apat
Ġho a
Ġho zay
Ġhorn ers
Ġhorn stein
Ġnig er
Ġnig rican
ope rox
ett si
Ġhyposp ermatogenesis
Ġhypocalc uria
Ġarachnoid al
Ġprodrom e
Ġtransform ylase
Ġcry oglobulinemia
Ġcry ofibrinogenemia
Ġeds s
Ġependym oastrocyt
ni ecky
Ġsand ifer
Ġsand fly
Ġah m
Ġah umada
Ġanos ognos
Ġxl g
Ġxl t
Ġxl is
Ġgene e
Ġgene vie
Ġmyelin olyses
Ġmacrog yria
Ġcervic es
Ġmorqu ios
Ġquadr ipar
Ġquadr uple
Ġcharacteristic s
Ġunc omb
Ġunc omplicated
Ġpot ts
Ġtons ill
Ġhl p
Ġhl hs
Ġhash ish
Ġhash imotos
Ġhash aron
Ġgold mann
Ġeb r
Ġeb dd
Ġhyperm obilities
Ġhemic ranial
Ġpseudop uberties
Ġdihyd rate
Ġfinger tip
ioneuro card
pp ed
Ġti e
Ġti m
Ġti pped
Ġbac illus
Ġgro ver
Ġgro oves
Ġwr ight
Ġpolyd yssp
Ġsubepend ymoma
Ġsubepend ymomas
Ġprolactin oma
Ġfacio auricul
Ġcanal icul
Ġhomocys teinemia
Ġbifid ums
less ness
Ġts uk
Ġts uji
Ġts uruta
Ġra eder
Ġra illie
Ġgyr i
Ġgyr atum
Ġej a
Ġej aculation
Ġantic us
Ġantic oag
Ġadoles cence
Ġphil ipp
Ġmacro epiphyseal
Ġfove a
Ġmigr ational
Ġstrept omycin
Ġaspart oacylase
Ġasthmatic us
Ġanhidrotic s
Ġbartter s
Ġnor bury
Ġante version
Ġante versions
Ġkra use
orrhag ica
Ġpseudoobstruc tions
Ġstiff man
hi ro
Ġirid ocycl
Ġsr vx
Ġpyl ori
Ġmis perc
Ġla ere
Ġelect rographic
Ġwart enhorst
Ġadip qtl
Ġlipoid oses
Ġtubul o
hol m
Ġcp vt
Ġta en
Ġtap vr
Ġhdl c
Ġaz otemia
Ġfer rocalcinosis
Ġfer ritin
Ġbod ian
Ġbird shot
Ġvo yeur
Ġvacu o
Ġander mann
Ġih s
Ġtherm olab
Ġmicros omal
Ġmicros omias
Ġmicros atell
Ġshap iro
Ġmethylc obalamin
Ġsphe rocytoses
Ġmegakary ocytes
Ġcoc a
Ġprom m
Ġfh h
Ġfh ha
Ġfh cb
Ġchest s
Ġhyperal gesic
Ġhyperal phalipoproteinemia
Ġword s
Ġarticul ations
Ġglom angiomas
Ġscar ring
Ġcardio vertebral
Ġbranchio ocul
[...]
