{
  "'": 1,
  "0": 2,
  "1": 3,
  "2": 4,
  "3": 5,
  "4": 6,
  "5": 7,
  "6": 8,
  "7": 9,
  "8": 10,
  "9": 11,
  "<": 12,
  "a": 13,
  "b": 14,
  "c": 15,
  "d": 16,
  "e": 17,
  "f": 18,
  "g": 19,
  "h": 20,
  "i": 21,
  "j": 22,
  "k": 23,
  "l": 24,
  "m": 25,
  "n": 26,
  "o": 27,
  "p": 28,
  "q": 29,
  "r": 30,
  "s": 31,
  "t": 32,
  "u": 33,
  "v": 34,
  "w": 35,
  "x": 36,
  "y": 37,
  "z": 38,
  "¡": 39,
  "¤": 40,
  "¦": 41,
  "§": 42,
  "¨": 43,
  "©": 44,
  "«": 45,
  "¶": 46,
  "¸": 47,
  "¼": 48,
  "Ã": 49,
  "Ċ": 50,
  "Ġ": 51,
  "'d": 52,
  "'s": 53,
  "00": 54,
  "01": 55,
  "10": 56,
  "14": 57,
  "41": 58,
  "75": 59,
  "78": 60,
  "ab": 61,
  "ac": 62,
  "ad": 63,
  "ae": 64,
  "af": 65,
  "ag": 66,
  "ah": 67,
  "ai": 68,
  "aj": 69,
  "ak": 70,
  "al": 71,
  "am": 72,
  "an": 73,
  "ao": 74,
  "ap": 75,
  "ar": 76,
  "as": 77,
  "at": 78,
  "au": 79,
  "av": 80,
  "aw": 81,
  "ax": 82,
  "ay": 83,
  "az": 84,
  "ba": 85,
  "bb": 86,
  "bc": 87,
  "bd": 88,
  "be": 89,
  "bh": 90,
  "bi": 91,
  "bl": 92,
  "bm": 93,
  "bp": 94,
  "bq": 95,
  "br": 96,
  "bs": 97,
  "bu": 98,
  "by": 99,
  "ca": 100,
  "cb": 101,
  "cc": 102,
  "cd": 103,
  "cf": 104,
  "ch": 105,
  "ci": 106,
  "ck": 107,
  "cl": 108,
  "cm": 109,
  "cn": 110,
  "co": 111,
  "cp": 112,
  "cq": 113,
  "cr": 114,
  "cs": 115,
  "ct": 116,
  "cv": 117,
  "cx": 118,
  "cy": 119,
  "cz": 120,
  "da": 121,
  "dd": 122,
  "de": 123,
  "dh": 124,
  "di": 125,
  "dl": 126,
  "dm": 127,
  "do": 128,
  "dp": 129,
  "dr": 130,
  "ds": 131,
  "dt": 132,
  "dx": 133,
  "ea": 134,
  "eb": 135,
  "ec": 136,
  "ed": 137,
  "ef": 138,
  "eg": 139,
  "eh": 140,
  "ei": 141,
  "ej": 142,
  "ek": 143,
  "el": 144,
  "em": 145,
  "en": 146,
  "eo": 147,
  "ep": 148,
  "er": 149,
  "es": 150,
  "et": 151,
  "eu": 152,
  "ev": 153,
  "ew": 154,
  "ex": 155,
  "ey": 156,
  "ez": 157,
  "fb": 158,
  "fc": 159,
  "fd": 160,
  "fe": 161,
  "ff": 162,
  "fg": 163,
  "fh": 164,
  "fl": 165,
  "fm": 166,
  "fn": 167,
  "fr": 168,
  "fs": 169,
  "ft": 170,
  "fx": 171,
  "ga": 172,
  "gb": 173,
  "gc": 174,
  "gd": 175,
  "ge": 176,
  "gf": 177,
  "gh": 178,
  "gl": 179,
  "gm": 180,
  "gn": 181,
  "go": 182,
  "gr": 183,
  "gs": 184,
  "gu": 185,
  "ha": 186,
  "hb": 187,
  "hc": 188,
  "hd": 189,
  "he": 190,
  "hf": 191,
  "hh": 192,
  "hi": 193,
  "hk": 194,
  "hl": 195,
  "hm": 196,
  "hn": 197,
  "ho": 198,
  "hr": 199,
  "hs": 200,
  "ht": 201,
  "hu": 202,
  "ia": 203,
  "ib": 204,
  "ic": 205,
  "id": 206,
  "ie": 207,
  "if": 208,
  "ig": 209,
  "ih": 210,
  "ii": 211,
  "ij": 212,
  "ik": 213,
  "il": 214,
  "im": 215,
  "in": 216,
  "io": 217,
  "ip": 218,
  "iq": 219,
  "ir": 220,
  "is": 221,
  "it": 222,
  "iv": 223,
  "ix": 224,
  "iz": 225,
  "ja": 226,
  "jb": 227,
  "jd": 228,
  "ji": 229,
  "jl": 230,
  "jm": 231,
  "jo": 232,
  "js": 233,
  "ka": 234,
  "kd": 235,
  "ke": 236,
  "kh": 237,
  "ki": 238,
  "kl": 239,
  "km": 240,
  "kn": 241,
  "kp": 242,
  "ks": 243,
  "kt": 244,
  "ky": 245,
  "la": 246,
  "ld": 247,
  "le": 248,
  "lh": 249,
  "li": 250,
  "ll": 251,
  "lo": 252,
  "ls": 253,
  "lu": 254,
  "lx": 255,
  "ly": 256,
  "ma": 257,
  "mb": 258,
  "md": 259,
  "me": 260,
  "mi": 261,
  "ml": 262,
  "mm": 263,
  "mn": 264,
  "mo": 265,
  "mp": 266,
  "mr": 267,
  "ms": 268,
  "mt": 269,
  "mv": 270,
  "mx": 271,
  "my": 272,
  "na": 273,
  "nb": 274,
  "nc": 275,
  "nd": 276,
  "ne": 277,
  "nf": 278,
  "nh": 279,
  "ni": 280,
  "nk": 281,
  "nl": 282,
  "nm": 283,
  "no": 284,
  "np": 285,
  "ns": 286,
  "nu": 287,
  "nv": 288,
  "ny": 289,
  "oa": 290,
  "ob": 291,
  "oc": 292,
  "od": 293,
  "oe": 294,
  "of": 295,
  "og": 296,
  "oh": 297,
  "oi": 298,
  "oj": 299,
  "ok": 300,
  "ol": 301,
  "om": 302,
  "on": 303,
  "oo": 304,
  "op": 305,
  "or": 306,
  "os": 307,
  "ot": 308,
  "ou": 309,
  "ov": 310,
  "ow": 311,
  "ox": 312,
  "oy": 313,
  "oz": 314,
  "pa": 315,
  "pc": 316,
  "pd": 317,
  "pe": 318,
  "pf": 319,
  "ph": 320,
  "pk": 321,
  "pl": 322,
  "pm": 323,
  "pn": 324,
  "po": 325,
  "pp": 326,
  "pr": 327,
  "ps": 328,
  "pt": 329,
  "pu": 330,
  "pw": 331,
  "px": 332,
  "py": 333,
  "qi": 334,
  "qt": 335,
  "qu": 336,
  "ra": 337,
  "rb": 338,
  "rc": 339,
  "rd": 340,
  "re": 341,
  "rf": 342,
  "rh": 343,
  "ri": 344,
  "rl": 345,
  "rm": 346,
  "rn": 347,
  "ro": 348,
  "rp": 349,
  "rs": 350,
  "rt": 351,
  "ry": 352,
  "sa": 353,
  "sc": 354,
  "sd": 355,
  "se": 356,
  "sf": 357,
  "sh": 358,
  "si": 359,
  "sk": 360,
  "sl": 361,
  "sm": 362,
  "sn": 363,
  "so": 364,
  "sp": 365,
  "sr": 366,
  "ss": 367,
  "st": 368,
  "sy": 369,
  "sz": 370,
  "ta": 371,
  "tb": 372,
  "tc": 373,
  "td": 374,
  "te": 375,
  "tf": 376,
  "th": 377,
  "ti": 378,
  "tl": 379,
  "to": 380,
  "tr": 381,
  "ts": 382,
  "tw": 383,
  "ty": 384,
  "tz": 385,
  "ua": 386,
  "ub": 387,
  "uc": 388,
  "ud": 389,
  "ue": 390,
  "ug": 391,
  "ui": 392,
  "uj": 393,
  "uk": 394,
  "ul": 395,
  "um": 396,
  "un": 397,
  "up": 398,
  "ur": 399,
  "us": 400,
  "ut": 401,
  "uv": 402,
  "uw": 403,
  "ux": 404,
  "uy": 405,
  "uz": 406,
  "va": 407,
  "vd": 408,
  "ve": 409,
  "vh": 410,
  "vi": 411,
  "vm": 412,
  "vo": 413,
  "vp": 414,
  "vr": 415,
  "vs": 416,
  "vt": 417,
  "vv": 418,
  "vx": 419,
  "wa": 420,
  "wc": 421,
  "wd": 422,
  "we": 423,
  "wf": 424,
  "wh": 425,
  "wk": 426,
  "wm": 427,
  "ws": 428,
  "wt": 429,
  "wx": 430,
  "xd": 431,
  "xe": 432,
  "xq": 433,
  "xs": 434,
  "xu": 435,
  "xx": 436,
  "xy": 437,
  "ya": 438,
  "yb": 439,
  "yc": 440,
  "yd": 441,
  "ye": 442,
  "yg": 443,
  "yi": 444,
  "yl": 445,
  "ym": 446,
  "yn": 447,
  "yp": 448,
  "yr": 449,
  "ys": 450,
  "yt": 451,
  "yw": 452,
  "yx": 453,
  "yz": 454,
  "za": 455,
  "zb": 456,
  "zd": 457,
  "ze": 458,
  "zo": 459,
  "zs": 460,
  "zt": 461,
  "zx": 462,
  "zy": 463,
  "Ġ'": 464,
  "Ġ0": 465,
  "Ġ1": 466,
  "Ġ2": 467,
  "Ġ3": 468,
  "Ġ4": 469,
  "Ġ5": 470,
  "Ġ6": 471,
  "Ġ7": 472,
  "Ġ8": 473,
  "Ġ9": 474,
  "Ġ<": 475,
  "Ġa": 476,
  "Ġb": 477,
  "Ġc": 478,
  "Ġd": 479,
  "Ġe": 480,
  "Ġf": 481,
  "Ġg": 482,
  "Ġh": 483,
  "Ġi": 484,
  "Ġj": 485,
  "Ġk": 486,
  "Ġl": 487,
  "Ġm": 488,
  "Ġn": 489,
  "Ġo": 490,
  "Ġp": 491,
  "Ġq": 492,
  "Ġr": 493,
  "Ġs": 494,
  "Ġt": 495,
  "Ġu": 496,
  "Ġv": 497,
  "Ġw": 498,
  "Ġx": 499,
  "Ġy": 500,
  "Ġz": 501,
  "ĠÃ": 502,
  "210": 503,
  "841": 504,
  "aal": 505,
  "aam": 506,
  "aba": 507,
  "abd": 508,
  "abe": 509,
  "abh": 510,
  "abi": 511,
  "abs": 512,
  "aca": 513,
  "acc": 514,
  "ace": 515,
  "ach": 516,
  "aci": 517,
  "ack": 518,
  "acq": 519,
  "acr": 520,
  "acs": 521,
  "act": 522,
  "acu": 523,
  "acy": 524,
  "ada": 525,
  "ade": 526,
  "adh": 527,
  "adi": 528,
  "ado": 529,
  "adr": 530,
  "ads": 531,
  "adt": 532,
  "ady": 533,
  "aed": 534,
  "aek": 535,
  "aer": 536,
  "aes": 537,
  "afa": 538,
  "aff": 539,
  "afk": 540,
  "age": 541,
  "agg": 542,
  "agh": 543,
  "agi": 544,
  "ago": 545,
  "ags": 546,
  "ahd": 547,
  "ahl": 548,
  "ahr": 549,
  "aid": 550,
  "ail": 551,
  "ain": 552,
  "air": 553,
  "ait": 554,
  "ajo": 555,
  "aka": 556,
  "ake": 557,
  "aki": 558,
  "ala": 559,
  "alc": 560,
  "ald": 561,
  "ale": 562,
  "ali": 563,
  "all": 564,
  "alp": 565,
  "als": 566,
  "alt": 567,
  "alv": 568,
  "ama": 569,
  "amb": 570,
  "amd": 571,
  "ame": 572,
  "ami": 573,
  "aml": 574,
  "amm": 575,
  "amn": 576,
  "amo": 577,
  "amp": 578,
  "ams": 579,
  "amy": 580,
  "ana": 581,
  "anc": 582,
  "and": 583,
  "ane": 584,
  "anf": 585,
  "ang": 586,
  "ani": 587,
  "ank": 588,
  "ann": 589,
  "ano": 590,
  "ans": 591,
  "ant": 592,
  "anz": 593,
  "apd": 594,
  "aph": 595,
  "apn": 596,
  "apo": 597,
  "app": 598,
  "aps": 599,
  "apt": 600,
  "ara": 601,
  "arb": 602,
  "arc": 603,
  "ard": 604,
  "are": 605,
  "arg": 606,
  "ari": 607,
  "ark": 608,
  "arn": 609,
  "arp": 610,
  "ars": 611,
  "art": 612,
  "arx": 613,
  "ary": 614,
  "asc": 615,
  "asd": 616,
  "ase": 617,
  "ash": 618,
  "asi": 619,
  "asm": 620,
  "asp": 621,
  "ass": 622,
  "ast": 623,
  "asy": 624,
  "ata": 625,
  "ate": 626,
  "ath": 627,
  "ati": 628,
  "atm": 629,
  "ato": 630,
  "atr": 631,
  "ats": 632,
  "att": 633,
  "atz": 634,
  "auc": 635,
  "aud": 636,
  "auf": 637,
  "aum": 638,
  "aun": 639,
  "aur": 640,
  "aus": 641,
  "aut": 642,
  "aux": 643,
  "ava": 644,
  "avd": 645,
  "ave": 646,
  "avm": 647,
  "avy": 648,
  "awa": 649,
  "axy": 650,
  "ays": 651,
  "azi": 652,
  "bal": 653,
  "ban": 654,
  "bat": 655,
  "bch": 656,
  "bec": 657,
  "bed": 658,
  "ben": 659,
  "ber": 660,
  "bes": 661,
  "bfl": 662,
  "bgd": 663,
  "bic": 664,
  "bil": 665,
  "bin": 666,
  "bir": 667,
  "bit": 668,
  "bla": 669,
  "ble": 670,
  "blr": 671,
  "bly": 672,
  "bms": 673,
  "bns": 674,
  "bom": 675,
  "bon": 676,
  "bor": 677,
  "bow": 678,
  "bre": 679,
  "brs": 680,
  "bts": 681,
  "bum": 682,
  "bur": 683,
  "but": 684,
  "cad": 685,
  "cah": 686,
  "cai": 687,
  "can": 688,
  "car": 689,
  "cas": 690,
  "cax": 691,
  "cbx": 692,
  "ccd": 693,
  "ccs": 694,
  "cds": 695,
  "ced": 696,
  "cfd": 697,
  "cgr": 698,
  "chi": 699,
  "chs": 700,
  "chy": 701,
  "cid": 702,
  "ckd": 703,
  "cke": 704,
  "cle": 705,
  "clp": 706,
  "cme": 707,
  "cop": 708,
  "cox": 709,
  "cpm": 710,
  "cra": 711,
  "crd": 712,
  "cul": 713,
  "cys": 714,
  "dad": 715,
  "dal": 716,
  "day": 717,
  "dct": 718,
  "ddr": 719,
  "dem": 720,
  "den": 721,
  "der": 722,
  "des": 723,
  "dev": 724,
  "die": 725,
  "din": 726,
  "dle": 727,
  "dlr": 728,
  "dns": 729,
  "dog": 730,
  "don": 731,
  "dor": 732,
  "dpp": 733,
  "dpr": 734,
  "dpt": 735,
  "dsc": 736,
  "duc": 737,
  "dus": 738,
  "dyn": 739,
  "dys": 740,
  "dyw": 741,
  "eac": 742,
  "eae": 743,
  "eal": 744,
  "ean": 745,
  "ear": 746,
  "eas": 747,
  "eat": 748,
  "eau": 749,
  "eba": 750,
  "ebe": 751,
  "ebi": 752,
  "ebl": 753,
  "ebs": 754,
  "ecd": 755,
  "ech": 756,
  "eck": 757,
  "eco": 758,
  "ect": 759,
  "eda": 760,
  "edi": 761,
  "edo": 762,
  "eds": 763,
  "edt": 764,
  "eed": 765,
  "eel": 766,
  "eer": 767,
  "efe": 768,
  "egm": 769,
  "ego": 770,
  "egs": 771,
  "ehl": 772,
  "eil": 773,
  "eis": 774,
  "eiz": 775,
  "eks": 776,
  "ela": 777,
  "eld": 778,
  "ele": 779,
  "elf": 780,
  "eli": 781,
  "ell": 782,
  "elo": 783,
  "els": 784,
  "elt": 785,
  "ely": 786,
  "ema": 787,
  "emb": 788,
  "emp": 789,
  "ems": 790,
  "ena": 791,
  "enb": 792,
  "enc": 793,
  "end": 794,
  "ene": 795,
  "enh": 796,
  "eni": 797,
  "enn": 798,
  "ens": 799,
  "ent": 800,
  "enz": 801,
  "eol": 802,
  "eon": 803,
  "eou": 804,
  "eph": 805,
  "eps": 806,
  "ept": 807,
  "equ": 808,
  "era": 809,
  "erc": 810,
  "ere": 811,
  "erg": 812,
  "eri": 813,
  "erm": 814,
  "ern": 815,
  "ero": 816,
  "err": 817,
  "ers": 818,
  "ert": 819,
  "erv": 820,
  "ery": 821,
  "erz": 822,
  "esc": 823,
  "esd": 824,
  "ese": 825,
  "esp": 826,
  "ess": 827,
  "est": 828,
  "esz": 829,
  "eta": 830,
  "ete": 831,
  "eth": 832,
  "eti": 833,
  "ets": 834,
  "ett": 835,
  "ety": 836,
  "etz": 837,
  "euk": 838,
  "eum": 839,
  "eur": 840,
  "eus": 841,
  "eve": 842,
  "eze": 843,
  "ezo": 844,
  "fak": 845,
  "fan": 846,
  "far": 847,
  "fdn": 848,
  "fec": 849,
  "fel": 850,
  "fer": 851,
  "fes": 852,
  "fet": 853,
  "fev": 854,
  "fib": 855,
  "fic": 856,
  "fil": 857,
  "fly": 858,
  "fnd": 859,
  "fne": 860,
  "fol": 861,
  "for": 862,
  "fsd": 863,
  "ftc": 864,
  "ful": 865,
  "fur": 866,
  "gal": 867,
  "gam": 868,
  "gas": 869,
  "gat": 870,
  "gav": 871,
  "gaz": 872,
  "gbe": 873,
  "gcd": 874,
  "gda": 875,
  "gdh": 876,
  "ged": 877,
  "gel": 878,
  "gem": 879,
  "gen": 880,
  "ger": 881,
  "ges": 882,
  "get": 883,
  "ggl": 884,
  "gia": 885,
  "gic": 886,
  "gin": 887,
  "glu": 888,
  "gmr": 889,
  "gow": 890,
  "gpt": 891,
  "gra": 892,
  "gre": 893,
  "gro": 894,
  "gth": 895,
  "gue": 896,
  "gus": 897,
  "gut": 898,
  "gve": 899,
  "hal": 900,
  "ham": 901,
  "han": 902,
  "hap": 903,
  "har": 904,
  "hed": 905,
  "hel": 906,
  "hem": 907,
  "hen": 908,
  "hep": 909,
  "her": 910,
  "hes": 911,
  "hht": 912,
  "hib": 913,
  "him": 914,
  "hin": 915,
  "hip": 916,
  "hns": 917,
  "hof": 918,
  "hol": 919,
  "hor": 920,
  "hos": 921,
  "hry": 922,
  "hsp": 923,
  "hum": 924,
  "hur": 925,
  "hyd": 926,
  "hyp": 927,
  "iaa": 928,
  "iab": 929,
  "iac": 930,
  "iad": 931,
  "iae": 932,
  "ial": 933,
  "iam": 934,
  "ian": 935,
  "iap": 936,
  "ias": 937,
  "iat": 938,
  "ica": 939,
  "icc": 940,
  "ice": 941,
  "ich": 942,
  "ici": 943,
  "ick": 944,
  "ics": 945,
  "ict": 946,
  "icz": 947,
  "ida": 948,
  "ide": 949,
  "idg": 950,
  "idi": 951,
  "idp": 952,
  "idr": 953,
  "ids": 954,
  "idy": 955,
  "ied": 956,
  "ief": 957,
  "iep": 958,
  "ier": 959,
  "ies": 960,
  "iet": 961,
  "ieu": 962,
  "iew": 963,
  "iez": 964,
  "ifa": 965,
  "ife": 966,
  "iff": 967,
  "ift": 968,
  "igh": 969,
  "igm": 970,
  "ign": 971,
  "igo": 972,
  "igs": 973,
  "igu": 974,
  "iia": 975,
  "ild": 976,
  "ile": 977,
  "ili": 978,
  "ill": 979,
  "ils": 980,
  "ima": 981,
  "ime": 982,
  "ina": 983,
  "inc": 984,
  "ind": 985,
  "ine": 986,
  "inf": 987,
  "ing": 988,
  "ini": 989,
  "ink": 990,
  "inn": 991,
  "ino": 992,
  "ins": 993,
  "int": 994,
  "inv": 995,
  "iny": 996,
  "inz": 997,
  "ioc": 998,
  "iod": 999,
  "iol": 1000,
  "ion": 1001,
  "ior": 1002,
  "ios": 1003,
  "iot": 1004,
  "ipa": 1005,
  "iph": 1006,
  "ipp": 1007,
  "ips": 1008,
  "ipt": 1009,
  "iqu": 1010,
  "ird": 1011,
  "ire": 1012,
  "iro": 1013,
  "irs": 1014,
  "iry": 1015,
  "isc": 1016,
  "ise": 1017,
  "ish": 1018,
  "isk": 1019,
  "ism": 1020,
  "iss": 1021,
  "ist": 1022,
  "ita": 1023,
  "ite": 1024,
  "ith": 1025,
  "iti": 1026,
  "ito": 1027,
  "itr": 1028,
  "its": 1029,
  "itt": 1030,
  "itu": 1031,
  "ity": 1032,
  "itz": 1033,
  "ium": 1034,
  "ius": 1035,
  "ive": 1036,
  "ize": 1037,
  "izi": 1038,
  "izz": 1039,
  "jad": 1040,
  "jar": 1041,
  "jaw": 1042,
  "jer": 1043,
  "jew": 1044,
  "jga": 1045,
  "jhn": 1046,
  "jie": 1047,
  "jme": 1048,
  "jug": 1049,
  "jur": 1050,
  "kab": 1051,
  "kal": 1052,
  "kam": 1053,
  "kan": 1054,
  "kar": 1055,
  "kea": 1056,
  "ked": 1057,
  "kee": 1058,
  "kel": 1059,
  "ken": 1060,
  "ker": 1061,
  "kes": 1062,
  "ket": 1063,
  "key": 1064,
  "kie": 1065,
  "kin": 1066,
  "kir": 1067,
  "kit": 1068,
  "kle": 1069,
  "kop": 1070,
  "kos": 1071,
  "kpp": 1072,
  "kpx": 1073,
  "krp": 1074,
  "kun": 1075,
  "kus": 1076,
  "kys": 1077,
  "lak": 1078,
  "lam": 1079,
  "lan": 1080,
  "lar": 1081,
  "las": 1082,
  "lav": 1083,
  "lay": 1084,
  "lea": 1085,
  "leb": 1086,
  "lec": 1087,
  "led": 1088,
  "lek": 1089,
  "lem": 1090,
  "len": 1091,
  "ler": 1092,
  "les": 1093,
  "let": 1094,
  "lex": 1095,
  "ley": 1096,
  "lia": 1097,
  "lic": 1098,
  "lin": 1099,
  "lip": 1100,
  "lis": 1101,
  "lix": 1102,
  "lns": 1103,
  "lob": 1104,
  "loc": 1105,
  "lor": 1106,
  "los": 1107,
  "lot": 1108,
  "lov": 1109,
  "low": 1110,
  "lsd": 1111,
  "lte": 1112,
  "lus": 1113,
  "lux": 1114,
  "lyc": 1115,
  "mac": 1116,
  "mal": 1117,
  "man": 1118,
  "mas": 1119,
  "mca": 1120,
  "mci": 1121,
  "mdu": 1122,
  "med": 1123,
  "mel": 1124,
  "men": 1125,
  "mer": 1126,
  "mes": 1127,
  "met": 1128,
  "mfh": 1129,
  "mia": 1130,
  "mic": 1131,
  "mie": 1132,
  "min": 1133,
  "mit": 1134,
  "mmt": 1135,
  "mon": 1136,
  "mor": 1137,
  "mos": 1138,
  "mpc": 1139,
  "mps": 1140,
  "mrt": 1141,
  "mtc": 1142,
  "mun": 1143,
  "mur": 1144,
  "mus": 1145,
  "nac": 1146,
  "nai": 1147,
  "nal": 1148,
  "nar": 1149,
  "nas": 1150,
  "ncl": 1151,
  "ncr": 1152,
  "nea": 1153,
  "ner": 1154,
  "nes": 1155,
  "nev": 1156,
  "ney": 1157,
  "nia": 1158,
  "nig": 1159,
  "nik": 1160,
  "nis": 1161,
  "nke": 1162,
  "nms": 1163,
  "nmt": 1164,
  "nos": 1165,
  "now": 1166,
  "nox": 1167,
  "npp": 1168,
  "nsw": 1169,
  "nts": 1170,
  "nup": 1171,
  "nus": 1172,
  "nut": 1173,
  "oac": 1174,
  "oag": 1175,
  "oal": 1176,
  "oan": 1177,
  "oas": 1178,
  "oat": 1179,
  "oca": 1180,
  "occ": 1181,
  "och": 1182,
  "oci": 1183,
  "ock": 1184,
  "ocl": 1185,
  "oco": 1186,
  "ocr": 1187,
  "ocy": 1188,
  "oda": 1189,
  "odd": 1190,
  "ode": 1191,
  "odg": 1192,
  "odi": 1193,
  "ody": 1194,
  "oea": 1195,
  "oel": 1196,
  "oen": 1197,
  "oep": 1198,
  "off": 1199,
  "oft": 1200,
  "ogl": 1201,
  "ogn": 1202,
  "ogr": 1203,
  "ogy": 1204,
  "ohl": 1205,
  "ohn": 1206,
  "ohr": 1207,
  "oia": 1208,
  "oid": 1209,
  "oin": 1210,
  "ois": 1211,
  "oke": 1212,
  "oki": 1213,
  "oks": 1214,
  "oku": 1215,
  "ola": 1216,
  "old": 1217,
  "ole": 1218,
  "oli": 1219,
  "olk": 1220,
  "oll": 1221,
  "olm": 1222,
  "ols": 1223,
  "olt": 1224,
  "oly": 1225,
  "oma": 1226,
  "omb": 1227,
  "ome": 1228,
  "omm": 1229,
  "omn": 1230,
  "omo": 1231,
  "omp": 1232,
  "omy": 1233,
  "onc": 1234,
  "ond": 1235,
  "one": 1236,
  "ong": 1237,
  "oni": 1238,
  "ons": 1239,
  "ont": 1240,
  "onv": 1241,
  "ony": 1242,
  "onz": 1243,
  "ood": 1244,
  "ool": 1245,
  "oon": 1246,
  "oor": 1247,
  "oot": 1248,
  "opa": 1249,
  "opd": 1250,
  "ope": 1251,
  "opf": 1252,
  "oph": 1253,
  "opl": 1254,
  "opo": 1255,
  "opp": 1256,
  "opr": 1257,
  "ops": 1258,
  "opt": 1259,
  "opy": 1260,
  "oqu": 1261,
  "ora": 1262,
  "orb": 1263,
  "ord": 1264,
  "ore": 1265,
  "org": 1266,
  "ori": 1267,
  "orm": 1268,
  "orn": 1269,
  "oro": 1270,
  "orp": 1271,
  "ors": 1272,
  "ort": 1273,
  "ory": 1274,
  "osa": 1275,
  "osc": 1276,
  "ose": 1277,
  "osh": 1278,
  "osi": 1279,
  "osl": 1280,
  "oso": 1281,
  "osp": 1282,
  "oss": 1283,
  "ost": 1284,
  "otc": 1285,
  "oth": 1286,
  "oto": 1287,
  "otr": 1288,
  "ott": 1289,
  "oud": 1290,
  "ouf": 1291,
  "oul": 1292,
  "oun": 1293,
  "our": 1294,
  "ous": 1295,
  "out": 1296,
  "ova": 1297,
  "ove": 1298,
  "own": 1299,
  "oxy": 1300,
  "oyl": 1301,
  "ozo": 1302,
  "pal": 1303,
  "pan": 1304,
  "par": 1305,
  "pas": 1306,
  "pat": 1307,
  "pch": 1308,
  "pdc": 1309,
  "pdd": 1310,
  "pdm": 1311,
  "ped": 1312,
  "pen": 1313,
  "per": 1314,
  "pet": 1315,
  "pev": 1316,
  "pez": 1317,
  "pha": 1318,
  "phe": 1319,
  "phm": 1320,
  "phy": 1321,
  "pid": 1322,
  "pin": 1323,
  "pkd": 1324,
  "ple": 1325,
  "plt": 1326,
  "pnh": 1327,
  "pnk": 1328,
  "por": 1329,
  "pos": 1330,
  "pox": 1331,
  "ppd": 1332,
  "pps": 1333,
  "prn": 1334,
  "pro": 1335,
  "prs": 1336,
  "prt": 1337,
  "pur": 1338,
  "put": 1339,
  "pyr": 1340,
  "qbp": 1341,
  "qtl": 1342,
  "que": 1343,
  "rac": 1344,
  "rad": 1345,
  "rae": 1346,
  "raf": 1347,
  "rag": 1348,
  "ral": 1349,
  "ram": 1350,
  "ran": 1351,
  "rap": 1352,
  "rar": 1353,
  "ras": 1354,
  "rav": 1355,
  "raw": 1356,
  "rax": 1357,
  "ray": 1358,
  "rcc": 1359,
  "rcd": 1360,
  "rdj": 1361,
  "rea": 1362,
  "red": 1363,
  "ref": 1364,
  "reg": 1365,
  "reh": 1366,
  "rel": 1367,
  "ren": 1368,
  "res": 1369,
  "ret": 1370,
  "rew": 1371,
  "rey": 1372,
  "rez": 1373,
  "ria": 1374,
  "ric": 1375,
  "rid": 1376,
  "rie": 1377,
  "rig": 1378,
  "ril": 1379,
  "rim": 1380,
  "rin": 1381,
  "ris": 1382,
  "rix": 1383,
  "rmd": 1384,
  "rni": 1385,
  "rob": 1386,
  "roc": 1387,
  "rod": 1388,
  "rof": 1389,
  "rog": 1390,
  "rol": 1391,
  "rom": 1392,
  "ron": 1393,
  "rop": 1394,
  "ror": 1395,
  "ros": 1396,
  "rot": 1397,
  "rov": 1398,
  "row": 1399,
  "rox": 1400,
  "roy": 1401,
  "rps": 1402,
  "rug": 1403,
  "rum": 1404,
  "rup": 1405,
  "rus": 1406,
  "ruz": 1407,
  "rxs": 1408,
  "sad": 1409,
  "sas": 1410,
  "sch": 1411,
  "sea": 1412,
  "sed": 1413,
  "seg": 1414,
  "sen": 1415,
  "ser": 1416,
  "ses": 1417,
  "sey": 1418,
  "sia": 1419,
  "sic": 1420,
  "sig": 1421,
  "sii": 1422,
  "sin": 1423,
  "sis": 1424,
  "ska": 1425,
  "ski": 1426,
  "sky": 1427,
  "sma": 1428,
  "soc": 1429,
  "sol": 1430,
  "son": 1431,
  "sor": 1432,
  "sph": 1433,
  "spr": 1434,
  "sps": 1435,
  "ste": 1436,
  "sti": 1437,
  "str": 1438,
  "sts": 1439,
  "sug": 1440,
  "sum": 1441,
  "sus": 1442,
  "syn": 1443,
  "tac": 1444,
  "taf": 1445,
  "tag": 1446,
  "tal": 1447,
  "tar": 1448,
  "tas": 1449,
  "tat": 1450,
  "tda": 1451,
  "teb": 1452,
  "ted": 1453,
  "ter": 1454,
  "tes": 1455,
  "tex": 1456,
  "the": 1457,
  "ths": 1458,
  "thy": 1459,
  "tia": 1460,
  "tib": 1461,
  "tic": 1462,
  "tid": 1463,
  "tig": 1464,
  "tii": 1465,
  "til": 1466,
  "tim": 1467,
  "tin": 1468,
  "tio": 1469,
  "tip": 1470,
  "tis": 1471,
  "tit": 1472,
  "tiv": 1473,
  "tle": 1474,
  "tns": 1475,
  "toe": 1476,
  "ton": 1477,
  "tor": 1478,
  "tox": 1479,
  "tra": 1480,
  "trd": 1481,
  "tre": 1482,
  "trh": 1483,
  "tsu": 1484,
  "tub": 1485,
  "tum": 1486,
  "tur": 1487,
  "tus": 1488,
  "tvo": 1489,
  "tys": 1490,
  "ual": 1491,
  "uan": 1492,
  "ubo": 1493,
  "ucc": 1494,
  "uce": 1495,
  "uch": 1496,
  "uck": 1497,
  "uct": 1498,
  "ude": 1499,
  "udi": 1500,
  "ueb": 1501,
  "uel": 1502,
  "uen": 1503,
  "uer": 1504,
  "ues": 1505,
  "uez": 1506,
  "uff": 1507,
  "uft": 1508,
  "uga": 1509,
  "ugh": 1510,
  "ugo": 1511,
  "ugr": 1512,
  "ugu": 1513,
  "uhr": 1514,
  "uib": 1515,
  "uis": 1516,
  "uit": 1517,
  "uji": 1518,
  "uki": 1519,
  "ula": 1520,
  "ulb": 1521,
  "ule": 1522,
  "ulf": 1523,
  "uli": 1524,
  "ull": 1525,
  "ulo": 1526,
  "ult": 1527,
  "ulz": 1528,
  "uma": 1529,
  "umb": 1530,
  "ume": 1531,
  "umm": 1532,
  "ump": 1533,
  "ums": 1534,
  "unc": 1535,
  "und": 1536,
  "une": 1537,
  "ung": 1538,
  "unk": 1539,
  "unn": 1540,
  "unt": 1541,
  "uod": 1542,
  "uor": 1543,
  "upr": 1544,
  "upt": 1545,
  "ura": 1546,
  "ure": 1547,
  "urg": 1548,
  "urn": 1549,
  "uro": 1550,
  "urr": 1551,
  "urs": 1552,
  "usa": 1553,
  "usc": 1554,
  "use": 1555,
  "ush": 1556,
  "usk": 1557,
  "uss": 1558,
  "ust": 1559,
  "uta": 1560,
  "ute": 1561,
  "uth": 1562,
  "uto": 1563,
  "utt": 1564,
  "utz": 1565,
  "uve": 1566,
  "vae": 1567,
  "vag": 1568,
  "vaj": 1569,
  "val": 1570,
  "var": 1571,
  "vas": 1572,
  "vcl": 1573,
  "vdr": 1574,
  "vel": 1575,
  "ven": 1576,
  "ver": 1577,
  "ves": 1578,
  "vet": 1579,
  "vex": 1580,
  "vic": 1581,
  "vid": 1582,
  "vie": 1583,
  "vir": 1584,
  "vis": 1585,
  "vor": 1586,
  "vrp": 1587,
  "vul": 1588,
  "vus": 1589,
  "wal": 1590,
  "war": 1591,
  "way": 1592,
  "wcr": 1593,
  "wds": 1594,
  "weg": 1595,
  "wer": 1596,
  "whe": 1597,
  "whk": 1598,
  "whs": 1599,
  "wig": 1600,
  "wim": 1601,
  "win": 1602,
  "woc": 1603,
  "wor": 1604,
  "xas": 1605,
  "xia": 1606,
  "yal": 1607,
  "yan": 1608,
  "yas": 1609,
  "yba": 1610,
  "yce": 1611,
  "ych": 1612,
  "ycl": 1613,
  "yel": 1614,
  "yen": 1615,
  "yer": 1616,
  "yes": 1617,
  "yle": 1618,
  "yll": 1619,
  "ylv": 1620,
  "yma": 1621,
  "yme": 1622,
  "yne": 1623,
  "yng": 1624,
  "ynn": 1625,
  "yns": 1626,
  "yon": 1627,
  "yos": 1628,
  "yot": 1629,
  "ype": 1630,
  "yph": 1631,
  "ypt": 1632,
  "yre": 1633,
  "ysa": 1634,
  "yse": 1635,
  "ysm": 1636,
  "ysp": 1637,
  "yst": 1638,
  "yte": 1639,
  "yth": 1640,
  "zal": 1641,
  "zar": 1642,
  "zay": 1643,
  "zel": 1644,
  "zen": 1645,
  "zer": 1646,
  "zhe": 1647,
  "zih": 1648,
  "zin": 1649,
  "zir": 1650,
  "zis": 1651,
  "zol": 1652,
  "zot": 1653,
  "zwe": 1654,
  "zyk": 1655,
  "Ġ05": 1656,
  "Ġ10": 1657,
  "Ġ11": 1658,
  "Ġ12": 1659,
  "Ġ13": 1660,
  "Ġ14": 1661,
  "Ġ15": 1662,
  "Ġ16": 1663,
  "Ġ17": 1664,
  "Ġ18": 1665,
  "Ġ19": 1666,
  "Ġ20": 1667,
  "Ġ21": 1668,
  "Ġ22": 1669,
  "Ġ23": 1670,
  "Ġ24": 1671,
  "Ġ25": 1672,
  "Ġ26": 1673,
  "Ġ27": 1674,
  "Ġ28": 1675,
  "Ġ29": 1676,
  "Ġ30": 1677,
  "Ġ31": 1678,
  "Ġ32": 1679,
  "Ġ33": 1680,
  "Ġ34": 1681,
  "Ġ35": 1682,
  "Ġ36": 1683,
  "Ġ37": 1684,
  "Ġ38": 1685,
  "Ġ39": 1686,
  "Ġ40": 1687,
  "Ġ41": 1688,
  "Ġ42": 1689,
  "Ġ43": 1690,
  "Ġ44": 1691,
  "Ġ45": 1692,
  "Ġ46": 1693,
  "Ġ47": 1694,
  "Ġ48": 1695,
  "Ġ49": 1696,
  "Ġ50": 1697,
  "Ġ51": 1698,
  "Ġ52": 1699,
  "Ġ53": 1700,
  "Ġ54": 1701,
  "Ġ55": 1702,
  "Ġ56": 1703,
  "Ġ57": 1704,
  "Ġ58": 1705,
  "Ġ59": 1706,
  "Ġ60": 1707,
  "Ġ62": 1708,
  "Ġ63": 1709,
  "Ġ65": 1710,
  "Ġ66": 1711,
  "Ġ67": 1712,
  "Ġ68": 1713,
  "Ġ70": 1714,
  "Ġ71": 1715,
  "Ġ72": 1716,
  "Ġ73": 1717,
  "Ġ74": 1718,
  "Ġ76": 1719,
  "Ġ77": 1720,
  "Ġ78": 1721,
  "Ġ79": 1722,
  "Ġ81": 1723,
  "Ġ82": 1724,
  "Ġ83": 1725,
  "Ġ84": 1726,
  "Ġ85": 1727,
  "Ġ87": 1728,
  "Ġ88": 1729,
  "Ġ89": 1730,
  "Ġ91": 1731,
  "Ġ92": 1732,
  "Ġ93": 1733,
  "Ġ94": 1734,
  "Ġ95": 1735,
  "Ġ96": 1736,
  "Ġ97": 1737,
  "Ġ98": 1738,
  "Ġaa": 1739,
  "Ġab": 1740,
  "Ġac": 1741,
  "Ġad": 1742,
  "Ġaf": 1743,
  "Ġag": 1744,
  "Ġah": 1745,
  "Ġai": 1746,
  "Ġak": 1747,
  "Ġal": 1748,
  "Ġam": 1749,
  "Ġan": 1750,
  "Ġao": 1751,
  "Ġap": 1752,
  "Ġar": 1753,
  "Ġas": 1754,
  "Ġat": 1755,
  "Ġau": 1756,
  "Ġav": 1757,
  "Ġaw": 1758,
  "Ġax": 1759,
  "Ġaz": 1760,
  "Ġba": 1761,
  "Ġbb": 1762,
  "Ġbc": 1763,
  "Ġbd": 1764,
  "Ġbe": 1765,
  "Ġbf": 1766,
  "Ġbh": 1767,
  "Ġbi": 1768,
  "Ġbl": 1769,
  "Ġbm": 1770,
  "Ġbn": 1771,
  "Ġbo": 1772,
  "Ġbp": 1773,
  "Ġbr": 1774,
  "Ġbs": 1775,
  "Ġbt": 1776,
  "Ġbu": 1777,
  "Ġca": 1778,
  "Ġcb": 1779,
  "Ġcc": 1780,
  "Ġcd": 1781,
  "Ġce": 1782,
  "Ġcf": 1783,
  "Ġcg": 1784,
  "Ġch": 1785,
  "Ġci": 1786,
  "Ġck": 1787,
  "Ġcl": 1788,
  "Ġcm": 1789,
  "Ġcn": 1790,
  "Ġco": 1791,
  "Ġcp": 1792,
  "Ġcr": 1793,
  "Ġcs": 1794,
  "Ġct": 1795,
  "Ġcx": 1796,
  "Ġcz": 1797,
  "Ġda": 1798,
  "Ġdc": 1799,
  "Ġdd": 1800,
  "Ġde": 1801,
  "Ġdf": 1802,
  "Ġdg": 1803,
  "Ġdh": 1804,
  "Ġdi": 1805,
  "Ġdj": 1806,
  "Ġdk": 1807,
  "Ġdl": 1808,
  "Ġdm": 1809,
  "Ġdn": 1810,
  "Ġdo": 1811,
  "Ġdp": 1812,
  "Ġdr": 1813,
  "Ġds": 1814,
  "Ġdt": 1815,
  "Ġdu": 1816,
  "Ġea": 1817,
  "Ġeb": 1818,
  "Ġec": 1819,
  "Ġed": 1820,
  "Ġee": 1821,
  "Ġeg": 1822,
  "Ġej": 1823,
  "Ġek": 1824,
  "Ġel": 1825,
  "Ġem": 1826,
  "Ġen": 1827,
  "Ġep": 1828,
  "Ġer": 1829,
  "Ġes": 1830,
  "Ġet": 1831,
  "Ġev": 1832,
  "Ġew": 1833,
  "Ġex": 1834,
  "Ġey": 1835,
  "Ġfa": 1836,
  "Ġfc": 1837,
  "Ġfd": 1838,
  "Ġfe": 1839,
  "Ġff": 1840,
  "Ġfg": 1841,
  "Ġfh": 1842,
  "Ġfl": 1843,
  "Ġfm": 1844,
  "Ġfo": 1845,
  "Ġfr": 1846,
  "Ġfs": 1847,
  "Ġga": 1848,
  "Ġgc": 1849,
  "Ġgd": 1850,
  "Ġge": 1851,
  "Ġgg": 1852,
  "Ġgh": 1853,
  "Ġgi": 1854,
  "Ġgk": 1855,
  "Ġgl": 1856,
  "Ġgm": 1857,
  "Ġgo": 1858,
  "Ġgp": 1859,
  "Ġgr": 1860,
  "Ġgs": 1861,
  "Ġgt": 1862,
  "Ġgu": 1863,
  "Ġha": 1864,
  "Ġhb": 1865,
  "Ġhc": 1866,
  "Ġhd": 1867,
  "Ġhe": 1868,
  "Ġhf": 1869,
  "Ġhg": 1870,
  "Ġhh": 1871,
  "Ġhi": 1872,
  "Ġhj": 1873,
  "Ġhl": 1874,
  "Ġhm": 1875,
  "Ġho": 1876,
  "Ġhp": 1877,
  "Ġhr": 1878,
  "Ġhs": 1879,
  "Ġht": 1880,
  "Ġhu": 1881,
  "Ġhz": 1882,
  "Ġia": 1883,
  "Ġib": 1884,
  "Ġic": 1885,
  "Ġid": 1886,
  "Ġie": 1887,
  "Ġif": 1888,
  "Ġig": 1889,
  "Ġih": 1890,
  "Ġii": 1891,
  "Ġij": 1892,
  "Ġik": 1893,
  "Ġil": 1894,
  "Ġim": 1895,
  "Ġin": 1896,
  "Ġio": 1897,
  "Ġip": 1898,
  "Ġiq": 1899,
  "Ġir": 1900,
  "Ġis": 1901,
  "Ġit": 1902,
  "Ġiv": 1903,
  "Ġix": 1904,
  "Ġja": 1905,
  "Ġjc": 1906,
  "Ġjh": 1907,
  "Ġjo": 1908,
  "Ġjp": 1909,
  "Ġjt": 1910,
  "Ġka": 1911,
  "Ġkb": 1912,
  "Ġke": 1913,
  "Ġkh": 1914,
  "Ġki": 1915,
  "Ġkj": 1916,
  "Ġkl": 1917,
  "Ġkn": 1918,
  "Ġko": 1919,
  "Ġkr": 1920,
  "Ġku": 1921,
  "Ġla": 1922,
  "Ġlc": 1923,
  "Ġle": 1924,
  "Ġlf": 1925,
  "Ġlg": 1926,
  "Ġlh": 1927,
  "Ġli": 1928,
  "Ġlm": 1929,
  "Ġlo": 1930,
  "Ġlp": 1931,
  "Ġlr": 1932,
  "Ġls": 1933,
  "Ġlv": 1934,
  "Ġly": 1935,
  "Ġma": 1936,
  "Ġmb": 1937,
  "Ġmc": 1938,
  "Ġmd": 1939,
  "Ġme": 1940,
  "Ġmf": 1941,
  "Ġmg": 1942,
  "Ġmh": 1943,
  "Ġmi": 1944,
  "Ġmk": 1945,
  "Ġml": 1946,
  "Ġmm": 1947,
  "Ġmn": 1948,
  "Ġmo": 1949,
  "Ġmp": 1950,
  "Ġmr": 1951,
  "Ġms": 1952,
  "Ġmt": 1953,
  "Ġmu": 1954,
  "Ġmv": 1955,
  "Ġmy": 1956,
  "Ġna": 1957,
  "Ġnb": 1958,
  "Ġnc": 1959,
  "Ġnd": 1960,
  "Ġne": 1961,
  "Ġnf": 1962,
  "Ġnh": 1963,
  "Ġni": 1964,
  "Ġnk": 1965,
  "Ġnn": 1966,
  "Ġno": 1967,
  "Ġnp": 1968,
  "Ġnr": 1969,
  "Ġns": 1970,
  "Ġnt": 1971,
  "Ġoa": 1972,
  "Ġob": 1973,
  "Ġoc": 1974,
  "Ġod": 1975,
  "Ġof": 1976,
  "Ġog": 1977,
  "Ġoh": 1978,
  "Ġoi": 1979,
  "Ġol": 1980,
  "Ġom": 1981,
  "Ġon": 1982,
  "Ġop": 1983,
  "Ġor": 1984,
  "Ġos": 1985,
  "Ġot": 1986,
  "Ġov": 1987,
  "Ġow": 1988,
  "Ġox": 1989,
  "Ġpa": 1990,
  "Ġpb": 1991,
  "Ġpc": 1992,
  "Ġpd": 1993,
  "Ġpe": 1994,
  "Ġpf": 1995,
  "Ġpg": 1996,
  "Ġph": 1997,
  "Ġpi": 1998,
  "Ġpk": 1999,
  "Ġpl": 2000,
  "Ġpm": 2001,
  "Ġpn": 2002,
  "Ġpo": 2003,
  "Ġpp": 2004,
  "Ġpr": 2005,
  "Ġps": 2006,
  "Ġpt": 2007,
  "Ġpv": 2008,
  "Ġpy": 2009,
  "Ġqt": 2010,
  "Ġqu": 2011,
  "Ġra": 2012,
  "Ġrb": 2013,
  "Ġrd": 2014,
  "Ġre": 2015,
  "Ġrf": 2016,
  "Ġrg": 2017,
  "Ġrh": 2018,
  "Ġri": 2019,
  "Ġrm": 2020,
  "Ġro": 2021,
  "Ġrp": 2022,
  "Ġrs": 2023,
  "Ġrt": 2024,
  "Ġrx": 2025,
  "Ġry": 2026,
  "Ġsa": 2027,
  "Ġsb": 2028,
  "Ġsc": 2029,
  "Ġsd": 2030,
  "Ġse": 2031,
  "Ġsf": 2032,
  "Ġsg": 2033,
  "Ġsh": 2034,
  "Ġsi": 2035,
  "Ġsj": 2036,
  "Ġsk": 2037,
  "Ġsl": 2038,
  "Ġsm": 2039,
  "Ġsn": 2040,
  "Ġso": 2041,
  "Ġsp": 2042,
  "Ġsr": 2043,
  "Ġss": 2044,
  "Ġst": 2045,
  "Ġsv": 2046,
  "Ġsw": 2047,
  "Ġta": 2048,
  "Ġtb": 2049,
  "Ġtc": 2050,
  "Ġtd": 2051,
  "Ġte": 2052,
  "Ġtf": 2053,
  "Ġtg": 2054,
  "Ġth": 2055,
  "Ġti": 2056,
  "Ġtk": 2057,
  "Ġtl": 2058,
  "Ġtm": 2059,
  "Ġtn": 2060,
  "Ġto": 2061,
  "Ġtr": 2062,
  "Ġts": 2063,
  "Ġtt": 2064,
  "Ġtw": 2065,
  "Ġty": 2066,
  "Ġub": 2067,
  "Ġuc": 2068,
  "Ġud": 2069,
  "Ġue": 2070,
  "Ġul": 2071,
  "Ġum": 2072,
  "Ġun": 2073,
  "Ġup": 2074,
  "Ġur": 2075,
  "Ġus": 2076,
  "Ġut": 2077,
  "Ġuv": 2078,
  "Ġva": 2079,
  "Ġvc": 2080,
  "Ġvd": 2081,
  "Ġve": 2082,
  "Ġvf": 2083,
  "Ġvi": 2084,
  "Ġvl": 2085,
  "Ġvm": 2086,
  "Ġvo": 2087,
  "Ġvp": 2088,
  "Ġvs": 2089,
  "Ġvw": 2090,
  "Ġvz": 2091,
  "Ġwa": 2092,
  "Ġwc": 2093,
  "Ġwd": 2094,
  "Ġwe": 2095,
  "Ġwg": 2096,
  "Ġwh": 2097,
  "Ġwl": 2098,
  "Ġwm": 2099,
  "Ġwr": 2100,
  "Ġws": 2101,
  "Ġwt": 2102,
  "Ġwu": 2103,
  "Ġxe": 2104,
  "Ġxi": 2105,
  "Ġxk": 2106,
  "Ġxl": 2107,
  "Ġxm": 2108,
  "Ġxo": 2109,
  "Ġxp": 2110,
  "Ġxq": 2111,
  "Ġxs": 2112,
  "Ġxu": 2113,
  "Ġxv": 2114,
  "Ġxx": 2115,
  "Ġxy": 2116,
  "Ġyo": 2117,
  "Ġyy": 2118,
  "Ġzd": 2119,
  "Ġzs": 2120,
  "ĠÃ¡": 2121,
  "ĠÃ¤": 2122,
  "ĠÃ¦": 2123,
  "ĠÃ§": 2124,
  "ĠÃ¨": 2125,
  "ĠÃ©": 2126,
  "ĠÃ«": 2127,
  "ĠÃ¶": 2128,
  "ĠÃ¸": 2129,
  "ĠÃ¼": 2130,
  "abas": 2131,
  "abis": 2132,
  "able": 2133,
  "abro": 2134,
  "abry": 2135,
  "acar": 2136,
  "acca": 2137,
  "acch": 2138,
  "acco": 2139,
  "acea": 2140,
  "acek": 2141,
  "acer": 2142,
  "aces": 2143,
  "acet": 2144,
  "ache": 2145,
  "achi": 2146,
  "achn": 2147,
  "acht": 2148,
  "achy": 2149,
  "acil": 2150,
  "acio": 2151,
  "acob": 2152,
  "acul": 2153,
  "acyl": 2154,
  "acyt": 2155,
  "adak": 2156,
  "adal": 2157,
  "aded": 2158,
  "adel": 2159,
  "aden": 2160,
  "ades": 2161,
  "adev": 2162,
  "adia": 2163,
  "adic": 2164,
  "adie": 2165,
  "adik": 2166,
  "adip": 2167,
  "aeri": 2168,
  "aert": 2169,
  "aeus": 2170,
  "agen": 2171,
  "ages": 2172,
  "agia": 2173,
  "agna": 2174,
  "agno": 2175,
  "agon": 2176,
  "ague": 2177,
  "aine": 2178,
  "ains": 2179,
  "aire": 2180,
  "aito": 2181,
  "ajer": 2182,
  "akeb": 2183,
  "aked": 2184,
  "aker": 2185,
  "akia": 2186,
  "akic": 2187,
  "akis": 2188,
  "akso": 2189,
  "akut": 2190,
  "alab": 2191,
  "alac": 2192,
  "alam": 2193,
  "alan": 2194,
  "alat": 2195,
  "alaz": 2196,
  "aled": 2197,
  "alen": 2198,
  "aler": 2199,
  "ales": 2200,
  "alia": 2201,
  "alid": 2202,
  "alie": 2203,
  "alit": 2204,
  "alyc": 2205,
  "amag": 2206,
  "amel": 2207,
  "amen": 2208,
  "ames": 2209,
  "amia": 2210,
  "amic": 2211,
  "amil": 2212,
  "amin": 2213,
  "amma": 2214,
  "amon": 2215,
  "amps": 2216,
  "ampt": 2217,
  "amut": 2218,
  "amyd": 2219,
  "anal": 2220,
  "ance": 2221,
  "anch": 2222,
  "ancy": 2223,
  "anda": 2224,
  "anea": 2225,
  "anec": 2226,
  "anel": 2227,
  "anes": 2228,
  "aney": 2229,
  "angi": 2230,
  "angl": 2231,
  "ania": 2232,
  "anic": 2233,
  "anil": 2234,
  "anni": 2235,
  "anol": 2236,
  "ante": 2237,
  "anth": 2238,
  "anti": 2239,
  "anub": 2240,
  "anug": 2241,
  "anur": 2242,
  "anut": 2243,
  "anyi": 2244,
  "apat": 2245,
  "apid": 2246,
  "aple": 2247,
  "apon": 2248,
  "apse": 2249,
  "apul": 2250,
  "aqtl": 2251,
  "aran": 2252,
  "aras": 2253,
  "arce": 2254,
  "arch": 2255,
  "arct": 2256,
  "ardi": 2257,
  "ardt": 2258,
  "aret": 2259,
  "arge": 2260,
  "argy": 2261,
  "aria": 2262,
  "aric": 2263,
  "arin": 2264,
  "aris": 2265,
  "aron": 2266,
  "arop": 2267,
  "arqu": 2268,
  "arse": 2269,
  "arsk": 2270,
  "arso": 2271,
  "arte": 2272,
  "arth": 2273,
  "arts": 2274,
  "artz": 2275,
  "arus": 2276,
  "aryl": 2277,
  "aryn": 2278,
  "arys": 2279,
  "arzt": 2280,
  "asal": 2281,
  "ased": 2282,
  "ases": 2283,
  "ashi": 2284,
  "asia": 2285,
  "asic": 2286,
  "asil": 2287,
  "asin": 2288,
  "asis": 2289,
  "aska": 2290,
  "asms": 2291,
  "asse": 2292,
  "assi": 2293,
  "asth": 2294,
  "astr": 2295,
  "atal": 2296,
  "atas": 2297,
  "atch": 2298,
  "ated": 2299,
  "aten": 2300,
  "ater": 2301,
  "ates": 2302,
  "athe": 2303,
  "athy": 2304,
  "atic": 2305,
  "atid": 2306,
  "atin": 2307,
  "atio": 2308,
  "atis": 2309,
  "ativ": 2310,
  "atol": 2311,
  "atom": 2312,
  "aton": 2313,
  "ator": 2314,
  "atra": 2315,
  "atri": 2316,
  "atts": 2317,
  "atum": 2318,
  "atus": 2319,
  "aude": 2320,
  "auer": 2321,
  "aund": 2322,
  "auro": 2323,
  "aval": 2324,
  "avan": 2325,
  "aved": 2326,
  "avic": 2327,
  "avik": 2328,
  "avio": 2329,
  "axes": 2330,
  "axia": 2331,
  "axis": 2332,
  "ayan": 2333,
  "ayas": 2334,
  "ayer": 2335,
  "ayne": 2336,
  "bach": 2337,
  "back": 2338,
  "bank": 2339,
  "baum": 2340,
  "beck": 2341,
  "bell": 2342,
  "berg": 2343,
  "bern": 2344,
  "bert": 2345,
  "bery": 2346,
  "best": 2347,
  "bing": 2348,
  "bite": 2349,
  "blad": 2350,
  "blas": 2351,
  "bone": 2352,
  "borg": 2353,
  "born": 2354,
  "bott": 2355,
  "bour": 2356,
  "bran": 2357,
  "bscc": 2358,
  "burg": 2359,
  "burn": 2360,
  "bury": 2361,
  "cadd": 2362,
  "calc": 2363,
  "card": 2364,
  "cari": 2365,
  "cata": 2366,
  "cend": 2367,
  "cent": 2368,
  "ceps": 2369,
  "cess": 2370,
  "chal": 2371,
  "cher": 2372,
  "chez": 2373,
  "chol": 2374,
  "chow": 2375,
  "cill": 2376,
  "clap": 2377,
  "cles": 2378,
  "cois": 2379,
  "cott": 2380,
  "crcs": 2381,
  "crew": 2382,
  "csnb": 2383,
  "csoy": 2384,
  "cule": 2385,
  "dens": 2386,
  "derh": 2387,
  "derm": 2388,
  "ding": 2389,
  "dino": 2390,
  "dnig": 2391,
  "doch": 2392,
  "dock": 2393,
  "draw": 2394,
  "drom": 2395,
  "ease": 2396,
  "east": 2397,
  "easy": 2398,
  "eaux": 2399,
  "ebec": 2400,
  "ebel": 2401,
  "ebic": 2402,
  "eble": 2403,
  "eboa": 2404,
  "ecal": 2405,
  "ecan": 2406,
  "ecch": 2407,
  "eced": 2408,
  "echt": 2409,
  "ecky": 2410,
  "ecox": 2411,
  "ects": 2412,
  "ecub": 2413,
  "edal": 2414,
  "eder": 2415,
  "edes": 2416,
  "edge": 2417,
  "edia": 2418,
  "edow": 2419,
  "edyl": 2420,
  "efer": 2421,
  "efst": 2422,
  "eful": 2423,
  "egal": 2424,
  "egel": 2425,
  "eger": 2426,
  "egon": 2427,
  "egre": 2428,
  "egtc": 2429,
  "eitz": 2430,
  "ejun": 2431,
  "eker": 2432,
  "elae": 2433,
  "elan": 2434,
  "elap": 2435,
  "eles": 2436,
  "elia": 2437,
  "elic": 2438,
  "elim": 2439,
  "elin": 2440,
  "ella": 2441,
  "elle": 2442,
  "elli": 2443,
  "ello": 2444,
  "elme": 2445,
  "elod": 2446,
  "elon": 2447,
  "elor": 2448,
  "emal": 2449,
  "eman": 2450,
  "emas": 2451,
  "emat": 2452,
  "emer": 2453,
  "emia": 2454,
  "emic": 2455,
  "emin": 2456,
  "emnd": 2457,
  "emor": 2458,
  "emuk": 2459,
  "enal": 2460,
  "enar": 2461,
  "enas": 2462,
  "ence": 2463,
  "ench": 2464,
  "ency": 2465,
  "endo": 2466,
  "endt": 2467,
  "ened": 2468,
  "ener": 2469,
  "enet": 2470,
  "eney": 2471,
  "enfl": 2472,
  "engo": 2473,
  "engr": 2474,
  "enia": 2475,
  "enic": 2476,
  "enis": 2477,
  "enke": 2478,
  "enna": 2479,
  "enne": 2480,
  "enny": 2481,
  "enow": 2482,
  "ensi": 2483,
  "ente": 2484,
  "enth": 2485,
  "enti": 2486,
  "entl": 2487,
  "ents": 2488,
  "enty": 2489,
  "enum": 2490,
  "eola": 2491,
  "eose": 2492,
  "epin": 2493,
  "epox": 2494,
  "eral": 2495,
  "eram": 2496,
  "erap": 2497,
  "eras": 2498,
  "erat": 2499,
  "ereb": 2500,
  "ered": 2501,
  "erer": 2502,
  "eres": 2503,
  "ergy": 2504,
  "erha": 2505,
  "eria": 2506,
  "eric": 2507,
  "erin": 2508,
  "eris": 2509,
  "erly": 2510,
  "eroc": 2511,
  "erod": 2512,
  "erol": 2513,
  "erom": 2514,
  "eron": 2515,
  "erop": 2516,
  "eros": 2517,
  "erup": 2518,
  "erus": 2519,
  "eryl": 2520,
  "esch": 2521,
  "eser": 2522,
  "eses": 2523,
  "eshe": 2524,
  "esia": 2525,
  "esid": 2526,
  "esis": 2527,
  "eson": 2528,
  "essa": 2529,
  "essi": 2530,
  "este": 2531,
  "esth": 2532,
  "estr": 2533,
  "esus": 2534,
  "etal": 2535,
  "etap": 2536,
  "etch": 2537,
  "eten": 2538,
  "eter": 2539,
  "etes": 2540,
  "etic": 2541,
  "etig": 2542,
  "etoj": 2543,
  "etra": 2544,
  "etsu": 2545,
  "ette": 2546,
  "etti": 2547,
  "etto": 2548,
  "etts": 2549,
  "etyl": 2550,
  "eune": 2551,
  "exia": 2552,
  "exis": 2553,
  "ezas": 2554,
  "ezia": 2555,
  "faci": 2556,
  "fans": 2557,
  "fart": 2558,
  "fava": 2559,
  "fect": 2560,
  "feet": 2561,
  "feld": 2562,
  "feri": 2563,
  "ferr": 2564,
  "fibr": 2565,
  "fied": 2566,
  "fish": 2567,
  "flow": 2568,
  "fman": 2569,
  "fold": 2570,
  "foot": 2571,
  "ford": 2572,
  "form": 2573,
  "fous": 2574,
  "fria": 2575,
  "ftds": 2576,
  "full": 2577,
  "furd": 2578,
  "gang": 2579,
  "gart": 2580,
  "germ": 2581,
  "gers": 2582,
  "ggia": 2583,
  "gian": 2584,
  "gias": 2585,
  "gins": 2586,
  "gint": 2587,
  "gish": 2588,
  "glom": 2589,
  "glot": 2590,
  "gluc": 2591,
  "glut": 2592,
  "glyc": 2593,
  "gmon": 2594,
  "gnes": 2595,
  "gnos": 2596,
  "good": 2597,
  "grad": 2598,
  "gras": 2599,
  "gren": 2600,
  "gues": 2601,
  "hans": 2602,
  "hara": 2603,
  "hart": 2604,
  "haus": 2605,
  "hder": 2606,
  "head": 2607,
  "heck": 2608,
  "heim": 2609,
  "herd": 2610,
  "hers": 2611,
  "hier": 2612,
  "hill": 2613,
  "hina": 2614,
  "hiny": 2615,
  "hiro": 2616,
  "hisc": 2617,
  "hlen": 2618,
  "hman": 2619,
  "hole": 2620,
  "holm": 2621,
  "honi": 2622,
  "horn": 2623,
  "hrig": 2624,
  "hyde": 2625,
  "iach": 2626,
  "ials": 2627,
  "iams": 2628,
  "iant": 2629,
  "iari": 2630,
  "iary": 2631,
  "iasi": 2632,
  "iast": 2633,
  "iate": 2634,
  "ibed": 2635,
  "ible": 2636,
  "ibri": 2637,
  "ical": 2638,
  "ican": 2639,
  "icap": 2640,
  "icas": 2641,
  "icco": 2642,
  "ices": 2643,
  "icit": 2644,
  "icka": 2645,
  "icke": 2646,
  "icul": 2647,
  "icus": 2648,
  "idae": 2649,
  "idal": 2650,
  "ided": 2651,
  "iden": 2652,
  "ider": 2653,
  "ides": 2654,
  "idia": 2655,
  "idin": 2656,
  "idod": 2657,
  "idou": 2658,
  "idox": 2659,
  "idum": 2660,
  "idus": 2661,
  "iejo": 2662,
  "ield": 2663,
  "iene": 2664,
  "ient": 2665,
  "iere": 2666,
  "ieri": 2667,
  "iers": 2668,
  "iest": 2669,
  "ieth": 2670,
  "iety": 2671,
  "ieur": 2672,
  "ieux": 2673,
  "ifer": 2674,
  "ific": 2675,
  "ifts": 2676,
  "ifug": 2677,
  "igae": 2678,
  "igan": 2679,
  "igar": 2680,
  "igen": 2681,
  "iger": 2682,
  "iggs": 2683,
  "ight": 2684,
  "igin": 2685,
  "igit": 2686,
  "igne": 2687,
  "igos": 2688,
  "ikar": 2689,
  "ikil": 2690,
  "ilar": 2691,
  "iled": 2692,
  "iles": 2693,
  "iley": 2694,
  "ilis": 2695,
  "illa": 2696,
  "ille": 2697,
  "illo": 2698,
  "ills": 2699,
  "ilma": 2700,
  "ilob": 2701,
  "ilon": 2702,
  "iltr": 2703,
  "imal": 2704,
  "iman": 2705,
  "imek": 2706,
  "imer": 2707,
  "imia": 2708,
  "imin": 2709,
  "imke": 2710,
  "impl": 2711,
  "inal": 2712,
  "inar": 2713,
  "inas": 2714,
  "inca": 2715,
  "inck": 2716,
  "inea": 2717,
  "ined": 2718,
  "iner": 2719,
  "ines": 2720,
  "ings": 2721,
  "ingu": 2722,
  "inia": 2723,
  "inig": 2724,
  "inos": 2725,
  "inth": 2726,
  "ints": 2727,
  "inum": 2728,
  "ioid": 2729,
  "iola": 2730,
  "ioma": 2731,
  "iomy": 2732,
  "ione": 2733,
  "ions": 2734,
  "ioph": 2735,
  "iore": 2736,
  "iork": 2737,
  "ious": 2738,
  "ipan": 2739,
  "ipar": 2740,
  "ipec": 2741,
  "iple": 2742,
  "ippl": 2743,
  "ippo": 2744,
  "ipta": 2745,
  "iqtl": 2746,
  "iral": 2747,
  "ired": 2748,
  "iria": 2749,
  "irid": 2750,
  "irin": 2751,
  "irre": 2752,
  "irrh": 2753,
  "irub": 2754,
  "irus": 2755,
  "isch": 2756,
  "ised": 2757,
  "ises": 2758,
  "isia": 2759,
  "isic": 2760,
  "isis": 2761,
  "isms": 2762,
  "ison": 2763,
  "isth": 2764,
  "isti": 2765,
  "istr": 2766,
  "ital": 2767,
  "itan": 2768,
  "itar": 2769,
  "itas": 2770,
  "itay": 2771,
  "itch": 2772,
  "ited": 2773,
  "itel": 2774,
  "iter": 2775,
  "ites": 2776,
  "itic": 2777,
  "itil": 2778,
  "itin": 2779,
  "itis": 2780,
  "itiv": 2781,
  "itob": 2782,
  "itol": 2783,
  "iton": 2784,
  "itor": 2785,
  "itri": 2786,
  "itte": 2787,
  "itud": 2788,
  "itum": 2789,
  "itus": 2790,
  "ival": 2791,
  "iver": 2792,
  "ixed": 2793,
  "izar": 2794,
  "ized": 2795,
  "izin": 2796,
  "izos": 2797,
  "jald": 2798,
  "jeac": 2799,
  "joen": 2800,
  "jorn": 2801,
  "junc": 2802,
  "kall": 2803,
  "kawa": 2804,
  "kcfd": 2805,
  "kele": 2806,
  "kell": 2807,
  "kens": 2808,
  "kers": 2809,
  "keys": 2810,
  "kill": 2811,
  "king": 2812,
  "kins": 2813,
  "kist": 2814,
  "koff": 2815,
  "korn": 2816,
  "kott": 2817,
  "lagh": 2818,
  "lamm": 2819,
  "lamp": 2820,
  "land": 2821,
  "lane": 2822,
  "lang": 2823,
  "lans": 2824,
  "lant": 2825,
  "larg": 2826,
  "lase": 2827,
  "leaf": 2828,
  "lear": 2829,
  "lect": 2830,
  "leda": 2831,
  "ledo": 2832,
  "left": 2833,
  "leid": 2834,
  "lein": 2835,
  "leis": 2836,
  "lele": 2837,
  "lend": 2838,
  "lenh": 2839,
  "leph": 2840,
  "lepp": 2841,
  "lers": 2842,
  "less": 2843,
  "leuk": 2844,
  "levo": 2845,
  "lexy": 2846,
  "lhof": 2847,
  "lica": 2848,
  "lich": 2849,
  "lick": 2850,
  "liel": 2851,
  "like": 2852,
  "line": 2853,
  "ling": 2854,
  "lipp": 2855,
  "lism": 2856,
  "litz": 2857,
  "lman": 2858,
  "loch": 2859,
  "lody": 2860,
  "loid": 2861,
  "long": 2862,
  "lory": 2863,
  "loss": 2864,
  "lson": 2865,
  "lund": 2866,
  "lyan": 2867,
  "lyte": 2868,
  "mall": 2869,
  "mani": 2870,
  "mann": 2871,
  "mans": 2872,
  "maul": 2873,
  "mens": 2874,
  "ment": 2875,
  "mers": 2876,
  "mess": 2877,
  "mias": 2878,
  "mill": 2879,
  "mish": 2880,
  "mium": 2881,
  "mmal": 2882,
  "mnst": 2883,
  "moad": 2884,
  "mond": 2885,
  "msen": 2886,
  "mund": 2887,
  "myel": 2888,
  "nair": 2889,
  "nall": 2890,
  "nanc": 2891,
  "nant": 2892,
  "nars": 2893,
  "nath": 2894,
  "nati": 2895,
  "neas": 2896,
  "neau": 2897,
  "neff": 2898,
  "nell": 2899,
  "neph": 2900,
  "neri": 2901,
  "ners": 2902,
  "ness": 2903,
  "neum": 2904,
  "neys": 2905,
  "nian": 2906,
  "nica": 2907,
  "nick": 2908,
  "nier": 2909,
  "niew": 2910,
  "ning": 2911,
  "nios": 2912,
  "nith": 2913,
  "niti": 2914,
  "noea": 2915,
  "nold": 2916,
  "nsen": 2917,
  "oast": 2918,
  "obac": 2919,
  "obar": 2920,
  "obia": 2921,
  "obil": 2922,
  "obut": 2923,
  "ocal": 2924,
  "ocar": 2925,
  "occl": 2926,
  "ocin": 2927,
  "ocki": 2928,
  "ocon": 2929,
  "ocul": 2930,
  "ocys": 2931,
  "ocyt": 2932,
  "odal": 2933,
  "oded": 2934,
  "odef": 2935,
  "odep": 2936,
  "odes": 2937,
  "odev": 2938,
  "odia": 2939,
  "odic": 2940,
  "odig": 2941,
  "odis": 2942,
  "odon": 2943,
  "odor": 2944,
  "odyn": 2945,
  "odys": 2946,
  "oeck": 2947,
  "oect": 2948,
  "oeic": 2949,
  "oese": 2950,
  "oeth": 2951,
  "ofac": 2952,
  "ofer": 2953,
  "ofib": 2954,
  "ofol": 2955,
  "ogen": 2956,
  "ogic": 2957,
  "ogly": 2958,
  "ohat": 2959,
  "ohem": 2960,
  "ohep": 2961,
  "ohex": 2962,
  "ohue": 2963,
  "ohum": 2964,
  "ohyd": 2965,
  "ohyp": 2966,
  "oias": 2967,
  "oids": 2968,
  "okal": 2969,
  "oked": 2970,
  "okes": 2971,
  "okpp": 2972,
  "olab": 2973,
  "olar": 2974,
  "oldi": 2975,
  "olen": 2976,
  "olep": 2977,
  "oler": 2978,
  "oles": 2979,
  "oley": 2980,
  "olia": 2981,
  "olic": 2982,
  "olin": 2983,
  "olip": 2984,
  "olog": 2985,
  "olon": 2986,
  "olor": 2987,
  "olus": 2988,
  "olyl": 2989,
  "olys": 2990,
  "omac": 2991,
  "omad": 2992,
  "omal": 2993,
  "oman": 2994,
  "omas": 2995,
  "omat": 2996,
  "omed": 2997,
  "omeg": 2998,
  "omel": 2999,
  "omen": 3000,
  "omer": 3001,
  "omes": 3002,
  "omet": 3003,
  "omez": 3004,
  "omfc": 3005,
  "omia": 3006,
  "omic": 3007,
  "omid": 3008,
  "omon": 3009,
  "omst": 3010,
  "omuc": 3011,
  "omur": 3012,
  "omus": 3013,
  "omyc": 3014,
  "omyx": 3015,
  "onad": 3016,
  "onal": 3017,
  "onas": 3018,
  "onch": 3019,
  "onda": 3020,
  "onec": 3021,
  "ones": 3022,
  "oney": 3023,
  "onia": 3024,
  "onic": 3025,
  "onig": 3026,
  "onim": 3027,
  "onin": 3028,
  "onit": 3029,
  "onne": 3030,
  "onus": 3031,
  "onyl": 3032,
  "onym": 3033,
  "onys": 3034,
  "oomy": 3035,
  "oood": 3036,
  "opal": 3037,
  "opap": 3038,
  "opar": 3039,
  "opec": 3040,
  "opel": 3041,
  "opia": 3042,
  "opic": 3043,
  "opid": 3044,
  "ople": 3045,
  "opod": 3046,
  "opol": 3047,
  "oppy": 3048,
  "opro": 3049,
  "opsi": 3050,
  "opsy": 3051,
  "opur": 3052,
  "opyr": 3053,
  "opys": 3054,
  "orac": 3055,
  "orad": 3056,
  "oral": 3057,
  "oram": 3058,
  "orax": 3059,
  "orch": 3060,
  "ored": 3061,
  "oreg": 3062,
  "orff": 3063,
  "orge": 3064,
  "orhe": 3065,
  "oria": 3066,
  "oric": 3067,
  "orid": 3068,
  "orie": 3069,
  "orif": 3070,
  "orin": 3071,
  "oris": 3072,
  "orod": 3073,
  "orof": 3074,
  "oron": 3075,
  "oros": 3076,
  "orph": 3077,
  "orrh": 3078,
  "orst": 3079,
  "orth": 3080,
  "orum": 3081,
  "orus": 3082,
  "osal": 3083,
  "osas": 3084,
  "osca": 3085,
  "osch": 3086,
  "oser": 3087,
  "oses": 3088,
  "oshs": 3089,
  "osil": 3090,
  "osin": 3091,
  "osis": 3092,
  "osom": 3093,
  "osph": 3094,
  "oste": 3095,
  "osth": 3096,
  "osti": 3097,
  "ostr": 3098,
  "osud": 3099,
  "osum": 3100,
  "osup": 3101,
  "osus": 3102,
  "osut": 3103,
  "osyl": 3104,
  "osyn": 3105,
  "otal": 3106,
  "otch": 3107,
  "otel": 3108,
  "otes": 3109,
  "othi": 3110,
  "othy": 3111,
  "otia": 3112,
  "otic": 3113,
  "otil": 3114,
  "otor": 3115,
  "otos": 3116,
  "otox": 3117,
  "otri": 3118,
  "otte": 3119,
  "otti": 3120,
  "otto": 3121,
  "otyp": 3122,
  "ouch": 3123,
  "oude": 3124,
  "ough": 3125,
  "ouin": 3126,
  "ound": 3127,
  "oure": 3128,
  "ouri": 3129,
  "oury": 3130,
  "ouse": 3131,
  "ouzy": 3132,
  "ovag": 3133,
  "oval": 3134,
  "oven": 3135,
  "over": 3136,
  "oves": 3137,
  "ovic": 3138,
  "ovoy": 3139,
  "oway": 3140,
  "oxan": 3141,
  "oxia": 3142,
  "oxic": 3143,
  "oxyl": 3144,
  "oyan": 3145,
  "ozoa": 3146,
  "pain": 3147,
  "pase": 3148,
  "past": 3149,
  "path": 3150,
  "pect": 3151,
  "perc": 3152,
  "pers": 3153,
  "pest": 3154,
  "phal": 3155,
  "phan": 3156,
  "phar": 3157,
  "phas": 3158,
  "phen": 3159,
  "phet": 3160,
  "phia": 3161,
  "phig": 3162,
  "phol": 3163,
  "phos": 3164,
  "phot": 3165,
  "phys": 3166,
  "phyx": 3167,
  "ping": 3168,
  "piss": 3169,
  "plas": 3170,
  "pled": 3171,
  "pock": 3172,
  "poni": 3173,
  "port": 3174,
  "pped": 3175,
  "pric": 3176,
  "ptic": 3177,
  "pure": 3178,
  "qeel": 3179,
  "quam": 3180,
  "quat": 3181,
  "quez": 3182,
  "quin": 3183,
  "rach": 3184,
  "ract": 3185,
  "rade": 3186,
  "radi": 3187,
  "raft": 3188,
  "rage": 3189,
  "rain": 3190,
  "ranc": 3191,
  "rand": 3192,
  "rang": 3193,
  "rani": 3194,
  "rans": 3195,
  "rant": 3196,
  "raph": 3197,
  "raqu": 3198,
  "rase": 3199,
  "rata": 3200,
  "rate": 3201,
  "raum": 3202,
  "rave": 3203,
  "read": 3204,
  "real": 3205,
  "reas": 3206,
  "rect": 3207,
  "rein": 3208,
  "rell": 3209,
  "rema": 3210,
  "rens": 3211,
  "rets": 3212,
  "riac": 3213,
  "rial": 3214,
  "rias": 3215,
  "rica": 3216,
  "rich": 3217,
  "rier": 3218,
  "ries": 3219,
  "rile": 3220,
  "rine": 3221,
  "ring": 3222,
  "rion": 3223,
  "rism": 3224,
  "rist": 3225,
  "rity": 3226,
  "ritz": 3227,
  "rium": 3228,
  "robi": 3229,
  "roch": 3230,
  "roet": 3231,
  "roff": 3232,
  "rogl": 3233,
  "rogr": 3234,
  "roid": 3235,
  "roin": 3236,
  "role": 3237,
  "roli": 3238,
  "roma": 3239,
  "romb": 3240,
  "romy": 3241,
  "rone": 3242,
  "rong": 3243,
  "rons": 3244,
  "ront": 3245,
  "rony": 3246,
  "rool": 3247,
  "room": 3248,
  "root": 3249,
  "roph": 3250,
  "ropo": 3251,
  "rops": 3252,
  "rose": 3253,
  "rosi": 3254,
  "rosp": 3255,
  "ross": 3256,
  "rost": 3257,
  "rosy": 3258,
  "rote": 3259,
  "roti": 3260,
  "roup": 3261,
  "rous": 3262,
  "roux": 3263,
  "rown": 3264,
  "roxy": 3265,
  "royl": 3266,
  "roys": 3267,
  "rpdc": 3268,
  "rtfn": 3269,
  "ruch": 3270,
  "ruct": 3271,
  "ruff": 3272,
  "rums": 3273,
  "rune": 3274,
  "rush": 3275,
  "ryst": 3276,
  "sack": 3277,
  "sala": 3278,
  "sang": 3279,
  "sant": 3280,
  "seal": 3281,
  "seau": 3282,
  "send": 3283,
  "sens": 3284,
  "seud": 3285,
  "ship": 3286,
  "shot": 3287,
  "sian": 3288,
  "sias": 3289,
  "sidi": 3290,
  "siek": 3291,
  "sier": 3292,
  "sies": 3293,
  "sigh": 3294,
  "sile": 3295,
  "simm": 3296,
  "sion": 3297,
  "sius": 3298,
  "sive": 3299,
  "slen": 3300,
  "sman": 3301,
  "solf": 3302,
  "sons": 3303,
  "sore": 3304,
  "sous": 3305,
  "sson": 3306,
  "stad": 3307,
  "ster": 3308,
  "ston": 3309,
  "stro": 3310,
  "stwk": 3311,
  "subo": 3312,
  "suit": 3313,
  "sumi": 3314,
  "sums": 3315,
  "sych": 3316,
  "tamy": 3317,
  "tase": 3318,
  "teal": 3319,
  "teen": 3320,
  "tegr": 3321,
  "tein": 3322,
  "tely": 3323,
  "tend": 3324,
  "tern": 3325,
  "ters": 3326,
  "tery": 3327,
  "teur": 3328,
  "teus": 3329,
  "thal": 3330,
  "thec": 3331,
  "ther": 3332,
  "thes": 3333,
  "thew": 3334,
  "thio": 3335,
  "thle": 3336,
  "tial": 3337,
  "tian": 3338,
  "tias": 3339,
  "tica": 3340,
  "tick": 3341,
  "tide": 3342,
  "tier": 3343,
  "ties": 3344,
  "tile": 3345,
  "till": 3346,
  "tilo": 3347,
  "time": 3348,
  "tine": 3349,
  "ting": 3350,
  "tion": 3351,
  "tish": 3352,
  "tism": 3353,
  "tits": 3354,
  "tium": 3355,
  "tive": 3356,
  "tles": 3357,
  "tman": 3358,
  "toes": 3359,
  "toid": 3360,
  "tomy": 3361,
  "tons": 3362,
  "tose": 3363,
  "tous": 3364,
  "tren": 3365,
  "tric": 3366,
  "trom": 3367,
  "truc": 3368,
  "tson": 3369,
  "tter": 3370,
  "turb": 3371,
  "tuss": 3372,
  "tvoy": 3373,
  "uage": 3374,
  "uana": 3375,
  "uans": 3376,
  "uate": 3377,
  "ubak": 3378,
  "ubal": 3379,
  "uber": 3380,
  "uble": 3381,
  "ucci": 3382,
  "uchi": 3383,
  "ucle": 3384,
  "uded": 3385,
  "uder": 3386,
  "udts": 3387,
  "uedo": 3388,
  "uegh": 3389,
  "uemp": 3390,
  "uene": 3391,
  "uent": 3392,
  "uert": 3393,
  "uffo": 3394,
  "uffy": 3395,
  "uign": 3396,
  "uill": 3397,
  "uise": 3398,
  "uity": 3399,
  "uium": 3400,
  "ukes": 3401,
  "ulam": 3402,
  "ular": 3403,
  "ulas": 3404,
  "ules": 3405,
  "ulin": 3406,
  "ully": 3407,
  "ulop": 3408,
  "ultr": 3409,
  "ulty": 3410,
  "ulus": 3411,
  "umar": 3412,
  "umin": 3413,
  "umor": 3414,
  "unar": 3415,
  "unay": 3416,
  "unct": 3417,
  "uneb": 3418,
  "unia": 3419,
  "unis": 3420,
  "unit": 3421,
  "unta": 3422,
  "unts": 3423,
  "unya": 3424,
  "unze": 3425,
  "uori": 3426,
  "uosp": 3427,
  "uous": 3428,
  "uper": 3429,
  "uple": 3430,
  "ural": 3431,
  "uran": 3432,
  "uray": 3433,
  "urea": 3434,
  "ured": 3435,
  "ures": 3436,
  "uret": 3437,
  "urge": 3438,
  "uria": 3439,
  "uric": 3440,
  "urid": 3441,
  "uris": 3442,
  "urom": 3443,
  "uron": 3444,
  "urop": 3445,
  "urri": 3446,
  "urse": 3447,
  "urth": 3448,
  "urus": 3449,
  "usal": 3450,
  "usch": 3451,
  "user": 3452,
  "uses": 3453,
  "usia": 3454,
  "usis": 3455,
  "usiv": 3456,
  "uska": 3457,
  "uson": 3458,
  "usor": 3459,
  "ussi": 3460,
  "uste": 3461,
  "ustr": 3462,
  "utam": 3463,
  "utch": 3464,
  "uted": 3465,
  "utel": 3466,
  "uter": 3467,
  "utes": 3468,
  "utis": 3469,
  "utka": 3470,
  "uton": 3471,
  "utra": 3472,
  "uzio": 3473,
  "vall": 3474,
  "vanc": 3475,
  "vasc": 3476,
  "veal": 3477,
  "veld": 3478,
  "vely": 3479,
  "vens": 3480,
  "vern": 3481,
  "vers": 3482,
  "veux": 3483,
  "vine": 3484,
  "vior": 3485,
  "wair": 3486,
  "wait": 3487,
  "wang": 3488,
  "ward": 3489,
  "wart": 3490,
  "wash": 3491,
  "wean": 3492,
  "weed": 3493,
  "ween": 3494,
  "well": 3495,
  "wick": 3496,
  "will": 3497,
  "wise": 3498,
  "with": 3499,
  "witz": 3500,
  "worm": 3501,
  "xial": 3502,
  "xias": 3503,
  "xill": 3504,
  "xtas": 3505,
  "xual": 3506,
  "yamo": 3507,
  "yane": 3508,
  "yant": 3509,
  "yazi": 3510,
  "yder": 3511,
  "ydii": 3512,
  "yers": 3513,
  "yeur": 3514,
  "ygia": 3515,
  "yhan": 3516,
  "ying": 3517,
  "ykes": 3518,
  "ykin": 3519,
  "ylan": 3520,
  "yler": 3521,
  "ylia": 3522,
  "ylic": 3523,
  "ylid": 3524,
  "ylli": 3525,
  "ylor": 3526,
  "ylys": 3527,
  "ymae": 3528,
  "ymal": 3529,
  "yman": 3530,
  "ymas": 3531,
  "ymen": 3532,
  "ymes": 3533,
  "ymic": 3534,
  "ymph": 3535,
  "ynah": 3536,
  "ynch": 3537,
  "yneb": 3538,
  "ynth": 3539,
  "ynur": 3540,
  "ypan": 3541,
  "ypox": 3542,
  "ypsc": 3543,
  "ypsy": 3544,
  "yral": 3545,
  "yria": 3546,
  "yric": 3547,
  "yrim": 3548,
  "yrin": 3549,
  "yron": 3550,
  "yros": 3551,
  "yryl": 3552,
  "yses": 3553,
  "ysip": 3554,
  "ysis": 3555,
  "yssp": 3556,
  "ythm": 3557,
  "ytia": 3558,
  "ytic": 3559,
  "yuan": 3560,
  "zani": 3561,
  "zell": 3562,
  "zena": 3563,
  "zgre": 3564,
  "zhev": 3565,
  "zinc": 3566,
  "zing": 3567,
  "zlow": 3568,
  "zole": 3569,
  "zoon": 3570,
  "Ġ000": 3571,
  "Ġ001": 3572,
  "Ġ100": 3573,
  "Ġ115": 3574,
  "Ġ135": 3575,
  "Ġ180": 3576,
  "Ġ200": 3577,
  "Ġ229": 3578,
  "Ġ256": 3579,
  "Ġ260": 3580,
  "Ġ388": 3581,
  "Ġ450": 3582,
  "Ġ593": 3583,
  "Ġ614": 3584,
  "Ġ711": 3585,
  "Ġaaa": 3586,
  "Ġaab": 3587,
  "Ġaad": 3588,
  "Ġaap": 3589,
  "Ġaar": 3590,
  "Ġaas": 3591,
  "Ġaat": 3592,
  "Ġabb": 3593,
  "Ġabc": 3594,
  "Ġabd": 3595,
  "Ġabl": 3596,
  "Ġabs": 3597,
  "Ġaca": 3598,
  "Ġacc": 3599,
  "Ġacd": 3600,
  "Ġacf": 3601,
  "Ġacg": 3602,
  "Ġach": 3603,
  "Ġacl": 3604,
  "Ġacn": 3605,
  "Ġacp": 3606,
  "Ġacs": 3607,
  "Ġacv": 3608,
  "Ġacy": 3609,
  "Ġada": 3610,
  "Ġadd": 3611,
  "Ġadh": 3612,
  "Ġadj": 3613,
  "Ġadm": 3614,
  "Ġadn": 3615,
  "Ġadp": 3616,
  "Ġadr": 3617,
  "Ġadt": 3618,
  "Ġaec": 3619,
  "Ġaeg": 3620,
  "Ġaei": 3621,
  "Ġaem": 3622,
  "Ġaex": 3623,
  "Ġaez": 3624,
  "Ġafa": 3625,
  "Ġafd": 3626,
  "Ġaff": 3627,
  "Ġaga": 3628,
  "Ġagc": 3629,
  "Ġage": 3630,
  "Ġagg": 3631,
  "Ġagl": 3632,
  "Ġagm": 3633,
  "Ġagr": 3634,
  "Ġags": 3635,
  "Ġagt": 3636,
  "Ġagu": 3637,
  "Ġahc": 3638,
  "Ġahd": 3639,
  "Ġahh": 3640,
  "Ġahm": 3641,
  "Ġahx": 3642,
  "Ġaic": 3643,
  "Ġaih": 3644,
  "Ġaim": 3645,
  "Ġaip": 3646,
  "Ġair": 3647,
  "Ġais": 3648,
  "Ġait": 3649,
  "Ġaiv": 3650,
  "Ġaks": 3651,
  "Ġaku": 3652,
  "Ġakv": 3653,
  "Ġalb": 3654,
  "Ġalc": 3655,
  "Ġald": 3656,
  "Ġalg": 3657,
  "Ġali": 3658,
  "Ġalk": 3659,
  "Ġall": 3660,
  "Ġalp": 3661,
  "Ġals": 3662,
  "Ġamb": 3663,
  "Ġamc": 3664,
  "Ġamd": 3665,
  "Ġami": 3666,
  "Ġaml": 3667,
  "Ġamn": 3668,
  "Ġamo": 3669,
  "Ġamp": 3670,
  "Ġamr": 3671,
  "Ġamy": 3672,
  "Ġana": 3673,
  "Ġanc": 3674,
  "Ġand": 3675,
  "Ġane": 3676,
  "Ġang": 3677,
  "Ġanh": 3678,
  "Ġani": 3679,
  "Ġank": 3680,
  "Ġanl": 3681,
  "Ġanm": 3682,
  "Ġann": 3683,
  "Ġano": 3684,
  "Ġans": 3685,
  "Ġant": 3686,
  "Ġanx": 3687,
  "Ġaoa": 3688,
  "Ġaof": 3689,
  "Ġaoi": 3690,
  "Ġaom": 3691,
  "Ġaor": 3692,
  "Ġaos": 3693,
  "Ġaov": 3694,
  "Ġapc": 3695,
  "Ġapd": 3696,
  "Ġape": 3697,
  "Ġaph": 3698,
  "Ġapo": 3699,
  "Ġapp": 3700,
  "Ġaps": 3701,
  "Ġaqu": 3702,
  "Ġarb": 3703,
  "Ġarc": 3704,
  "Ġard": 3705,
  "Ġare": 3706,
  "Ġarg": 3707,
  "Ġarh": 3708,
  "Ġari": 3709,
  "Ġarm": 3710,
  "Ġarr": 3711,
  "Ġars": 3712,
  "Ġarv": 3713,
  "Ġarx": 3714,
  "Ġasa": 3715,
  "Ġasc": 3716,
  "Ġasd": 3717,
  "Ġasg": 3718,
  "Ġash": 3719,
  "Ġasl": 3720,
  "Ġasp": 3721,
  "Ġass": 3722,
  "Ġast": 3723,
  "Ġata": 3724,
  "Ġatc": 3725,
  "Ġatd": 3726,
  "Ġate": 3727,
  "Ġath": 3728,
  "Ġatn": 3729,
  "Ġatp": 3730,
  "Ġatr": 3731,
  "Ġats": 3732,
  "Ġatt": 3733,
  "Ġaud": 3734,
  "Ġauj": 3735,
  "Ġaun": 3736,
  "Ġaur": 3737,
  "Ġaus": 3738,
  "Ġaut": 3739,
  "Ġavc": 3740,
  "Ġavm": 3741,
  "Ġaws": 3742,
  "Ġazf": 3743,
  "Ġazo": 3744,
  "Ġbab": 3745,
  "Ġbac": 3746,
  "Ġbad": 3747,
  "Ġbaf": 3748,
  "Ġbag": 3749,
  "Ġbah": 3750,
  "Ġbal": 3751,
  "Ġbam": 3752,
  "Ġbar": 3753,
  "Ġbas": 3754,
  "Ġbav": 3755,
  "Ġbaz": 3756,
  "Ġbbb": 3757,
  "Ġbbs": 3758,
  "Ġbcc": 3759,
  "Ġbcd": 3760,
  "Ġbcg": 3761,
  "Ġbch": 3762,
  "Ġbcl": 3763,
  "Ġbcm": 3764,
  "Ġbcr": 3765,
  "Ġbcs": 3766,
  "Ġbda": 3767,
  "Ġbdb": 3768,
  "Ġbdc": 3769,
  "Ġbdd": 3770,
  "Ġbde": 3771,
  "Ġbdm": 3772,
  "Ġbds": 3773,
  "Ġbea": 3774,
  "Ġbed": 3775,
  "Ġbeg": 3776,
  "Ġbeh": 3777,
  "Ġbej": 3778,
  "Ġbel": 3779,
  "Ġben": 3780,
  "Ġber": 3781,
  "Ġbes": 3782,
  "Ġbet": 3783,
  "Ġbfh": 3784,
  "Ġbgs": 3785,
  "Ġbhc": 3786,
  "Ġbib": 3787,
  "Ġbic": 3788,
  "Ġbie": 3789,
  "Ġbif": 3790,
  "Ġbig": 3791,
  "Ġbil": 3792,
  "Ġbin": 3793,
  "Ġbio": 3794,
  "Ġbir": 3795,
  "Ġbit": 3796,
  "Ġbiv": 3797,
  "Ġbix": 3798,
  "Ġbjs": 3799,
  "Ġble": 3800,
  "Ġblm": 3801,
  "Ġblo": 3802,
  "Ġbls": 3803,
  "Ġblu": 3804,
  "Ġblv": 3805,
  "Ġbmn": 3806,
  "Ġbob": 3807,
  "Ġboc": 3808,
  "Ġbod": 3809,
  "Ġbof": 3810,
  "Ġbog": 3811,
  "Ġboh": 3812,
  "Ġbol": 3813,
  "Ġbon": 3814,
  "Ġbor": 3815,
  "Ġbos": 3816,
  "Ġbot": 3817,
  "Ġbov": 3818,
  "Ġbow": 3819,
  "Ġboy": 3820,
  "Ġbpp": 3821,
  "Ġbra": 3822,
  "Ġbre": 3823,
  "Ġbro": 3824,
  "Ġbrv": 3825,
  "Ġbse": 3826,
  "Ġbss": 3827,
  "Ġbst": 3828,
  "Ġbtd": 3829,
  "Ġbtk": 3830,
  "Ġbtp": 3831,
  "Ġbub": 3832,
  "Ġbuc": 3833,
  "Ġbud": 3834,
  "Ġbul": 3835,
  "Ġbun": 3836,
  "Ġbur": 3837,
  "Ġbut": 3838,
  "Ġbuz": 3839,
  "Ġbvv": 3840,
  "Ġbwc": 3841,
  "Ġbws": 3842,
  "Ġbys": 3843,
  "Ġbyw": 3844,
  "Ġbzs": 3845,
  "Ġbzx": 3846,
  "Ġcaa": 3847,
  "Ġcab": 3848,
  "Ġcac": 3849,
  "Ġcad": 3850,
  "Ġcae": 3851,
  "Ġcaf": 3852,
  "Ġcah": 3853,
  "Ġcal": 3854,
  "Ġcam": 3855,
  "Ġcan": 3856,
  "Ġcap": 3857,
  "Ġcaq": 3858,
  "Ġcar": 3859,
  "Ġcas": 3860,
  "Ġcat": 3861,
  "Ġcav": 3862,
  "Ġcbb": 3863,
  "Ġcbd": 3864,
  "Ġcbg": 3865,
  "Ġcbl": 3866,
  "Ġcbp": 3867,
  "Ġcbs": 3868,
  "Ġcbt": 3869,
  "Ġcbx": 3870,
  "Ġcca": 3871,
  "Ġccc": 3872,
  "Ġccf": 3873,
  "Ġcch": 3874,
  "Ġccl": 3875,
  "Ġccm": 3876,
  "Ġcco": 3877,
  "Ġccs": 3878,
  "Ġcct": 3879,
  "Ġccv": 3880,
  "Ġcda": 3881,
  "Ġcdb": 3882,
  "Ġcdg": 3883,
  "Ġcdh": 3884,
  "Ġcdi": 3885,
  "Ġcdl": 3886,
  "Ġcdo": 3887,
  "Ġcdr": 3888,
  "Ġcds": 3889,
  "Ġcdt": 3890,
  "Ġceb": 3891,
  "Ġcec": 3892,
  "Ġced": 3893,
  "Ġcel": 3894,
  "Ġcem": 3895,
  "Ġcen": 3896,
  "Ġcep": 3897,
  "Ġcer": 3898,
  "Ġces": 3899,
  "Ġcet": 3900,
  "Ġcfc": 3901,
  "Ġcfd": 3902,
  "Ġcfe": 3903,
  "Ġcfh": 3904,
  "Ġcfm": 3905,
  "Ġcft": 3906,
  "Ġcgd": 3907,
  "Ġcge": 3908,
  "Ġcgf": 3909,
  "Ġcgh": 3910,
  "Ġcgl": 3911,
  "Ġcha": 3912,
  "Ġche": 3913,
  "Ġchh": 3914,
  "Ġchl": 3915,
  "Ġchn": 3916,
  "Ġchr": 3917,
  "Ġchs": 3918,
  "Ġcic": 3919,
  "Ġcid": 3920,
  "Ġcie": 3921,
  "Ġcil": 3922,
  "Ġcim": 3923,
  "Ġcio": 3924,
  "Ġcip": 3925,
  "Ġcir": 3926,
  "Ġcis": 3927,
  "Ġcjd": 3928,
  "Ġcjm": 3929,
  "Ġcle": 3930,
  "Ġclf": 3931,
  "Ġcll": 3932,
  "Ġcln": 3933,
  "Ġclo": 3934,
  "Ġcls": 3935,
  "Ġcmc": 3936,
  "Ġcmd": 3937,
  "Ġcmh": 3938,
  "Ġcml": 3939,
  "Ġcmm": 3940,
  "Ġcmo": 3941,
  "Ġcms": 3942,
  "Ġcmt": 3943,
  "Ġcna": 3944,
  "Ġcnc": 3945,
  "Ġcnd": 3946,
  "Ġcnf": 3947,
  "Ġcnm": 3948,
  "Ġcnp": 3949,
  "Ġcns": 3950,
  "Ġcoa": 3951,
  "Ġcob": 3952,
  "Ġcoc": 3953,
  "Ġcod": 3954,
  "Ġcoe": 3955,
  "Ġcof": 3956,
  "Ġcog": 3957,
  "Ġcoh": 3958,
  "Ġcoi": 3959,
  "Ġcol": 3960,
  "Ġcom": 3961,
  "Ġcon": 3962,
  "Ġcop": 3963,
  "Ġcoq": 3964,
  "Ġcor": 3965,
  "Ġcot": 3966,
  "Ġcow": 3967,
  "Ġcox": 3968,
  "Ġcpc": 3969,
  "Ġcpd": 3970,
  "Ġcph": 3971,
  "Ġcpi": 3972,
  "Ġcpk": 3973,
  "Ġcpl": 3974,
  "Ġcpo": 3975,
  "Ġcpp": 3976,
  "Ġcps": 3977,
  "Ġcpt": 3978,
  "Ġcpx": 3979,
  "Ġcrb": 3980,
  "Ġcrc": 3981,
  "Ġcrd": 3982,
  "Ġcre": 3983,
  "Ġcri": 3984,
  "Ġcro": 3985,
  "Ġcrs": 3986,
  "Ġcrv": 3987,
  "Ġcry": 3988,
  "Ġcsa": 3989,
  "Ġcsd": 3990,
  "Ġcse": 3991,
  "Ġcsf": 3992,
  "Ġcst": 3993,
  "Ġcta": 3994,
  "Ġcte": 3995,
  "Ġcth": 3996,
  "Ġctl": 3997,
  "Ġctm": 3998,
  "Ġctr": 3999,
  "Ġcts": 4000,
  "Ġctx": 4001,
  "Ġcub": 4002,
  "Ġcud": 4003,
  "Ġcum": 4004,
  "Ġcup": 4005,
  "Ġcur": 4006,
  "Ġcut": 4007,
  "Ġcva": 4008,
  "Ġcvd": 4009,
  "Ġcvs": 4010,
  "Ġcvt": 4011,
  "Ġcws": 4012,
  "Ġcxb": 4013,
  "Ġcxn": 4014,
  "Ġcyc": 4015,
  "Ġcyl": 4016,
  "Ġcym": 4017,
  "Ġcyp": 4018,
  "Ġcys": 4019,
  "Ġcyt": 4020,
  "Ġczp": 4021,
  "Ġdac": 4022,
  "Ġdag": 4023,
  "Ġdai": 4024,
  "Ġdal": 4025,
  "Ġdam": 4026,
  "Ġdan": 4027,
  "Ġdap": 4028,
  "Ġdar": 4029,
  "Ġdau": 4030,
  "Ġdav": 4031,
  "Ġdax": 4032,
  "Ġday": 4033,
  "Ġdba": 4034,
  "Ġdbm": 4035,
  "Ġdbp": 4036,
  "Ġdbq": 4037,
  "Ġdbs": 4038,
  "Ġdcb": 4039,
  "Ġdco": 4040,
  "Ġdcr": 4041,
  "Ġdcs": 4042,
  "Ġddc": 4043,
  "Ġddd": 4044,
  "Ġddh": 4045,
  "Ġddp": 4046,
  "Ġddu": 4047,
  "Ġdeb": 4048,
  "Ġdec": 4049,
  "Ġded": 4050,
  "Ġdef": 4051,
  "Ġdeg": 4052,
  "Ġdel": 4053,
  "Ġdem": 4054,
  "Ġden": 4055,
  "Ġdep": 4056,
  "Ġder": 4057,
  "Ġdes": 4058,
  "Ġdet": 4059,
  "Ġdev": 4060,
  "Ġdew": 4061,
  "Ġdex": 4062,
  "Ġdfn": 4063,
  "Ġdgi": 4064,
  "Ġdgs": 4065,
  "Ġdgu": 4066,
  "Ġdha": 4067,
  "Ġdhd": 4068,
  "Ġdhh": 4069,
  "Ġdhs": 4070,
  "Ġdia": 4071,
  "Ġdib": 4072,
  "Ġdic": 4073,
  "Ġdid": 4074,
  "Ġdig": 4075,
  "Ġdih": 4076,
  "Ġdil": 4077,
  "Ġdim": 4078,
  "Ġdin": 4079,
  "Ġdip": 4080,
  "Ġdis": 4081,
  "Ġdiv": 4082,
  "Ġdjs": 4083,
  "Ġdlb": 4084,
  "Ġdld": 4085,
  "Ġdmc": 4086,
  "Ġdmd": 4087,
  "Ġdmr": 4088,
  "Ġdms": 4089,
  "Ġdmt": 4090,
  "Ġdna": 4091,
  "Ġdns": 4092,
  "Ġdoa": 4093,
  "Ġdog": 4094,
  "Ġdoh": 4095,
  "Ġdol": 4096,
  "Ġdon": 4097,
  "Ġdop": 4098,
  "Ġdor": 4099,
  "Ġdos": 4100,
  "Ġdot": 4101,
  "Ġdow": 4102,
  "Ġdpb": 4103,
  "Ġdpd": 4104,
  "Ġdph": 4105,
  "Ġdpm": 4106,
  "Ġdpr": 4107,
  "Ġdra": 4108,
  "Ġdrd": 4109,
  "Ġdre": 4110,
  "Ġdrm": 4111,
  "Ġdrs": 4112,
  "Ġdry": 4113,
  "Ġdsd": 4114,
  "Ġdsh": 4115,
  "Ġdsm": 4116,
  "Ġdsn": 4117,
  "Ġdsy": 4118,
  "Ġdtd": 4119,
  "Ġdtm": 4120,
  "Ġdub": 4121,
  "Ġduc": 4122,
  "Ġdue": 4123,
  "Ġduh": 4124,
  "Ġduk": 4125,
  "Ġdum": 4126,
  "Ġdup": 4127,
  "Ġdur": 4128,
  "Ġdus": 4129,
  "Ġdva": 4130,
  "Ġdvd": 4131,
  "Ġdvt": 4132,
  "Ġdwm": 4133,
  "Ġdws": 4134,
  "Ġdxs": 4135,
  "Ġdyc": 4136,
  "Ġdyg": 4137,
  "Ġdyn": 4138,
  "Ġdyp": 4139,
  "Ġdys": 4140,
  "Ġdyt": 4141,
  "Ġdyx": 4142,
  "Ġeac": 4143,
  "Ġead": 4144,
  "Ġeag": 4145,
  "Ġeam": 4146,
  "Ġean": 4147,
  "Ġear": 4148,
  "Ġeas": 4149,
  "Ġebm": 4150,
  "Ġebr": 4151,
  "Ġebs": 4152,
  "Ġebv": 4153,
  "Ġeca": 4154,
  "Ġecd": 4155,
  "Ġecg": 4156,
  "Ġech": 4157,
  "Ġecl": 4158,
  "Ġeco": 4159,
  "Ġect": 4160,
  "Ġecz": 4161,
  "Ġeda": 4162,
  "Ġedm": 4163,
  "Ġeds": 4164,
  "Ġeec": 4165,
  "Ġeem": 4166,
  "Ġefe": 4167,
  "Ġeff": 4168,
  "Ġefm": 4169,
  "Ġegg": 4170,
  "Ġehk": 4171,
  "Ġehm": 4172,
  "Ġehr": 4173,
  "Ġehs": 4174,
  "Ġeht": 4175,
  "Ġeie": 4176,
  "Ġeig": 4177,
  "Ġeik": 4178,
  "Ġeim": 4179,
  "Ġeis": 4180,
  "Ġeja": 4181,
  "Ġejm": 4182,
  "Ġekd": 4183,
  "Ġekg": 4184,
  "Ġekv": 4185,
  "Ġeld": 4186,
  "Ġele": 4187,
  "Ġell": 4188,
  "Ġema": 4189,
  "Ġemb": 4190,
  "Ġemc": 4191,
  "Ġemd": 4192,
  "Ġemg": 4193,
  "Ġemp": 4194,
  "Ġenc": 4195,
  "Ġend": 4196,
  "Ġeng": 4197,
  "Ġent": 4198,
  "Ġenz": 4199,
  "Ġeoe": 4200,
  "Ġeof": 4201,
  "Ġeot": 4202,
  "Ġepd": 4203,
  "Ġeph": 4204,
  "Ġepi": 4205,
  "Ġepm": 4206,
  "Ġepp": 4207,
  "Ġeps": 4208,
  "Ġepv": 4209,
  "Ġequ": 4210,
  "Ġerb": 4211,
  "Ġerg": 4212,
  "Ġerm": 4213,
  "Ġero": 4214,
  "Ġess": 4215,
  "Ġest": 4216,
  "Ġetf": 4217,
  "Ġeth": 4218,
  "Ġetl": 4219,
  "Ġetm": 4220,
  "Ġeug": 4221,
  "Ġeul": 4222,
  "Ġeum": 4223,
  "Ġeun": 4224,
  "Ġevc": 4225,
  "Ġevr": 4226,
  "Ġexc": 4227,
  "Ġext": 4228,
  "Ġeye": 4229,
  "Ġfaa": 4230,
  "Ġfab": 4231,
  "Ġfac": 4232,
  "Ġfad": 4233,
  "Ġfae": 4234,
  "Ġfah": 4235,
  "Ġfal": 4236,
  "Ġfap": 4237,
  "Ġfar": 4238,
  "Ġfas": 4239,
  "Ġfat": 4240,
  "Ġfav": 4241,
  "Ġfay": 4242,
  "Ġfaz": 4243,
  "Ġfbd": 4244,
  "Ġfbh": 4245,
  "Ġfbs": 4246,
  "Ġfcc": 4247,
  "Ġfcd": 4248,
  "Ġfch": 4249,
  "Ġfcm": 4250,
  "Ġfcs": 4251,
  "Ġfcu": 4252,
  "Ġfdc": 4253,
  "Ġfdd": 4254,
  "Ġfdh": 4255,
  "Ġfeb": 4256,
  "Ġfec": 4257,
  "Ġfed": 4258,
  "Ġfel": 4259,
  "Ġfem": 4260,
  "Ġfen": 4261,
  "Ġfeo": 4262,
  "Ġfer": 4263,
  "Ġfet": 4264,
  "Ġffi": 4265,
  "Ġffm": 4266,
  "Ġfgd": 4267,
  "Ġfgf": 4268,
  "Ġfgl": 4269,
  "Ġfgs": 4270,
  "Ġfha": 4271,
  "Ġfhc": 4272,
  "Ġfhd": 4273,
  "Ġfhf": 4274,
  "Ġfhh": 4275,
  "Ġfhl": 4276,
  "Ġfhm": 4277,
  "Ġfib": 4278,
  "Ġfic": 4279,
  "Ġfif": 4280,
  "Ġfig": 4281,
  "Ġfih": 4282,
  "Ġfil": 4283,
  "Ġfim": 4284,
  "Ġfin": 4285,
  "Ġfir": 4286,
  "Ġfis": 4287,
  "Ġfit": 4288,
  "Ġfix": 4289,
  "Ġfkt": 4290,
  "Ġfle": 4291,
  "Ġflo": 4292,
  "Ġflu": 4293,
  "Ġfmf": 4294,
  "Ġfml": 4295,
  "Ġfmr": 4296,
  "Ġfnd": 4297,
  "Ġfnm": 4298,
  "Ġfod": 4299,
  "Ġfog": 4300,
  "Ġfol": 4301,
  "Ġfop": 4302,
  "Ġfor": 4303,
  "Ġfov": 4304,
  "Ġfow": 4305,
  "Ġfox": 4306,
  "Ġfpc": 4307,
  "Ġfpd": 4308,
  "Ġfpf": 4309,
  "Ġfph": 4310,
  "Ġfpl": 4311,
  "Ġfpo": 4312,
  "Ġfpp": 4313,
  "Ġfra": 4314,
  "Ġfre": 4315,
  "Ġfro": 4316,
  "Ġfsh": 4317,
  "Ġfsn": 4318,
  "Ġfsp": 4319,
  "Ġfss": 4320,
  "Ġftc": 4321,
  "Ġftd": 4322,
  "Ġftl": 4323,
  "Ġfuc": 4324,
  "Ġfug": 4325,
  "Ġfuj": 4326,
  "Ġfuk": 4327,
  "Ġful": 4328,
  "Ġfum": 4329,
  "Ġfur": 4330,
  "Ġfus": 4331,
  "Ġfvh": 4332,
  "Ġfws": 4333,
  "Ġfwt": 4334,
  "Ġgaa": 4335,
  "Ġgab": 4336,
  "Ġgag": 4337,
  "Ġgal": 4338,
  "Ġgam": 4339,
  "Ġgan": 4340,
  "Ġgap": 4341,
  "Ġgar": 4342,
  "Ġgas": 4343,
  "Ġgay": 4344,
  "Ġgaz": 4345,
  "Ġgba": 4346,
  "Ġgbb": 4347,
  "Ġgbd": 4348,
  "Ġgbe": 4349,
  "Ġgbm": 4350,
  "Ġgbs": 4351,
  "Ġgcd": 4352,
  "Ġgce": 4353,
  "Ġgcl": 4354,
  "Ġgcm": 4355,
  "Ġgcr": 4356,
  "Ġgct": 4357,
  "Ġgdd": 4358,
  "Ġgde": 4359,
  "Ġgdi": 4360,
  "Ġgdl": 4361,
  "Ġgdx": 4362,
  "Ġgef": 4363,
  "Ġgel": 4364,
  "Ġgem": 4365,
  "Ġgen": 4366,
  "Ġgep": 4367,
  "Ġger": 4368,
  "Ġget": 4369,
  "Ġggf": 4370,
  "Ġggm": 4371,
  "Ġggt": 4372,
  "Ġgib": 4373,
  "Ġgid": 4374,
  "Ġgig": 4375,
  "Ġgil": 4376,
  "Ġgjb": 4377,
  "Ġgkd": 4378,
  "Ġgla": 4379,
  "Ġglb": 4380,
  "Ġglc": 4381,
  "Ġgld": 4382,
  "Ġglh": 4383,
  "Ġgli": 4384,
  "Ġglm": 4385,
  "Ġgly": 4386,
  "Ġgms": 4387,
  "Ġgnp": 4388,
  "Ġgoa": 4389,
  "Ġgob": 4390,
  "Ġgol": 4391,
  "Ġgon": 4392,
  "Ġgor": 4393,
  "Ġgpd": 4394,
  "Ġgpi": 4395,
  "Ġgpl": 4396,
  "Ġgpr": 4397,
  "Ġgps": 4398,
  "Ġgra": 4399,
  "Ġgrd": 4400,
  "Ġgre": 4401,
  "Ġgrn": 4402,
  "Ġgro": 4403,
  "Ġgsd": 4404,
  "Ġgsh": 4405,
  "Ġgsl": 4406,
  "Ġgsm": 4407,
  "Ġgsn": 4408,
  "Ġgss": 4409,
  "Ġgtg": 4410,
  "Ġgtp": 4411,
  "Ġgts": 4412,
  "Ġgub": 4413,
  "Ġgug": 4414,
  "Ġgul": 4415,
  "Ġgum": 4416,
  "Ġgun": 4417,
  "Ġgus": 4418,
  "Ġgut": 4419,
  "Ġgvm": 4420,
  "Ġgyg": 4421,
  "Ġgyn": 4422,
  "Ġgyr": 4423,
  "Ġhab": 4424,
  "Ġhac": 4425,
  "Ġhad": 4426,
  "Ġhae": 4427,
  "Ġhaf": 4428,
  "Ġhag": 4429,
  "Ġhak": 4430,
  "Ġhal": 4431,
  "Ġham": 4432,
  "Ġhan": 4433,
  "Ġhap": 4434,
  "Ġhar": 4435,
  "Ġhaw": 4436,
  "Ġhay": 4437,
  "Ġhbb": 4438,
  "Ġhbd": 4439,
  "Ġhbl": 4440,
  "Ġhbs": 4441,
  "Ġhbt": 4442,
  "Ġhbv": 4443,
  "Ġhca": 4444,
  "Ġhcc": 4445,
  "Ġhcd": 4446,
  "Ġhcf": 4447,
  "Ġhcg": 4448,
  "Ġhch": 4449,
  "Ġhci": 4450,
  "Ġhcp": 4451,
  "Ġhcv": 4452,
  "Ġhdd": 4453,
  "Ġhdl": 4454,
  "Ġhdr": 4455,
  "Ġheb": 4456,
  "Ġhed": 4457,
  "Ġhel": 4458,
  "Ġhem": 4459,
  "Ġhen": 4460,
  "Ġhep": 4461,
  "Ġher": 4462,
  "Ġhes": 4463,
  "Ġhet": 4464,
  "Ġhex": 4465,
  "Ġhfe": 4466,
  "Ġhfg": 4467,
  "Ġhfm": 4468,
  "Ġhfs": 4469,
  "Ġhfu": 4470,
  "Ġhga": 4471,
  "Ġhgf": 4472,
  "Ġhgh": 4473,
  "Ġhha": 4474,
  "Ġhhc": 4475,
  "Ġhhd": 4476,
  "Ġhhf": 4477,
  "Ġhhg": 4478,
  "Ġhhh": 4479,
  "Ġhhp": 4480,
  "Ġhhs": 4481,
  "Ġhht": 4482,
  "Ġhhv": 4483,
  "Ġhib": 4484,
  "Ġhid": 4485,
  "Ġhie": 4486,
  "Ġhig": 4487,
  "Ġhip": 4488,
  "Ġhir": 4489,
  "Ġhis": 4490,
  "Ġhiv": 4491,
  "Ġhkl": 4492,
  "Ġhla": 4493,
  "Ġhld": 4494,
  "Ġhlh": 4495,
  "Ġhln": 4496,
  "Ġhlp": 4497,
  "Ġhls": 4498,
  "Ġhma": 4499,
  "Ġhmc": 4500,
  "Ġhmd": 4501,
  "Ġhmg": 4502,
  "Ġhmi": 4503,
  "Ġhml": 4504,
  "Ġhmn": 4505,
  "Ġhms": 4506,
  "Ġhna": 4507,
  "Ġhnd": 4508,
  "Ġhnf": 4509,
  "Ġhnp": 4510,
  "Ġhns": 4511,
  "Ġhoa": 4512,
  "Ġhob": 4513,
  "Ġhof": 4514,
  "Ġhog": 4515,
  "Ġhol": 4516,
  "Ġhom": 4517,
  "Ġhop": 4518,
  "Ġhor": 4519,
  "Ġhos": 4520,
  "Ġhot": 4521,
  "Ġhow": 4522,
  "Ġhpa": 4523,
  "Ġhpc": 4524,
  "Ġhpd": 4525,
  "Ġhpe": 4526,
  "Ġhpi": 4527,
  "Ġhpl": 4528,
  "Ġhpp": 4529,
  "Ġhps": 4530,
  "Ġhpt": 4531,
  "Ġhpv": 4532,
  "Ġhra": 4533,
  "Ġhrd": 4534,
  "Ġhre": 4535,
  "Ġhrs": 4536,
  "Ġhrx": 4537,
  "Ġhrz": 4538,
  "Ġhsd": 4539,
  "Ġhsh": 4540,
  "Ġhsi": 4541,
  "Ġhsn": 4542,
  "Ġhsp": 4543,
  "Ġhss": 4544,
  "Ġhsu": 4545,
  "Ġhtc": 4546,
  "Ġhtl": 4547,
  "Ġhts": 4548,
  "Ġhtx": 4549,
  "Ġhul": 4550,
  "Ġhum": 4551,
  "Ġhun": 4552,
  "Ġhur": 4553,
  "Ġhus": 4554,
  "Ġhwe": 4555,
  "Ġhyb": 4556,
  "Ġhyc": 4557,
  "Ġhyd": 4558,
  "Ġhyg": 4559,
  "Ġhyp": 4560,
  "Ġhyr": 4561,
  "Ġhys": 4562,
  "Ġhyt": 4563,
  "Ġiad": 4564,
  "Ġias": 4565,
  "Ġibc": 4566,
  "Ġibd": 4567,
  "Ġibm": 4568,
  "Ġibs": 4569,
  "Ġica": 4570,
  "Ġicc": 4571,
  "Ġicd": 4572,
  "Ġice": 4573,
  "Ġicf": 4574,
  "Ġich": 4575,
  "Ġicp": 4576,
  "Ġicr": 4577,
  "Ġics": 4578,
  "Ġict": 4579,
  "Ġidd": 4580,
  "Ġide": 4581,
  "Ġidh": 4582,
  "Ġidi": 4583,
  "Ġids": 4584,
  "Ġifd": 4585,
  "Ġifn": 4586,
  "Ġifs": 4587,
  "Ġiga": 4588,
  "Ġigb": 4589,
  "Ġigd": 4590,
  "Ġige": 4591,
  "Ġigf": 4592,
  "Ġigg": 4593,
  "Ġigh": 4594,
  "Ġigm": 4595,
  "Ġigs": 4596,
  "Ġihg": 4597,
  "Ġihh": 4598,
  "Ġihs": 4599,
  "Ġiia": 4600,
  "Ġiib": 4601,
  "Ġiic": 4602,
  "Ġiid": 4603,
  "Ġiie": 4604,
  "Ġiif": 4605,
  "Ġiig": 4606,
  "Ġiih": 4607,
  "Ġiii": 4608,
  "Ġiij": 4609,
  "Ġiim": 4610,
  "Ġiin": 4611,
  "Ġiis": 4612,
  "Ġiix": 4613,
  "Ġild": 4614,
  "Ġile": 4615,
  "Ġili": 4616,
  "Ġill": 4617,
  "Ġils": 4618,
  "Ġimd": 4619,
  "Ġimm": 4620,
  "Ġimp": 4621,
  "Ġinc": 4622,
  "Ġind": 4623,
  "Ġinf": 4624,
  "Ġini": 4625,
  "Ġinn": 4626,
  "Ġins": 4627,
  "Ġint": 4628,
  "Ġinv": 4629,
  "Ġiod": 4630,
  "Ġion": 4631,
  "Ġiow": 4632,
  "Ġipa": 4633,
  "Ġipd": 4634,
  "Ġipf": 4635,
  "Ġips": 4636,
  "Ġira": 4637,
  "Ġird": 4638,
  "Ġirr": 4639,
  "Ġisa": 4640,
  "Ġisc": 4641,
  "Ġiss": 4642,
  "Ġitm": 4643,
  "Ġito": 4644,
  "Ġitp": 4645,
  "Ġiud": 4646,
  "Ġiva": 4647,
  "Ġivb": 4648,
  "Ġivc": 4649,
  "Ġivd": 4650,
  "Ġivs": 4651,
  "Ġivy": 4652,
  "Ġiwc": 4653,
  "Ġixa": 4654,
  "Ġixb": 4655,
  "Ġixc": 4656,
  "Ġixd": 4657,
  "Ġjae": 4658,
  "Ġjag": 4659,
  "Ġjak": 4660,
  "Ġjal": 4661,
  "Ġjap": 4662,
  "Ġjar": 4663,
  "Ġjaw": 4664,
  "Ġjeb": 4665,
  "Ġjeg": 4666,
  "Ġjer": 4667,
  "Ġjet": 4668,
  "Ġjew": 4669,
  "Ġjip": 4670,
  "Ġjme": 4671,
  "Ġjmm": 4672,
  "Ġjms": 4673,
  "Ġjob": 4674,
  "Ġjod": 4675,
  "Ġjoh": 4676,
  "Ġjph": 4677,
  "Ġjps": 4678,
  "Ġjud": 4679,
  "Ġjug": 4680,
  "Ġjuv": 4681,
  "Ġjux": 4682,
  "Ġjws": 4683,
  "Ġkab": 4684,
  "Ġkah": 4685,
  "Ġkaj": 4686,
  "Ġkal": 4687,
  "Ġkam": 4688,
  "Ġkap": 4689,
  "Ġkar": 4690,
  "Ġkas": 4691,
  "Ġkau": 4692,
  "Ġkaw": 4693,
  "Ġkaz": 4694,
  "Ġkbg": 4695,
  "Ġkcn": 4696,
  "Ġkcs": 4697,
  "Ġkel": 4698,
  "Ġken": 4699,
  "Ġker": 4700,
  "Ġket": 4701,
  "Ġkey": 4702,
  "Ġkfs": 4703,
  "Ġkgd": 4704,
  "Ġkhm": 4705,
  "Ġkhr": 4706,
  "Ġkid": 4707,
  "Ġkif": 4708,
  "Ġkik": 4709,
  "Ġkim": 4710,
  "Ġkin": 4711,
  "Ġkir": 4712,
  "Ġkiv": 4713,
  "Ġkle": 4714,
  "Ġklu": 4715,
  "Ġkna": 4716,
  "Ġkne": 4717,
  "Ġkno": 4718,
  "Ġkob": 4719,
  "Ġkoh": 4720,
  "Ġkoj": 4721,
  "Ġkok": 4722,
  "Ġkos": 4723,
  "Ġkow": 4724,
  "Ġkpc": 4725,
  "Ġkpd": 4726,
  "Ġkpp": 4727,
  "Ġkra": 4728,
  "Ġkri": 4729,
  "Ġkrs": 4730,
  "Ġksh": 4731,
  "Ġksr": 4732,
  "Ġkss": 4733,
  "Ġktc": 4734,
  "Ġktd": 4735,
  "Ġktl": 4736,
  "Ġkts": 4737,
  "Ġktw": 4738,
  "Ġkub": 4739,
  "Ġkuf": 4740,
  "Ġkug": 4741,
  "Ġkur": 4742,
  "Ġkuz": 4743,
  "Ġkwe": 4744,
  "Ġkws": 4745,
  "Ġkym": 4746,
  "Ġkyr": 4747,
  "Ġlab": 4748,
  "Ġlac": 4749,
  "Ġlad": 4750,
  "Ġlaf": 4751,
  "Ġlag": 4752,
  "Ġlah": 4753,
  "Ġlal": 4754,
  "Ġlam": 4755,
  "Ġlap": 4756,
  "Ġlar": 4757,
  "Ġlav": 4758,
  "Ġlaw": 4759,
  "Ġlax": 4760,
  "Ġlaz": 4761,
  "Ġlbc": 4762,
  "Ġlbd": 4763,
  "Ġlbs": 4764,
  "Ġlca": 4765,
  "Ġlcc": 4766,
  "Ġlcd": 4767,
  "Ġlcp": 4768,
  "Ġlcs": 4769,
  "Ġldh": 4770,
  "Ġldl": 4771,
  "Ġlds": 4772,
  "Ġleb": 4773,
  "Ġlec": 4774,
  "Ġled": 4775,
  "Ġlee": 4776,
  "Ġleg": 4777,
  "Ġleh": 4778,
  "Ġlem": 4779,
  "Ġlen": 4780,
  "Ġlep": 4781,
  "Ġles": 4782,
  "Ġlev": 4783,
  "Ġlew": 4784,
  "Ġlfa": 4785,
  "Ġlfl": 4786,
  "Ġlfs": 4787,
  "Ġlgl": 4788,
  "Ġlgm": 4789,
  "Ġlgs": 4790,
  "Ġlib": 4791,
  "Ġlid": 4792,
  "Ġlif": 4793,
  "Ġlig": 4794,
  "Ġlih": 4795,
  "Ġlim": 4796,
  "Ġlin": 4797,
  "Ġlip": 4798,
  "Ġlis": 4799,
  "Ġliv": 4800,
  "Ġlkm": 4801,
  "Ġlmd": 4802,
  "Ġlms": 4803,
  "Ġlmw": 4804,
  "Ġlns": 4805,
  "Ġloa": 4806,
  "Ġlob": 4807,
  "Ġloc": 4808,
  "Ġloe": 4809,
  "Ġlog": 4810,
  "Ġlok": 4811,
  "Ġlom": 4812,
  "Ġlop": 4813,
  "Ġlou": 4814,
  "Ġlow": 4815,
  "Ġlpg": 4816,
  "Ġlpi": 4817,
  "Ġlpl": 4818,
  "Ġlpr": 4819,
  "Ġlps": 4820,
  "Ġlqt": 4821,
  "Ġlrs": 4822,
  "Ġlsd": 4823,
  "Ġlss": 4824,
  "Ġltc": 4825,
  "Ġlub": 4826,
  "Ġluc": 4827,
  "Ġlud": 4828,
  "Ġluj": 4829,
  "Ġlum": 4830,
  "Ġlup": 4831,
  "Ġlur": 4832,
  "Ġlut": 4833,
  "Ġlux": 4834,
  "Ġlvm": 4835,
  "Ġlwd": 4836,
  "Ġlyp": 4837,
  "Ġlys": 4838,
  "Ġmaa": 4839,
  "Ġmab": 4840,
  "Ġmac": 4841,
  "Ġmad": 4842,
  "Ġmaf": 4843,
  "Ġmag": 4844,
  "Ġmaj": 4845,
  "Ġmak": 4846,
  "Ġmal": 4847,
  "Ġman": 4848,
  "Ġmap": 4849,
  "Ġmar": 4850,
  "Ġmas": 4851,
  "Ġmat": 4852,
  "Ġmax": 4853,
  "Ġmay": 4854,
  "Ġmbl": 4855,
  "Ġmbp": 4856,
  "Ġmbs": 4857,
  "Ġmca": 4858,
  "Ġmcc": 4859,
  "Ġmcd": 4860,
  "Ġmci": 4861,
  "Ġmcl": 4862,
  "Ġmcm": 4863,
  "Ġmcs": 4864,
  "Ġmct": 4865,
  "Ġmdb": 4866,
  "Ġmdc": 4867,
  "Ġmdd": 4868,
  "Ġmdi": 4869,
  "Ġmdk": 4870,
  "Ġmdm": 4871,
  "Ġmdp": 4872,
  "Ġmdr": 4873,
  "Ġmds": 4874,
  "Ġmdx": 4875,
  "Ġmea": 4876,
  "Ġmeb": 4877,
  "Ġmec": 4878,
  "Ġmed": 4879,
  "Ġmeg": 4880,
  "Ġmeh": 4881,
  "Ġmel": 4882,
  "Ġmem": 4883,
  "Ġmen": 4884,
  "Ġmer": 4885,
  "Ġmes": 4886,
  "Ġmet": 4887,
  "Ġmfd": 4888,
  "Ġmfm": 4889,
  "Ġmfs": 4890,
  "Ġmft": 4891,
  "Ġmga": 4892,
  "Ġmgc": 4893,
  "Ġmgr": 4894,
  "Ġmgs": 4895,
  "Ġmha": 4896,
  "Ġmhp": 4897,
  "Ġmhs": 4898,
  "Ġmhw": 4899,
  "Ġmib": 4900,
  "Ġmic": 4901,
  "Ġmid": 4902,
  "Ġmie": 4903,
  "Ġmig": 4904,
  "Ġmik": 4905,
  "Ġmil": 4906,
  "Ġmim": 4907,
  "Ġmin": 4908,
  "Ġmip": 4909,
  "Ġmir": 4910,
  "Ġmis": 4911,
  "Ġmit": 4912,
  "Ġmjd": 4913,
  "Ġmks": 4914,
  "Ġmlc": 4915,
  "Ġmld": 4916,
  "Ġmlm": 4917,
  "Ġmls": 4918,
  "Ġmma": 4919,
  "Ġmmd": 4920,
  "Ġmmm": 4921,
  "Ġmmr": 4922,
  "Ġmms": 4923,
  "Ġmmt": 4924,
  "Ġmng": 4925,
  "Ġmnk": 4926,
  "Ġmns": 4927,
  "Ġmob": 4928,
  "Ġmoc": 4929,
  "Ġmod": 4930,
  "Ġmol": 4931,
  "Ġmon": 4932,
  "Ġmor": 4933,
  "Ġmos": 4934,
  "Ġmov": 4935,
  "Ġmow": 4936,
  "Ġmpb": 4937,
  "Ġmpd": 4938,
  "Ġmpe": 4939,
  "Ġmpi": 4940,
  "Ġmpn": 4941,
  "Ġmpo": 4942,
  "Ġmpr": 4943,
  "Ġmps": 4944,
  "Ġmpt": 4945,
  "Ġmpv": 4946,
  "Ġmrd": 4947,
  "Ġmrs": 4948,
  "Ġmrt": 4949,
  "Ġmrx": 4950,
  "Ġmsa": 4951,
  "Ġmsd": 4952,
  "Ġmsp": 4953,
  "Ġmss": 4954,
  "Ġmst": 4955,
  "Ġmtc": 4956,
  "Ġmtd": 4957,
  "Ġmth": 4958,
  "Ġmtm": 4959,
  "Ġmtp": 4960,
  "Ġmts": 4961,
  "Ġmuc": 4962,
  "Ġmud": 4963,
  "Ġmuh": 4964,
  "Ġmul": 4965,
  "Ġmum": 4966,
  "Ġmun": 4967,
  "Ġmur": 4968,
  "Ġmus": 4969,
  "Ġmut": 4970,
  "Ġmva": 4971,
  "Ġmvp": 4972,
  "Ġmws": 4973,
  "Ġmyc": 4974,
  "Ġmyd": 4975,
  "Ġmyh": 4976,
  "Ġmyo": 4977,
  "Ġmyp": 4978,
  "Ġmys": 4979,
  "Ġmyx": 4980,
  "Ġnab": 4981,
  "Ġnad": 4982,
  "Ġnae": 4983,
  "Ġnaf": 4984,
  "Ġnag": 4985,
  "Ġnai": 4986,
  "Ġnaj": 4987,
  "Ġnak": 4988,
  "Ġnam": 4989,
  "Ġnan": 4990,
  "Ġnao": 4991,
  "Ġnap": 4992,
  "Ġnar": 4993,
  "Ġnas": 4994,
  "Ġnat": 4995,
  "Ġnav": 4996,
  "Ġnax": 4997,
  "Ġnbl": 4998,
  "Ġnbm": 4999,
  "Ġnbs": 5000,
  "Ġncf": 5001,
  "Ġncr": 5002,
  "Ġnde": 5003,
  "Ġndh": 5004,
  "Ġndi": 5005,
  "Ġnec": 5006,
  "Ġned": 5007,
  "Ġneg": 5008,
  "Ġnek": 5009,
  "Ġnem": 5010,
  "Ġner": 5011,
  "Ġneu": 5012,
  "Ġnev": 5013,
  "Ġnew": 5014,
  "Ġnfj": 5015,
  "Ġngu": 5016,
  "Ġnhc": 5017,
  "Ġnhd": 5018,
  "Ġnhe": 5019,
  "Ġnhl": 5020,
  "Ġnhs": 5021,
  "Ġnic": 5022,
  "Ġnid": 5023,
  "Ġnie": 5024,
  "Ġnig": 5025,
  "Ġnii": 5026,
  "Ġnip": 5027,
  "Ġnit": 5028,
  "Ġniv": 5029,
  "Ġnkh": 5030,
  "Ġnmd": 5031,
  "Ġnms": 5032,
  "Ġnnc": 5033,
  "Ġnnh": 5034,
  "Ġnno": 5035,
  "Ġnob": 5036,
  "Ġnoc": 5037,
  "Ġnod": 5038,
  "Ġnog": 5039,
  "Ġnon": 5040,
  "Ġnor": 5041,
  "Ġnos": 5042,
  "Ġnot": 5043,
  "Ġnov": 5044,
  "Ġnpc": 5045,
  "Ġnpg": 5046,
  "Ġnph": 5047,
  "Ġnps": 5048,
  "Ġnrc": 5049,
  "Ġnsd": 5050,
  "Ġnsh": 5051,
  "Ġnsx": 5052,
  "Ġntd": 5053,
  "Ġnte": 5054,
  "Ġntg": 5055,
  "Ġnut": 5056,
  "Ġnyc": 5057,
  "Ġnys": 5058,
  "Ġoak": 5059,
  "Ġoat": 5060,
  "Ġoav": 5061,
  "Ġobl": 5062,
  "Ġoca": 5063,
  "Ġocc": 5064,
  "Ġocd": 5065,
  "Ġoch": 5066,
  "Ġodc": 5067,
  "Ġodd": 5068,
  "Ġodg": 5069,
  "Ġods": 5070,
  "Ġofc": 5071,
  "Ġofd": 5072,
  "Ġoff": 5073,
  "Ġogd": 5074,
  "Ġogs": 5075,
  "Ġohd": 5076,
  "Ġohs": 5077,
  "Ġoic": 5078,
  "Ġois": 5079,
  "Ġoki": 5080,
  "Ġokl": 5081,
  "Ġoks": 5082,
  "Ġokt": 5083,
  "Ġold": 5084,
  "Ġolf": 5085,
  "Ġomd": 5086,
  "Ġomp": 5087,
  "Ġoms": 5088,
  "Ġonc": 5089,
  "Ġond": 5090,
  "Ġone": 5091,
  "Ġons": 5092,
  "Ġopa": 5093,
  "Ġopc": 5094,
  "Ġopd": 5095,
  "Ġoph": 5096,
  "Ġopp": 5097,
  "Ġops": 5098,
  "Ġorb": 5099,
  "Ġorf": 5100,
  "Ġorg": 5101,
  "Ġori": 5102,
  "Ġorm": 5103,
  "Ġoro": 5104,
  "Ġorw": 5105,
  "Ġory": 5106,
  "Ġosa": 5107,
  "Ġoss": 5108,
  "Ġost": 5109,
  "Ġosx": 5110,
  "Ġota": 5111,
  "Ġotc": 5112,
  "Ġoth": 5113,
  "Ġoto": 5114,
  "Ġots": 5115,
  "Ġout": 5116,
  "Ġoxy": 5117,
  "Ġpac": 5118,
  "Ġpaf": 5119,
  "Ġpag": 5120,
  "Ġpah": 5121,
  "Ġpai": 5122,
  "Ġpal": 5123,
  "Ġpan": 5124,
  "Ġpap": 5125,
  "Ġpar": 5126,
  "Ġpas": 5127,
  "Ġpat": 5128,
  "Ġpav": 5129,
  "Ġpbc": 5130,
  "Ġpbd": 5131,
  "Ġpbl": 5132,
  "Ġpbt": 5133,
  "Ġpca": 5134,
  "Ġpcb": 5135,
  "Ġpcc": 5136,
  "Ġpcd": 5137,
  "Ġpch": 5138,
  "Ġpck": 5139,
  "Ġpcl": 5140,
  "Ġpco": 5141,
  "Ġpcp": 5142,
  "Ġpcs": 5143,
  "Ġpct": 5144,
  "Ġpda": 5145,
  "Ġpdb": 5146,
  "Ġpdc": 5147,
  "Ġpdd": 5148,
  "Ġpde": 5149,
  "Ġpdh": 5150,
  "Ġpdj": 5151,
  "Ġpdl": 5152,
  "Ġpdm": 5153,
  "Ġpdp": 5154,
  "Ġpdr": 5155,
  "Ġpds": 5156,
  "Ġpec": 5157,
  "Ġped": 5158,
  "Ġpee": 5159,
  "Ġpeg": 5160,
  "Ġpel": 5161,
  "Ġpem": 5162,
  "Ġpen": 5163,
  "Ġpep": 5164,
  "Ġper": 5165,
  "Ġpes": 5166,
  "Ġpet": 5167,
  "Ġpex": 5168,
  "Ġpfb": 5169,
  "Ġpfd": 5170,
  "Ġpfe": 5171,
  "Ġpfm": 5172,
  "Ġpga": 5173,
  "Ġpgk": 5174,
  "Ġpgl": 5175,
  "Ġpgm": 5176,
  "Ġpgr": 5177,
  "Ġpgs": 5178,
  "Ġpha": 5179,
  "Ġphc": 5180,
  "Ġphd": 5181,
  "Ġphk": 5182,
  "Ġpho": 5183,
  "Ġphp": 5184,
  "Ġphs": 5185,
  "Ġpht": 5186,
  "Ġpib": 5187,
  "Ġpic": 5188,
  "Ġpie": 5189,
  "Ġpig": 5190,
  "Ġpil": 5191,
  "Ġpin": 5192,
  "Ġpir": 5193,
  "Ġpit": 5194,
  "Ġpji": 5195,
  "Ġpjs": 5196,
  "Ġpkc": 5197,
  "Ġpkd": 5198,
  "Ġpkk": 5199,
  "Ġpkn": 5200,
  "Ġpku": 5201,
  "Ġpla": 5202,
  "Ġplc": 5203,
  "Ġple": 5204,
  "Ġplf": 5205,
  "Ġplo": 5206,
  "Ġplp": 5207,
  "Ġpls": 5208,
  "Ġpmc": 5209,
  "Ġpmd": 5210,
  "Ġpme": 5211,
  "Ġpmg": 5212,
  "Ġpmv": 5213,
  "Ġpnd": 5214,
  "Ġpne": 5215,
  "Ġpnh": 5216,
  "Ġpnm": 5217,
  "Ġpnp": 5218,
  "Ġpns": 5219,
  "Ġpod": 5220,
  "Ġpof": 5221,
  "Ġpoh": 5222,
  "Ġpol": 5223,
  "Ġpom": 5224,
  "Ġpor": 5225,
  "Ġpos": 5226,
  "Ġpot": 5227,
  "Ġpow": 5228,
  "Ġpox": 5229,
  "Ġppa": 5230,
  "Ġppb": 5231,
  "Ġppd": 5232,
  "Ġpph": 5233,
  "Ġppk": 5234,
  "Ġppm": 5235,
  "Ġppn": 5236,
  "Ġppp": 5237,
  "Ġppr": 5238,
  "Ġpps": 5239,
  "Ġpra": 5240,
  "Ġprd": 5241,
  "Ġpre": 5242,
  "Ġprl": 5243,
  "Ġprn": 5244,
  "Ġpro": 5245,
  "Ġprs": 5246,
  "Ġprv": 5247,
  "Ġpsa": 5248,
  "Ġpsc": 5249,
  "Ġpsd": 5250,
  "Ġpse": 5251,
  "Ġpsh": 5252,
  "Ġpsm": 5253,
  "Ġpsn": 5254,
  "Ġpsp": 5255,
  "Ġpss": 5256,
  "Ġpta": 5257,
  "Ġptc": 5258,
  "Ġptd": 5259,
  "Ġptl": 5260,
  "Ġptr": 5261,
  "Ġpts": 5262,
  "Ġpub": 5263,
  "Ġpud": 5264,
  "Ġpug": 5265,
  "Ġpuj": 5266,
  "Ġpul": 5267,
  "Ġpum": 5268,
  "Ġpup": 5269,
  "Ġpur": 5270,
  "Ġpus": 5271,
  "Ġpvr": 5272,
  "Ġpvs": 5273,
  "Ġpws": 5274,
  "Ġpxe": 5275,
  "Ġpyc": 5276,
  "Ġpyl": 5277,
  "Ġpyr": 5278,
  "Ġqrs": 5279,
  "Ġqsm": 5280,
  "Ġqtc": 5281,
  "Ġqtl": 5282,
  "Ġrab": 5283,
  "Ġrac": 5284,
  "Ġrad": 5285,
  "Ġraf": 5286,
  "Ġrag": 5287,
  "Ġrai": 5288,
  "Ġraj": 5289,
  "Ġral": 5290,
  "Ġram": 5291,
  "Ġran": 5292,
  "Ġrap": 5293,
  "Ġrat": 5294,
  "Ġrav": 5295,
  "Ġray": 5296,
  "Ġrbp": 5297,
  "Ġrbs": 5298,
  "Ġrcc": 5299,
  "Ġrcd": 5300,
  "Ġrcm": 5301,
  "Ġrdc": 5302,
  "Ġrdp": 5303,
  "Ġrds": 5304,
  "Ġrdt": 5305,
  "Ġreb": 5306,
  "Ġrec": 5307,
  "Ġred": 5308,
  "Ġref": 5309,
  "Ġreg": 5310,
  "Ġrel": 5311,
  "Ġrem": 5312,
  "Ġren": 5313,
  "Ġrep": 5314,
  "Ġres": 5315,
  "Ġret": 5316,
  "Ġrfh": 5317,
  "Ġrfs": 5318,
  "Ġrgs": 5319,
  "Ġrhn": 5320,
  "Ġrib": 5321,
  "Ġrid": 5322,
  "Ġrie": 5323,
  "Ġrif": 5324,
  "Ġrig": 5325,
  "Ġrim": 5326,
  "Ġrin": 5327,
  "Ġrit": 5328,
  "Ġriv": 5329,
  "Ġriz": 5330,
  "Ġrkh": 5331,
  "Ġrls": 5332,
  "Ġrmd": 5333,
  "Ġrms": 5334,
  "Ġrna": 5335,
  "Ġrns": 5336,
  "Ġroc": 5337,
  "Ġrod": 5338,
  "Ġrog": 5339,
  "Ġrol": 5340,
  "Ġrom": 5341,
  "Ġrop": 5342,
  "Ġros": 5343,
  "Ġrot": 5344,
  "Ġrow": 5345,
  "Ġroy": 5346,
  "Ġrpr": 5347,
  "Ġrpy": 5348,
  "Ġrrd": 5349,
  "Ġrrm": 5350,
  "Ġrrs": 5351,
  "Ġrsd": 5352,
  "Ġrsh": 5353,
  "Ġrta": 5354,
  "Ġrtd": 5355,
  "Ġrtt": 5356,
  "Ġrub": 5357,
  "Ġrud": 5358,
  "Ġrum": 5359,
  "Ġrup": 5360,
  "Ġrus": 5361,
  "Ġrut": 5362,
  "Ġruv": 5363,
  "Ġruz": 5364,
  "Ġrws": 5365,
  "Ġryu": 5366,
  "Ġsab": 5367,
  "Ġsac": 5368,
  "Ġsad": 5369,
  "Ġsag": 5370,
  "Ġsah": 5371,
  "Ġsak": 5372,
  "Ġsal": 5373,
  "Ġsam": 5374,
  "Ġsan": 5375,
  "Ġsao": 5376,
  "Ġsap": 5377,
  "Ġsat": 5378,
  "Ġsav": 5379,
  "Ġsaw": 5380,
  "Ġsay": 5381,
  "Ġsbb": 5382,
  "Ġsca": 5383,
  "Ġscd": 5384,
  "Ġsch": 5385,
  "Ġscl": 5386,
  "Ġscn": 5387,
  "Ġscr": 5388,
  "Ġscs": 5389,
  "Ġsct": 5390,
  "Ġsds": 5391,
  "Ġsea": 5392,
  "Ġseb": 5393,
  "Ġsec": 5394,
  "Ġsed": 5395,
  "Ġsee": 5396,
  "Ġseg": 5397,
  "Ġsel": 5398,
  "Ġsem": 5399,
  "Ġsen": 5400,
  "Ġsep": 5401,
  "Ġser": 5402,
  "Ġses": 5403,
  "Ġset": 5404,
  "Ġsex": 5405,
  "Ġsez": 5406,
  "Ġsfd": 5407,
  "Ġsfm": 5408,
  "Ġsgd": 5409,
  "Ġshe": 5410,
  "Ġshw": 5411,
  "Ġshy": 5412,
  "Ġsia": 5413,
  "Ġsib": 5414,
  "Ġsic": 5415,
  "Ġsid": 5416,
  "Ġsil": 5417,
  "Ġsim": 5418,
  "Ġsin": 5419,
  "Ġsir": 5420,
  "Ġsit": 5421,
  "Ġsiv": 5422,
  "Ġsix": 5423,
  "Ġsja": 5424,
  "Ġsjo": 5425,
  "Ġsjs": 5426,
  "Ġske": 5427,
  "Ġslc": 5428,
  "Ġsle": 5429,
  "Ġsli": 5430,
  "Ġslo": 5431,
  "Ġsls": 5432,
  "Ġsly": 5433,
  "Ġsma": 5434,
  "Ġsmc": 5435,
  "Ġsmd": 5436,
  "Ġsmo": 5437,
  "Ġsms": 5438,
  "Ġsna": 5439,
  "Ġsne": 5440,
  "Ġsnr": 5441,
  "Ġsoc": 5442,
  "Ġsod": 5443,
  "Ġsof": 5444,
  "Ġsoh": 5445,
  "Ġsol": 5446,
  "Ġsom": 5447,
  "Ġson": 5448,
  "Ġsor": 5449,
  "Ġsox": 5450,
  "Ġspd": 5451,
  "Ġspe": 5452,
  "Ġspg": 5453,
  "Ġsph": 5454,
  "Ġspi": 5455,
  "Ġspl": 5456,
  "Ġspm": 5457,
  "Ġspr": 5458,
  "Ġsqt": 5459,
  "Ġsqu": 5460,
  "Ġsra": 5461,
  "Ġsrn": 5462,
  "Ġsrs": 5463,
  "Ġsry": 5464,
  "Ġssd": 5465,
  "Ġssk": 5466,
  "Ġssp": 5467,
  "Ġsss": 5468,
  "Ġste": 5469,
  "Ġsth": 5470,
  "Ġsti": 5471,
  "Ġstl": 5472,
  "Ġstr": 5473,
  "Ġsts": 5474,
  "Ġstu": 5475,
  "Ġstx": 5476,
  "Ġsub": 5477,
  "Ġsuc": 5478,
  "Ġsud": 5479,
  "Ġsug": 5480,
  "Ġsul": 5481,
  "Ġsun": 5482,
  "Ġsup": 5483,
  "Ġsur": 5484,
  "Ġsus": 5485,
  "Ġsut": 5486,
  "Ġsux": 5487,
  "Ġsvd": 5488,
  "Ġsve": 5489,
  "Ġswe": 5490,
  "Ġsws": 5491,
  "Ġsyd": 5492,
  "Ġsym": 5493,
  "Ġsyn": 5494,
  "Ġsyp": 5495,
  "Ġsyr": 5496,
  "Ġtab": 5497,
  "Ġtag": 5498,
  "Ġtak": 5499,
  "Ġtal": 5500,
  "Ġtam": 5501,
  "Ġtap": 5502,
  "Ġtar": 5503,
  "Ġtas": 5504,
  "Ġtat": 5505,
  "Ġtau": 5506,
  "Ġtaw": 5507,
  "Ġtay": 5508,
  "Ġtbd": 5509,
  "Ġtbg": 5510,
  "Ġtbi": 5511,
  "Ġtbs": 5512,
  "Ġtcc": 5513,
  "Ġtcd": 5514,
  "Ġtcn": 5515,
  "Ġtco": 5516,
  "Ġtcp": 5517,
  "Ġtcs": 5518,
  "Ġtdh": 5519,
  "Ġtdo": 5520,
  "Ġtdp": 5521,
  "Ġtec": 5522,
  "Ġtef": 5523,
  "Ġtel": 5524,
  "Ġtem": 5525,
  "Ġten": 5526,
  "Ġter": 5527,
  "Ġtes": 5528,
  "Ġtet": 5529,
  "Ġtfm": 5530,
  "Ġtfp": 5531,
  "Ġtga": 5532,
  "Ġtgd": 5533,
  "Ġthc": 5534,
  "Ġthd": 5535,
  "Ġthe": 5536,
  "Ġthi": 5537,
  "Ġthm": 5538,
  "Ġthy": 5539,
  "Ġtia": 5540,
  "Ġtib": 5541,
  "Ġtic": 5542,
  "Ġtie": 5543,
  "Ġtig": 5544,
  "Ġtim": 5545,
  "Ġtin": 5546,
  "Ġtip": 5547,
  "Ġtis": 5548,
  "Ġtit": 5549,
  "Ġtkc": 5550,
  "Ġtma": 5551,
  "Ġtmd": 5552,
  "Ġtmj": 5553,
  "Ġtmn": 5554,
  "Ġtnf": 5555,
  "Ġtnh": 5556,
  "Ġtns": 5557,
  "Ġtnx": 5558,
  "Ġtob": 5559,
  "Ġtoc": 5560,
  "Ġtod": 5561,
  "Ġtoe": 5562,
  "Ġtof": 5563,
  "Ġtog": 5564,
  "Ġtol": 5565,
  "Ġton": 5566,
  "Ġtop": 5567,
  "Ġtor": 5568,
  "Ġtow": 5569,
  "Ġtox": 5570,
  "Ġtpc": 5571,
  "Ġtpe": 5572,
  "Ġtpm": 5573,
  "Ġtpt": 5574,
  "Ġtra": 5575,
  "Ġtre": 5576,
  "Ġtrh": 5577,
  "Ġtri": 5578,
  "Ġtro": 5579,
  "Ġtrp": 5580,
  "Ġtsc": 5581,
  "Ġtsd": 5582,
  "Ġtsg": 5583,
  "Ġtsh": 5584,
  "Ġttd": 5585,
  "Ġttm": 5586,
  "Ġttp": 5587,
  "Ġtub": 5588,
  "Ġtuc": 5589,
  "Ġtuk": 5590,
  "Ġtul": 5591,
  "Ġtum": 5592,
  "Ġtur": 5593,
  "Ġtus": 5594,
  "Ġtwo": 5595,
  "Ġtyk": 5596,
  "Ġtym": 5597,
  "Ġtyp": 5598,
  "Ġtyr": 5599,
  "Ġtys": 5600,
  "Ġuan": 5601,
  "Ġube": 5602,
  "Ġuda": 5603,
  "Ġudd": 5604,
  "Ġudp": 5605,
  "Ġufs": 5606,
  "Ġuhl": 5607,
  "Ġuip": 5608,
  "Ġulc": 5609,
  "Ġuld": 5610,
  "Ġull": 5611,
  "Ġump": 5612,
  "Ġums": 5613,
  "Ġunc": 5614,
  "Ġund": 5615,
  "Ġung": 5616,
  "Ġuni": 5617,
  "Ġups": 5618,
  "Ġupt": 5619,
  "Ġurb": 5620,
  "Ġure": 5621,
  "Ġuro": 5622,
  "Ġuse": 5623,
  "Ġush": 5624,
  "Ġuss": 5625,
  "Ġutp": 5626,
  "Ġuve": 5627,
  "Ġuvm": 5628,
  "Ġvag": 5629,
  "Ġvah": 5630,
  "Ġval": 5631,
  "Ġvam": 5632,
  "Ġvan": 5633,
  "Ġvar": 5634,
  "Ġvas": 5635,
  "Ġvaz": 5636,
  "Ġvcf": 5637,
  "Ġvdd": 5638,
  "Ġved": 5639,
  "Ġvel": 5640,
  "Ġven": 5641,
  "Ġver": 5642,
  "Ġves": 5643,
  "Ġvhl": 5644,
  "Ġvia": 5645,
  "Ġvib": 5646,
  "Ġvig": 5647,
  "Ġvii": 5648,
  "Ġvin": 5649,
  "Ġvip": 5650,
  "Ġvir": 5651,
  "Ġvis": 5652,
  "Ġvit": 5653,
  "Ġviv": 5654,
  "Ġvkh": 5655,
  "Ġvmd": 5656,
  "Ġvog": 5657,
  "Ġvoh": 5658,
  "Ġvol": 5659,
  "Ġvom": 5660,
  "Ġvon": 5661,
  "Ġvrc": 5662,
  "Ġvsc": 5663,
  "Ġvsd": 5664,
  "Ġvsp": 5665,
  "Ġvtl": 5666,
  "Ġvul": 5667,
  "Ġvur": 5668,
  "Ġvwd": 5669,
  "Ġvwm": 5670,
  "Ġvws": 5671,
  "Ġwad": 5672,
  "Ġwag": 5673,
  "Ġwak": 5674,
  "Ġwal": 5675,
  "Ġwar": 5676,
  "Ġwat": 5677,
  "Ġwav": 5678,
  "Ġwbs": 5679,
  "Ġwdh": 5680,
  "Ġwdm": 5681,
  "Ġwea": 5682,
  "Ġweb": 5683,
  "Ġwel": 5684,
  "Ġwer": 5685,
  "Ġwet": 5686,
  "Ġwfs": 5687,
  "Ġwgn": 5688,
  "Ġwhe": 5689,
  "Ġwhs": 5690,
  "Ġwid": 5691,
  "Ġwie": 5692,
  "Ġwil": 5693,
  "Ġwin": 5694,
  "Ġwis": 5695,
  "Ġwit": 5696,
  "Ġwld": 5697,
  "Ġwms": 5698,
  "Ġwnd": 5699,
  "Ġwnv": 5700,
  "Ġwol": 5701,
  "Ġwor": 5702,
  "Ġwpw": 5703,
  "Ġwri": 5704,
  "Ġwrn": 5705,
  "Ġwrs": 5706,
  "Ġwsn": 5707,
  "Ġwss": 5708,
  "Ġwts": 5709,
  "Ġwvs": 5710,
  "Ġwyb": 5711,
  "Ġwzs": 5712,
  "Ġxbs": 5713,
  "Ġxdh": 5714,
  "Ġxdp": 5715,
  "Ġxdr": 5716,
  "Ġxfe": 5717,
  "Ġxfg": 5718,
  "Ġxfs": 5719,
  "Ġxhm": 5720,
  "Ġxii": 5721,
  "Ġxiv": 5722,
  "Ġxla": 5723,
  "Ġxlg": 5724,
  "Ġxlh": 5725,
  "Ġxli": 5726,
  "Ġxln": 5727,
  "Ġxlp": 5728,
  "Ġxls": 5729,
  "Ġxlt": 5730,
  "Ġxmp": 5731,
  "Ġxpa": 5732,
  "Ġxpb": 5733,
  "Ġxpc": 5734,
  "Ġxpd": 5735,
  "Ġxpe": 5736,
  "Ġxpf": 5737,
  "Ġxpg": 5738,
  "Ġxph": 5739,
  "Ġxpv": 5740,
  "Ġxrn": 5741,
  "Ġxsc": 5742,
  "Ġxxx": 5743,
  "Ġxxy": 5744,
  "Ġxyl": 5745,
  "Ġxyy": 5746,
  "Ġyaw": 5747,
  "Ġyim": 5748,
  "Ġyin": 5749,
  "Ġyns": 5750,
  "Ġzap": 5751,
  "Ġzaz": 5752,
  "Ġzdh": 5753,
  "Ġzen": 5754,
  "Ġzha": 5755,
  "Ġzie": 5756,
  "Ġzim": 5757,
  "Ġzls": 5758,
  "Ġznf": 5759,
  "Ġzon": 5760,
  "Ġzss": 5761,
  "Ġzwa": 5762,
  "Ġzwe": 5763,
  "Ġzws": 5764,
  "Ġzyg": 5765,
  "abach": 5766,
  "abies": 5767,
  "abion": 5768,
  "ables": 5769,
  "absor": 5770,
  "abula": 5771,
  "accid": 5772,
  "aceae": 5773,
  "aceum": 5774,
  "acham": 5775,
  "acher": 5776,
  "aches": 5777,
  "achia": 5778,
  "achis": 5779,
  "acial": 5780,
  "acile": 5781,
  "acion": 5782,
  "acker": 5783,
  "acopl": 5784,
  "acral": 5785,
  "acrov": 5786,
  "acted": 5787,
  "acter": 5788,
  "actib": 5789,
  "actic": 5790,
  "actin": 5791,
  "activ": 5792,
  "actor": 5793,
  "actyl": 5794,
  "acunc": 5795,
  "acycl": 5796,
  "adass": 5797,
  "adder": 5798,
  "adial": 5799,
  "adian": 5800,
  "adias": 5801,
  "ading": 5802,
  "adjie": 5803,
  "adren": 5804,
  "aduod": 5805,
  "aemia": 5806,
  "aemic": 5807,
  "affer": 5808,
  "affin": 5809,
  "agias": 5810,
  "aglia": 5811,
  "agmus": 5812,
  "agnos": 5813,
  "ahara": 5814,
  "ahoma": 5815,
  "ailla": 5816,
  "ained": 5817,
  "ajara": 5818,
  "akary": 5819,
  "akias": 5820,
  "akoff": 5821,
  "alach": 5822,
  "alang": 5823,
  "alase": 5824,
  "alass": 5825,
  "alcul": 5826,
  "alden": 5827,
  "algia": 5828,
  "algic": 5829,
  "alias": 5830,
  "align": 5831,
  "alini": 5832,
  "alker": 5833,
  "allat": 5834,
  "allic": 5835,
  "allow": 5836,
  "alsia": 5837,
  "alves": 5838,
  "amata": 5839,
  "amate": 5840,
  "amber": 5841,
  "ament": 5842,
  "ameth": 5843,
  "amide": 5844,
  "amina": 5845,
  "amine": 5846,
  "ammag": 5847,
  "amnes": 5848,
  "amoeb": 5849,
  "amoto": 5850,
  "amura": 5851,
  "amush": 5852,
  "anagh": 5853,
  "ancar": 5854,
  "anced": 5855,
  "ances": 5856,
  "ancre": 5857,
  "ander": 5858,
  "andez": 5859,
  "andib": 5860,
  "aneal": 5861,
  "anesc": 5862,
  "anese": 5863,
  "angle": 5864,
  "anias": 5865,
  "anine": 5866,
  "anish": 5867,
  "anoyl": 5868,
  "ansen": 5869,
  "anski": 5870,
  "ansky": 5871,
  "anson": 5872,
  "antal": 5873,
  "antap": 5874,
  "antar": 5875,
  "anter": 5876,
  "antia": 5877,
  "antib": 5878,
  "antic": 5879,
  "antid": 5880,
  "antin": 5881,
  "antly": 5882,
  "antom": 5883,
  "anuel": 5884,
  "aphyl": 5885,
  "apill": 5886,
  "apomp": 5887,
  "apore": 5888,
  "apses": 5889,
  "aptic": 5890,
  "apton": 5891,
  "apulo": 5892,
  "aquin": 5893,
  "aract": 5894,
  "arano": 5895,
  "arase": 5896,
  "arate": 5897,
  "arbon": 5898,
  "arcin": 5899,
  "arcot": 5900,
  "arder": 5901,
  "ardon": 5902,
  "arges": 5903,
  "argic": 5904,
  "arial": 5905,
  "arian": 5906,
  "arias": 5907,
  "aries": 5908,
  "aring": 5909,
  "arino": 5910,
  "arita": 5911,
  "arium": 5912,
  "armac": 5913,
  "arman": 5914,
  "arnyx": 5915,
  "arran": 5916,
  "arren": 5917,
  "arria": 5918,
  "arsal": 5919,
  "arski": 5920,
  "arson": 5921,
  "arsus": 5922,
  "arter": 5923,
  "arthy": 5924,
  "artin": 5925,
  "artum": 5926,
  "arwal": 5927,
  "aryls": 5928,
  "aryng": 5929,
  "arynx": 5930,
  "asaka": 5931,
  "asaki": 5932,
  "asarc": 5933,
  "ascin": 5934,
  "ashes": 5935,
  "asias": 5936,
  "asies": 5937,
  "asing": 5938,
  "asive": 5939,
  "askar": 5940,
  "asmas": 5941,
  "asmus": 5942,
  "asomb": 5943,
  "asomy": 5944,
  "asone": 5945,
  "assan": 5946,
  "aster": 5947,
  "astia": 5948,
  "astic": 5949,
  "astle": 5950,
  "atase": 5951,
  "atell": 5952,
  "ately": 5953,
  "atent": 5954,
  "atera": 5955,
  "aters": 5956,
  "ateum": 5957,
  "athan": 5958,
  "athet": 5959,
  "atial": 5960,
  "atian": 5961,
  "atide": 5962,
  "atile": 5963,
  "atine": 5964,
  "ating": 5965,
  "ation": 5966,
  "atism": 5967,
  "atite": 5968,
  "ativa": 5969,
  "ative": 5970,
  "atoid": 5971,
  "atoph": 5972,
  "atory": 5973,
  "atosa": 5974,
  "atose": 5975,
  "atous": 5976,
  "atric": 5977,
  "atrix": 5978,
  "atter": 5979,
  "attia": 5980,
  "attic": 5981,
  "atums": 5982,
  "ature": 5983,
  "ausen": 5984,
  "avage": 5985,
  "avian": 5986,
  "avior": 5987,
  "avson": 5988,
  "axial": 5989,
  "axias": 5990,
  "axies": 5991,
  "ayama": 5992,
  "bault": 5993,
  "berry": 5994,
  "bital": 5995,
  "bites": 5996,
  "blain": 5997,
  "blast": 5998,
  "blatt": 5999,
  "bling": 6000,
  "bolia": 6001,
  "bulin": 6002,
  "burns": 6003,
  "caval": 6004,
  "cence": 6005,
  "ceral": 6006,
  "chaed": 6007,
  "ching": 6008,
  "chior": 6009,
  "chock": 6010,
  "choff": 6011,
  "chole": 6012,
  "chond": 6013,
  "chrom": 6014,
  "cious": 6015,
  "cliff": 6016,
  "cling": 6017,
  "cobar": 6018,
  "copic": 6019,
  "creas": 6020,
  "creta": 6021,
  "crine": 6022,
  "cross": 6023,
  "ction": 6024,
  "ctive": 6025,
  "cular": 6026,
  "dalek": 6027,
  "dauer": 6028,
  "denum": 6029,
  "deria": 6030,
  "derma": 6031,
  "dheim": 6032,
  "digit": 6033,
  "dings": 6034,
  "donal": 6035,
  "dural": 6036,
  "eaded": 6037,
  "ealed": 6038,
  "ebald": 6039,
  "ebaut": 6040,
  "eberg": 6041,
  "ebeta": 6042,
  "ebian": 6043,
  "ebius": 6044,
  "ebner": 6045,
  "ebold": 6046,
  "ebral": 6047,
  "ebrow": 6048,
  "ecial": 6049,
  "ecies": 6050,
  "ecker": 6051,
  "ecomb": 6052,
  "ectal": 6053,
  "ectin": 6054,
  "ector": 6055,
  "eddon": 6056,
  "edema": 6057,
  "eders": 6058,
  "edial": 6059,
  "edian": 6060,
  "edias": 6061,
  "edict": 6062,
  "eding": 6063,
  "edion": 6064,
  "edish": 6065,
  "edule": 6066,
  "edull": 6067,
  "egler": 6068,
  "eilia": 6069,
  "elade": 6070,
  "elain": 6071,
  "eland": 6072,
  "elast": 6073,
  "elect": 6074,
  "elena": 6075,
  "eleni": 6076,
  "eless": 6077,
  "elial": 6078,
  "elian": 6079,
  "elica": 6080,
  "eling": 6081,
  "elius": 6082,
  "ellar": 6083,
  "ellas": 6084,
  "ellen": 6085,
  "eller": 6086,
  "elley": 6087,
  "ellig": 6088,
  "ellin": 6089,
  "ellow": 6090,
  "elock": 6091,
  "elong": 6092,
  "elsch": 6093,
  "elsen": 6094,
  "elson": 6095,
  "emann": 6096,
  "emark": 6097,
  "emase": 6098,
  "embly": 6099,
  "emens": 6100,
  "ement": 6101,
  "emias": 6102,
  "emink": 6103,
  "emoid": 6104,
  "emond": 6105,
  "emper": 6106,
  "empor": 6107,
  "emuka": 6108,
  "enail": 6109,
  "enata": 6110,
  "enate": 6111,
  "ences": 6112,
  "encie": 6113,
  "endal": 6114,
  "endam": 6115,
  "ender": 6116,
  "eness": 6117,
  "enhar": 6118,
  "enias": 6119,
  "enign": 6120,
  "enile": 6121,
  "ening": 6122,
  "enism": 6123,
  "enite": 6124,
  "enmen": 6125,
  "enner": 6126,
  "enous": 6127,
  "enoyl": 6128,
  "ensae": 6129,
  "ensen": 6130,
  "ensis": 6131,
  "ensor": 6132,
  "enstr": 6133,
  "ental": 6134,
  "entea": 6135,
  "enter": 6136,
  "entey": 6137,
  "entia": 6138,
  "entil": 6139,
  "entin": 6140,
  "entup": 6141,
  "eolum": 6142,
  "eorge": 6143,
  "epend": 6144,
  "epens": 6145,
  "ephal": 6146,
  "epine": 6147,
  "eping": 6148,
  "epsin": 6149,
  "epsis": 6150,
  "eptal": 6151,
  "eptic": 6152,
  "eptid": 6153,
  "eptor": 6154,
  "equal": 6155,
  "erapy": 6156,
  "erary": 6157,
  "erate": 6158,
  "ercul": 6159,
  "erden": 6160,
  "ereal": 6161,
  "erens": 6162,
  "erent": 6163,
  "ergic": 6164,
  "erhof": 6165,
  "erian": 6166,
  "erich": 6167,
  "eriff": 6168,
  "erius": 6169,
  "erkal": 6170,
  "ermak": 6171,
  "ermam": 6172,
  "erman": 6173,
  "ermia": 6174,
  "ermic": 6175,
  "ernal": 6176,
  "eroid": 6177,
  "erone": 6178,
  "eroph": 6179,
  "erous": 6180,
  "ersch": 6181,
  "ersed": 6182,
  "erson": 6183,
  "ertia": 6184,
  "ertoe": 6185,
  "erton": 6186,
  "eryth": 6187,
  "esani": 6188,
  "esaur": 6189,
  "eshan": 6190,
  "esian": 6191,
  "esias": 6192,
  "esidi": 6193,
  "esist": 6194,
  "esize": 6195,
  "esley": 6196,
  "espie": 6197,
  "essel": 6198,
  "essin": 6199,
  "esson": 6200,
  "essor": 6201,
  "ester": 6202,
  "estig": 6203,
  "estin": 6204,
  "eston": 6205,
  "etase": 6206,
  "etast": 6207,
  "etate": 6208,
  "eterm": 6209,
  "ethre": 6210,
  "ethyl": 6211,
  "etoff": 6212,
  "etoma": 6213,
  "etozo": 6214,
  "etric": 6215,
  "etroc": 6216,
  "etrop": 6217,
  "etsch": 6218,
  "ettes": 6219,
  "ettsi": 6220,
  "ewald": 6221,
  "eworm": 6222,
  "ewski": 6223,
  "ezing": 6224,
  "farin": 6225,
  "feldt": 6226,
  "ferer": 6227,
  "fever": 6228,
  "ffner": 6229,
  "field": 6230,
  "flake": 6231,
  "fmann": 6232,
  "focal": 6233,
  "forth": 6234,
  "found": 6235,
  "front": 6236,
  "fting": 6237,
  "gable": 6238,
  "garis": 6239,
  "gastr": 6240,
  "gemin": 6241,
  "gener": 6242,
  "genic": 6243,
  "geral": 6244,
  "geria": 6245,
  "gesia": 6246,
  "gesic": 6247,
  "ggias": 6248,
  "gradi": 6249,
  "graef": 6250,
  "grath": 6251,
  "grown": 6252,
  "hardt": 6253,
  "heiro": 6254,
  "histi": 6255,
  "hlers": 6256,
  "hoorn": 6257,
  "house": 6258,
  "huana": 6259,
  "iaens": 6260,
  "iaere": 6261,
  "ialis": 6262,
  "iaria": 6263,
  "iaris": 6264,
  "iases": 6265,
  "iasis": 6266,
  "iatal": 6267,
  "iated": 6268,
  "iatic": 6269,
  "iativ": 6270,
  "ibaud": 6271,
  "iberg": 6272,
  "iberi": 6273,
  "ibose": 6274,
  "ibrey": 6275,
  "ibrio": 6276,
  "ichia": 6277,
  "icial": 6278,
  "ician": 6279,
  "ickes": 6280,
  "icore": 6281,
  "iculo": 6282,
  "idars": 6283,
  "idase": 6284,
  "idema": 6285,
  "iderm": 6286,
  "idero": 6287,
  "idges": 6288,
  "idian": 6289,
  "idine": 6290,
  "iding": 6291,
  "idism": 6292,
  "idity": 6293,
  "idium": 6294,
  "idose": 6295,
  "idual": 6296,
  "iduct": 6297,
  "iella": 6298,
  "iello": 6299,
  "iemic": 6300,
  "ieres": 6301,
  "ierre": 6302,
  "iesch": 6303,
  "ieser": 6304,
  "iesis": 6305,
  "ietal": 6306,
  "ifasc": 6307,
  "ifest": 6308,
  "iffer": 6309,
  "iffin": 6310,
  "ified": 6311,
  "ifman": 6312,
  "iform": 6313,
  "iforn": 6314,
  "ifuss": 6315,
  "ighth": 6316,
  "igler": 6317,
  "igral": 6318,
  "iitis": 6319,
  "ikoff": 6320,
  "ilder": 6321,
  "ileth": 6322,
  "iliac": 6323,
  "ilian": 6324,
  "iline": 6325,
  "ilino": 6326,
  "ility": 6327,
  "illar": 6328,
  "illas": 6329,
  "illed": 6330,
  "iller": 6331,
  "illes": 6332,
  "illie": 6333,
  "illin": 6334,
  "illus": 6335,
  "ilogy": 6336,
  "iloia": 6337,
  "ilsky": 6338,
  "iltra": 6339,
  "ilvie": 6340,
  "imaea": 6341,
  "imean": 6342,
  "imias": 6343,
  "imler": 6344,
  "immel": 6345,
  "immun": 6346,
  "imoto": 6347,
  "inant": 6348,
  "inary": 6349,
  "inase": 6350,
  "inate": 6351,
  "inato": 6352,
  "iness": 6353,
  "inger": 6354,
  "inhib": 6355,
  "inhum": 6356,
  "inica": 6357,
  "inick": 6358,
  "ining": 6359,
  "inish": 6360,
  "inism": 6361,
  "inked": 6362,
  "inkel": 6363,
  "inker": 6364,
  "inoma": 6365,
  "inosa": 6366,
  "inous": 6367,
  "insel": 6368,
  "insic": 6369,
  "inski": 6370,
  "insky": 6371,
  "inson": 6372,
  "inter": 6373,
  "invas": 6374,
  "iomas": 6375,
  "ional": 6376,
  "ionec": 6377,
  "ioneu": 6378,
  "ionic": 6379,
  "ionyl": 6380,
  "ioses": 6381,
  "iosis": 6382,
  "ioste": 6383,
  "iotic": 6384,
  "ipert": 6385,
  "iplas": 6386,
  "ipple": 6387,
  "ippos": 6388,
  "iproc": 6389,
  "iquin": 6390,
  "ircul": 6391,
  "irect": 6392,
  "irias": 6393,
  "irick": 6394,
  "irium": 6395,
  "irler": 6396,
  "isata": 6397,
  "isher": 6398,
  "isian": 6399,
  "ision": 6400,
  "isman": 6401,
  "ismus": 6402,
  "isons": 6403,
  "isper": 6404,
  "isson": 6405,
  "isted": 6406,
  "ister": 6407,
  "istic": 6408,
  "isual": 6409,
  "itans": 6410,
  "itant": 6411,
  "itary": 6412,
  "iteal": 6413,
  "iters": 6414,
  "ithel": 6415,
  "ither": 6416,
  "ithin": 6417,
  "ithya": 6418,
  "itida": 6419,
  "itide": 6420,
  "ities": 6421,
  "itila": 6422,
  "iting": 6423,
  "ition": 6424,
  "itish": 6425,
  "itive": 6426,
  "itone": 6427,
  "itons": 6428,
  "itors": 6429,
  "itory": 6430,
  "ittac": 6431,
  "ittal": 6432,
  "itted": 6433,
  "ittle": 6434,
  "itude": 6435,
  "iuria": 6436,
  "iuric": 6437,
  "ivast": 6438,
  "ivers": 6439,
  "ivian": 6440,
  "izian": 6441,
  "izing": 6442,
  "jaerg": 6443,
  "jects": 6444,
  "jover": 6445,
  "juana": 6446,
  "kelet": 6447,
  "keown": 6448,
  "kerat": 6449,
  "keton": 6450,
  "khite": 6451,
  "kless": 6452,
  "kmann": 6453,
  "knife": 6454,
  "lamps": 6455,
  "lanti": 6456,
  "lassi": 6457,
  "ledge": 6458,
  "legel": 6459,
  "leman": 6460,
  "lemia": 6461,
  "lenia": 6462,
  "lenic": 6463,
  "leria": 6464,
  "letes": 6465,
  "leton": 6466,
  "lexia": 6467,
  "lexic": 6468,
  "lices": 6469,
  "lioma": 6470,
  "litis": 6471,
  "loids": 6472,
  "lomer": 6473,
  "lonus": 6474,
  "luent": 6475,
  "luenz": 6476,
  "lycan": 6477,
  "lycer": 6478,
  "lying": 6479,
  "lytic": 6480,
  "maack": 6481,
  "maker": 6482,
  "matic": 6483,
  "meier": 6484,
  "ments": 6485,
  "metal": 6486,
  "meter": 6487,
  "minth": 6488,
  "molar": 6489,
  "monic": 6490,
  "natal": 6491,
  "nekam": 6492,
  "nelli": 6493,
  "neous": 6494,
  "nesic": 6495,
  "netii": 6496,
  "neval": 6497,
  "nevie": 6498,
  "nific": 6499,
  "nikov": 6500,
  "nikow": 6501,
  "nitus": 6502,
  "noiti": 6503,
  "nosin": 6504,
  "oacid": 6505,
  "oaden": 6506,
  "oamel": 6507,
  "oamin": 6508,
  "oanal": 6509,
  "oangi": 6510,
  "oarth": 6511,
  "obarb": 6512,
  "obart": 6513,
  "obezo": 6514,
  "obias": 6515,
  "obile": 6516,
  "obiol": 6517,
  "obium": 6518,
  "oblas": 6519,
  "ocalc": 6520,
  "ocamp": 6521,
  "ocarb": 6522,
  "ocard": 6523,
  "occid": 6524,
  "occul": 6525,
  "ocele": 6526,
  "ocent": 6527,
  "ocerc": 6528,
  "ocere": 6529,
  "ocerv": 6530,
  "ochei": 6531,
  "ochez": 6532,
  "ochle": 6533,
  "ochol": 6534,
  "ocial": 6535,
  "ocitr": 6536,
  "ocity": 6537,
  "oclas": 6538,
  "ococc": 6539,
  "oconi": 6540,
  "ocont": 6541,
  "ocorm": 6542,
  "ocost": 6543,
  "ocycl": 6544,
  "ocyst": 6545,
  "ocyte": 6546,
  "ocyth": 6547,
  "odect": 6548,
  "odend": 6549,
  "odent": 6550,
  "oderm": 6551,
  "odias": 6552,
  "odies": 6553,
  "odion": 6554,
  "odisc": 6555,
  "odist": 6556,
  "odium": 6557,
  "odius": 6558,
  "odont": 6559,
  "odopa": 6560,
  "odops": 6561,
  "odoth": 6562,
  "oduod": 6563,
  "odyst": 6564,
  "ofaci": 6565,
  "ofasc": 6566,
  "oferr": 6567,
  "oflav": 6568,
  "oform": 6569,
  "ofusc": 6570,
  "ogene": 6571,
  "ogens": 6572,
  "oglob": 6573,
  "ogluc": 6574,
  "oglut": 6575,
  "oglyc": 6576,
  "ognos": 6577,
  "ogoni": 6578,
  "ogora": 6579,
  "ogram": 6580,
  "ogrel": 6581,
  "ohert": 6582,
  "ohoid": 6583,
  "ohyal": 6584,
  "ohyph": 6585,
  "oidal": 6586,
  "oidea": 6587,
  "oides": 6588,
  "oined": 6589,
  "okoro": 6590,
  "okwim": 6591,
  "olact": 6592,
  "olano": 6593,
  "olars": 6594,
  "olase": 6595,
  "older": 6596,
  "olent": 6597,
  "oleuk": 6598,
  "olian": 6599,
  "olism": 6600,
  "olith": 6601,
  "ollic": 6602,
  "ollis": 6603,
  "olmia": 6604,
  "ology": 6605,
  "olons": 6606,
  "olopp": 6607,
  "olpos": 6608,
  "omach": 6609,
  "omaly": 6610,
  "omann": 6611,
  "omata": 6612,
  "ombes": 6613,
  "omens": 6614,
  "ometa": 6615,
  "omial": 6616,
  "omian": 6617,
  "omias": 6618,
  "omide": 6619,
  "omies": 6620,
  "ommun": 6621,
  "omnia": 6622,
  "omous": 6623,
  "omple": 6624,
  "omyel": 6625,
  "onase": 6626,
  "onate": 6627,
  "onder": 6628,
  "ondyl": 6629,
  "onema": 6630,
  "onent": 6631,
  "oneph": 6632,
  "ongue": 6633,
  "onial": 6634,
  "onias": 6635,
  "onica": 6636,
  "onium": 6637,
  "onjug": 6638,
  "onomo": 6639,
  "ontal": 6640,
  "ontia": 6641,
  "onych": 6642,
  "ooste": 6643,
  "opach": 6644,
  "opall": 6645,
  "opalp": 6646,
  "opard": 6647,
  "opari": 6648,
  "opath": 6649,
  "opaus": 6650,
  "opeau": 6651,
  "opent": 6652,
  "operi": 6653,
  "ophag": 6654,
  "ophan": 6655,
  "ophil": 6656,
  "ophob": 6657,
  "ophor": 6658,
  "ophth": 6659,
  "ophys": 6660,
  "ophyt": 6661,
  "opian": 6662,
  "opias": 6663,
  "opies": 6664,
  "oping": 6665,
  "oplas": 6666,
  "opont": 6667,
  "opoul": 6668,
  "oprol": 6669,
  "opros": 6670,
  "opsia": 6671,
  "optic": 6672,
  "opust": 6673,
  "orage": 6674,
  "orain": 6675,
  "oraph": 6676,
  "orase": 6677,
  "orbut": 6678,
  "order": 6679,
  "orean": 6680,
  "orgen": 6681,
  "orhin": 6682,
  "orial": 6683,
  "orian": 6684,
  "orias": 6685,
  "oride": 6686,
  "orine": 6687,
  "orini": 6688,
  "oripa": 6689,
  "orken": 6690,
  "orled": 6691,
  "ormal": 6692,
  "ornea": 6693,
  "orner": 6694,
  "ornis": 6695,
  "oroid": 6696,
  "orous": 6697,
  "orpha": 6698,
  "orpus": 6699,
  "orsal": 6700,
  "ortal": 6701,
  "orted": 6702,
  "ortem": 6703,
  "ortic": 6704,
  "ortin": 6705,
  "ortis": 6706,
  "orums": 6707,
  "oscle": 6708,
  "osedi": 6709,
  "osens": 6710,
  "oseph": 6711,
  "oside": 6712,
  "osine": 6713,
  "osing": 6714,
  "osity": 6715,
  "osive": 6716,
  "osmia": 6717,
  "osoma": 6718,
  "osome": 6719,
  "ospir": 6720,
  "ospor": 6721,
  "ossia": 6722,
  "oster": 6723,
  "ostom": 6724,
  "osulf": 6725,
  "osylc": 6726,
  "osyst": 6727,
  "otass": 6728,
  "othel": 6729,
  "otian": 6730,
  "otica": 6731,
  "otile": 6732,
  "otine": 6733,
  "otomy": 6734,
  "otrop": 6735,
  "ottic": 6736,
  "otype": 6737,
  "otzot": 6738,
  "oulin": 6739,
  "ousis": 6740,
  "ousse": 6741,
  "ousus": 6742,
  "ovacu": 6743,
  "oveal": 6744,
  "ovisc": 6745,
  "owicz": 6746,
  "owitz": 6747,
  "owski": 6748,
  "owsky": 6749,
  "oxane": 6750,
  "oxide": 6751,
  "parag": 6752,
  "pathy": 6753,
  "peral": 6754,
  "petic": 6755,
  "phall": 6756,
  "phics": 6757,
  "phleb": 6758,
  "phora": 6759,
  "phrag": 6760,
  "phrey": 6761,
  "pidus": 6762,
  "pigin": 6763,
  "plant": 6764,
  "plasm": 6765,
  "pling": 6766,
  "prech": 6767,
  "print": 6768,
  "ption": 6769,
  "ptive": 6770,
  "pyruv": 6771,
  "quito": 6772,
  "quois": 6773,
  "rabil": 6774,
  "raden": 6775,
  "raeli": 6776,
  "raine": 6777,
  "ramel": 6778,
  "randa": 6779,
  "rania": 6780,
  "ranii": 6781,
  "rante": 6782,
  "ranul": 6783,
  "rasia": 6784,
  "rated": 6785,
  "ratia": 6786,
  "rault": 6787,
  "ravik": 6788,
  "rayan": 6789,
  "reich": 6790,
  "relia": 6791,
  "renia": 6792,
  "renic": 6793,
  "retin": 6794,
  "rical": 6795,
  "rican": 6796,
  "rices": 6797,
  "richy": 6798,
  "ridge": 6799,
  "ridic": 6800,
  "riers": 6801,
  "right": 6802,
  "rimal": 6803,
  "rison": 6804,
  "ritic": 6805,
  "ritin": 6806,
  "ritis": 6807,
  "rmann": 6808,
  "rnith": 6809,
  "rocon": 6810,
  "rocyt": 6811,
  "roduc": 6812,
  "rodys": 6813,
  "rofol": 6814,
  "rogen": 6815,
  "rohem": 6816,
  "rolip": 6817,
  "romal": 6818,
  "romas": 6819,
  "romat": 6820,
  "romel": 6821,
  "romuc": 6822,
  "romyx": 6823,
  "ronch": 6824,
  "rophy": 6825,
  "ropia": 6826,
  "ropic": 6827,
  "ropin": 6828,
  "ropod": 6829,
  "ropri": 6830,
  "ropyr": 6831,
  "rosch": 6832,
  "roses": 6833,
  "roshi": 6834,
  "rosin": 6835,
  "rosis": 6836,
  "roste": 6837,
  "rosus": 6838,
  "rotal": 6839,
  "roten": 6840,
  "rotia": 6841,
  "rotic": 6842,
  "rotid": 6843,
  "roton": 6844,
  "rough": 6845,
  "rowth": 6846,
  "sburg": 6847,
  "scher": 6848,
  "seini": 6849,
  "selli": 6850,
  "seous": 6851,
  "sfeld": 6852,
  "shans": 6853,
  "sible": 6854,
  "sibly": 6855,
  "sific": 6856,
  "simon": 6857,
  "sions": 6858,
  "sives": 6859,
  "smans": 6860,
  "smark": 6861,
  "socas": 6862,
  "sonia": 6863,
  "sores": 6864,
  "stada": 6865,
  "stein": 6866,
  "stial": 6867,
  "stiel": 6868,
  "still": 6869,
  "storp": 6870,
  "strom": 6871,
  "struc": 6872,
  "sythe": 6873,
  "tacar": 6874,
  "tebol": 6875,
  "teine": 6876,
  "tensi": 6877,
  "teous": 6878,
  "terew": 6879,
  "terin": 6880,
  "terix": 6881,
  "terna": 6882,
  "terus": 6883,
  "thalm": 6884,
  "thaus": 6885,
  "therr": 6886,
  "thers": 6887,
  "tiary": 6888,
  "tible": 6889,
  "tical": 6890,
  "ticis": 6891,
  "ticks": 6892,
  "ticul": 6893,
  "ticum": 6894,
  "ticus": 6895,
  "tides": 6896,
  "tiers": 6897,
  "tillo": 6898,
  "timal": 6899,
  "tinal": 6900,
  "tinen": 6901,
  "tines": 6902,
  "tinum": 6903,
  "tions": 6904,
  "tious": 6905,
  "tisic": 6906,
  "tisms": 6907,
  "titis": 6908,
  "tmann": 6909,
  "toses": 6910,
  "tosis": 6911,
  "toval": 6912,
  "toxic": 6913,
  "trans": 6914,
  "treal": 6915,
  "trens": 6916,
  "trich": 6917,
  "trigo": 6918,
  "tript": 6919,
  "troph": 6920,
  "trypt": 6921,
  "ttles": 6922,
  "tured": 6923,
  "turia": 6924,
  "tyoca": 6925,
  "uated": 6926,
  "ubben": 6927,
  "uberg": 6928,
  "ubert": 6929,
  "ubian": 6930,
  "ubism": 6931,
  "ubral": 6932,
  "uccin": 6933,
  "ucent": 6934,
  "ucher": 6935,
  "uchis": 6936,
  "uchwa": 6937,
  "ucine": 6938,
  "uctal": 6939,
  "udesc": 6940,
  "uding": 6941,
  "udism": 6942,
  "udley": 6943,
  "uelan": 6944,
  "ufous": 6945,
  "uhara": 6946,
  "ukawa": 6947,
  "ulant": 6948,
  "ulare": 6949,
  "ulate": 6950,
  "ulbar": 6951,
  "ulean": 6952,
  "ulent": 6953,
  "ulfov": 6954,
  "uliar": 6955,
  "ulicz": 6956,
  "ulieu": 6957,
  "ulism": 6958,
  "uller": 6959,
  "ulman": 6960,
  "ulnar": 6961,
  "uloma": 6962,
  "ulosa": 6963,
  "uloul": 6964,
  "ulous": 6965,
  "umada": 6966,
  "umbil": 6967,
  "ummer": 6968,
  "umont": 6969,
  "umscr": 6970,
  "uncal": 6971,
  "uncle": 6972,
  "under": 6973,
  "unich": 6974,
  "unier": 6975,
  "union": 6976,
  "uniss": 6977,
  "unken": 6978,
  "unnel": 6979,
  "unois": 6980,
  "upine": 6981,
  "uping": 6982,
  "upted": 6983,
  "urase": 6984,
  "urata": 6985,
  "urati": 6986,
  "urete": 6987,
  "urger": 6988,
  "urias": 6989,
  "urida": 6990,
  "uring": 6991,
  "urity": 6992,
  "urnal": 6993,
  "uroki": 6994,
  "ursor": 6995,
  "urton": 6996,
  "uruta": 6997,
  "urysm": 6998,
  "uscep": 6999,
  "uscum": 7000,
  "usias": 7001,
  "usion": 7002,
  "usive": 7003,
  "usory": 7004,
  "ussan": 7005,
  "uster": 7006,
  "ustic": 7007,
  "usual": 7008,
  "utane": 7009,
  "utase": 7010,
  "uther": 7011,
  "utier": 7012,
  "uting": 7013,
  "ution": 7014,
  "utism": 7015,
  "utsch": 7016,
  "utsug": 7017,
  "utter": 7018,
  "uvant": 7019,
  "uvate": 7020,
  "uvier": 7021,
  "uyama": 7022,
  "velop": 7023,
  "venth": 7024,
  "verse": 7025,
  "virus": 7026,
  "vital": 7027,
  "vival": 7028,
  "vular": 7029,
  "vulin": 7030,
  "vulus": 7031,
  "waiti": 7032,
  "water": 7033,
  "weger": 7034,
  "werse": 7035,
  "worms": 7036,
  "xican": 7037,
  "xicus": 7038,
  "ybert": 7039,
  "ycard": 7040,
  "ycomb": 7041,
  "ycott": 7042,
  "ydrom": 7043,
  "ygeal": 7044,
  "ygium": 7045,
  "ygous": 7046,
  "yguan": 7047,
  "ylase": 7048,
  "ylate": 7049,
  "yline": 7050,
  "yllob": 7051,
  "ymann": 7052,
  "ymoma": 7053,
  "ymond": 7054,
  "ynaud": 7055,
  "yneck": 7056,
  "yness": 7057,
  "ynold": 7058,
  "ynski": 7059,
  "yoshi": 7060,
  "ypass": 7061,
  "yphen": 7062,
  "yphil": 7063,
  "ypnea": 7064,
  "ypsin": 7065,
  "yrate": 7066,
  "yrias": 7067,
  "yring": 7068,
  "yroid": 7069,
  "ysian": 7070,
  "ystic": 7071,
  "ystis": 7072,
  "ythms": 7073,
  "ytoin": 7074,
  "ziger": 7075,
  "znica": 7076,
  "zweig": 7077,
  "Ġ1210": 7078,
  "Ġ1300": 7079,
  "Ġ1375": 7080,
  "Ġ1901": 7081,
  "Ġ3500": 7082,
  "Ġ5178": 7083,
  "Ġaaas": 7084,
  "Ġaabt": 7085,
  "Ġaadc": 7086,
  "Ġaadh": 7087,
  "Ġaapc": 7088,
  "Ġaasa": 7089,
  "Ġaase": 7090,
  "Ġabca": 7091,
  "Ġabcb": 7092,
  "Ġabcd": 7093,
  "Ġabds": 7094,
  "Ġaber": 7095,
  "Ġabhs": 7096,
  "Ġabor": 7097,
  "Ġabri": 7098,
  "Ġacad": 7099,
  "Ġacat": 7100,
  "Ġacdc": 7101,
  "Ġacet": 7102,
  "Ġacfd": 7103,
  "Ġache": 7104,
  "Ġachl": 7105,
  "Ġachm": 7106,
  "Ġachp": 7107,
  "Ġacid": 7108,
  "Ġacin": 7109,
  "Ġacit": 7110,
  "Ġaclf": 7111,
  "Ġacls": 7112,
  "Ġacml": 7113,
  "Ġacne": 7114,
  "Ġacps": 7115,
  "Ġacqu": 7116,
  "Ġacro": 7117,
  "Ġacrp": 7118,
  "Ġacth": 7119,
  "Ġacug": 7120,
  "Ġacyl": 7121,
  "Ġadam": 7122,
  "Ġadca": 7123,
  "Ġadcc": 7124,
  "Ġadcl": 7125,
  "Ġaden": 7126,
  "Ġadfn": 7127,
  "Ġadhd": 7128,
  "Ġadhr": 7129,
  "Ġadie": 7130,
  "Ġadip": 7131,
  "Ġadld": 7132,
  "Ġadne": 7133,
  "Ġadnf": 7134,
  "Ġados": 7135,
  "Ġadpe": 7136,
  "Ġadsa": 7137,
  "Ġadsd": 7138,
  "Ġadsl": 7139,
  "Ġadwh": 7140,
  "Ġadyn": 7141,
  "Ġaemk": 7142,
  "Ġaero": 7143,
  "Ġaexs": 7144,
  "Ġafap": 7145,
  "Ġagat": 7146,
  "Ġaged": 7147,
  "Ġagen": 7148,
  "Ġaggr": 7149,
  "Ġagmx": 7150,
  "Ġagps": 7151,
  "Ġahch": 7152,
  "Ġahds": 7153,
  "Ġahus": 7154,
  "Ġaica": 7155,
  "Ġaidp": 7156,
  "Ġaids": 7157,
  "Ġaied": 7158,
  "Ġaipl": 7159,
  "Ġaird": 7160,
  "Ġaire": 7161,
  "Ġaitd": 7162,
  "Ġaith": 7163,
  "Ġaitp": 7164,
  "Ġaivr": 7165,
  "Ġaksu": 7166,
  "Ġalad": 7167,
  "Ġalag": 7168,
  "Ġalan": 7169,
  "Ġalar": 7170,
  "Ġalba": 7171,
  "Ġalds": 7172,
  "Ġaleu": 7173,
  "Ġalex": 7174,
  "Ġalgs": 7175,
  "Ġallo": 7176,
  "Ġalme": 7177,
  "Ġalms": 7178,
  "Ġalog": 7179,
  "Ġaloi": 7180,
  "Ġalps": 7181,
  "Ġalrh": 7182,
  "Ġalsg": 7183,
  "Ġalsj": 7184,
  "Ġalso": 7185,
  "Ġalss": 7186,
  "Ġalve": 7187,
  "Ġalxd": 7188,
  "Ġamaz": 7189,
  "Ġamcn": 7190,
  "Ġamcx": 7191,
  "Ġamdg": 7192,
  "Ġamdh": 7193,
  "Ġamdm": 7194,
  "Ġameb": 7195,
  "Ġameg": 7196,
  "Ġamel": 7197,
  "Ġamin": 7198,
  "Ġamme": 7199,
  "Ġampl": 7200,
  "Ġamrf": 7201,
  "Ġamst": 7202,
  "Ġamyg": 7203,
  "Ġamyl": 7204,
  "Ġamyt": 7205,
  "Ġanad": 7206,
  "Ġanal": 7207,
  "Ġanap": 7208,
  "Ġanca": 7209,
  "Ġancr": 7210,
  "Ġandd": 7211,
  "Ġanep": 7212,
  "Ġanes": 7213,
  "Ġanet": 7214,
  "Ġanfh": 7215,
  "Ġangi": 7216,
  "Ġanib": 7217,
  "Ġanic": 7218,
  "Ġanis": 7219,
  "Ġanll": 7220,
  "Ġanni": 7221,
  "Ġanon": 7222,
  "Ġanop": 7223,
  "Ġanos": 7224,
  "Ġanov": 7225,
  "Ġanox": 7226,
  "Ġante": 7227,
  "Ġanth": 7228,
  "Ġanti": 7229,
  "Ġanus": 7230,
  "Ġaoch": 7231,
  "Ġaoii": 7232,
  "Ġaoms": 7233,
  "Ġaorf": 7234,
  "Ġaort": 7235,
  "Ġaovd": 7236,
  "Ġapca": 7237,
  "Ġapds": 7238,
  "Ġapic": 7239,
  "Ġapkd": 7240,
  "Ġapld": 7241,
  "Ġapmr": 7242,
  "Ġapoc": 7243,
  "Ġapoe": 7244,
  "Ġapop": 7245,
  "Ġaprt": 7246,
  "Ġapsm": 7247,
  "Ġapss": 7248,
  "Ġapud": 7249,
  "Ġapvr": 7250,
  "Ġarak": 7251,
  "Ġarcc": 7252,
  "Ġarch": 7253,
  "Ġarci": 7254,
  "Ġarcl": 7255,
  "Ġarcs": 7256,
  "Ġards": 7257,
  "Ġaref": 7258,
  "Ġarei": 7259,
  "Ġaren": 7260,
  "Ġarhi": 7261,
  "Ġarhp": 7262,
  "Ġarhr": 7263,
  "Ġarih": 7264,
  "Ġarmd": 7265,
  "Ġarms": 7266,
  "Ġarpa": 7267,
  "Ġarrh": 7268,
  "Ġarsa": 7269,
  "Ġarsb": 7270,
  "Ġarth": 7271,
  "Ġarts": 7272,
  "Ġarvc": 7273,
  "Ġarvd": 7274,
  "Ġarwh": 7275,
  "Ġaryl": 7276,
  "Ġasat": 7277,
  "Ġasdp": 7278,
  "Ġasmd": 7279,
  "Ġasod": 7280,
  "Ġaspa": 7281,
  "Ġaspg": 7282,
  "Ġasps": 7283,
  "Ġasrt": 7284,
  "Ġasth": 7285,
  "Ġasym": 7286,
  "Ġatax": 7287,
  "Ġatcs": 7288,
  "Ġatel": 7289,
  "Ġatfb": 7290,
  "Ġathe": 7291,
  "Ġaths": 7292,
  "Ġathy": 7293,
  "Ġatic": 7294,
  "Ġatld": 7295,
  "Ġatll": 7296,
  "Ġatmd": 7297,
  "Ġatod": 7298,
  "Ġatre": 7299,
  "Ġatri": 7300,
  "Ġatrx": 7301,
  "Ġattr": 7302,
  "Ġaudi": 7303,
  "Ġaugh": 7304,
  "Ġaula": 7305,
  "Ġauna": 7306,
  "Ġaunb": 7307,
  "Ġaunx": 7308,
  "Ġaura": 7309,
  "Ġaure": 7310,
  "Ġauro": 7311,
  "Ġauto": 7312,
  "Ġauts": 7313,
  "Ġavcd": 7314,
  "Ġaved": 7315,
  "Ġavmd": 7316,
  "Ġavsd": 7317,
  "Ġavul": 7318,
  "Ġaxis": 7319,
  "Ġaxon": 7320,
  "Ġaxpc": 7321,
  "Ġazar": 7322,
  "Ġaziz": 7323,
  "Ġbaby": 7324,
  "Ġback": 7325,
  "Ġbads": 7326,
  "Ġbaff": 7327,
  "Ġbaib": 7328,
  "Ġbald": 7329,
  "Ġball": 7330,
  "Ġbalo": 7331,
  "Ġbanc": 7332,
  "Ġband": 7333,
  "Ġbanf": 7334,
  "Ġbang": 7335,
  "Ġbank": 7336,
  "Ġbann": 7337,
  "Ġbant": 7338,
  "Ġbarb": 7339,
  "Ġbarc": 7340,
  "Ġbard": 7341,
  "Ġbare": 7342,
  "Ġbarr": 7343,
  "Ġbart": 7344,
  "Ġbary": 7345,
  "Ġbase": 7346,
  "Ġbass": 7347,
  "Ġbath": 7348,
  "Ġbatt": 7349,
  "Ġbaum": 7350,
  "Ġbaur": 7351,
  "Ġbavm": 7352,
  "Ġbbbg": 7353,
  "Ġbbgd": 7354,
  "Ġbbis": 7355,
  "Ġbcie": 7356,
  "Ġbckd": 7357,
  "Ġbcll": 7358,
  "Ġbcns": 7359,
  "Ġbcpm": 7360,
  "Ġbcym": 7361,
  "Ġbdcs": 7362,
  "Ġbdet": 7363,
  "Ġbdls": 7364,
  "Ġbdmf": 7365,
  "Ġbdmr": 7366,
  "Ġbdsd": 7367,
  "Ġbeal": 7368,
  "Ġbean": 7369,
  "Ġbeas": 7370,
  "Ġbeat": 7371,
  "Ġbech": 7372,
  "Ġbeck": 7373,
  "Ġbehc": 7374,
  "Ġbehr": 7375,
  "Ġbell": 7376,
  "Ġbenc": 7377,
  "Ġbend": 7378,
  "Ġbens": 7379,
  "Ġbent": 7380,
  "Ġberg": 7381,
  "Ġberk": 7382,
  "Ġbern": 7383,
  "Ġbert": 7384,
  "Ġbesc": 7385,
  "Ġbest": 7386,
  "Ġbeta": 7387,
  "Ġbeth": 7388,
  "Ġbeur": 7389,
  "Ġbezo": 7390,
  "Ġbfhd": 7391,
  "Ġbfic": 7392,
  "Ġbfis": 7393,
  "Ġbfls": 7394,
  "Ġbfnc": 7395,
  "Ġbfns": 7396,
  "Ġbfpp": 7397,
  "Ġbgmr": 7398,
  "Ġbhan": 7399,
  "Ġbian": 7400,
  "Ġbick": 7401,
  "Ġbids": 7402,
  "Ġbied": 7403,
  "Ġbies": 7404,
  "Ġbign": 7405,
  "Ġbile": 7406,
  "Ġbilu": 7407,
  "Ġbind": 7408,
  "Ġbing": 7409,
  "Ġbins": 7410,
  "Ġbird": 7411,
  "Ġbirk": 7412,
  "Ġbirt": 7413,
  "Ġbite": 7414,
  "Ġbius": 7415,
  "Ġbjer": 7416,
  "Ġblas": 7417,
  "Ġblau": 7418,
  "Ġbleb": 7419,
  "Ġblnk": 7420,
  "Ġblow": 7421,
  "Ġblue": 7422,
  "Ġbmcc": 7423,
  "Ġbmiq": 7424,
  "Ġbmnd": 7425,
  "Ġbmpr": 7426,
  "Ġbnar": 7427,
  "Ġboca": 7428,
  "Ġbocd": 7429,
  "Ġboch": 7430,
  "Ġbody": 7431,
  "Ġbofs": 7432,
  "Ġbohl": 7433,
  "Ġbone": 7434,
  "Ġbony": 7435,
  "Ġbook": 7436,
  "Ġboop": 7437,
  "Ġbops": 7438,
  "Ġbord": 7439,
  "Ġborj": 7440,
  "Ġbork": 7441,
  "Ġborn": 7442,
  "Ġbost": 7443,
  "Ġboth": 7444,
  "Ġbott": 7445,
  "Ġbour": 7446,
  "Ġbout": 7447,
  "Ġbpeo": 7448,
  "Ġbpes": 7449,
  "Ġbpgm": 7450,
  "Ġbpnh": 7451,
  "Ġbppv": 7452,
  "Ġbppx": 7453,
  "Ġbrad": 7454,
  "Ġbran": 7455,
  "Ġbrca": 7456,
  "Ġbres": 7457,
  "Ġbric": 7458,
  "Ġbrks": 7459,
  "Ġbroc": 7460,
  "Ġbrod": 7461,
  "Ġbron": 7462,
  "Ġbrov": 7463,
  "Ġbrrs": 7464,
  "Ġbrss": 7465,
  "Ġbruc": 7466,
  "Ġbrug": 7467,
  "Ġbrun": 7468,
  "Ġbrux": 7469,
  "Ġbsas": 7470,
  "Ġbscl": 7471,
  "Ġbses": 7472,
  "Ġbsnd": 7473,
  "Ġbssa": 7474,
  "Ġbsvd": 7475,
  "Ġbths": 7476,
  "Ġbtop": 7477,
  "Ġbtps": 7478,
  "Ġbucc": 7479,
  "Ġbuch": 7480,
  "Ġbuck": 7481,
  "Ġbucy": 7482,
  "Ġbudd": 7483,
  "Ġbuen": 7484,
  "Ġbulb": 7485,
  "Ġbull": 7486,
  "Ġbuln": 7487,
  "Ġbump": 7488,
  "Ġbund": 7489,
  "Ġbuny": 7490,
  "Ġburg": 7491,
  "Ġburk": 7492,
  "Ġburn": 7493,
  "Ġburs": 7494,
  "Ġbush": 7495,
  "Ġbust": 7496,
  "Ġbwcr": 7497,
  "Ġbyss": 7498,
  "Ġcaar": 7499,
  "Ġcaca": 7500,
  "Ġcacd": 7501,
  "Ġcach": 7502,
  "Ġcacp": 7503,
  "Ġcact": 7504,
  "Ġcada": 7505,
  "Ġcafe": 7506,
  "Ġcafs": 7507,
  "Ġcaht": 7508,
  "Ġcalc": 7509,
  "Ġcalf": 7510,
  "Ġcall": 7511,
  "Ġcalv": 7512,
  "Ġcamm": 7513,
  "Ġcamp": 7514,
  "Ġcamr": 7515,
  "Ġcamt": 7516,
  "Ġcanc": 7517,
  "Ġcand": 7518,
  "Ġcane": 7519,
  "Ġcann": 7520,
  "Ġcant": 7521,
  "Ġcapa": 7522,
  "Ġcapb": 7523,
  "Ġcapm": 7524,
  "Ġcaps": 7525,
  "Ġcarb": 7526,
  "Ġcard": 7527,
  "Ġcari": 7528,
  "Ġcarp": 7529,
  "Ġcarr": 7530,
  "Ġcart": 7531,
  "Ġcary": 7532,
  "Ġcasc": 7533,
  "Ġcask": 7534,
  "Ġcasm": 7535,
  "Ġcass": 7536,
  "Ġcast": 7537,
  "Ġcatc": 7538,
  "Ġcath": 7539,
  "Ġcatm": 7540,
  "Ġcats": 7541,
  "Ġcatt": 7542,
  "Ġcaud": 7543,
  "Ġcaus": 7544,
  "Ġcauv": 7545,
  "Ġcava": 7546,
  "Ġcavd": 7547,
  "Ġcave": 7548,
  "Ġcbas": 7549,
  "Ġcbbm": 7550,
  "Ġcbfb": 7551,
  "Ġcbla": 7552,
  "Ġcblb": 7553,
  "Ġcblc": 7554,
  "Ġcbld": 7555,
  "Ġcble": 7556,
  "Ġcblf": 7557,
  "Ġcblg": 7558,
  "Ġcblh": 7559,
  "Ġcblx": 7560,
  "Ġcbps": 7561,
  "Ġccal": 7562,
  "Ġccds": 7563,
  "Ġcchs": 7564,
  "Ġccnp": 7565,
  "Ġccts": 7566,
  "Ġcczs": 7567,
  "Ġcdan": 7568,
  "Ġcdcd": 7569,
  "Ġcdfe": 7570,
  "Ġcdgg": 7571,
  "Ġcdgi": 7572,
  "Ġcdgs": 7573,
  "Ġcdhs": 7574,
  "Ġcdkl": 7575,
  "Ġcdls": 7576,
  "Ġcdmd": 7577,
  "Ġcdpd": 7578,
  "Ġcdpr": 7579,
  "Ġcdpx": 7580,
  "Ġcdrb": 7581,
  "Ġcdsp": 7582,
  "Ġcdsr": 7583,
  "Ġcdtb": 7584,
  "Ġcdtd": 7585,
  "Ġceds": 7586,
  "Ġcell": 7587,
  "Ġcent": 7588,
  "Ġcert": 7589,
  "Ġcerv": 7590,
  "Ġcesd": 7591,
  "Ġcest": 7592,
  "Ġcetp": 7593,
  "Ġcfcs": 7594,
  "Ġcfhd": 7595,
  "Ġcfid": 7596,
  "Ġcfnd": 7597,
  "Ġcfns": 7598,
  "Ġcfpd": 7599,
  "Ġcftd": 7600,
  "Ġchac": 7601,
  "Ġchag": 7602,
  "Ġchap": 7603,
  "Ġchar": 7604,
  "Ġchat": 7605,
  "Ġchbl": 7606,
  "Ġchcl": 7607,
  "Ġchdm": 7608,
  "Ġchds": 7609,
  "Ġched": 7610,
  "Ġchem": 7611,
  "Ġchen": 7612,
  "Ġcher": 7613,
  "Ġchhs": 7614,
  "Ġchhv": 7615,
  "Ġchik": 7616,
  "Ġchil": 7617,
  "Ġchin": 7618,
  "Ġchlo": 7619,
  "Ġchls": 7620,
  "Ġchmp": 7621,
  "Ġchmr": 7622,
  "Ġchng": 7623,
  "Ġchok": 7624,
  "Ġchol": 7625,
  "Ġchor": 7626,
  "Ġchot": 7627,
  "Ġchrs": 7628,
  "Ġchst": 7629,
  "Ġchtd": 7630,
  "Ġchuv": 7631,
  "Ġchyl": 7632,
  "Ġcidp": 7633,
  "Ġcidx": 7634,
  "Ġcigu": 7635,
  "Ġcihl": 7636,
  "Ġciid": 7637,
  "Ġciip": 7638,
  "Ġcild": 7639,
  "Ġcimt": 7640,
  "Ġcina": 7641,
  "Ġcing": 7642,
  "Ġcipa": 7643,
  "Ġcips": 7644,
  "Ġcirc": 7645,
  "Ġciss": 7646,
  "Ġcitr": 7647,
  "Ġcjmg": 7648,
  "Ġclam": 7649,
  "Ġclas": 7650,
  "Ġclaw": 7651,
  "Ġclcd": 7652,
  "Ġclin": 7653,
  "Ġclls": 7654,
  "Ġclos": 7655,
  "Ġclot": 7656,
  "Ġclsd": 7657,
  "Ġclss": 7658,
  "Ġclub": 7659,
  "Ġcmal": 7660,
  "Ġcmcs": 7661,
  "Ġcmct": 7662,
  "Ġcmdd": 7663,
  "Ġcmdj": 7664,
  "Ġcmdr": 7665,
  "Ġcmml": 7666,
  "Ġcmmr": 7667,
  "Ġcmpd": 7668,
  "Ġcmrd": 7669,
  "Ġcmta": 7670,
  "Ġcmtb": 7671,
  "Ġcmtc": 7672,
  "Ġcmtd": 7673,
  "Ġcmtr": 7674,
  "Ġcmtx": 7675,
  "Ġcnmx": 7676,
  "Ġcntf": 7677,
  "Ġcoad": 7678,
  "Ġcoag": 7679,
  "Ġcoal": 7680,
  "Ġcoat": 7681,
  "Ġcoca": 7682,
  "Ġcoch": 7683,
  "Ġcock": 7684,
  "Ġcode": 7685,
  "Ġcoen": 7686,
  "Ġcoff": 7687,
  "Ġcofs": 7688,
  "Ġcogn": 7689,
  "Ġcoin": 7690,
  "Ġcold": 7691,
  "Ġcole": 7692,
  "Ġcoli": 7693,
  "Ġcoll": 7694,
  "Ġcoma": 7695,
  "Ġcome": 7696,
  "Ġcomm": 7697,
  "Ġcomp": 7698,
  "Ġconc": 7699,
  "Ġcond": 7700,
  "Ġcone": 7701,
  "Ġconf": 7702,
  "Ġcong": 7703,
  "Ġconj": 7704,
  "Ġconn": 7705,
  "Ġcont": 7706,
  "Ġcopd": 7707,
  "Ġcord": 7708,
  "Ġcore": 7709,
  "Ġcori": 7710,
  "Ġcorm": 7711,
  "Ġcorn": 7712,
  "Ġcorp": 7713,
  "Ġcors": 7714,
  "Ġcory": 7715,
  "Ġcost": 7716,
  "Ġcote": 7717,
  "Ġcoup": 7718,
  "Ġcous": 7719,
  "Ġcoxa": 7720,
  "Ġcpeo": 7721,
  "Ġcphd": 7722,
  "Ġcpls": 7723,
  "Ġcpox": 7724,
  "Ġcppb": 7725,
  "Ġcprs": 7726,
  "Ġcpsq": 7727,
  "Ġcpvt": 7728,
  "Ġcpxd": 7729,
  "Ġcpxr": 7730,
  "Ġcrac": 7731,
  "Ġcran": 7732,
  "Ġcrap": 7733,
  "Ġcrav": 7734,
  "Ġcrbm": 7735,
  "Ġcrcs": 7736,
  "Ġcree": 7737,
  "Ġcrib": 7738,
  "Ġcrie": 7739,
  "Ġcris": 7740,
  "Ġcrmo": 7741,
  "Ġcroc": 7742,
  "Ġcrom": 7743,
  "Ġcron": 7744,
  "Ġcros": 7745,
  "Ġcrov": 7746,
  "Ġcrow": 7747,
  "Ġcrps": 7748,
  "Ġcrpt": 7749,
  "Ġcrsa": 7750,
  "Ġcrsd": 7751,
  "Ġcrst": 7752,
  "Ġcruz": 7753,
  "Ġcscd": 7754,
  "Ġcsid": 7755,
  "Ġcsnb": 7756,
  "Ġcsnu": 7757,
  "Ġctaa": 7758,
  "Ġctaf": 7759,
  "Ġcthm": 7760,
  "Ġctln": 7761,
  "Ġctnl": 7762,
  "Ġctns": 7763,
  "Ġctpp": 7764,
  "Ġcumm": 7765,
  "Ġcurr": 7766,
  "Ġcurv": 7767,
  "Ġcush": 7768,
  "Ġcvas": 7769,
  "Ġcvid": 7770,
  "Ġcyan": 7771,
  "Ġcyba": 7772,
  "Ġcycl": 7773,
  "Ġcymd": 7774,
  "Ġcyst": 7775,
  "Ġdail": 7776,
  "Ġdair": 7777,
  "Ġdais": 7778,
  "Ġdalp": 7779,
  "Ġdaly": 7780,
  "Ġdanc": 7781,
  "Ġdand": 7782,
  "Ġdari": 7783,
  "Ġdark": 7784,
  "Ġdavy": 7785,
  "Ġdbqd": 7786,
  "Ġdcbx": 7787,
  "Ġdcis": 7788,
  "Ġdcma": 7789,
  "Ġdcmd": 7790,
  "Ġddch": 7791,
  "Ġddeb": 7792,
  "Ġddsh": 7793,
  "Ġdead": 7794,
  "Ġdeaf": 7795,
  "Ġdeal": 7796,
  "Ġdecl": 7797,
  "Ġdeep": 7798,
  "Ġdenb": 7799,
  "Ġdend": 7800,
  "Ġdens": 7801,
  "Ġdent": 7802,
  "Ġdeox": 7803,
  "Ġdepr": 7804,
  "Ġderc": 7805,
  "Ġdere": 7806,
  "Ġderm": 7807,
  "Ġdesm": 7808,
  "Ġdest": 7809,
  "Ġdetr": 7810,
  "Ġdeut": 7811,
  "Ġdeux": 7812,
  "Ġdeva": 7813,
  "Ġdext": 7814,
  "Ġdfmb": 7815,
  "Ġdfna": 7816,
  "Ġdfnb": 7817,
  "Ġdfnm": 7818,
  "Ġdfnx": 7819,
  "Ġdfny": 7820,
  "Ġdfsp": 7821,
  "Ġdgcr": 7822,
  "Ġdgsx": 7823,
  "Ġdhfr": 7824,
  "Ġdhmn": 7825,
  "Ġdhof": 7826,
  "Ġdhpr": 7827,
  "Ġdhrd": 7828,
  "Ġdhtr": 7829,
  "Ġdiab": 7830,
  "Ġdial": 7831,
  "Ġdian": 7832,
  "Ġdiar": 7833,
  "Ġdich": 7834,
  "Ġdiff": 7835,
  "Ġdill": 7836,
  "Ġdims": 7837,
  "Ġdiph": 7838,
  "Ġdipl": 7839,
  "Ġdira": 7840,
  "Ġdisb": 7841,
  "Ġdisc": 7842,
  "Ġdisk": 7843,
  "Ġdism": 7844,
  "Ġdisp": 7845,
  "Ġdiss": 7846,
  "Ġdist": 7847,
  "Ġdizz": 7848,
  "Ġdkbi": 7849,
  "Ġdkca": 7850,
  "Ġdkcb": 7851,
  "Ġdkcx": 7852,
  "Ġdlcd": 7853,
  "Ġdmat": 7854,
  "Ġdmda": 7855,
  "Ġdmrv": 7856,
  "Ġdmsd": 7857,
  "Ġdmtn": 7858,
  "Ġdnmt": 7859,
  "Ġdoes": 7860,
  "Ġdohi": 7861,
  "Ġdoll": 7862,
  "Ġdoor": 7863,
  "Ġdopa": 7864,
  "Ġdors": 7865,
  "Ġdorv": 7866,
  "Ġdose": 7867,
  "Ġdoss": 7868,
  "Ġdott": 7869,
  "Ġdoul": 7870,
  "Ġdour": 7871,
  "Ġdown": 7872,
  "Ġdped": 7873,
  "Ġdpgm": 7874,
  "Ġdpyd": 7875,
  "Ġdpys": 7876,
  "Ġdrag": 7877,
  "Ġdrop": 7878,
  "Ġdrow": 7879,
  "Ġdrpl": 7880,
  "Ġdrrd": 7881,
  "Ġdrrs": 7882,
  "Ġdrug": 7883,
  "Ġdrus": 7884,
  "Ġdsap": 7885,
  "Ġdscr": 7886,
  "Ġdsds": 7887,
  "Ġdsma": 7888,
  "Ġdtdp": 7889,
  "Ġdtds": 7890,
  "Ġdtga": 7891,
  "Ġdual": 7892,
  "Ġdube": 7893,
  "Ġduch": 7894,
  "Ġduck": 7895,
  "Ġduct": 7896,
  "Ġduhr": 7897,
  "Ġdump": 7898,
  "Ġdunc": 7899,
  "Ġdund": 7900,
  "Ġdunn": 7901,
  "Ġduod": 7902,
  "Ġdupc": 7903,
  "Ġdurs": 7904,
  "Ġdust": 7905,
  "Ġdwar": 7906,
  "Ġdyck": 7907,
  "Ġdysb": 7908,
  "Ġdysc": 7909,
  "Ġdysg": 7910,
  "Ġdysh": 7911,
  "Ġdysl": 7912,
  "Ġdysm": 7913,
  "Ġdysn": 7914,
  "Ġdysp": 7915,
  "Ġdyss": 7916,
  "Ġdyst": 7917,
  "Ġeaoh": 7918,
  "Ġeard": 7919,
  "Ġears": 7920,
  "Ġeast": 7921,
  "Ġebdd": 7922,
  "Ġebla": 7923,
  "Ġebmd": 7924,
  "Ġebsb": 7925,
  "Ġebss": 7926,
  "Ġebvs": 7927,
  "Ġecch": 7928,
  "Ġecho": 7929,
  "Ġectd": 7930,
  "Ġecth": 7931,
  "Ġecyt": 7932,
  "Ġedmd": 7933,
  "Ġedsm": 7934,
  "Ġedsp": 7935,
  "Ġedss": 7936,
  "Ġeems": 7937,
  "Ġefmr": 7938,
  "Ġeich": 7939,
  "Ġeiee": 7940,
  "Ġekvp": 7941,
  "Ġelec": 7942,
  "Ġelev": 7943,
  "Ġelli": 7944,
  "Ġemac": 7945,
  "Ġempt": 7946,
  "Ġempy": 7947,
  "Ġemwx": 7948,
  "Ġench": 7949,
  "Ġende": 7950,
  "Ġendo": 7951,
  "Ġenfl": 7952,
  "Ġengl": 7953,
  "Ġente": 7954,
  "Ġenti": 7955,
  "Ġenur": 7956,
  "Ġenvi": 7957,
  "Ġenzo": 7958,
  "Ġeoca": 7959,
  "Ġeotd": 7960,
  "Ġepdf": 7961,
  "Ġepib": 7962,
  "Ġepic": 7963,
  "Ġepid": 7964,
  "Ġepig": 7965,
  "Ġepis": 7966,
  "Ġepmr": 7967,
  "Ġeppk": 7968,
  "Ġepps": 7969,
  "Ġepul": 7970,
  "Ġerbs": 7971,
  "Ġercc": 7972,
  "Ġergo": 7973,
  "Ġerik": 7974,
  "Ġeron": 7975,
  "Ġertb": 7976,
  "Ġerup": 7977,
  "Ġervr": 7978,
  "Ġescc": 7979,
  "Ġescs": 7980,
  "Ġesrd": 7981,
  "Ġetat": 7982,
  "Ġetfa": 7983,
  "Ġetfb": 7984,
  "Ġethm": 7985,
  "Ġetic": 7986,
  "Ġetin": 7987,
  "Ġeuth": 7988,
  "Ġever": 7989,
  "Ġevil": 7990,
  "Ġevrx": 7991,
  "Ġexag": 7992,
  "Ġexcl": 7993,
  "Ġexer": 7994,
  "Ġexit": 7995,
  "Ġexpl": 7996,
  "Ġexst": 7997,
  "Ġextr": 7998,
  "Ġeyel": 7999,
  "Ġeyes": 8000,
  "Ġfacb": 8001,
  "Ġfacc": 8002,
  "Ġfacd": 8003,
  "Ġface": 8004,
  "Ġfach": 8005,
  "Ġfaci": 8006,
  "Ġfads": 8007,
  "Ġfaes": 8008,
  "Ġfahl": 8009,
  "Ġfahn": 8010,
  "Ġfahr": 8011,
  "Ġfail": 8012,
  "Ġfain": 8013,
  "Ġfair": 8014,
  "Ġfalc": 8015,
  "Ġfald": 8016,
  "Ġfall": 8017,
  "Ġfals": 8018,
  "Ġfame": 8019,
  "Ġfamm": 8020,
  "Ġfanc": 8021,
  "Ġfant": 8022,
  "Ġfara": 8023,
  "Ġfarb": 8024,
  "Ġfarr": 8025,
  "Ġfasc": 8026,
  "Ġfasd": 8027,
  "Ġfast": 8028,
  "Ġfati": 8029,
  "Ġfatt": 8030,
  "Ġfaye": 8031,
  "Ġfcas": 8032,
  "Ġfcdt": 8033,
  "Ġfchl": 8034,
  "Ġfcmd": 8035,
  "Ġfcnc": 8036,
  "Ġfear": 8037,
  "Ġfecd": 8038,
  "Ġfeer": 8039,
  "Ġfeet": 8040,
  "Ġfeil": 8041,
  "Ġfell": 8042,
  "Ġfens": 8043,
  "Ġfeom": 8044,
  "Ġferg": 8045,
  "Ġfevr": 8046,
  "Ġffdd": 8047,
  "Ġffev": 8048,
  "Ġfgdy": 8049,
  "Ġfgfr": 8050,
  "Ġfhbl": 8051,
  "Ġfhca": 8052,
  "Ġfhcb": 8053,
  "Ġfhha": 8054,
  "Ġfhlh": 8055,
  "Ġfibr": 8056,
  "Ġfick": 8057,
  "Ġfihp": 8058,
  "Ġfill": 8059,
  "Ġfime": 8060,
  "Ġfimg": 8061,
  "Ġfind": 8062,
  "Ġfine": 8063,
  "Ġfing": 8064,
  "Ġfinn": 8065,
  "Ġfipa": 8066,
  "Ġfire": 8067,
  "Ġfish": 8068,
  "Ġfiss": 8069,
  "Ġfist": 8070,
  "Ġfits": 8071,
  "Ġfitz": 8072,
  "Ġfium": 8073,
  "Ġfive": 8074,
  "Ġfjhn": 8075,
  "Ġfkrp": 8076,
  "Ġfktn": 8077,
  "Ġflas": 8078,
  "Ġflat": 8079,
  "Ġflau": 8080,
  "Ġflav": 8081,
  "Ġflea": 8082,
  "Ġflec": 8083,
  "Ġfled": 8084,
  "Ġflet": 8085,
  "Ġflex": 8086,
  "Ġflor": 8087,
  "Ġflow": 8088,
  "Ġfluo": 8089,
  "Ġfmfd": 8090,
  "Ġfmrd": 8091,
  "Ġfmtc": 8092,
  "Ġfoar": 8093,
  "Ġfoci": 8094,
  "Ġfodh": 8095,
  "Ġfogo": 8096,
  "Ġfoix": 8097,
  "Ġfold": 8098,
  "Ġfong": 8099,
  "Ġfont": 8100,
  "Ġfood": 8101,
  "Ġfoot": 8102,
  "Ġford": 8103,
  "Ġfore": 8104,
  "Ġform": 8105,
  "Ġfors": 8106,
  "Ġfoss": 8107,
  "Ġfoth": 8108,
  "Ġfour": 8109,
  "Ġfove": 8110,
  "Ġfowl": 8111,
  "Ġfpev": 8112,
  "Ġfphh": 8113,
  "Ġfpld": 8114,
  "Ġfrag": 8115,
  "Ġfran": 8116,
  "Ġfras": 8117,
  "Ġfrax": 8118,
  "Ġfrda": 8119,
  "Ġfree": 8120,
  "Ġfren": 8121,
  "Ġfrey": 8122,
  "Ġfrkp": 8123,
  "Ġfrmd": 8124,
  "Ġfrob": 8125,
  "Ġfrom": 8126,
  "Ġfron": 8127,
  "Ġfrts": 8128,
  "Ġfsgs": 8129,
  "Ġfshd": 8130,
  "Ġfsnf": 8131,
  "Ġfssv": 8132,
  "Ġftdp": 8133,
  "Ġftdu": 8134,
  "Ġfths": 8135,
  "Ġftld": 8136,
  "Ġftle": 8137,
  "Ġftns": 8138,
  "Ġfuch": 8139,
  "Ġfuhr": 8140,
  "Ġfull": 8141,
  "Ġfulm": 8142,
  "Ġfund": 8143,
  "Ġfung": 8144,
  "Ġgaba": 8145,
  "Ġgaci": 8146,
  "Ġgacr": 8147,
  "Ġgagg": 8148,
  "Ġgain": 8149,
  "Ġgait": 8150,
  "Ġgalb": 8151,
  "Ġgalc": 8152,
  "Ġgale": 8153,
  "Ġgalk": 8154,
  "Ġgall": 8155,
  "Ġgalt": 8156,
  "Ġgame": 8157,
  "Ġgamm": 8158,
  "Ġgamt": 8159,
  "Ġgang": 8160,
  "Ġgans": 8161,
  "Ġgapo": 8162,
  "Ġgarc": 8163,
  "Ġgard": 8164,
  "Ġgarg": 8165,
  "Ġgass": 8166,
  "Ġgast": 8167,
  "Ġgata": 8168,
  "Ġgatm": 8169,
  "Ġgauc": 8170,
  "Ġgaze": 8171,
  "Ġgbbb": 8172,
  "Ġgccd": 8173,
  "Ġgccr": 8174,
  "Ġgcps": 8175,
  "Ġgdfd": 8176,
  "Ġgdld": 8177,
  "Ġgefs": 8178,
  "Ġgele": 8179,
  "Ġgels": 8180,
  "Ġgene": 8181,
  "Ġgenu": 8182,
  "Ġgepd": 8183,
  "Ġgerd": 8184,
  "Ġgerm": 8185,
  "Ġgero": 8186,
  "Ġgers": 8187,
  "Ġgest": 8188,
  "Ġgfnd": 8189,
  "Ġghdd": 8190,
  "Ġghip": 8191,
  "Ġgiac": 8192,
  "Ġgian": 8193,
  "Ġgier": 8194,
  "Ġgill": 8195,
  "Ġging": 8196,
  "Ġgird": 8197,
  "Ġglab": 8198,
  "Ġglas": 8199,
  "Ġglnh": 8200,
  "Ġglob": 8201,
  "Ġglom": 8202,
  "Ġgluc": 8203,
  "Ġglue": 8204,
  "Ġglut": 8205,
  "Ġglyc": 8206,
  "Ġglys": 8207,
  "Ġgnmt": 8208,
  "Ġgoat": 8209,
  "Ġgold": 8210,
  "Ġgole": 8211,
  "Ġgoll": 8212,
  "Ġgomb": 8213,
  "Ġgomm": 8214,
  "Ġgonc": 8215,
  "Ġgond": 8216,
  "Ġgoni": 8217,
  "Ġgood": 8218,
  "Ġgord": 8219,
  "Ġgott": 8220,
  "Ġgout": 8221,
  "Ġgpds": 8222,
  "Ġgpsc": 8223,
  "Ġgram": 8224,
  "Ġgran": 8225,
  "Ġgray": 8226,
  "Ġgrdx": 8227,
  "Ġgren": 8228,
  "Ġgrey": 8229,
  "Ġgrol": 8230,
  "Ġgron": 8231,
  "Ġgros": 8232,
  "Ġgses": 8233,
  "Ġgssd": 8234,
  "Ġgual": 8235,
  "Ġguam": 8236,
  "Ġgulf": 8237,
  "Ġguli": 8238,
  "Ġgull": 8239,
  "Ġgulo": 8240,
  "Ġgumm": 8241,
  "Ġgunn": 8242,
  "Ġgupt": 8243,
  "Ġgusb": 8244,
  "Ġgust": 8245,
  "Ġgutt": 8246,
  "Ġgyri": 8247,
  "Ġhaab": 8248,
  "Ġhaan": 8249,
  "Ġhaar": 8250,
  "Ġhaas": 8251,
  "Ġhacd": 8252,
  "Ġhadh": 8253,
  "Ġhaem": 8254,
  "Ġhaes": 8255,
  "Ġhaim": 8256,
  "Ġhair": 8257,
  "Ġhajd": 8258,
  "Ġhall": 8259,
  "Ġhalo": 8260,
  "Ġhalp": 8261,
  "Ġhamm": 8262,
  "Ġhand": 8263,
  "Ġhane": 8264,
  "Ġhang": 8265,
  "Ġhans": 8266,
  "Ġhant": 8267,
  "Ġhapp": 8268,
  "Ġhaps": 8269,
  "Ġharb": 8270,
  "Ġhard": 8271,
  "Ġharg": 8272,
  "Ġharm": 8273,
  "Ġharp": 8274,
  "Ġhart": 8275,
  "Ġhash": 8276,
  "Ġhasp": 8277,
  "Ġhass": 8278,
  "Ġhauw": 8279,
  "Ġhaws": 8280,
  "Ġhbbd": 8281,
  "Ġhbhr": 8282,
  "Ġhbid": 8283,
  "Ġhblr": 8284,
  "Ġhboc": 8285,
  "Ġhcfp": 8286,
  "Ġhcvs": 8287,
  "Ġhddd": 8288,
  "Ġhdgc": 8289,
  "Ġhdlc": 8290,
  "Ġhdld": 8291,
  "Ġhdls": 8292,
  "Ġhdrs": 8293,
  "Ġhead": 8294,
  "Ġheal": 8295,
  "Ġheat": 8296,
  "Ġheck": 8297,
  "Ġheel": 8298,
  "Ġheid": 8299,
  "Ġhela": 8300,
  "Ġhell": 8301,
  "Ġhema": 8302,
  "Ġhemb": 8303,
  "Ġheme": 8304,
  "Ġhemi": 8305,
  "Ġherm": 8306,
  "Ġhern": 8307,
  "Ġherp": 8308,
  "Ġhers": 8309,
  "Ġheub": 8310,
  "Ġhexa": 8311,
  "Ġhfrs": 8312,
  "Ġhftc": 8313,
  "Ġhgps": 8314,
  "Ġhhcs": 8315,
  "Ġhhhh": 8316,
  "Ġhhhs": 8317,
  "Ġhhrh": 8318,
  "Ġhhts": 8319,
  "Ġhiat": 8320,
  "Ġhicc": 8321,
  "Ġhick": 8322,
  "Ġhids": 8323,
  "Ġhies": 8324,
  "Ġhiet": 8325,
  "Ġhigh": 8326,
  "Ġhigm": 8327,
  "Ġhipp": 8328,
  "Ġhips": 8329,
  "Ġhist": 8330,
  "Ġhitt": 8331,
  "Ġhjcd": 8332,
  "Ġhjmd": 8333,
  "Ġhkpx": 8334,
  "Ġhlcs": 8335,
  "Ġhlhs": 8336,
  "Ġhlts": 8337,
  "Ġhmae": 8338,
  "Ġhmag": 8339,
  "Ġhmcs": 8340,
  "Ġhmer": 8341,
  "Ġhmnj": 8342,
  "Ġhmps": 8343,
  "Ġhmsn": 8344,
  "Ġhmwk": 8345,
  "Ġhnfj": 8346,
  "Ġhnpp": 8347,
  "Ġhoar": 8348,
  "Ġhodg": 8349,
  "Ġhoep": 8350,
  "Ġhoff": 8351,
  "Ġhoga": 8352,
  "Ġhogg": 8353,
  "Ġhole": 8354,
  "Ġholl": 8355,
  "Ġholm": 8356,
  "Ġholt": 8357,
  "Ġhomg": 8358,
  "Ġhone": 8359,
  "Ġhooe": 8360,
  "Ġhopf": 8361,
  "Ġhops": 8362,
  "Ġhord": 8363,
  "Ġhorm": 8364,
  "Ġhorn": 8365,
  "Ġhors": 8366,
  "Ġhort": 8367,
  "Ġhosp": 8368,
  "Ġhost": 8369,
  "Ġhour": 8370,
  "Ġhpcd": 8371,
  "Ġhpcx": 8372,
  "Ġhpdr": 8373,
  "Ġhpec": 8374,
  "Ġhpii": 8375,
  "Ġhplh": 8376,
  "Ġhpmr": 8377,
  "Ġhpns": 8378,
  "Ġhppd": 8379,
  "Ġhprt": 8380,
  "Ġhrpt": 8381,
  "Ġhsan": 8382,
  "Ġhsas": 8383,
  "Ġhscr": 8384,
  "Ġhsdb": 8385,
  "Ġhsil": 8386,
  "Ġhsmn": 8387,
  "Ġhtgl": 8388,
  "Ġhtlv": 8389,
  "Ġhtnb": 8390,
  "Ġhtor": 8391,
  "Ġhtss": 8392,
  "Ġhuet": 8393,
  "Ġhugh": 8394,
  "Ġhunt": 8395,
  "Ġhuss": 8396,
  "Ġhutt": 8397,
  "Ġhvdr": 8398,
  "Ġhyal": 8399,
  "Ġhycx": 8400,
  "Ġhyde": 8401,
  "Ġhydm": 8402,
  "Ġhydr": 8403,
  "Ġhype": 8404,
  "Ġhyph": 8405,
  "Ġhypn": 8406,
  "Ġhypo": 8407,
  "Ġhypp": 8408,
  "Ġhypt": 8409,
  "Ġhypx": 8410,
  "Ġhysp": 8411,
  "Ġhyst": 8412,
  "Ġiadd": 8413,
  "Ġibgc": 8414,
  "Ġibmp": 8415,
  "Ġibsn": 8416,
  "Ġicam": 8417,
  "Ġicca": 8418,
  "Ġicos": 8419,
  "Ġiddm": 8420,
  "Ġidic": 8421,
  "Ġidmd": 8422,
  "Ġifah": 8423,
  "Ġifap": 8424,
  "Ġigad": 8425,
  "Ġigan": 8426,
  "Ġigat": 8427,
  "Ġigda": 8428,
  "Ġigds": 8429,
  "Ġigel": 8430,
  "Ġiger": 8431,
  "Ġighd": 8432,
  "Ġighm": 8433,
  "Ġighr": 8434,
  "Ġigll": 8435,
  "Ġihcm": 8436,
  "Ġihga": 8437,
  "Ġihis": 8438,
  "Ġihps": 8439,
  "Ġiiac": 8440,
  "Ġiiae": 8441,
  "Ġiias": 8442,
  "Ġiibs": 8443,
  "Ġiida": 8444,
  "Ġiiia": 8445,
  "Ġiiib": 8446,
  "Ġiiic": 8447,
  "Ġiiid": 8448,
  "Ġiiih": 8449,
  "Ġiiis": 8450,
  "Ġilio": 8451,
  "Ġimah": 8452,
  "Ġimpg": 8453,
  "Ġimpr": 8454,
  "Ġinad": 8455,
  "Ġincl": 8456,
  "Ġinco": 8457,
  "Ġinde": 8458,
  "Ġingu": 8459,
  "Ġinoc": 8460,
  "Ġinsi": 8461,
  "Ġinst": 8462,
  "Ġinte": 8463,
  "Ġintr": 8464,
  "Ġiowa": 8465,
  "Ġipex": 8466,
  "Ġipox": 8467,
  "Ġirak": 8468,
  "Ġiran": 8469,
  "Ġirap": 8470,
  "Ġirid": 8471,
  "Ġiris": 8472,
  "Ġiron": 8473,
  "Ġisch": 8474,
  "Ġiscu": 8475,
  "Ġiscw": 8476,
  "Ġishi": 8477,
  "Ġissc": 8478,
  "Ġissd": 8479,
  "Ġissx": 8480,
  "Ġitai": 8481,
  "Ġital": 8482,
  "Ġitch": 8483,
  "Ġiugr": 8484,
  "Ġivbs": 8485,
  "Ġivic": 8486,
  "Ġjabs": 8487,
  "Ġjack": 8488,
  "Ġjail": 8489,
  "Ġjama": 8490,
  "Ġjamp": 8491,
  "Ġjank": 8492,
  "Ġjanz": 8493,
  "Ġjarg": 8494,
  "Ġjatz": 8495,
  "Ġjaws": 8496,
  "Ġjbts": 8497,
  "Ġjean": 8498,
  "Ġjequ": 8499,
  "Ġjerk": 8500,
  "Ġjerv": 8501,
  "Ġjlns": 8502,
  "Ġjmes": 8503,
  "Ġjmml": 8504,
  "Ġjncl": 8505,
  "Ġjoag": 8506,
  "Ġjobs": 8507,
  "Ġjohn": 8508,
  "Ġjons": 8509,
  "Ġjpht": 8510,
  "Ġjung": 8511,
  "Ġjwds": 8512,
  "Ġkahr": 8513,
  "Ġkala": 8514,
  "Ġkall": 8515,
  "Ġkand": 8516,
  "Ġkann": 8517,
  "Ġkanz": 8518,
  "Ġkapp": 8519,
  "Ġkarp": 8520,
  "Ġkars": 8521,
  "Ġkart": 8522,
  "Ġkary": 8523,
  "Ġkash": 8524,
  "Ġkast": 8525,
  "Ġkats": 8526,
  "Ġkaur": 8527,
  "Ġkaza": 8528,
  "Ġkcnv": 8529,
  "Ġkear": 8530,
  "Ġkell": 8531,
  "Ġkend": 8532,
  "Ġkenn": 8533,
  "Ġkent": 8534,
  "Ġkern": 8535,
  "Ġketo": 8536,
  "Ġkfsd": 8537,
  "Ġkhal": 8538,
  "Ġkhrz": 8539,
  "Ġkiaa": 8540,
  "Ġkill": 8541,
  "Ġking": 8542,
  "Ġkink": 8543,
  "Ġkinn": 8544,
  "Ġkins": 8545,
  "Ġkjer": 8546,
  "Ġkleb": 8547,
  "Ġknee": 8548,
  "Ġknox": 8549,
  "Ġkoch": 8550,
  "Ġkoeh": 8551,
  "Ġkohl": 8552,
  "Ġkond": 8553,
  "Ġkorn": 8554,
  "Ġkors": 8555,
  "Ġkost": 8556,
  "Ġkoul": 8557,
  "Ġkppp": 8558,
  "Ġkpps": 8559,
  "Ġkram": 8560,
  "Ġkras": 8561,
  "Ġkreh": 8562,
  "Ġkrol": 8563,
  "Ġkshv": 8564,
  "Ġktcn": 8565,
  "Ġktls": 8566,
  "Ġkuba": 8567,
  "Ġkufs": 8568,
  "Ġkuhn": 8569,
  "Ġkuij": 8570,
  "Ġkuru": 8571,
  "Ġkusk": 8572,
  "Ġkuss": 8573,
  "Ġkyas": 8574,
  "Ġkyph": 8575,
  "Ġlach": 8576,
  "Ġlack": 8577,
  "Ġlact": 8578,
  "Ġladd": 8579,
  "Ġlaeb": 8580,
  "Ġlait": 8581,
  "Ġlall": 8582,
  "Ġlama": 8583,
  "Ġlamb": 8584,
  "Ġlamm": 8585,
  "Ġlamy": 8586,
  "Ġland": 8587,
  "Ġlang": 8588,
  "Ġlann": 8589,
  "Ġlaps": 8590,
  "Ġlass": 8591,
  "Ġlate": 8592,
  "Ġlath": 8593,
  "Ġlaur": 8594,
  "Ġlaxa": 8595,
  "Ġlazy": 8596,
  "Ġlbsl": 8597,
  "Ġlcah": 8598,
  "Ġlcat": 8599,
  "Ġlccs": 8600,
  "Ġlcpd": 8601,
  "Ġlead": 8602,
  "Ġleak": 8603,
  "Ġleal": 8604,
  "Ġlean": 8605,
  "Ġlecd": 8606,
  "Ġleft": 8607,
  "Ġlegg": 8608,
  "Ġlegs": 8609,
  "Ġlens": 8610,
  "Ġlent": 8611,
  "Ġlenz": 8612,
  "Ġlept": 8613,
  "Ġleri": 8614,
  "Ġless": 8615,
  "Ġleth": 8616,
  "Ġleuc": 8617,
  "Ġleud": 8618,
  "Ġleuk": 8619,
  "Ġlevi": 8620,
  "Ġlevy": 8621,
  "Ġlewy": 8622,
  "Ġleyd": 8623,
  "Ġlfhl": 8624,
  "Ġlfit": 8625,
  "Ġlgmd": 8626,
  "Ġlhon": 8627,
  "Ġlhrh": 8628,
  "Ġliab": 8629,
  "Ġlice": 8630,
  "Ġlich": 8631,
  "Ġlife": 8632,
  "Ġlign": 8633,
  "Ġlike": 8634,
  "Ġlimb": 8635,
  "Ġlimm": 8636,
  "Ġlind": 8637,
  "Ġline": 8638,
  "Ġling": 8639,
  "Ġlipa": 8640,
  "Ġlipd": 8641,
  "Ġlipo": 8642,
  "Ġlips": 8643,
  "Ġliss": 8644,
  "Ġlisx": 8645,
  "Ġlitt": 8646,
  "Ġlitu": 8647,
  "Ġller": 8648,
  "Ġlmna": 8649,
  "Ġlmph": 8650,
  "Ġlmps": 8651,
  "Ġlncr": 8652,
  "Ġloas": 8653,
  "Ġlobe": 8654,
  "Ġlobo": 8655,
  "Ġlock": 8656,
  "Ġlocs": 8657,
  "Ġlohr": 8658,
  "Ġlond": 8659,
  "Ġlong": 8660,
  "Ġloop": 8661,
  "Ġlord": 8662,
  "Ġloss": 8663,
  "Ġlowe": 8664,
  "Ġlown": 8665,
  "Ġlpac": 8666,
  "Ġlpfs": 8667,
  "Ġlprd": 8668,
  "Ġlprs": 8669,
  "Ġlrat": 8670,
  "Ġlrcc": 8671,
  "Ġlrrc": 8672,
  "Ġlrsl": 8673,
  "Ġlsfc": 8674,
  "Ġlsil": 8675,
  "Ġlubs": 8676,
  "Ġluen": 8677,
  "Ġluft": 8678,
  "Ġluis": 8679,
  "Ġlumb": 8680,
  "Ġlump": 8681,
  "Ġlund": 8682,
  "Ġlung": 8683,
  "Ġlute": 8684,
  "Ġlutz": 8685,
  "Ġlvnc": 8686,
  "Ġlyme": 8687,
  "Ġlyng": 8688,
  "Ġmach": 8689,
  "Ġmack": 8690,
  "Ġmacs": 8691,
  "Ġmada": 8692,
  "Ġmadb": 8693,
  "Ġmadd": 8694,
  "Ġmafd": 8695,
  "Ġmaff": 8696,
  "Ġmage": 8697,
  "Ġmagg": 8698,
  "Ġmaha": 8699,
  "Ġmaia": 8700,
  "Ġmain": 8701,
  "Ġmake": 8702,
  "Ġmala": 8703,
  "Ġmale": 8704,
  "Ġmals": 8705,
  "Ġmalt": 8706,
  "Ġmamm": 8707,
  "Ġmamo": 8708,
  "Ġmanc": 8709,
  "Ġmand": 8710,
  "Ġmang": 8711,
  "Ġmann": 8712,
  "Ġmans": 8713,
  "Ġmant": 8714,
  "Ġmanz": 8715,
  "Ġmarc": 8716,
  "Ġmard": 8717,
  "Ġmarg": 8718,
  "Ġmari": 8719,
  "Ġmark": 8720,
  "Ġmart": 8721,
  "Ġmary": 8722,
  "Ġmasa": 8723,
  "Ġmask": 8724,
  "Ġmasp": 8725,
  "Ġmass": 8726,
  "Ġmast": 8727,
  "Ġmate": 8728,
  "Ġmath": 8729,
  "Ġmatn": 8730,
  "Ġmbcd": 8731,
  "Ġmben": 8732,
  "Ġmcad": 8733,
  "Ġmccd": 8734,
  "Ġmcdc": 8735,
  "Ġmcdr": 8736,
  "Ġmcds": 8737,
  "Ġmcfd": 8738,
  "Ġmckd": 8739,
  "Ġmcle": 8740,
  "Ġmcop": 8741,
  "Ġmcor": 8742,
  "Ġmcph": 8743,
  "Ġmcrd": 8744,
  "Ġmcsz": 8745,
  "Ġmctd": 8746,
  "Ġmcul": 8747,
  "Ġmdcl": 8748,
  "Ġmdcr": 8749,
  "Ġmddc": 8750,
  "Ġmdls": 8751,
  "Ġmdns": 8752,
  "Ġmdpt": 8753,
  "Ġmdrs": 8754,
  "Ġmdrv": 8755,
  "Ġmean": 8756,
  "Ġmeas": 8757,
  "Ġmeax": 8758,
  "Ġmecd": 8759,
  "Ġmech": 8760,
  "Ġmeck": 8761,
  "Ġmecp": 8762,
  "Ġmega": 8763,
  "Ġmeig": 8764,
  "Ġmele": 8765,
  "Ġmelf": 8766,
  "Ġmell": 8767,
  "Ġmena": 8768,
  "Ġmend": 8769,
  "Ġmenz": 8770,
  "Ġmeph": 8771,
  "Ġmerc": 8772,
  "Ġmerm": 8773,
  "Ġmerr": 8774,
  "Ġmers": 8775,
  "Ġmert": 8776,
  "Ġmeta": 8777,
  "Ġmeth": 8778,
  "Ġmeva": 8779,
  "Ġmfts": 8780,
  "Ġmgau": 8781,
  "Ġmgca": 8782,
  "Ġmgcn": 8783,
  "Ġmgct": 8784,
  "Ġmgoa": 8785,
  "Ġmhac": 8786,
  "Ġmham": 8787,
  "Ġmhbd": 8788,
  "Ġmiar": 8789,
  "Ġmich": 8790,
  "Ġmidb": 8791,
  "Ġmidf": 8792,
  "Ġmies": 8793,
  "Ġmiet": 8794,
  "Ġmigr": 8795,
  "Ġmild": 8796,
  "Ġmilk": 8797,
  "Ġmill": 8798,
  "Ġmims": 8799,
  "Ġmink": 8800,
  "Ġmisc": 8801,
  "Ġmism": 8802,
  "Ġmiss": 8803,
  "Ġmite": 8804,
  "Ġmkks": 8805,
  "Ġmlas": 8806,
  "Ġmlrl": 8807,
  "Ġmlvt": 8808,
  "Ġmmdk": 8809,
  "Ġmmds": 8810,
  "Ġmmed": 8811,
  "Ġmmep": 8812,
  "Ġmmih": 8813,
  "Ġmmmm": 8814,
  "Ġmmvp": 8815,
  "Ġmnmn": 8816,
  "Ġmnri": 8817,
  "Ġmods": 8818,
  "Ġmody": 8819,
  "Ġmohr": 8820,
  "Ġmole": 8821,
  "Ġmoll": 8822,
  "Ġmomo": 8823,
  "Ġmona": 8824,
  "Ġmond": 8825,
  "Ġmong": 8826,
  "Ġmonk": 8827,
  "Ġmono": 8828,
  "Ġmood": 8829,
  "Ġmoon": 8830,
  "Ġmopd": 8831,
  "Ġmorb": 8832,
  "Ġmore": 8833,
  "Ġmorg": 8834,
  "Ġmorm": 8835,
  "Ġmorn": 8836,
  "Ġmoro": 8837,
  "Ġmort": 8838,
  "Ġmorv": 8839,
  "Ġmosa": 8840,
  "Ġmoss": 8841,
  "Ġmost": 8842,
  "Ġmoth": 8843,
  "Ġmott": 8844,
  "Ġmous": 8845,
  "Ġmovc": 8846,
  "Ġmows": 8847,
  "Ġmoya": 8848,
  "Ġmpcd": 8849,
  "Ġmpgn": 8850,
  "Ġmpod": 8851,
  "Ġmpph": 8852,
  "Ġmprm": 8853,
  "Ġmptp": 8854,
  "Ġmrcs": 8855,
  "Ġmrgh": 8856,
  "Ġmrkh": 8857,
  "Ġmrmv": 8858,
  "Ġmros": 8859,
  "Ġmrsd": 8860,
  "Ġmrsh": 8861,
  "Ġmrss": 8862,
  "Ġmrst": 8863,
  "Ġmrxe": 8864,
  "Ġmrxs": 8865,
  "Ġmsls": 8866,
  "Ġmssd": 8867,
  "Ġmsse": 8868,
  "Ġmstd": 8869,
  "Ġmsud": 8870,
  "Ġmtbs": 8871,
  "Ġmtmx": 8872,
  "Ġmtpd": 8873,
  "Ġmtss": 8874,
  "Ġmuhh": 8875,
  "Ġmuir": 8876,
  "Ġmumm": 8877,
  "Ġmund": 8878,
  "Ġmung": 8879,
  "Ġmunk": 8880,
  "Ġmurk": 8881,
  "Ġmusc": 8882,
  "Ġmush": 8883,
  "Ġmusk": 8884,
  "Ġmvcd": 8885,
  "Ġmvid": 8886,
  "Ġmyas": 8887,
  "Ġmyel": 8888,
  "Ġmymy": 8889,
  "Ġmyoc": 8890,
  "Ġmyof": 8891,
  "Ġmyok": 8892,
  "Ġmyot": 8893,
  "Ġnadh": 8894,
  "Ġnaeg": 8895,
  "Ġnaff": 8896,
  "Ġnaga": 8897,
  "Ġnags": 8898,
  "Ġnaic": 8899,
  "Ġnail": 8900,
  "Ġnair": 8901,
  "Ġnajm": 8902,
  "Ġnaka": 8903,
  "Ġnald": 8904,
  "Ġname": 8905,
  "Ġnana": 8906,
  "Ġnapb": 8907,
  "Ġnape": 8908,
  "Ġnarc": 8909,
  "Ġnare": 8910,
  "Ġnarp": 8911,
  "Ġnasi": 8912,
  "Ġnass": 8913,
  "Ġnasu": 8914,
  "Ġnath": 8915,
  "Ġnaum": 8916,
  "Ġnaus": 8917,
  "Ġnbia": 8918,
  "Ġncie": 8919,
  "Ġncmd": 8920,
  "Ġndez": 8921,
  "Ġndnc": 8922,
  "Ġnear": 8923,
  "Ġneck": 8924,
  "Ġnede": 8925,
  "Ġneed": 8926,
  "Ġneet": 8927,
  "Ġnegr": 8928,
  "Ġnemo": 8929,
  "Ġneon": 8930,
  "Ġneph": 8931,
  "Ġnepp": 8932,
  "Ġneri": 8933,
  "Ġnerv": 8934,
  "Ġneth": 8935,
  "Ġneug": 8936,
  "Ġneum": 8937,
  "Ġneur": 8938,
  "Ġneut": 8939,
  "Ġnevi": 8940,
  "Ġnevo": 8941,
  "Ġnewc": 8942,
  "Ġnfjs": 8943,
  "Ġnfls": 8944,
  "Ġnfns": 8945,
  "Ġnftc": 8946,
  "Ġngbe": 8947,
  "Ġnhbp": 8948,
  "Ġnhej": 8949,
  "Ġnhpt": 8950,
  "Ġnich": 8951,
  "Ġnihf": 8952,
  "Ġnile": 8953,
  "Ġnima": 8954,
  "Ġnish": 8955,
  "Ġniss": 8956,
  "Ġniti": 8957,
  "Ġnkcd": 8958,
  "Ġnlsd": 8959,
  "Ġnmda": 8960,
  "Ġnmss": 8961,
  "Ġnmtc": 8962,
  "Ġnnci": 8963,
  "Ġnode": 8964,
  "Ġnoma": 8965,
  "Ġnonb": 8966,
  "Ġnonc": 8967,
  "Ġnond": 8968,
  "Ġnonf": 8969,
  "Ġnonl": 8970,
  "Ġnonp": 8971,
  "Ġnons": 8972,
  "Ġnont": 8973,
  "Ġnoon": 8974,
  "Ġnorm": 8975,
  "Ġnose": 8976,
  "Ġnova": 8977,
  "Ġnpca": 8978,
  "Ġnphl": 8979,
  "Ġnphp": 8980,
  "Ġnphs": 8981,
  "Ġnslh": 8982,
  "Ġnsll": 8983,
  "Ġnsph": 8984,
  "Ġnsrd": 8985,
  "Ġnuch": 8986,
  "Ġnull": 8987,
  "Ġnumb": 8988,
  "Ġnyct": 8989,
  "Ġnyst": 8990,
  "Ġoasd": 8991,
  "Ġoavs": 8992,
  "Ġoawa": 8993,
  "Ġobes": 8994,
  "Ġobli": 8995,
  "Ġobst": 8996,
  "Ġoccl": 8997,
  "Ġocmd": 8998,
  "Ġocrl": 8999,
  "Ġoctd": 9000,
  "Ġocul": 9001,
  "Ġoddd": 9002,
  "Ġoddi": 9003,
  "Ġoded": 9004,
  "Ġodod": 9005,
  "Ġodor": 9006,
  "Ġodpd": 9007,
  "Ġodpf": 9008,
  "Ġoeis": 9009,
  "Ġofcd": 9010,
  "Ġofds": 9011,
  "Ġogna": 9012,
  "Ġogur": 9013,
  "Ġohdo": 9014,
  "Ġohds": 9015,
  "Ġohss": 9016,
  "Ġokam": 9017,
  "Ġokun": 9018,
  "Ġolig": 9019,
  "Ġoliv": 9020,
  "Ġolli": 9021,
  "Ġolsz": 9022,
  "Ġomen": 9023,
  "Ġomod": 9024,
  "Ġompp": 9025,
  "Ġomsk": 9026,
  "Ġonat": 9027,
  "Ġonly": 9028,
  "Ġoodd": 9029,
  "Ġoors": 9030,
  "Ġopac": 9031,
  "Ġopca": 9032,
  "Ġopem": 9033,
  "Ġopen": 9034,
  "Ġopll": 9035,
  "Ġopmd": 9036,
  "Ġoppg": 9037,
  "Ġoprt": 9038,
  "Ġopta": 9039,
  "Ġoptb": 9040,
  "Ġoral": 9041,
  "Ġoram": 9042,
  "Ġorch": 9043,
  "Ġoris": 9044,
  "Ġorof": 9045,
  "Ġorot": 9046,
  "Ġorst": 9047,
  "Ġorth": 9048,
  "Ġoscs": 9049,
  "Ġoski": 9050,
  "Ġosrc": 9051,
  "Ġossi": 9052,
  "Ġoste": 9053,
  "Ġotas": 9054,
  "Ġotsc": 9055,
  "Ġotto": 9056,
  "Ġoval": 9057,
  "Ġover": 9058,
  "Ġoxal": 9059,
  "Ġoxid": 9060,
  "Ġozen": 9061,
  "Ġpaca": 9062,
  "Ġpach": 9063,
  "Ġpact": 9064,
  "Ġpads": 9065,
  "Ġpafc": 9066,
  "Ġpagh": 9067,
  "Ġpaid": 9068,
  "Ġpain": 9069,
  "Ġpais": 9070,
  "Ġpall": 9071,
  "Ġpalm": 9072,
  "Ġpalp": 9073,
  "Ġpals": 9074,
  "Ġpanc": 9075,
  "Ġpand": 9076,
  "Ġpann": 9077,
  "Ġpant": 9078,
  "Ġpaod": 9079,
  "Ġpapa": 9080,
  "Ġpapb": 9081,
  "Ġpapp": 9082,
  "Ġpaps": 9083,
  "Ġpara": 9084,
  "Ġparc": 9085,
  "Ġpark": 9086,
  "Ġpars": 9087,
  "Ġpart": 9088,
  "Ġparv": 9089,
  "Ġpasc": 9090,
  "Ġpash": 9091,
  "Ġpass": 9092,
  "Ġpata": 9093,
  "Ġpath": 9094,
  "Ġpati": 9095,
  "Ġpauc": 9096,
  "Ġpbam": 9097,
  "Ġpbfe": 9098,
  "Ġpbgd": 9099,
  "Ġpblt": 9100,
  "Ġpcap": 9101,
  "Ġpcbc": 9102,
  "Ġpccd": 9103,
  "Ġpccf": 9104,
  "Ġpcdh": 9105,
  "Ġpcld": 9106,
  "Ġpcos": 9107,
  "Ġpcsx": 9108,
  "Ġpctt": 9109,
  "Ġpcwh": 9110,
  "Ġpddr": 9111,
  "Ġpdgf": 9112,
  "Ġpdhc": 9113,
  "Ġpdmi": 9114,
  "Ġpdzd": 9115,
  "Ġpeak": 9116,
  "Ġpech": 9117,
  "Ġpect": 9118,
  "Ġpedi": 9119,
  "Ġpeel": 9120,
  "Ġpeep": 9121,
  "Ġpeho": 9122,
  "Ġpell": 9123,
  "Ġpena": 9124,
  "Ġpend": 9125,
  "Ġpent": 9126,
  "Ġpeoa": 9127,
  "Ġpeob": 9128,
  "Ġpepd": 9129,
  "Ġpeps": 9130,
  "Ġperc": 9131,
  "Ġperi": 9132,
  "Ġperm": 9133,
  "Ġpern": 9134,
  "Ġpero": 9135,
  "Ġpers": 9136,
  "Ġpess": 9137,
  "Ġpexg": 9138,
  "Ġpexs": 9139,
  "Ġpfbi": 9140,
  "Ġpfcp": 9141,
  "Ġpfhb": 9142,
  "Ġpfic": 9143,
  "Ġpfkm": 9144,
  "Ġpgam": 9145,
  "Ġpghs": 9146,
  "Ġpgrn": 9147,
  "Ġphac": 9148,
  "Ġphae": 9149,
  "Ġphag": 9150,
  "Ġphak": 9151,
  "Ġphen": 9152,
  "Ġphhi": 9153,
  "Ġphid": 9154,
  "Ġphil": 9155,
  "Ġphle": 9156,
  "Ġphob": 9157,
  "Ġphon": 9158,
  "Ġphot": 9159,
  "Ġphox": 9160,
  "Ġphpt": 9161,
  "Ġphpx": 9162,
  "Ġphth": 9163,
  "Ġphyc": 9164,
  "Ġphys": 9165,
  "Ġphyt": 9166,
  "Ġpica": 9167,
  "Ġpick": 9168,
  "Ġpied": 9169,
  "Ġpier": 9170,
  "Ġpies": 9171,
  "Ġpigm": 9172,
  "Ġpign": 9173,
  "Ġpigs": 9174,
  "Ġpike": 9175,
  "Ġpili": 9176,
  "Ġpill": 9177,
  "Ġpilz": 9178,
  "Ġpind": 9179,
  "Ġpine": 9180,
  "Ġping": 9181,
  "Ġpink": 9182,
  "Ġpinn": 9183,
  "Ġpint": 9184,
  "Ġpisc": 9185,
  "Ġpits": 9186,
  "Ġpitt": 9187,
  "Ġpitu": 9188,
  "Ġpity": 9189,
  "Ġpkan": 9190,
  "Ġpkhd": 9191,
  "Ġpknd": 9192,
  "Ġpkps": 9193,
  "Ġpkws": 9194,
  "Ġplac": 9195,
  "Ġplag": 9196,
  "Ġplan": 9197,
  "Ġplas": 9198,
  "Ġplat": 9199,
  "Ġplca": 9200,
  "Ġplex": 9201,
  "Ġplic": 9202,
  "Ġplsa": 9203,
  "Ġplsd": 9204,
  "Ġplsj": 9205,
  "Ġplus": 9206,
  "Ġpmds": 9207,
  "Ġpmgx": 9208,
  "Ġpmld": 9209,
  "Ġpmse": 9210,
  "Ġpnca": 9211,
  "Ġpndc": 9212,
  "Ġpndm": 9213,
  "Ġpnet": 9214,
  "Ġpnkd": 9215,
  "Ġpnpo": 9216,
  "Ġpoag": 9217,
  "Ġpock": 9218,
  "Ġpofd": 9219,
  "Ġpofx": 9220,
  "Ġpole": 9221,
  "Ġpolg": 9222,
  "Ġpoli": 9223,
  "Ġpoll": 9224,
  "Ġpoly": 9225,
  "Ġpomp": 9226,
  "Ġpomt": 9227,
  "Ġpong": 9228,
  "Ġpont": 9229,
  "Ġponv": 9230,
  "Ġpool": 9231,
  "Ġpoor": 9232,
  "Ġporc": 9233,
  "Ġporo": 9234,
  "Ġport": 9235,
  "Ġpost": 9236,
  "Ġpott": 9237,
  "Ġppac": 9238,
  "Ġppca": 9239,
  "Ġppcd": 9240,
  "Ġpphp": 9241,
  "Ġppkb": 9242,
  "Ġppke": 9243,
  "Ġppkp": 9244,
  "Ġppks": 9245,
  "Ġppmx": 9246,
  "Ġppnd": 9247,
  "Ġppox": 9248,
  "Ġpppd": 9249,
  "Ġppsh": 9250,
  "Ġpqbp": 9251,
  "Ġprag": 9252,
  "Ġprca": 9253,
  "Ġprds": 9254,
  "Ġprea": 9255,
  "Ġprec": 9256,
  "Ġpred": 9257,
  "Ġpref": 9258,
  "Ġpreg": 9259,
  "Ġprem": 9260,
  "Ġprep": 9261,
  "Ġpres": 9262,
  "Ġprev": 9263,
  "Ġprim": 9264,
  "Ġprnp": 9265,
  "Ġprob": 9266,
  "Ġproc": 9267,
  "Ġprof": 9268,
  "Ġprog": 9269,
  "Ġprol": 9270,
  "Ġprom": 9271,
  "Ġpron": 9272,
  "Ġprop": 9273,
  "Ġpros": 9274,
  "Ġprot": 9275,
  "Ġprox": 9276,
  "Ġprpe": 9277,
  "Ġprps": 9278,
  "Ġprrs": 9279,
  "Ġprtc": 9280,
  "Ġprth": 9281,
  "Ġprts": 9282,
  "Ġprur": 9283,
  "Ġpsat": 9284,
  "Ġpsek": 9285,
  "Ġpshk": 9286,
  "Ġpsnp": 9287,
  "Ġpsor": 9288,
  "Ġpten": 9289,
  "Ġpter": 9290,
  "Ġpths": 9291,
  "Ġptls": 9292,
  "Ġptos": 9293,
  "Ġptsd": 9294,
  "Ġpujo": 9295,
  "Ġpulp": 9296,
  "Ġpuls": 9297,
  "Ġpunc": 9298,
  "Ġpure": 9299,
  "Ġpust": 9300,
  "Ġpvhh": 9301,
  "Ġpvnh": 9302,
  "Ġpvod": 9303,
  "Ġpvop": 9304,
  "Ġpvss": 9305,
  "Ġpwcr": 9306,
  "Ġpycd": 9307,
  "Ġpycn": 9308,
  "Ġpyel": 9309,
  "Ġpygm": 9310,
  "Ġpykn": 9311,
  "Ġpyle": 9312,
  "Ġpyoh": 9313,
  "Ġpyre": 9314,
  "Ġpyth": 9315,
  "Ġqazi": 9316,
  "Ġqdpr": 9317,
  "Ġqter": 9318,
  "Ġquad": 9319,
  "Ġraas": 9320,
  "Ġrach": 9321,
  "Ġradi": 9322,
  "Ġraeb": 9323,
  "Ġraem": 9324,
  "Ġragg": 9325,
  "Ġrain": 9326,
  "Ġrale": 9327,
  "Ġrall": 9328,
  "Ġramb": 9329,
  "Ġrams": 9330,
  "Ġrand": 9331,
  "Ġrang": 9332,
  "Ġraph": 9333,
  "Ġrapp": 9334,
  "Ġrare": 9335,
  "Ġrash": 9336,
  "Ġrass": 9337,
  "Ġrate": 9338,
  "Ġrath": 9339,
  "Ġratt": 9340,
  "Ġraut": 9341,
  "Ġrbcd": 9342,
  "Ġrcad": 9343,
  "Ġrccp": 9344,
  "Ġrcdp": 9345,
  "Ġrcrd": 9346,
  "Ġrdeb": 9347,
  "Ġreac": 9348,
  "Ġrear": 9349,
  "Ġreav": 9350,
  "Ġreck": 9351,
  "Ġrecr": 9352,
  "Ġrect": 9353,
  "Ġreed": 9354,
  "Ġrefr": 9355,
  "Ġreif": 9356,
  "Ġreim": 9357,
  "Ġrein": 9358,
  "Ġreis": 9359,
  "Ġrele": 9360,
  "Ġrend": 9361,
  "Ġreno": 9362,
  "Ġrens": 9363,
  "Ġresp": 9364,
  "Ġrest": 9365,
  "Ġrete": 9366,
  "Ġretr": 9367,
  "Ġrett": 9368,
  "Ġreye": 9369,
  "Ġrhda": 9370,
  "Ġrhin": 9371,
  "Ġrhpd": 9372,
  "Ġrhuc": 9373,
  "Ġrhus": 9374,
  "Ġribs": 9375,
  "Ġricc": 9376,
  "Ġrice": 9377,
  "Ġrich": 9378,
  "Ġrick": 9379,
  "Ġrida": 9380,
  "Ġrieg": 9381,
  "Ġrift": 9382,
  "Ġring": 9383,
  "Ġrise": 9384,
  "Ġrisk": 9385,
  "Ġrmch": 9386,
  "Ġrmsa": 9387,
  "Ġrmse": 9388,
  "Ġrmss": 9389,
  "Ġroca": 9390,
  "Ġrock": 9391,
  "Ġrods": 9392,
  "Ġrohn": 9393,
  "Ġromb": 9394,
  "Ġroot": 9395,
  "Ġroth": 9396,
  "Ġrots": 9397,
  "Ġrott": 9398,
  "Ġrous": 9399,
  "Ġrozd": 9400,
  "Ġrrdx": 9401,
  "Ġrsds": 9402,
  "Ġrsmd": 9403,
  "Ġrsts": 9404,
  "Ġrtas": 9405,
  "Ġrtps": 9406,
  "Ġruba": 9407,
  "Ġrubs": 9408,
  "Ġrudd": 9409,
  "Ġruds": 9410,
  "Ġruff": 9411,
  "Ġrule": 9412,
  "Ġrund": 9413,
  "Ġrunt": 9414,
  "Ġrupt": 9415,
  "Ġruss": 9416,
  "Ġrvcl": 9417,
  "Ġsaal": 9418,
  "Ġsacc": 9419,
  "Ġsach": 9420,
  "Ġsack": 9421,
  "Ġsacs": 9422,
  "Ġsadd": 9423,
  "Ġsahs": 9424,
  "Ġsalc": 9425,
  "Ġsall": 9426,
  "Ġsalt": 9427,
  "Ġsamm": 9428,
  "Ġsams": 9429,
  "Ġsand": 9430,
  "Ġsant": 9431,
  "Ġsaph": 9432,
  "Ġsarc": 9433,
  "Ġsard": 9434,
  "Ġsars": 9435,
  "Ġsaul": 9436,
  "Ġsbla": 9437,
  "Ġsbma": 9438,
  "Ġscad": 9439,
  "Ġscae": 9440,
  "Ġscan": 9441,
  "Ġscar": 9442,
  "Ġscax": 9443,
  "Ġsccd": 9444,
  "Ġsccl": 9445,
  "Ġscdo": 9446,
  "Ġscha": 9447,
  "Ġsche": 9448,
  "Ġschm": 9449,
  "Ġschn": 9450,
  "Ġscho": 9451,
  "Ġschw": 9452,
  "Ġscid": 9453,
  "Ġscjd": 9454,
  "Ġsckl": 9455,
  "Ġsclc": 9456,
  "Ġscle": 9457,
  "Ġscnx": 9458,
  "Ġscot": 9459,
  "Ġscpx": 9460,
  "Ġscra": 9461,
  "Ġscts": 9462,
  "Ġscur": 9463,
  "Ġsczd": 9464,
  "Ġsdam": 9465,
  "Ġsdsx": 9466,
  "Ġsdty": 9467,
  "Ġsdys": 9468,
  "Ġseas": 9469,
  "Ġsedc": 9470,
  "Ġsedk": 9471,
  "Ġsedt": 9472,
  "Ġseek": 9473,
  "Ġseip": 9474,
  "Ġseiz": 9475,
  "Ġself": 9476,
  "Ġsemd": 9477,
  "Ġsenn": 9478,
  "Ġsens": 9479,
  "Ġseow": 9480,
  "Ġsepn": 9481,
  "Ġsequ": 9482,
  "Ġsert": 9483,
  "Ġsfms": 9484,
  "Ġsfnp": 9485,
  "Ġsgbs": 9486,
  "Ġsgpa": 9487,
  "Ġshah": 9488,
  "Ġshak": 9489,
  "Ġshap": 9490,
  "Ġshar": 9491,
  "Ġshcb": 9492,
  "Ġshee": 9493,
  "Ġshek": 9494,
  "Ġshep": 9495,
  "Ġshfd": 9496,
  "Ġshfl": 9497,
  "Ġshfm": 9498,
  "Ġshig": 9499,
  "Ġshin": 9500,
  "Ġshml": 9501,
  "Ġshow": 9502,
  "Ġshsf": 9503,
  "Ġsial": 9504,
  "Ġsiam": 9505,
  "Ġsian": 9506,
  "Ġsick": 9507,
  "Ġside": 9508,
  "Ġsids": 9509,
  "Ġsiew": 9510,
  "Ġsign": 9511,
  "Ġsilk": 9512,
  "Ġsill": 9513,
  "Ġsilo": 9514,
  "Ġsilv": 9515,
  "Ġsimp": 9516,
  "Ġsind": 9517,
  "Ġsine": 9518,
  "Ġsing": 9519,
  "Ġsiod": 9520,
  "Ġsite": 9521,
  "Ġsitu": 9522,
  "Ġsiwe": 9523,
  "Ġsize": 9524,
  "Ġsjog": 9525,
  "Ġskew": 9526,
  "Ġskin": 9527,
  "Ġsleb": 9528,
  "Ġsleh": 9529,
  "Ġslen": 9530,
  "Ġslev": 9531,
  "Ġslim": 9532,
  "Ġslit": 9533,
  "Ġslos": 9534,
  "Ġslow": 9535,
  "Ġslsj": 9536,
  "Ġslsn": 9537,
  "Ġslti": 9538,
  "Ġsmad": 9539,
  "Ġsmax": 9540,
  "Ġsmcr": 9541,
  "Ġsmdk": 9542,
  "Ġsmdp": 9543,
  "Ġsmed": 9544,
  "Ġsmei": 9545,
  "Ġsmet": 9546,
  "Ġsmmd": 9547,
  "Ġsmna": 9548,
  "Ġsmok": 9549,
  "Ġsnax": 9550,
  "Ġsncv": 9551,
  "Ġsndi": 9552,
  "Ġsnel": 9553,
  "Ġsnor": 9554,
  "Ġsnow": 9555,
  "Ġsnub": 9556,
  "Ġsoci": 9557,
  "Ġsock": 9558,
  "Ġsoft": 9559,
  "Ġsoma": 9560,
  "Ġsomn": 9561,
  "Ġsore": 9562,
  "Ġsorg": 9563,
  "Ġsors": 9564,
  "Ġsost": 9565,
  "Ġsoto": 9566,
  "Ġsott": 9567,
  "Ġsoul": 9568,
  "Ġsova": 9569,
  "Ġspan": 9570,
  "Ġspas": 9571,
  "Ġspax": 9572,
  "Ġspch": 9573,
  "Ġspda": 9574,
  "Ġspgf": 9575,
  "Ġspha": 9576,
  "Ġsphe": 9577,
  "Ġspik": 9578,
  "Ġspin": 9579,
  "Ġsple": 9580,
  "Ġspmd": 9581,
  "Ġspmm": 9582,
  "Ġspot": 9583,
  "Ġsppk": 9584,
  "Ġsppx": 9585,
  "Ġspum": 9586,
  "Ġspur": 9587,
  "Ġsqtl": 9588,
  "Ġsrps": 9589,
  "Ġsrtd": 9590,
  "Ġsrvx": 9591,
  "Ġsrxx": 9592,
  "Ġsrxy": 9593,
  "Ġssad": 9594,
  "Ġssdd": 9595,
  "Ġssks": 9596,
  "Ġsspe": 9597,
  "Ġssps": 9598,
  "Ġstab": 9599,
  "Ġstap": 9600,
  "Ġstar": 9601,
  "Ġstat": 9602,
  "Ġstds": 9603,
  "Ġstem": 9604,
  "Ġsten": 9605,
  "Ġster": 9606,
  "Ġstgd": 9607,
  "Ġsthe": 9608,
  "Ġstil": 9609,
  "Ġstim": 9610,
  "Ġstip": 9611,
  "Ġstra": 9612,
  "Ġstre": 9613,
  "Ġstri": 9614,
  "Ġstrk": 9615,
  "Ġstro": 9616,
  "Ġstsl": 9617,
  "Ġstub": 9618,
  "Ġstun": 9619,
  "Ġstup": 9620,
  "Ġstut": 9621,
  "Ġstws": 9622,
  "Ġstye": 9623,
  "Ġstyl": 9624,
  "Ġsubc": 9625,
  "Ġsubd": 9626,
  "Ġsubm": 9627,
  "Ġsubp": 9628,
  "Ġsubs": 9629,
  "Ġsubt": 9630,
  "Ġsucc": 9631,
  "Ġsuff": 9632,
  "Ġsuit": 9633,
  "Ġsulf": 9634,
  "Ġsumm": 9635,
  "Ġsump": 9636,
  "Ġsund": 9637,
  "Ġsurf": 9638,
  "Ġsurg": 9639,
  "Ġsvas": 9640,
  "Ġswar": 9641,
  "Ġsylv": 9642,
  "Ġsymb": 9643,
  "Ġsyns": 9644,
  "Ġsyst": 9645,
  "Ġtaad": 9646,
  "Ġtach": 9647,
  "Ġtaci": 9648,
  "Ġtaen": 9649,
  "Ġtail": 9650,
  "Ġtaki": 9651,
  "Ġtako": 9652,
  "Ġtald": 9653,
  "Ġtall": 9654,
  "Ġtalo": 9655,
  "Ġtals": 9656,
  "Ġtamp": 9657,
  "Ġtang": 9658,
  "Ġtank": 9659,
  "Ġtaor": 9660,
  "Ġtard": 9661,
  "Ġtarp": 9662,
  "Ġtart": 9663,
  "Ġtask": 9664,
  "Ġtast": 9665,
  "Ġtatt": 9666,
  "Ġtaub": 9667,
  "Ġtaur": 9668,
  "Ġtaus": 9669,
  "Ġtbcd": 9670,
  "Ġtbdn": 9671,
  "Ġtbis": 9672,
  "Ġtcof": 9673,
  "Ġtcpt": 9674,
  "Ġtdfx": 9675,
  "Ġtear": 9676,
  "Ġtemp": 9677,
  "Ġtend": 9678,
  "Ġtenn": 9679,
  "Ġteoa": 9680,
  "Ġterm": 9681,
  "Ġtest": 9682,
  "Ġteth": 9683,
  "Ġtgas": 9684,
  "Ġtgct": 9685,
  "Ġthai": 9686,
  "Ġthak": 9687,
  "Ġthan": 9688,
  "Ġthas": 9689,
  "Ġthec": 9690,
  "Ġthin": 9691,
  "Ġthio": 9692,
  "Ġthmd": 9693,
  "Ġthom": 9694,
  "Ġthph": 9695,
  "Ġthre": 9696,
  "Ġthri": 9697,
  "Ġthro": 9698,
  "Ġthur": 9699,
  "Ġthym": 9700,
  "Ġtias": 9701,
  "Ġtick": 9702,
  "Ġtics": 9703,
  "Ġtime": 9704,
  "Ġting": 9705,
  "Ġtink": 9706,
  "Ġtire": 9707,
  "Ġtiss": 9708,
  "Ġtkcr": 9709,
  "Ġtmau": 9710,
  "Ġtmip": 9711,
  "Ġtndm": 9712,
  "Ġtnps": 9713,
  "Ġtodd": 9714,
  "Ġtodv": 9715,
  "Ġtoes": 9716,
  "Ġtoll": 9717,
  "Ġtone": 9718,
  "Ġtong": 9719,
  "Ġtoni": 9720,
  "Ġtons": 9721,
  "Ġtonz": 9722,
  "Ġtorg": 9723,
  "Ġtort": 9724,
  "Ġtour": 9725,
  "Ġtpmt": 9726,
  "Ġtpnh": 9727,
  "Ġtran": 9728,
  "Ġtree": 9729,
  "Ġtrep": 9730,
  "Ġtric": 9731,
  "Ġtrig": 9732,
  "Ġtrii": 9733,
  "Ġtrim": 9734,
  "Ġtrip": 9735,
  "Ġtris": 9736,
  "Ġtrma": 9737,
  "Ġtrna": 9738,
  "Ġtrop": 9739,
  "Ġtrox": 9740,
  "Ġtrps": 9741,
  "Ġtrue": 9742,
  "Ġtshl": 9743,
  "Ġtsuk": 9744,
  "Ġttdn": 9745,
  "Ġttdp": 9746,
  "Ġttpp": 9747,
  "Ġtubb": 9748,
  "Ġtube": 9749,
  "Ġtuft": 9750,
  "Ġtulp": 9751,
  "Ġtune": 9752,
  "Ġtung": 9753,
  "Ġturc": 9754,
  "Ġturk": 9755,
  "Ġtwin": 9756,
  "Ġtymp": 9757,
  "Ġtype": 9758,
  "Ġtyph": 9759,
  "Ġuadt": 9760,
  "Ġucmd": 9761,
  "Ġueba": 9762,
  "Ġulna": 9763,
  "Ġultr": 9764,
  "Ġumod": 9765,
  "Ġumph": 9766,
  "Ġumps": 9767,
  "Ġunex": 9768,
  "Ġunkn": 9769,
  "Ġunna": 9770,
  "Ġunsp": 9771,
  "Ġunst": 9772,
  "Ġupsh": 9773,
  "Ġurds": 9774,
  "Ġurea": 9775,
  "Ġuret": 9776,
  "Ġurge": 9777,
  "Ġuria": 9778,
  "Ġuric": 9779,
  "Ġurid": 9780,
  "Ġurod": 9781,
  "Ġurol": 9782,
  "Ġuros": 9783,
  "Ġuter": 9784,
  "Ġuvea": 9785,
  "Ġuvss": 9786,
  "Ġvaal": 9787,
  "Ġvacc": 9788,
  "Ġvact": 9789,
  "Ġvacu": 9790,
  "Ġvalg": 9791,
  "Ġvane": 9792,
  "Ġvara": 9793,
  "Ġvard": 9794,
  "Ġvari": 9795,
  "Ġvasa": 9796,
  "Ġvasc": 9797,
  "Ġvbch": 9798,
  "Ġvcan": 9799,
  "Ġvcfs": 9800,
  "Ġvcjd": 9801,
  "Ġvdac": 9802,
  "Ġvddr": 9803,
  "Ġvdws": 9804,
  "Ġvein": 9805,
  "Ġvelo": 9806,
  "Ġvena": 9807,
  "Ġveno": 9808,
  "Ġvera": 9809,
  "Ġverm": 9810,
  "Ġverr": 9811,
  "Ġvers": 9812,
  "Ġvery": 9813,
  "Ġvici": 9814,
  "Ġvies": 9815,
  "Ġviia": 9816,
  "Ġviib": 9817,
  "Ġviic": 9818,
  "Ġviii": 9819,
  "Ġviis": 9820,
  "Ġvill": 9821,
  "Ġvisc": 9822,
  "Ġvith": 9823,
  "Ġvivo": 9824,
  "Ġvlin": 9825,
  "Ġvmcm": 9826,
  "Ġvodi": 9827,
  "Ġvogt": 9828,
  "Ġvoid": 9829,
  "Ġvoss": 9830,
  "Ġvrcp": 9831,
  "Ġvrni": 9832,
  "Ġvscm": 9833,
  "Ġvspa": 9834,
  "Ġvtlg": 9835,
  "Ġvulv": 9836,
  "Ġvwdp": 9837,
  "Ġvwsm": 9838,
  "Ġwabs": 9839,
  "Ġwagr": 9840,
  "Ġwake": 9841,
  "Ġwald": 9842,
  "Ġwall": 9843,
  "Ġwalt": 9844,
  "Ġwang": 9845,
  "Ġwarb": 9846,
  "Ġward": 9847,
  "Ġwars": 9848,
  "Ġwart": 9849,
  "Ġwast": 9850,
  "Ġwaxy": 9851,
  "Ġwdha": 9852,
  "Ġwdhh": 9853,
  "Ġwear": 9854,
  "Ġwebb": 9855,
  "Ġwebs": 9856,
  "Ġweil": 9857,
  "Ġweir": 9858,
  "Ġwell": 9859,
  "Ġwerm": 9860,
  "Ġwern": 9861,
  "Ġwest": 9862,
  "Ġwhim": 9863,
  "Ġwied": 9864,
  "Ġwill": 9865,
  "Ġwilm": 9866,
  "Ġwind": 9867,
  "Ġwine": 9868,
  "Ġwing": 9869,
  "Ġwink": 9870,
  "Ġwinn": 9871,
  "Ġwins": 9872,
  "Ġwiry": 9873,
  "Ġwiss": 9874,
  "Ġwith": 9875,
  "Ġwitt": 9876,
  "Ġwohl": 9877,
  "Ġwolf": 9878,
  "Ġwood": 9879,
  "Ġwool": 9880,
  "Ġword": 9881,
  "Ġwork": 9882,
  "Ġworm": 9883,
  "Ġwors": 9884,
  "Ġwrwf": 9885,
  "Ġwsmn": 9886,
  "Ġwtsl": 9887,
  "Ġxbsn": 9888,
  "Ġxcid": 9889,
  "Ġxecd": 9890,
  "Ġxero": 9891,
  "Ġxgpt": 9892,
  "Ġxhed": 9893,
  "Ġxhim": 9894,
  "Ġxiap": 9895,
  "Ġxiii": 9896,
  "Ġxlag": 9897,
  "Ġxlas": 9898,
  "Ġxlcm": 9899,
  "Ġxlhr": 9900,
  "Ġxlis": 9901,
  "Ġxlmr": 9902,
  "Ġxlos": 9903,
  "Ġxlpd": 9904,
  "Ġxlrs": 9905,
  "Ġxlsa": 9906,
  "Ġxltt": 9907,
  "Ġxmea": 9908,
  "Ġxmvd": 9909,
  "Ġxpbc": 9910,
  "Ġxpcc": 9911,
  "Ġxpdc": 9912,
  "Ġxpgc": 9913,
  "Ġxpid": 9914,
  "Ġxxgd": 9915,
  "Ġxxxx": 9916,
  "Ġxxxy": 9917,
  "Ġxxyy": 9918,
  "Ġyale": 9919,
  "Ġyang": 9920,
  "Ġyaws": 9921,
  "Ġyolk": 9922,
  "Ġyosh": 9923,
  "Ġyush": 9924,
  "Ġyusk": 9925,
  "Ġzapp": 9926,
  "Ġzasp": 9927,
  "Ġzech": 9928,
  "Ġzerr": 9929,
  "Ġzeta": 9930,
  "Ġzhao": 9931,
  "Ġzimm": 9932,
  "Ġzinc": 9933,
  "Ġzlot": 9934,
  "Ġzona": 9935,
  "Ġzone": 9936,
  "Ġzoon": 9937,
  "Ġzori": 9938,
  "Ġzsch": 9939,
  "abelli": 9940,
  "abolic": 9941,
  "abular": 9942,
  "acchar": 9943,
  "acetic": 9944,
  "achami": 9945,
  "achers": 9946,
  "achies": 9947,
  "achlan": 9948,
  "achman": 9949,
  "achond": 9950,
  "acinar": 9951,
  "ackova": 9952,
  "acroyl": 9953,
  "actant": 9954,
  "actile": 9955,
  "acting": 9956,
  "action": 9957,
  "active": 9958,
  "actoid": 9959,
  "actory": 9960,
  "actyly": 9961,
  "acular": 9962,
  "acusis": 9963,
  "acytic": 9964,
  "adened": 9965,
  "adione": 9966,
  "adipic": 9967,
  "aelian": 9968,
  "aemias": 9969,
  "agaeri": 9970,
  "agener": 9971,
  "agenic": 9972,
  "ageria": 9973,
  "agious": 9974,
  "agland": 9975,
  "agnant": 9976,
  "agogic": 9977,
  "agonia": 9978,
  "agsiek": 9979,
  "aharas": 9980,
  "ainhum": 9981,
  "aining": 9982,
  "aitser": 9983,
  "akness": 9984,
  "alamin": 9985,
  "alangy": 9986,
  "alasia": 9987,
  "alasis": 9988,
  "alcaba": 9989,
  "algias": 9990,
  "allouf": 9991,
  "alytic": 9992,
  "amaria": 9993,
  "amassi": 9994,
  "amberg": 9995,
  "amelia": 9996,
  "aments": 9997,
  "amidal": 9998,
  "amines": 9999,
  "ammary": 10000,
  "amorph": 10001,
  "amushi": 10002,
  "anarin": 10003,
  "ancies": 10004,
  "anctis": 10005,
  "anding": 10006,
  "anemia": 10007,
  "aneous": 10008,
  "anesth": 10009,
  "angial": 10010,
  "angite": 10011,
  "anical": 10012,
  "anidin": 10013,
  "anoses": 10014,
  "anosis": 10015,
  "anotic": 10016,
  "anthem": 10017,
  "anthus": 10018,
  "antoin": 10019,
  "antoni": 10020,
  "antral": 10021,
  "anuria": 10022,
  "aortic": 10023,
  "aposin": 10024,
  "apping": 10025,
  "apular": 10026,
  "arapid": 10027,
  "araxis": 10028,
  "arbane": 10029,
  "arcoma": 10030,
  "ardiac": 10031,
  "ardial": 10032,
  "ardium": 10033,
  "areses": 10034,
  "aresis": 10035,
  "arning": 10036,
  "aroten": 10037,
  "arteri": 10038,
  "asbeck": 10039,
  "asburg": 10040,
  "ascorb": 10041,
  "asemia": 10042,
  "ashima": 10043,
  "asilar": 10044,
  "asitic": 10045,
  "astian": 10046,
  "asting": 10047,
  "astria": 10048,
  "astric": 10049,
  "atales": 10050,
  "atelet": 10051,
  "atelle": 10052,
  "atemia": 10053,
  "ateral": 10054,
  "athies": 10055,
  "athion": 10056,
  "atidyl": 10057,
  "ations": 10058,
  "atisms": 10059,
  "atitis": 10060,
  "ativis": 10061,
  "ativus": 10062,
  "atment": 10063,
  "atonic": 10064,
  "atoses": 10065,
  "atosis": 10066,
  "atrial": 10067,
  "atroph": 10068,
  "attles": 10069,
  "atures": 10070,
  "aturia": 10071,
  "atznik": 10072,
  "aucoma": 10073,
  "aumann": 10074,
  "aurant": 10075,
  "avatum": 10076,
  "avirin": 10077,
  "avirus": 10078,
  "avuori": 10079,
  "ayback": 10080,
  "bation": 10081,
  "berger": 10082,
  "berian": 10083,
  "berley": 10084,
  "bilane": 10085,
  "bility": 10086,
  "binden": 10087,
  "bismus": 10088,
  "bleeds": 10089,
  "blings": 10090,
  "bourne": 10091,
  "bright": 10092,
  "bronch": 10093,
  "bulbar": 10094,
  "caemia": 10095,
  "cation": 10096,
  "cephal": 10097,
  "chetto": 10098,
  "chhorn": 10099,
  "chings": 10100,
  "chment": 10101,
  "christ": 10102,
  "chroma": 10103,
  "clonal": 10104,
  "corner": 10105,
  "cowitz": 10106,
  "cratch": 10107,
  "crease": 10108,
  "dactyl": 10109,
  "dehyde": 10110,
  "dergem": 10111,
  "dermal": 10112,
  "dermas": 10113,
  "dermia": 10114,
  "dermic": 10115,
  "derson": 10116,
  "diness": 10117,
  "ditary": 10118,
  "dontia": 10119,
  "ductal": 10120,
  "earing": 10121,
  "eating": 10122,
  "ebased": 10123,
  "ebauer": 10124,
  "ebrain": 10125,
  "ebrets": 10126,
  "ebrile": 10127,
  "echiae": 10128,
  "ecific": 10129,
  "ectile": 10130,
  "ection": 10131,
  "ective": 10132,
  "ectomy": 10133,
  "ectoro": 10134,
  "edemas": 10135,
  "edenic": 10136,
  "ediate": 10137,
  "ediens": 10138,
  "edones": 10139,
  "edural": 10140,
  "eeding": 10141,
  "efined": 10142,
  "egeman": 10143,
  "ehlers": 10144,
  "elakis": 10145,
  "elberg": 10146,
  "elerin": 10147,
  "elides": 10148,
  "ellect": 10149,
  "elline": 10150,
  "elling": 10151,
  "ellino": 10152,
  "elodia": 10153,
  "elsons": 10154,
  "emalis": 10155,
  "emberm": 10156,
  "embran": 10157,
  "ementi": 10158,
  "emeral": 10159,
  "emeses": 10160,
  "emesis": 10161,
  "eminal": 10162,
  "eminne": 10163,
  "emoral": 10164,
  "emoser": 10165,
  "empers": 10166,
  "enance": 10167,
  "enatal": 10168,
  "enbeck": 10169,
  "enberg": 10170,
  "enburg": 10171,
  "encies": 10172,
  "encycl": 10173,
  "ending": 10174,
  "endocr": 10175,
  "enetti": 10176,
  "enfeld": 10177,
  "enhain": 10178,
  "enhall": 10179,
  "enloch": 10180,
  "enoses": 10181,
  "enosis": 10182,
  "enport": 10183,
  "ension": 10184,
  "ensity": 10185,
  "ensive": 10186,
  "ensory": 10187,
  "enstra": 10188,
  "entaff": 10189,
  "entary": 10190,
  "entero": 10191,
  "enthal": 10192,
  "ential": 10193,
  "ention": 10194,
  "entral": 10195,
  "entric": 10196,
  "entupa": 10197,
  "enuria": 10198,
  "enzyme": 10199,
  "epelin": 10200,
  "ephaly": 10201,
  "epkorn": 10202,
  "epsias": 10203,
  "eptide": 10204,
  "eption": 10205,
  "eptive": 10206,
  "eptual": 10207,
  "equate": 10208,
  "erapeu": 10209,
  "erated": 10210,
  "ercise": 10211,
  "erebro": 10212,
  "eremia": 10213,
  "erenal": 10214,
  "erenti": 10215,
  "erford": 10216,
  "ergies": 10217,
  "ergill": 10218,
  "erging": 10219,
  "eriton": 10220,
  "erling": 10221,
  "ermann": 10222,
  "ermans": 10223,
  "ermaph": 10224,
  "ermias": 10225,
  "ernail": 10226,
  "eroemb": 10227,
  "erster": 10228,
  "ertain": 10229,
  "erthle": 10230,
  "ertion": 10231,
  "ervord": 10232,
  "escens": 10233,
  "eslagh": 10234,
  "esmann": 10235,
  "ession": 10236,
  "essive": 10237,
  "estern": 10238,
  "estion": 10239,
  "estive": 10240,
  "estone": 10241,
  "etales": 10242,
  "etella": 10243,
  "etence": 10244,
  "eteral": 10245,
  "etetal": 10246,
  "etomas": 10247,
  "etotic": 10248,
  "etrans": 10249,
  "etting": 10250,
  "facial": 10251,
  "felter": 10252,
  "ferase": 10253,
  "ferous": 10254,
  "ficial": 10255,
  "formed": 10256,
  "formis": 10257,
  "fusion": 10258,
  "garten": 10259,
  "gement": 10260,
  "genase": 10261,
  "genhal": 10262,
  "gerous": 10263,
  "gesias": 10264,
  "glucos": 10265,
  "glutin": 10266,
  "gmasia": 10267,
  "growth": 10268,
  "gruent": 10269,
  "hanced": 10270,
  "hausen": 10271,
  "hauser": 10272,
  "havior": 10273,
  "hiasis": 10274,
  "hlberg": 10275,
  "hydria": 10276,
  "hydrox": 10277,
  "iaceae": 10278,
  "iaceus": 10279,
  "iacism": 10280,
  "iadoch": 10281,
  "iafava": 10282,
  "iasmic": 10283,
  "iatica": 10284,
  "iating": 10285,
  "iation": 10286,
  "iative": 10287,
  "iatric": 10288,
  "ibasic": 10289,
  "ibosyl": 10290,
  "ibrion": 10291,
  "ically": 10292,
  "icardi": 10293,
  "icemia": 10294,
  "ichsen": 10295,
  "icidal": 10296,
  "icienc": 10297,
  "icient": 10298,
  "icious": 10299,
  "icolor": 10300,
  "iction": 10301,
  "icular": 10302,
  "iculty": 10303,
  "idases": 10304,
  "idemia": 10305,
  "idemic": 10306,
  "iderin": 10307,
  "idodip": 10308,
  "idoses": 10309,
  "idosis": 10310,
  "iduous": 10311,
  "iduria": 10312,
  "ierres": 10313,
  "iesche": 10314,
  "iewicz": 10315,
  "iferol": 10316,
  "iforme": 10317,
  "ifting": 10318,
  "ifying": 10319,
  "igenic": 10320,
  "ighton": 10321,
  "igital": 10322,
  "igment": 10323,
  "igmoid": 10324,
  "ignani": 10325,
  "igraft": 10326,
  "iguous": 10327,
  "ikonia": 10328,
  "ikrein": 10329,
  "ilbach": 10330,
  "ilbert": 10331,
  "ilding": 10332,
  "ilhier": 10333,
  "ilibri": 10334,
  "ilitas": 10335,
  "iljoen": 10336,
  "illary": 10337,
  "illing": 10338,
  "ilobar": 10339,
  "ilymph": 10340,
  "imitar": 10341,
  "immune": 10342,
  "imoses": 10343,
  "imosis": 10344,
  "imotor": 10345,
  "imotos": 10346,
  "inance": 10347,
  "inants": 10348,
  "inasal": 10349,
  "inases": 10350,
  "inatus": 10351,
  "inburg": 10352,
  "inding": 10353,
  "indler": 10354,
  "indrom": 10355,
  "indrop": 10356,
  "ineers": 10357,
  "inelli": 10358,
  "inemia": 10359,
  "inemic": 10360,
  "ineral": 10361,
  "inetic": 10362,
  "ingles": 10363,
  "ingold": 10364,
  "ington": 10365,
  "ingual": 10366,
  "inical": 10367,
  "inking": 10368,
  "inmess": 10369,
  "inogen": 10370,
  "inomas": 10371,
  "inoses": 10372,
  "inosis": 10373,
  "insons": 10374,
  "insser": 10375,
  "insson": 10376,
  "intill": 10377,
  "intosh": 10378,
  "inural": 10379,
  "inuria": 10380,
  "inuric": 10381,
  "iocarb": 10382,
  "iolase": 10383,
  "iparum": 10384,
  "ipient": 10385,
  "ipital": 10386,
  "iploid": 10387,
  "ipolar": 10388,
  "ipples": 10389,
  "ipunct": 10390,
  "irales": 10391,
  "iridae": 10392,
  "iroses": 10393,
  "irosis": 10394,
  "isalab": 10395,
  "isatas": 10396,
  "ischer": 10397,
  "isella": 10398,
  "ishing": 10399,
  "ishman": 10400,
  "ismann": 10401,
  "isobut": 10402,
  "ission": 10403,
  "istian": 10404,
  "istine": 10405,
  "isural": 10406,
  "isuria": 10407,
  "iswick": 10408,
  "itable": 10409,
  "itamin": 10410,
  "itance": 10411,
  "ithing": 10412,
  "itides": 10413,
  "itions": 10414,
  "itnall": 10415,
  "itoses": 10416,
  "itosis": 10417,
  "itreal": 10418,
  "itrous": 10419,
  "ittant": 10420,
  "ittent": 10421,
  "itting": 10422,
  "itudes": 10423,
  "itzler": 10424,
  "iurias": 10425,
  "ivided": 10426,
  "ivirus": 10427,
  "kefull": 10428,
  "kelein": 10429,
  "kenazi": 10430,
  "kerman": 10431,
  "kewitz": 10432,
  "keypox": 10433,
  "kinase": 10434,
  "kinawa": 10435,
  "kinson": 10436,
  "knecht": 10437,
  "knosis": 10438,
  "kowitz": 10439,
  "laakso": 10440,
  "lassic": 10441,
  "lastic": 10442,
  "latter": 10443,
  "lebran": 10444,
  "leolar": 10445,
  "leptic": 10446,
  "lequin": 10447,
  "lethal": 10448,
  "letier": 10449,
  "letion": 10450,
  "lexias": 10451,
  "linked": 10452,
  "liomas": 10453,
  "loride": 10454,
  "lossal": 10455,
  "lossia": 10456,
  "lucent": 10457,
  "luence": 10458,
  "macher": 10459,
  "matian": 10460,
  "matism": 10461,
  "mental": 10462,
  "mented": 10463,
  "merhor": 10464,
  "metric": 10465,
  "minans": 10466,
  "mining": 10467,
  "moidal": 10468,
  "monale": 10469,
  "monary": 10470,
  "nathia": 10471,
  "neberg": 10472,
  "nesium": 10473,
  "nesses": 10474,
  "niecky": 10475,
  "nitine": 10476,
  "normal": 10477,
  "oacral": 10478,
  "oamide": 10479,
  "oathet": 10480,
  "oaxial": 10481,
  "oblast": 10482,
  "obloch": 10483,
  "obrach": 10484,
  "ocardi": 10485,
  "ocated": 10486,
  "ocaval": 10487,
  "occidi": 10488,
  "ocecal": 10489,
  "oceles": 10490,
  "ocereb": 10491,
  "ocheil": 10492,
  "ochond": 10493,
  "ochrom": 10494,
  "ocleid": 10495,
  "ocoele": 10496,
  "oconus": 10497,
  "ocorac": 10498,
  "ocoria": 10499,
  "ocrani": 10500,
  "ocrine": 10501,
  "ocular": 10502,
  "ocytes": 10503,
  "ocytic": 10504,
  "ocytop": 10505,
  "oderma": 10506,
  "odgkin": 10507,
  "odigit": 10508,
  "odomic": 10509,
  "odular": 10510,
  "odulin": 10511,
  "odynia": 10512,
  "oedema": 10513,
  "oelast": 10514,
  "oeling": 10515,
  "oepfer": 10516,
  "ofetal": 10517,
  "ofront": 10518,
  "ofruct": 10519,
  "ogenes": 10520,
  "ogenic": 10521,
  "ogenit": 10522,
  "oggins": 10523,
  "ogical": 10524,
  "ognath": 10525,
  "ogonad": 10526,
  "ograft": 10527,
  "ograms": 10528,
  "ograph": 10529,
  "oherty": 10530,
  "ohisti": 10531,
  "oholic": 10532,
  "ohypop": 10533,
  "oidism": 10534,
  "oietic": 10535,
  "ointer": 10536,
  "ojejun": 10537,
  "okerat": 10538,
  "okworm": 10539,
  "olanyi": 10540,
  "olated": 10541,
  "olence": 10542,
  "oleste": 10543,
  "olipid": 10544,
  "olitis": 10545,
  "olling": 10546,
  "ologic": 10547,
  "olored": 10548,
  "olymph": 10549,
  "olyses": 10550,
  "olysis": 10551,
  "olytic": 10552,
  "omalac": 10553,
  "omania": 10554,
  "omatas": 10555,
  "omatic": 10556,
  "omegal": 10557,
  "omelan": 10558,
  "omelia": 10559,
  "omelic": 10560,
  "omelus": 10561,
  "omeric": 10562,
  "ometra": 10563,
  "ominal": 10564,
  "omnias": 10565,
  "omocys": 10566,
  "omodal": 10567,
  "omonas": 10568,
  "omotor": 10569,
  "ompens": 10570,
  "omphal": 10571,
  "omycin": 10572,
  "onasal": 10573,
  "onastr": 10574,
  "onatal": 10575,
  "onciny": 10576,
  "ondini": 10577,
  "ondrom": 10578,
  "ondyly": 10579,
  "oneuro": 10580,
  "onfria": 10581,
  "onging": 10582,
  "onicum": 10583,
  "onidal": 10584,
  "onnell": 10585,
  "onomic": 10586,
  "onorch": 10587,
  "onstit": 10588,
  "ontine": 10589,
  "ontrol": 10590,
  "oodont": 10591,
  "oonych": 10592,
  "ooping": 10593,
  "opachy": 10594,
  "opalat": 10595,
  "opapul": 10596,
  "opaths": 10597,
  "opathy": 10598,
  "openia": 10599,
  "openic": 10600,
  "operic": 10601,
  "operox": 10602,
  "ophagy": 10603,
  "ophila": 10604,
  "ophyma": 10605,
  "ophyte": 10606,
  "oplasm": 10607,
  "oplida": 10608,
  "opneum": 10609,
  "opolys": 10610,
  "oprost": 10611,
  "opsias": 10612,
  "opsoas": 10613,
  "oquine": 10614,
  "oracic": 10615,
  "ordial": 10616,
  "ordons": 10617,
  "orenal": 10618,
  "oretic": 10619,
  "orican": 10620,
  "orneal": 10621,
  "orough": 10622,
  "orphic": 10623,
  "orphyr": 10624,
  "orrhag": 10625,
  "orrhea": 10626,
  "orsion": 10627,
  "ortion": 10628,
  "ortive": 10629,
  "osamin": 10630,
  "ositis": 10631,
  "osmias": 10632,
  "osomal": 10633,
  "osomes": 10634,
  "ospasm": 10635,
  "osplen": 10636,
  "ossias": 10637,
  "osteal": 10638,
  "ostoma": 10639,
  "ostomy": 10640,
  "osuria": 10641,
  "osynov": 10642,
  "otalar": 10643,
  "otaxia": 10644,
  "otemia": 10645,
  "otence": 10646,
  "othane": 10647,
  "othrix": 10648,
  "otocin": 10649,
  "otomus": 10650,
  "otonia": 10651,
  "otoxic": 10652,
  "otrach": 10653,
  "otrans": 10654,
  "otrich": 10655,
  "otroph": 10656,
  "otsubo": 10657,
  "otypes": 10658,
  "otypic": 10659,
  "otyros": 10660,
  "ouizos": 10661,
  "oulder": 10662,
  "oullet": 10663,
  "oureux": 10664,
  "oustic": 10665,
  "ouston": 10666,
  "ouveal": 10667,
  "ovagin": 10668,
  "ovarus": 10669,
  "oviral": 10670,
  "ovirus": 10671,
  "oxanth": 10672,
  "oxical": 10673,
  "oyoshi": 10674,
  "pecial": 10675,
  "pected": 10676,
  "person": 10677,
  "pharon": 10678,
  "phenyl": 10679,
  "pheral": 10680,
  "philis": 10681,
  "phosph": 10682,
  "phragm": 10683,
  "physes": 10684,
  "physis": 10685,
  "plasia": 10686,
  "plasma": 10687,
  "platin": 10688,
  "plenia": 10689,
  "plexia": 10690,
  "plices": 10691,
  "posing": 10692,
  "protic": 10693,
  "ptions": 10694,
  "quency": 10695,
  "radial": 10696,
  "radren": 10697,
  "ralgia": 10698,
  "ralogy": 10699,
  "raltar": 10700,
  "rander": 10701,
  "ranean": 10702,
  "ranger": 10703,
  "ranial": 10704,
  "ransky": 10705,
  "rantan": 10706,
  "raphic": 10707,
  "ratase": 10708,
  "ratent": 10709,
  "ration": 10710,
  "ratory": 10711,
  "rcular": 10712,
  "renias": 10713,
  "renner": 10714,
  "reotic": 10715,
  "ressor": 10716,
  "retine": 10717,
  "reting": 10718,
  "retion": 10719,
  "rhagia": 10720,
  "rhythm": 10721,
  "riases": 10722,
  "riasis": 10723,
  "ricans": 10724,
  "riceps": 10725,
  "ricoma": 10726,
  "ricult": 10727,
  "rielli": 10728,
  "riendt": 10729,
  "riform": 10730,
  "rinsky": 10731,
  "rition": 10732,
  "rixoma": 10733,
  "roaden": 10734,
  "robial": 10735,
  "rocalc": 10736,
  "rocard": 10737,
  "rococc": 10738,
  "rocoel": 10739,
  "rocyst": 10740,
  "rocyte": 10741,
  "roduod": 10742,
  "rodyst": 10743,
  "rofaci": 10744,
  "rolase": 10745,
  "rolean": 10746,
  "roline": 10747,
  "romata": 10748,
  "rombia": 10749,
  "romial": 10750,
  "romyel": 10751,
  "roneal": 10752,
  "roneph": 10753,
  "rongyl": 10754,
  "ronous": 10755,
  "rontal": 10756,
  "ronych": 10757,
  "ropath": 10758,
  "rophag": 10759,
  "rophia": 10760,
  "rophic": 10761,
  "rophil": 10762,
  "ropias": 10763,
  "ropion": 10764,
  "ropody": 10765,
  "ropsia": 10766,
  "roside": 10767,
  "rosies": 10768,
  "rosing": 10769,
  "rotein": 10770,
  "roxine": 10771,
  "roxysm": 10772,
  "ruggen": 10773,
  "rupted": 10774,
  "ryroid": 10775,
  "schert": 10776,
  "schild": 10777,
  "schnig": 10778,
  "sexual": 10779,
  "sfield": 10780,
  "siella": 10781,
  "siness": 10782,
  "strong": 10783,
  "suring": 10784,
  "sutism": 10785,
  "tahara": 10786,
  "talgia": 10787,
  "tality": 10788,
  "talsis": 10789,
  "taphyl": 10790,
  "tative": 10791,
  "tebral": 10792,
  "teleph": 10793,
  "tering": 10794,
  "terior": 10795,
  "ternal": 10796,
  "ternas": 10797,
  "teroid": 10798,
  "thalus": 10799,
  "thesis": 10800,
  "thetic": 10801,
  "thorax": 10802,
  "thromb": 10803,
  "tiasis": 10804,
  "tibial": 10805,
  "tidase": 10806,
  "tiform": 10807,
  "tigrew": 10808,
  "tility": 10809,
  "tinian": 10810,
  "tinism": 10811,
  "tional": 10812,
  "tiosum": 10813,
  "tising": 10814,
  "tivity": 10815,
  "tlosis": 10816,
  "tongue": 10817,
  "trical": 10818,
  "turban": 10819,
  "uation": 10820,
  "uberty": 10821,
  "ubitus": 10822,
  "ubular": 10823,
  "ubules": 10824,
  "ucagon": 10825,
  "ucidum": 10826,
  "uclear": 10827,
  "uctase": 10828,
  "udhina": 10829,
  "udinal": 10830,
  "udness": 10831,
  "udtson": 10832,
  "udwick": 10833,
  "ueller": 10834,
  "uffard": 10835,
  "ufting": 10836,
  "ugaret": 10837,
  "uggish": 10838,
  "ughnut": 10839,
  "ukyuan": 10840,
  "ulator": 10841,
  "ulence": 10842,
  "ulengr": 10843,
  "ulitis": 10844,
  "ullous": 10845,
  "ulomas": 10846,
  "uloses": 10847,
  "ulosis": 10848,
  "ulsive": 10849,
  "ulting": 10850,
  "umarin": 10851,
  "umatic": 10852,
  "umpled": 10853,
  "uncles": 10854,
  "ungual": 10855,
  "united": 10856,
  "unning": 10857,
  "untary": 10858,
  "uosity": 10859,
  "upedal": 10860,
  "uracil": 10861,
  "uramin": 10862,
  "uratum": 10863,
  "urenic": 10864,
  "uresis": 10865,
  "uretic": 10866,
  "urimal": 10867,
  "urings": 10868,
  "uritis": 10869,
  "uronal": 10870,
  "urosis": 10871,
  "ushing": 10872,
  "usions": 10873,
  "ussion": 10874,
  "utamic": 10875,
  "utinum": 10876,
  "utions": 10877,
  "utisms": 10878,
  "uvrier": 10879,
  "uxetic": 10880,
  "uysian": 10881,
  "valvar": 10882,
  "vasive": 10883,
  "veggia": 10884,
  "veness": 10885,
  "veolar": 10886,
  "vergel": 10887,
  "versal": 10888,
  "verteb": 10889,
  "verted": 10890,
  "weight": 10891,
  "wilder": 10892,
  "winkel": 10893,
  "wright": 10894,
  "xialis": 10895,
  "yalgia": 10896,
  "yanagi": 10897,
  "ychial": 10898,
  "ycline": 10899,
  "ycoses": 10900,
  "ycosis": 10901,
  "yeraal": 10902,
  "ygotes": 10903,
  "ygyria": 10904,
  "ylloid": 10905,
  "ylosis": 10906,
  "ylthio": 10907,
  "ylvian": 10908,
  "ymaker": 10909,
  "ymomas": 10910,
  "yngeal": 10911,
  "ynuren": 10912,
  "yphoid": 10913,
  "ypical": 10914,
  "yposis": 10915,
  "yptian": 10916,
  "yrinth": 10917,
  "ythmia": 10918,
  "ythmic": 10919,
  "zation": 10920,
  "zilian": 10921,
  "zoster": 10922,
  "zygous": 10923,
  "Ġ20210": 10924,
  "Ġaagen": 10925,
  "Ġaaopd": 10926,
  "Ġaarau": 10927,
  "Ġaarrs": 10928,
  "Ġaarsk": 10929,
  "Ġabbot": 10930,
  "Ġabcds": 10931,
  "Ġabduc": 10932,
  "Ġabidi": 10933,
  "Ġabiot": 10934,
  "Ġabras": 10935,
  "Ġabrup": 10936,
  "Ġabruz": 10937,
  "Ġabuse": 10938,
  "Ġacaca": 10939,
  "Ġacadm": 10940,
  "Ġacads": 10941,
  "Ġacadv": 10942,
  "Ġacalv": 10943,
  "Ġacamp": 10944,
  "Ġaccid": 10945,
  "Ġaccpn": 10946,
  "Ġaceta": 10947,
  "Ġachal": 10948,
  "Ġachei": 10949,
  "Ġaches": 10950,
  "Ġachol": 10951,
  "Ġacids": 10952,
  "Ġackee": 10953,
  "Ġaclas": 10954,
  "Ġacllx": 10955,
  "Ġacnes": 10956,
  "Ġacral": 10957,
  "Ġacran": 10958,
  "Ġacroc": 10959,
  "Ġacrod": 10960,
  "Ġacrof": 10961,
  "Ġacrog": 10962,
  "Ġacrol": 10963,
  "Ġacrom": 10964,
  "Ġacrop": 10965,
  "Ġacros": 10966,
  "Ġacrps": 10967,
  "Ġactin": 10968,
  "Ġactiv": 10969,
  "Ġacule": 10970,
  "Ġacuta": 10971,
  "Ġacute": 10972,
  "Ġadams": 10973,
  "Ġadapt": 10974,
  "Ġadcad": 10975,
  "Ġadcme": 10976,
  "Ġaddad": 10977,
  "Ġaddic": 10978,
  "Ġadduc": 10979,
  "Ġadela": 10980,
  "Ġadhal": 10981,
  "Ġadhes": 10982,
  "Ġadies": 10983,
  "Ġadlte": 10984,
  "Ġadmfd": 10985,
  "Ġadnex": 10986,
  "Ġadniv": 10987,
  "Ġadpkd": 10988,
  "Ġadren": 10989,
  "Ġadult": 10990,
  "Ġadvir": 10991,
  "Ġaerod": 10992,
  "Ġaesth": 10993,
  "Ġafibr": 10994,
  "Ġaftim": 10995,
  "Ġagain": 10996,
  "Ġageus": 10997,
  "Ġaging": 10998,
  "Ġagnos": 10999,
  "Ġagotc": 11000,
  "Ġagpat": 11001,
  "Ġahmad": 11002,
  "Ġahmio": 11003,
  "Ġaicar": 11004,
  "Ġaidss": 11005,
  "Ġaihht": 11006,
  "Ġaimah": 11007,
  "Ġaires": 11008,
  "Ġairoc": 11009,
  "Ġakaba": 11010,
  "Ġalacr": 11011,
  "Ġaland": 11012,
  "Ġalarm": 11013,
  "Ġalbin": 11014,
  "Ġalcap": 11015,
  "Ġalcoh": 11016,
  "Ġaldoa": 11017,
  "Ġaldob": 11018,
  "Ġalemb": 11019,
  "Ġaleuk": 11020,
  "Ġalger": 11021,
  "Ġalgor": 11022,
  "Ġalice": 11023,
  "Ġalien": 11024,
  "Ġalkal": 11025,
  "Ġalkyl": 11026,
  "Ġallan": 11027,
  "Ġalper": 11028,
  "Ġalpha": 11029,
  "Ġalstr": 11030,
  "Ġalter": 11031,
  "Ġaltid": 11032,
  "Ġaltit": 11033,
  "Ġalunc": 11034,
  "Ġalves": 11035,
  "Ġalzhe": 11036,
  "Ġamacr": 11037,
  "Ġambly": 11038,
  "Ġamcbx": 11039,
  "Ġamino": 11040,
  "Ġamish": 11041,
  "Ġammon": 11042,
  "Ġamnes": 11043,
  "Ġamput": 11044,
  "Ġamyel": 11045,
  "Ġamylo": 11046,
  "Ġamyot": 11047,
  "Ġanank": 11048,
  "Ġanast": 11049,
  "Ġancyl": 11050,
  "Ġander": 11051,
  "Ġandre": 11052,
  "Ġaneup": 11053,
  "Ġaneur": 11054,
  "Ġangel": 11055,
  "Ġangio": 11056,
  "Ġangle": 11057,
  "Ġangor": 11058,
  "Ġanhed": 11059,
  "Ġanhyd": 11060,
  "Ġanise": 11061,
  "Ġankle": 11062,
  "Ġankyl": 11063,
  "Ġannul": 11064,
  "Ġanoch": 11065,
  "Ġanore": 11066,
  "Ġantet": 11067,
  "Ġantib": 11068,
  "Ġantic": 11069,
  "Ġantis": 11070,
  "Ġanton": 11071,
  "Ġaofmd": 11072,
  "Ġaorta": 11073,
  "Ġaorto": 11074,
  "Ġapert": 11075,
  "Ġaphth": 11076,
  "Ġapnea": 11077,
  "Ġappar": 11078,
  "Ġapple": 11079,
  "Ġaprax": 11080,
  "Ġapros": 11081,
  "Ġaptit": 11082,
  "Ġaqeel": 11083,
  "Ġaqued": 11084,
  "Ġarcii": 11085,
  "Ġarcmt": 11086,
  "Ġarcnd": 11087,
  "Ġarcus": 11088,
  "Ġardss": 11089,
  "Ġarena": 11090,
  "Ġarene": 11091,
  "Ġargen": 11092,
  "Ġargin": 11093,
  "Ġarhin": 11094,
  "Ġarias": 11095,
  "Ġarima": 11096,
  "Ġarous": 11097,
  "Ġarphm": 11098,
  "Ġarpkd": 11099,
  "Ġarroy": 11100,
  "Ġarsal": 11101,
  "Ġarsen": 11102,
  "Ġarson": 11103,
  "Ġarter": 11104,
  "Ġascar": 11105,
  "Ġascus": 11106,
  "Ġasial": 11107,
  "Ġaskin": 11108,
  "Ġaslan": 11109,
  "Ġaspgx": 11110,
  "Ġaspir": 11111,
  "Ġasrar": 11112,
  "Ġassoc": 11113,
  "Ġastig": 11114,
  "Ġasyst": 11115,
  "Ġataxy": 11116,
  "Ġatcay": 11117,
  "Ġatele": 11118,
  "Ġathet": 11119,
  "Ġathle": 11120,
  "Ġatkin": 11121,
  "Ġatmds": 11122,
  "Ġatony": 11123,
  "Ġatopy": 11124,
  "Ġatpaf": 11125,
  "Ġatrio": 11126,
  "Ġatrst": 11127,
  "Ġaural": 11128,
  "Ġauras": 11129,
  "Ġauric": 11130,
  "Ġauris": 11131,
  "Ġautis": 11132,
  "Ġautsx": 11133,
  "Ġavian": 11134,
  "Ġavium": 11135,
  "Ġavoid": 11136,
  "Ġawadi": 11137,
  "Ġaxial": 11138,
  "Ġaxons": 11139,
  "Ġayazi": 11140,
  "Ġbabes": 11141,
  "Ġbadal": 11142,
  "Ġbaetz": 11143,
  "Ġbaffr": 11144,
  "Ġbafme": 11145,
  "Ġbaker": 11146,
  "Ġbalan": 11147,
  "Ġballs": 11148,
  "Ġbands": 11149,
  "Ġbangs": 11150,
  "Ġbanki": 11151,
  "Ġbanti": 11152,
  "Ġbantu": 11153,
  "Ġbarak": 11154,
  "Ġbarel": 11155,
  "Ġbarre": 11156,
  "Ġbarry": 11157,
  "Ġbarsy": 11158,
  "Ġbarth": 11159,
  "Ġbasal": 11160,
  "Ġbasan": 11161,
  "Ġbasic": 11162,
  "Ġbauru": 11163,
  "Ġbazex": 11164,
  "Ġbazin": 11165,
  "Ġbcamd": 11166,
  "Ġbdchs": 11167,
  "Ġbdplt": 11168,
  "Ġbeals": 11169,
  "Ġbeard": 11170,
  "Ġbeare": 11171,
  "Ġbeats": 11172,
  "Ġbects": 11173,
  "Ġbeetz": 11174,
  "Ġbejel": 11175,
  "Ġbells": 11176,
  "Ġbelly": 11177,
  "Ġbends": 11178,
  "Ġbenef": 11179,
  "Ġberry": 11180,
  "Ġberti": 11181,
  "Ġbetal": 11182,
  "Ġbetas": 11183,
  "Ġbfnis": 11184,
  "Ġbhmed": 11185,
  "Ġbiber": 11186,
  "Ġbiedl": 11187,
  "Ġbifid": 11188,
  "Ġbigio": 11189,
  "Ġbiman": 11190,
  "Ġbinge": 11191,
  "Ġbirds": 11192,
  "Ġbirth": 11193,
  "Ġbites": 11194,
  "Ġbjorn": 11195,
  "Ġblack": 11196,
  "Ġbland": 11197,
  "Ġblast": 11198,
  "Ġblaus": 11199,
  "Ġblcpm": 11200,
  "Ġblebs": 11201,
  "Ġbleed": 11202,
  "Ġblenn": 11203,
  "Ġblind": 11204,
  "Ġblizz": 11205,
  "Ġbloat": 11206,
  "Ġbloch": 11207,
  "Ġblock": 11208,
  "Ġblond": 11209,
  "Ġblood": 11210,
  "Ġbloom": 11211,
  "Ġblumb": 11212,
  "Ġblunt": 11213,
  "Ġblurr": 11214,
  "Ġboder": 11215,
  "Ġboeck": 11216,
  "Ġboils": 11217,
  "Ġboman": 11218,
  "Ġboned": 11219,
  "Ġbones": 11220,
  "Ġborer": 11221,
  "Ġborgh": 11222,
  "Ġborna": 11223,
  "Ġborne": 11224,
  "Ġbosch": 11225,
  "Ġbosma": 11226,
  "Ġbotul": 11227,
  "Ġbowed": 11228,
  "Ġbowel": 11229,
  "Ġbowen": 11230,
  "Ġboyle": 11231,
  "Ġbrach": 11232,
  "Ġbracq": 11233,
  "Ġbrady": 11234,
  "Ġbrain": 11235,
  "Ġbraun": 11236,
  "Ġbrcax": 11237,
  "Ġbreak": 11238,
  "Ġbrese": 11239,
  "Ġbrett": 11240,
  "Ġbrgda": 11241,
  "Ġbridg": 11242,
  "Ġbrief": 11243,
  "Ġbrill": 11244,
  "Ġbriqu": 11245,
  "Ġbroad": 11246,
  "Ġbroca": 11247,
  "Ġbrock": 11248,
  "Ġbrocq": 11249,
  "Ġbrody": 11250,
  "Ġbronz": 11251,
  "Ġbrown": 11252,
  "Ġbruce": 11253,
  "Ġbruch": 11254,
  "Ġbruck": 11255,
  "Ġbruis": 11256,
  "Ġbruns": 11257,
  "Ġbrush": 11258,
  "Ġbruss": 11259,
  "Ġbspdc": 11260,
  "Ġbstvs": 11261,
  "Ġbueno": 11262,
  "Ġbuerg": 11263,
  "Ġbulas": 11264,
  "Ġbulbo": 11265,
  "Ġbulla": 11266,
  "Ġburns": 11267,
  "Ġburst": 11268,
  "Ġbusch": 11269,
  "Ġbvvls": 11270,
  "Ġbwcns": 11271,
  "Ġbyler": 11272,
  "Ġcacch": 11273,
  "Ġcactd": 11274,
  "Ġcadds": 11275,
  "Ġcaend": 11276,
  "Ġcaffe": 11277,
  "Ġcahmr": 11278,
  "Ġcahtp": 11279,
  "Ġcakut": 11280,
  "Ġcalde": 11281,
  "Ġcalja": 11282,
  "Ġcalve": 11283,
  "Ġcamak": 11284,
  "Ġcamos": 11285,
  "Ġcampd": 11286,
  "Ġcampt": 11287,
  "Ġcamrq": 11288,
  "Ġcanal": 11289,
  "Ġcandf": 11290,
  "Ġcandn": 11291,
  "Ġcanic": 11292,
  "Ġcanis": 11293,
  "Ġcanth": 11294,
  "Ġcantu": 11295,
  "Ġcaped": 11296,
  "Ġcapos": 11297,
  "Ġcardi": 11298,
  "Ġcarey": 11299,
  "Ġcarin": 11300,
  "Ġcarmi": 11301,
  "Ġcarol": 11302,
  "Ġcarri": 11303,
  "Ġcasil": 11304,
  "Ġcastr": 11305,
  "Ġcatal": 11306,
  "Ġcatar": 11307,
  "Ġcatat": 11308,
  "Ġcatch": 11309,
  "Ġcatcn": 11310,
  "Ġcatel": 11311,
  "Ġcatis": 11312,
  "Ġcauda": 11313,
  "Ġcavus": 11314,
  "Ġcbavd": 11315,
  "Ġccfdn": 11316,
  "Ġccmmt": 11317,
  "Ġccsso": 11318,
  "Ġcdags": 11319,
  "Ġcdfes": 11320,
  "Ġcdgdl": 11321,
  "Ġcdgia": 11322,
  "Ġcdgib": 11323,
  "Ġcdgic": 11324,
  "Ġcdgid": 11325,
  "Ġcdgie": 11326,
  "Ġcdgif": 11327,
  "Ġcdgig": 11328,
  "Ġcdgih": 11329,
  "Ġcdgii": 11330,
  "Ġcdgij": 11331,
  "Ġcdgik": 11332,
  "Ġcdgil": 11333,
  "Ġcdgim": 11334,
  "Ġcdgin": 11335,
  "Ġcdgio": 11336,
  "Ġcdgiq": 11337,
  "Ġcdgit": 11338,
  "Ġcdpxd": 11339,
  "Ġcdsrr": 11340,
  "Ġcdtbc": 11341,
  "Ġcebpa": 11342,
  "Ġcecal": 11343,
  "Ġcecum": 11344,
  "Ġceide": 11345,
  "Ġcells": 11346,
  "Ġcelsi": 11347,
  "Ġcentr": 11348,
  "Ġceram": 11349,
  "Ġcerea": 11350,
  "Ġcereb": 11351,
  "Ġcfeom": 11352,
  "Ġcftdx": 11353,
  "Ġchain": 11354,
  "Ġchamb": 11355,
  "Ġchamp": 11356,
  "Ġchanc": 11357,
  "Ġchand": 11358,
  "Ġchang": 11359,
  "Ġchann": 11360,
  "Ġchaud": 11361,
  "Ġcheek": 11362,
  "Ġcheil": 11363,
  "Ġchers": 11364,
  "Ġchest": 11365,
  "Ġchias": 11366,
  "Ġchick": 11367,
  "Ġchild": 11368,
  "Ġchill": 11369,
  "Ġchime": 11370,
  "Ġchitt": 11371,
  "Ġchium": 11372,
  "Ġchmrq": 11373,
  "Ġchole": 11374,
  "Ġchond": 11375,
  "Ġchord": 11376,
  "Ġchore": 11377,
  "Ġchori": 11378,
  "Ġchrom": 11379,
  "Ġchron": 11380,
  "Ġchurg": 11381,
  "Ġciehk": 11382,
  "Ġcigar": 11383,
  "Ġciipx": 11384,
  "Ġcilia": 11385,
  "Ġcilio": 11386,
  "Ġcinca": 11387,
  "Ġcirrh": 11388,
  "Ġclaes": 11389,
  "Ġclapo": 11390,
  "Ġclark": 11391,
  "Ġclasp": 11392,
  "Ġclass": 11393,
  "Ġclaud": 11394,
  "Ġclaus": 11395,
  "Ġclear": 11396,
  "Ġcleft": 11397,
  "Ġcleid": 11398,
  "Ġclick": 11399,
  "Ġcloac": 11400,
  "Ġclock": 11401,
  "Ġcloud": 11402,
  "Ġclove": 11403,
  "Ġclped": 11404,
  "Ġclqtl": 11405,
  "Ġclump": 11406,
  "Ġclums": 11407,
  "Ġcmavm": 11408,
  "Ġcmems": 11409,
  "Ġcmsea": 11410,
  "Ġcmtdi": 11411,
  "Ġcnmdu": 11412,
  "Ġcnpca": 11413,
  "Ġcoach": 11414,
  "Ġcoast": 11415,
  "Ġcoats": 11416,
  "Ġcodas": 11417,
  "Ġcogan": 11418,
  "Ġcohen": 11419,
  "Ġcoinf": 11420,
  "Ġcolav": 11421,
  "Ġcolds": 11422,
  "Ġcolic": 11423,
  "Ġcolli": 11424,
  "Ġcolob": 11425,
  "Ġcolon": 11426,
  "Ġcolor": 11427,
  "Ġcolum": 11428,
  "Ġcolus": 11429,
  "Ġcomas": 11430,
  "Ġcomel": 11431,
  "Ġcommo": 11432,
  "Ġcompr": 11433,
  "Ġcompt": 11434,
  "Ġcongo": 11435,
  "Ġconns": 11436,
  "Ġconsc": 11437,
  "Ġconst": 11438,
  "Ġcontr": 11439,
  "Ġconus": 11440,
  "Ġcooks": 11441,
  "Ġcoole": 11442,
  "Ġcords": 11443,
  "Ġcordx": 11444,
  "Ġcores": 11445,
  "Ġcoris": 11446,
  "Ġcorks": 11447,
  "Ġcorne": 11448,
  "Ġcorns": 11449,
  "Ġcornu": 11450,
  "Ġcoron": 11451,
  "Ġcorps": 11452,
  "Ġcosta": 11453,
  "Ġcoste": 11454,
  "Ġcough": 11455,
  "Ġcount": 11456,
  "Ġcoves": 11457,
  "Ġcowck": 11458,
  "Ġcoxpd": 11459,
  "Ġcppdd": 11460,
  "Ġcrack": 11461,
  "Ġcramp": 11462,
  "Ġcrane": 11463,
  "Ġcrani": 11464,
  "Ġcrapb": 11465,
  "Ġcrash": 11466,
  "Ġcreas": 11467,
  "Ġcresc": 11468,
  "Ġcrest": 11469,
  "Ġcriss": 11470,
  "Ġcrohn": 11471,
  "Ġcrome": 11472,
  "Ġcross": 11473,
  "Ġcroup": 11474,
  "Ġcrouz": 11475,
  "Ġcruor": 11476,
  "Ġcrush": 11477,
  "Ġcruve": 11478,
  "Ġcryab": 11479,
  "Ġcrypt": 11480,
  "Ġcryst": 11481,
  "Ġcsnbo": 11482,
  "Ġcstlo": 11483,
  "Ġcteph": 11484,
  "Ġctrct": 11485,
  "Ġctrus": 11486,
  "Ġcuban": 11487,
  "Ġcucci": 11488,
  "Ġcurly": 11489,
  "Ġcurry": 11490,
  "Ġcurse": 11491,
  "Ġcurth": 11492,
  "Ġcutem": 11493,
  "Ġcutis": 11494,
  "Ġcycle": 11495,
  "Ġcysts": 11496,
  "Ġcytos": 11497,
  "Ġczech": 11498,
  "Ġczeiz": 11499,
  "Ġdacry": 11500,
  "Ġdaiid": 11501,
  "Ġdaily": 11502,
  "Ġdairy": 11503,
  "Ġdaish": 11504,
  "Ġdance": 11505,
  "Ġdandy": 11506,
  "Ġdanks": 11507,
  "Ġdanon": 11508,
  "Ġdavid": 11509,
  "Ġdavis": 11510,
  "Ġdcbxa": 11511,
  "Ġdcwhk": 11512,
  "Ġddpac": 11513,
  "Ġdeads": 11514,
  "Ġdeath": 11515,
  "Ġdebre": 11516,
  "Ġdecap": 11517,
  "Ġdecay": 11518,
  "Ġdeeth": 11519,
  "Ġdeglu": 11520,
  "Ġdegos": 11521,
  "Ġdehal": 11522,
  "Ġdehyd": 11523,
  "Ġdeiod": 11524,
  "Ġdejer": 11525,
  "Ġdekab": 11526,
  "Ġdelay": 11527,
  "Ġdelta": 11528,
  "Ġdenny": 11529,
  "Ġdense": 11530,
  "Ġdente": 11531,
  "Ġdenti": 11532,
  "Ġdento": 11533,
  "Ġdents": 11534,
  "Ġdenys": 11535,
  "Ġdeple": 11536,
  "Ġdepos": 11537,
  "Ġdepth": 11538,
  "Ġdeque": 11539,
  "Ġderiv": 11540,
  "Ġdermo": 11541,
  "Ġdesat": 11542,
  "Ġdesbu": 11543,
  "Ġdeter": 11544,
  "Ġdevic": 11545,
  "Ġdextr": 11546,
  "Ġdfsps": 11547,
  "Ġdguok": 11548,
  "Ġdiagn": 11549,
  "Ġdiast": 11550,
  "Ġdiath": 11551,
  "Ġdiego": 11552,
  "Ġdierc": 11553,
  "Ġdietz": 11554,
  "Ġdifer": 11555,
  "Ġdigit": 11556,
  "Ġdihyd": 11557,
  "Ġdilat": 11558,
  "Ġdiple": 11559,
  "Ġdipoa": 11560,
  "Ġdisch": 11561,
  "Ġdiscr": 11562,
  "Ġdiscs": 11563,
  "Ġdisks": 11564,
  "Ġdispl": 11565,
  "Ġdistr": 11566,
  "Ġdiver": 11567,
  "Ġdivry": 11568,
  "Ġdmgdh": 11569,
  "Ġdoess": 11570,
  "Ġdohle": 11571,
  "Ġdoman": 11572,
  "Ġdownb": 11573,
  "Ġdowns": 11574,
  "Ġdoyne": 11575,
  "Ġdpysd": 11576,
  "Ġdrain": 11577,
  "Ġdrash": 11578,
  "Ġdress": 11579,
  "Ġdrift": 11580,
  "Ġdrisc": 11581,
  "Ġdrool": 11582,
  "Ġdrpla": 11583,
  "Ġdrugs": 11584,
  "Ġdsmav": 11585,
  "Ġdsmax": 11586,
  "Ġdttrh": 11587,
  "Ġduane": 11588,
  "Ġdubin": 11589,
  "Ġducts": 11590,
  "Ġduffy": 11591,
  "Ġduker": 11592,
  "Ġdupre": 11593,
  "Ġdupuy": 11594,
  "Ġdural": 11595,
  "Ġdutch": 11596,
  "Ġdwarf": 11597,
  "Ġdykes": 11598,
  "Ġdynia": 11599,
  "Ġdysch": 11600,
  "Ġdysco": 11601,
  "Ġdyscr": 11602,
  "Ġdysge": 11603,
  "Ġdysgl": 11604,
  "Ġdysgu": 11605,
  "Ġdyson": 11606,
  "Ġdysph": 11607,
  "Ġdyspr": 11608,
  "Ġdysth": 11609,
  "Ġeagle": 11610,
  "Ġeales": 11611,
  "Ġeared": 11612,
  "Ġearly": 11613,
  "Ġeaten": 11614,
  "Ġeaton": 11615,
  "Ġebbin": 11616,
  "Ġebdct": 11617,
  "Ġebdsc": 11618,
  "Ġebola": 11619,
  "Ġechin": 11620,
  "Ġechol": 11621,
  "Ġectol": 11622,
  "Ġedema": 11623,
  "Ġedmmd": 11624,
  "Ġedsmc": 11625,
  "Ġedwin": 11626,
  "Ġegbrs": 11627,
  "Ġehmke": 11628,
  "Ġeiken": 11629,
  "Ġekbom": 11630,
  "Ġelast": 11631,
  "Ġelbow": 11632,
  "Ġelect": 11633,
  "Ġeleph": 11634,
  "Ġelias": 11635,
  "Ġellis": 11636,
  "Ġembry": 11637,
  "Ġemerg": 11638,
  "Ġemery": 11639,
  "Ġempty": 11640,
  "Ġendpl": 11641,
  "Ġengel": 11642,
  "Ġenter": 11643,
  "Ġentry": 11644,
  "Ġenven": 11645,
  "Ġeomfc": 11646,
  "Ġepema": 11647,
  "Ġepend": 11648,
  "Ġepile": 11649,
  "Ġepire": 11650,
  "Ġepisp": 11651,
  "Ġepist": 11652,
  "Ġepolm": 11653,
  "Ġeppks": 11654,
  "Ġequin": 11655,
  "Ġergot": 11656,
  "Ġerick": 11657,
  "Ġerror": 11658,
  "Ġeruct": 11659,
  "Ġeryth": 11660,
  "Ġescle": 11661,
  "Ġester": 11662,
  "Ġetfdh": 11663,
  "Ġethyl": 11664,
  "Ġeumyc": 11665,
  "Ġeurop": 11666,
  "Ġevans": 11667,
  "Ġevent": 11668,
  "Ġevmps": 11669,
  "Ġewing": 11670,
  "Ġexcit": 11671,
  "Ġexfol": 11672,
  "Ġexpan": 11673,
  "Ġexper": 11674,
  "Ġexpos": 11675,
  "Ġextra": 11676,
  "Ġeyaid": 11677,
  "Ġfabry": 11678,
  "Ġfaces": 11679,
  "Ġfacie": 11680,
  "Ġfacio": 11681,
  "Ġfaids": 11682,
  "Ġfaint": 11683,
  "Ġfairy": 11684,
  "Ġfaldh": 11685,
  "Ġfalls": 11686,
  "Ġfalse": 11687,
  "Ġfamil": 11688,
  "Ġfanca": 11689,
  "Ġfancb": 11690,
  "Ġfancc": 11691,
  "Ġfancd": 11692,
  "Ġfance": 11693,
  "Ġfancf": 11694,
  "Ġfanci": 11695,
  "Ġfancj": 11696,
  "Ġfancn": 11697,
  "Ġfanco": 11698,
  "Ġfarag": 11699,
  "Ġfasds": 11700,
  "Ġfasps": 11701,
  "Ġfatal": 11702,
  "Ġfatco": 11703,
  "Ġfatty": 11704,
  "Ġfavre": 11705,
  "Ġfavus": 11706,
  "Ġfazio": 11707,
  "Ġfcmte": 11708,
  "Ġfecal": 11709,
  "Ġfeces": 11710,
  "Ġfecht": 11711,
  "Ġfeers": 11712,
  "Ġfelty": 11713,
  "Ġfemal": 11714,
  "Ġfemin": 11715,
  "Ġfemor": 11716,
  "Ġfemur": 11717,
  "Ġfenib": 11718,
  "Ġfetal": 11719,
  "Ġfetus": 11720,
  "Ġfever": 11721,
  "Ġfevrx": 11722,
  "Ġffevf": 11723,
  "Ġfglds": 11724,
  "Ġfhhnc": 11725,
  "Ġfiber": 11726,
  "Ġfibgc": 11727,
  "Ġfibre": 11728,
  "Ġfibro": 11729,
  "Ġfield": 11730,
  "Ġfifth": 11731,
  "Ġfiglu": 11732,
  "Ġfilar": 11733,
  "Ġfilip": 11734,
  "Ġfiqtl": 11735,
  "Ġfirst": 11736,
  "Ġfitch": 11737,
  "Ġfixed": 11738,
  "Ġflail": 11739,
  "Ġflait": 11740,
  "Ġflamm": 11741,
  "Ġflank": 11742,
  "Ġfldem": 11743,
  "Ġfleck": 11744,
  "Ġflnms": 11745,
  "Ġflood": 11746,
  "Ġfloor": 11747,
  "Ġfluct": 11748,
  "Ġfluid": 11749,
  "Ġflush": 11750,
  "Ġflynn": 11751,
  "Ġfmtle": 11752,
  "Ġfoamy": 11753,
  "Ġfocal": 11754,
  "Ġfolds": 11755,
  "Ġfoley": 11756,
  "Ġfolic": 11757,
  "Ġfolie": 11758,
  "Ġfoots": 11759,
  "Ġfores": 11760,
  "Ġforme": 11761,
  "Ġfossa": 11762,
  "Ġfount": 11763,
  "Ġfovea": 11764,
  "Ġfpdmm": 11765,
  "Ġfpevf": 11766,
  "Ġfract": 11767,
  "Ġframb": 11768,
  "Ġfranc": 11769,
  "Ġfrank": 11770,
  "Ġfraum": 11771,
  "Ġfraxa": 11772,
  "Ġfraxe": 11773,
  "Ġfreck": 11774,
  "Ġfreys": 11775,
  "Ġfrias": 11776,
  "Ġfried": 11777,
  "Ġfrizz": 11778,
  "Ġfront": 11779,
  "Ġfrost": 11780,
  "Ġfruct": 11781,
  "Ġfryns": 11782,
  "Ġfshmd": 11783,
  "Ġftlds": 11784,
  "Ġftldu": 11785,
  "Ġfuchs": 11786,
  "Ġfugax": 11787,
  "Ġfugue": 11788,
  "Ġfunis": 11789,
  "Ġfused": 11790,
  "Ġfxtas": 11791,
  "Ġgabeb": 11792,
  "Ġgains": 11793,
  "Ġgaits": 11794,
  "Ġgalen": 11795,
  "Ġgalns": 11796,
  "Ġgamma": 11797,
  "Ġgangl": 11798,
  "Ġgastr": 11799,
  "Ġgayet": 11800,
  "Ġgdxym": 11801,
  "Ġgefsp": 11802,
  "Ġgemss": 11803,
  "Ġgenee": 11804,
  "Ġgenit": 11805,
  "Ġgenoa": 11806,
  "Ġghose": 11807,
  "Ġghost": 11808,
  "Ġgiach": 11809,
  "Ġgiant": 11810,
  "Ġgiard": 11811,
  "Ġgidid": 11812,
  "Ġgigan": 11813,
  "Ġgille": 11814,
  "Ġgingf": 11815,
  "Ġgitel": 11816,
  "Ġgland": 11817,
  "Ġglanz": 11818,
  "Ġglauc": 11819,
  "Ġglial": 11820,
  "Ġglory": 11821,
  "Ġgloss": 11822,
  "Ġgnath": 11823,
  "Ġgnpat": 11824,
  "Ġgoerz": 11825,
  "Ġgoltz": 11826,
  "Ġgombo": 11827,
  "Ġgomez": 11828,
  "Ġgonad": 11829,
  "Ġgoshs": 11830,
  "Ġgouts": 11831,
  "Ġgouty": 11832,
  "Ġgphys": 11833,
  "Ġgrade": 11834,
  "Ġgradi": 11835,
  "Ġgraft": 11836,
  "Ġgrand": 11837,
  "Ġgrant": 11838,
  "Ġgravi": 11839,
  "Ġgrbgd": 11840,
  "Ġgreat": 11841,
  "Ġgrebe": 11842,
  "Ġgreco": 11843,
  "Ġgreen": 11844,
  "Ġgreig": 11845,
  "Ġgripp": 11846,
  "Ġgrisc": 11847,
  "Ġgroen": 11848,
  "Ġgroll": 11849,
  "Ġgross": 11850,
  "Ġgrote": 11851,
  "Ġgroup": 11852,
  "Ġgrutz": 11853,
  "Ġgsdix": 11854,
  "Ġgssde": 11855,
  "Ġguala": 11856,
  "Ġguill": 11857,
  "Ġguion": 11858,
  "Ġgulop": 11859,
  "Ġgunal": 11860,
  "Ġgupta": 11861,
  "Ġgurri": 11862,
  "Ġguyon": 11863,
  "Ġgynec": 11864,
  "Ġgypsy": 11865,
  "Ġgyral": 11866,
  "Ġgyrus": 11867,
  "Ġhabit": 11868,
  "Ġhagen": 11869,
  "Ġhairs": 11870,
  "Ġhairy": 11871,
  "Ġhajdu": 11872,
  "Ġhakim": 11873,
  "Ġhalal": 11874,
  "Ġhalos": 11875,
  "Ġhamel": 11876,
  "Ġhanac": 11877,
  "Ġhands": 11878,
  "Ġhanot": 11879,
  "Ġhappy": 11880,
  "Ġhaque": 11881,
  "Ġhards": 11882,
  "Ġharel": 11883,
  "Ġhblrg": 11884,
  "Ġhchol": 11885,
  "Ġhchwa": 11886,
  "Ġhdlcq": 11887,
  "Ġhdldt": 11888,
  "Ġheads": 11889,
  "Ġheart": 11890,
  "Ġheavy": 11891,
  "Ġhecht": 11892,
  "Ġhecks": 11893,
  "Ġheggl": 11894,
  "Ġheinz": 11895,
  "Ġheise": 11896,
  "Ġhelic": 11897,
  "Ġhelio": 11898,
  "Ġhellp": 11899,
  "Ġhemat": 11900,
  "Ġhemib": 11901,
  "Ġhemic": 11902,
  "Ġhemim": 11903,
  "Ġhemis": 11904,
  "Ġhemiz": 11905,
  "Ġhemos": 11906,
  "Ġhepat": 11907,
  "Ġhepod": 11908,
  "Ġhered": 11909,
  "Ġhersh": 11910,
  "Ġhertz": 11911,
  "Ġhgpps": 11912,
  "Ġhgprt": 11913,
  "Ġhibch": 11914,
  "Ġhicco": 11915,
  "Ġhiess": 11916,
  "Ġhiray": 11917,
  "Ġhisti": 11918,
  "Ġhistr": 11919,
  "Ġhives": 11920,
  "Ġhklls": 11921,
  "Ġhlrcc": 11922,
  "Ġhmdpc": 11923,
  "Ġhmerf": 11924,
  "Ġhmgcl": 11925,
  "Ġhmgcs": 11926,
  "Ġhmnvi": 11927,
  "Ġhmsnl": 11928,
  "Ġhmsno": 11929,
  "Ġhmsnp": 11930,
  "Ġhmsnr": 11931,
  "Ġhnpcc": 11932,
  "Ġhnscc": 11933,
  "Ġhoard": 11934,
  "Ġhobbs": 11935,
  "Ġhodes": 11936,
  "Ġhoeve": 11937,
  "Ġhofer": 11938,
  "Ġhogan": 11939,
  "Ġhokpp": 11940,
  "Ġholes": 11941,
  "Ġholgu": 11942,
  "Ġhomoz": 11943,
  "Ġhooft": 11944,
  "Ġhoran": 11945,
  "Ġhorse": 11946,
  "Ġhorst": 11947,
  "Ġhozay": 11948,
  "Ġhpabh": 11949,
  "Ġhpmrs": 11950,
  "Ġhpnss": 11951,
  "Ġhsans": 11952,
  "Ġhsnie": 11953,
  "Ġhuman": 11954,
  "Ġhumor": 11955,
  "Ġhurst": 11956,
  "Ġhutch": 11957,
  "Ġhvdrr": 11958,
  "Ġhydro": 11959,
  "Ġhymen": 11960,
  "Ġhymph": 11961,
  "Ġhyper": 11962,
  "Ġhypob": 11963,
  "Ġhypoc": 11964,
  "Ġhypod": 11965,
  "Ġhypof": 11966,
  "Ġhypog": 11967,
  "Ġhypoh": 11968,
  "Ġhypok": 11969,
  "Ġhypom": 11970,
  "Ġhypon": 11971,
  "Ġhypop": 11972,
  "Ġhypor": 11973,
  "Ġhypos": 11974,
  "Ġhypot": 11975,
  "Ġhypov": 11976,
  "Ġhypox": 11977,
  "Ġiahsp": 11978,
  "Ġibids": 11979,
  "Ġichty": 11980,
  "Ġictal": 11981,
  "Ġiddmx": 11982,
  "Ġidmdc": 11983,
  "Ġifngr": 11984,
  "Ġiiias": 11985,
  "Ġiiibs": 11986,
  "Ġiiics": 11987,
  "Ġiiids": 11988,
  "Ġileal": 11989,
  "Ġileum": 11990,
  "Ġileus": 11991,
  "Ġiliac": 11992,
  "Ġillig": 11993,
  "Ġillum": 11994,
  "Ġimage": 11995,
  "Ġimbal": 11996,
  "Ġimers": 11997,
  "Ġimmer": 11998,
  "Ġimmun": 11999,
  "Ġimper": 12000,
  "Ġimpul": 12001,
  "Ġinapp": 12002,
  "Ġinatt": 12003,
  "Ġincis": 12004,
  "Ġincon": 12005,
  "Ġincus": 12006,
  "Ġindex": 12007,
  "Ġindig": 12008,
  "Ġinduc": 12009,
  "Ġinert": 12010,
  "Ġinfec": 12011,
  "Ġinfer": 12012,
  "Ġinfra": 12013,
  "Ġinhal": 12014,
  "Ġinher": 12015,
  "Ġinhib": 12016,
  "Ġiniti": 12017,
  "Ġinjur": 12018,
  "Ġinner": 12019,
  "Ġinnes": 12020,
  "Ġinter": 12021,
  "Ġintes": 12022,
  "Ġintra": 12023,
  "Ġinvag": 12024,
  "Ġinvas": 12025,
  "Ġinvol": 12026,
  "Ġiomid": 12027,
  "Ġiosca": 12028,
  "Ġipsid": 12029,
  "Ġirapa": 12030,
  "Ġiraqi": 12031,
  "Ġirgat": 12032,
  "Ġirida": 12033,
  "Ġirish": 12034,
  "Ġirons": 12035,
  "Ġirreg": 12036,
  "Ġisaac": 12037,
  "Ġisaia": 12038,
  "Ġislet": 12039,
  "Ġisole": 12040,
  "Ġisscw": 12041,
  "Ġitchs": 12042,
  "Ġjacob": 12043,
  "Ġjakob": 12044,
  "Ġjalkh": 12045,
  "Ġjames": 12046,
  "Ġjarch": 12047,
  "Ġjarid": 12048,
  "Ġjaund": 12049,
  "Ġjawad": 12050,
  "Ġjejun": 12051,
  "Ġjerks": 12052,
  "Ġjeune": 12053,
  "Ġjohne": 12054,
  "Ġjoint": 12055,
  "Ġjones": 12056,
  "Ġjorge": 12057,
  "Ġjphht": 12058,
  "Ġjudge": 12059,
  "Ġjuven": 12060,
  "Ġkabuk": 12061,
  "Ġkajii": 12062,
  "Ġkaler": 12063,
  "Ġkappa": 12064,
  "Ġkapur": 12065,
  "Ġkarak": 12066,
  "Ġkearn": 12067,
  "Ġkeats": 12068,
  "Ġkeele": 12069,
  "Ġkelly": 12070,
  "Ġkenny": 12071,
  "Ġkerat": 12072,
  "Ġketon": 12073,
  "Ġkfsdx": 12074,
  "Ġkhidr": 12075,
  "Ġkienb": 12076,
  "Ġkines": 12077,
  "Ġkings": 12078,
[...]
