{"'":0,"0":1,"1":2,"2":3,"3":4,"4":5,"5":6,"6":7,"7":8,"8":9,"9":10,"<":11,"a":12,"b":13,"c":14,"d":15,"e":16,"f":17,"g":18,"h":19,"i":20,"j":21,"k":22,"l":23,"m":24,"n":25,"o":26,"p":27,"q":28,"r":29,"s":30,"t":31,"u":32,"v":33,"w":34,"x":35,"y":36,"z":37,"¡":38,"¤":39,"¦":40,"§":41,"¨":42,"©":43,"«":44,"¶":45,"¸":46,"¼":47,"Ã":48,"Ċ":49,"Ġ":50,"al":51,"ro":52,"ti":53,"er":54,"Ġd":55,"Ġs":56,"en":57,"in":58,"on":59,"Ġc":60,"as":61,"ar":62,"is":63,"es":64,"Ġp":65,"ic":66,"an":67,"at":68,"Ġm":69,"or":70,"os":71,"Ġt":72,"om":73,"Ġh":74,"rom":75,"le":76,"ph":77,"ia":78,"yn":79,"Ġa":80,"Ġn":81,"ul":82,"Ġsyn":83,"drom":84,"Ġsyndrom":85,"it":86,"us":87,"yp":88,"ed":89,"em":90,"Ġf":91,"Ġdis":92,"op":93,"Ġsyndrome":94,"Ġin":95,"Ġb":96,"ys":97,"tion":98,"Ġl":99,"el":100,"ac":101,"Ġr":102,"tic":103,"oc":104,"Ġde":105,"ur":106,"id":107,"il":108,"ec":109,"eas":110,"Ġg":111,"ol":112,"Ġdiseas":113,"Ġne":114,"enc":115,"ent":116,"ve":117,"et":118,"las":119,"ial":120,"ath":121,"Ġ1":122,"th":123,"iti":124,"ut":125,"Ġe":126,"Ġv":127,"Ġdisease":128,"am":129,"gen":130,"Ġhyp":131,"Ġdef":132,"Ġtyp":133,"um":134,"Ġtype":135,"ation":136,"osis":137,"ary":138,"Ġdys":139,"ici":140,"icienc":141,"ra":142,"Ġch":143,"od":144,"ular":145,"si":146,"im":147,"ig":148,"Ġdeficienc":149,"un":150,"ell":151,"Ġan":152,"oma":153,"Ġcon":154,"ing":155,"Ġ2":156,"der":157,"ias":158,"Ġinf":159,"uc":160,"Ġdeficiency":161,"Ġac":162,"roph":163,"ran":164,"athy":165,"ot":166,"uro":167,"ter":168,"ies":169,"ep":170,"ous":171,"ir":172,"ag":173,"te":174,"Ġmy":175,"ud":176,"ym":177,"ch":178,"Ġle":179,"tin":180,"osom":181,"ard":182,"Ġhyper":183,"order":184,"oplas":185,"yl":186,"Ġdisorder":187,"Ġsp":188,"itis":189,"emia":190,"eb":191,"ital":192,"Ġat":193,"Ġneuro":194,"act":195,"ros":196,"Ġi":197,"Ġw":198,"ant":199,"orm":200,"anc":201,"eph":202,"ad":203,"ity":204,"ine":205,"Ġst":206,"cl":207,"Ġcongen":208,"Ġpar":209,"ess":210,"arc":211,"ob":212,"plas":213,"ephal":214,"ip":215,"amil":216,"amilial":217,"yst":218,"Ġaut":219,"Ġfamilial":220,"ron":221,"Ġal":222,"Ġep":223,"sive":224,"ile":225,"Ġinfec":226,"ereb":227,"erm":228,"Ġpr":229,"rophy":230,"oplasm":231,"Ġk":232,"ver":233,"usc":234,"Ġcongenital":235,"ated":236,"Ġth":237,"ect":238,"Ġner":239,"Ġ3":240,"ub":241,"Ġar":242,"Ġhem":243,"ple":244,"ymph":245,"atic":246,"Ġneoplasm":247,"Ġad":248,"eal":249,"oph":250,"ib":251,"ase":252,"Ġx":253,"Ġre":254,"opathy":255,"Ġincl":256,"ral":257,"omas":258,"Ġinfection":259,"Ġcell":260,"Ġlymph":261,"Ġgl":262,"tr":263,"ism":264,"ental":265,"plasia":266,"og":267,"osomal":268,"ati":269,"uded":270,"Ġincluded":271,"Ġpro":272,"ost":273,"Ġdiseases":274,"essive":275,"oid":276,"ach":277,"uk":278,"Ġher":279,"up":280,"Ġdyst":281,"ocy":282,"Ġautosomal":283,"oses":284,"ens":285,"ate":286,"Ġj":287,"Ġper":288,"if":289,"Ġtr":290,"encephal":291,"ory":292,"Ġnerve":293,"Ġcereb":294,"Ġab":295,"Ġleuk":296,"ons":297,"itary":298,"Ġse":299,"ure":300,"omy":301,"sy":302,"ang":303,"'s":304,"des":305,"yd":306,"Ġmal":307,"Ġ4":308,"ap":309,"ne":310,"Ġrec":311,"eral":312,"Ġsyndromes":313,"Ġcom":314,"Ġcanc":315,"Ġcancer":316,"Ġas":317,"iz":318,"end":319,"ox":320,"Ġpol":321,"re":322,"pathy":323,"ink":324,"Ġhe":325,"ond":326,"Ġret":327,"ov":328,"ric":329,"tis":330,"Ġph":331,"rh":332,"umor":333,"Ġdisorders":334,"ness":335,"tib":336,"Ġhered":337,"Ġtra":338,"inked":339,"Ġlinked":340,"Ġdysplasia":341,"Ġim":342,"Ġam":343,"qu":344,"ax":345,"Ġhereditary":346,"inal":347,"opath":348,"ab":349,"Ġtumor":350,"ill":351,"esis":352,"and":353,"ogen":354,"Ġsc":355,"ign":356,"itides":357,"oth":358,"Ġex":359,"Ġcor":360,"roc":361,"ly":362,"ment":363,"Ġtraum":364,"Ġepile":365,"Ġepilep":366,"Ġmul":367,"Ġmusc":368,"mun":369,"ion":370,"ical":371,"kin":372,"Ġii":373,"ute":374,"Ġneoplasms":375,"Ġdystrophy":376,"roid":377,"se":378,"Ġpal":379,"tal":380,"enal":381,"oh":382,"ith":383,"Ġencephal":384,"ility":385,"Ġbl":386,"arcin":387,"Ġrecessive":388,"ue":389,"ari":390,"Ġmental":391,"Ġretard":392,"Ġretardation":393,"af":394,"oste":395,"Ġpost":396,"onic":397,"Ġoc":398,"jur":399,"Ġinjur":400,"asc":401,"Ġprim":402,"Ġchrom":403,"Ġinfections":404,"all":405,"Ġmulti":406,"ations":407,"gr":408,"omat":409,"Ġnon":410,"son":411,"unc":412,"duc":413,"of":414,"mon":415,"rosis":416,"inant":417,"Ġchron":418,"Ġmet":419,"rop":420,"Ġchronic":421,"sion":422,"rain":423,"Ġmic":424,"Ġcard":425,"ative":426,"ich":427,"ominant":428,"Ġacute":429,"orrh":430,"rans":431,"Ġpa":432,"Ġdominant":433,"ural":434,"ke":435,"Ġlip":436,"Ġsub":437,"Ġ5":438,"age":439,"acial":440,"Ġfib":441,"Ġsh":442,"ow":443,"Ġarter":444,"ellar":445,"Ġpul":446,"Ġint":447,"uscep":448,"Ġmultiple":449,"tein":450,"osome":451,"Ġsuscep":452,"Ġsusceptib":453,"Ġop":454,"Ġprimary":455,"Ġsusceptibility":456,"Ġneuropathy":457,"Ġcerebral":458,"ane":459,"och":460,"tinal":461,"Ġchromosome":462,"art":463,"Ġq":464,"Ġbr":465,"Ġdeaf":466,"Ġbrain":467,"emias":468,"Ġrel":469,"Ġdia":470,"Ġcarcin":471,"yc":472,"amm":473,"romb":474,"ting":475,"Ġcol":476,"Ġsyst":477,"Ġgen":478,"ocyt":479,"one":480,"emic":481,"Ġtraumatic":482,"Ġrelated":483,"monary":484,"entric":485,"iv":486,"ranial":487,"actyl":488,"Ġsens":489,"ior":490,"Ġleukemia":491,"Ġoste":492,"Ġatax":493,"Ġaden":494,"ening":495,"Ġepilepsy":496,"ures":497,"Ġdeafness":498,"yth":499,"Ġ6":500,"Ġmuscular":501,"tive":502,"Ġis":503,"ocytic":504,"eg":505,"uv":506,"Ġco":507,"Ġfr":508,"Ġang":509,"erg":510,"ann":511,"soc":512,"enile":513,"Ġpulmonary":514,"actyly":515,"Ġcyst":516,"Ġmyel":517,"opathic":518,"Ġinduc":519,"Ġer":520,"lic":521,"tial":522,"Ġdefect":523,"Ġthromb":524,"gia":525,"anti":526,"ull":527,"Ġli":528,"ities":529,"Ġhemorrh":530,"Ġataxia":531,"Ġinduced":532,"Ġid":533,"atal":534,"ormal":535,"thal":536,"seud":537,"Ġtrans":538,"Ġpseud":539,"Ġrenal":540,"Ġspas":541,"etic":542,"Ġdeficiencies":543,"omal":544,"Ġhep":545,"Ġperi":546,"gressive":547,"onia":548,"ak":549,"Ġag":550,"Ġfe":551,"Ġhypert":552,"Ġsch":553,"oderm":554,"otor":555,"Ġassoc":556,"rod":557,"entricular":558,"ers":559,"Ġmening":560,"Ġo":561,"Ġacid":562,"Ġmyoc":563,"Ġend":564,"est":565,"aryn":566,"Ġons":567,"gener":568,"Ġonset":569,"unction":570,"Ġimmun":571,"Ġderm":572,"ysis":573,"Ġatrophy":574,"iated":575,"igh":576,"Ġdiab":577,"osph":578,"Ġjuv":579,"cul":580,"Ġcat":581,"Ġur":582,"rox":583,"Ġjuvenile":584,"erat":585,"Ġto":586,"av":587,"yr":588,"ascular":589,"ft":590,"Ġins":591,"normal":592,"atory":593,"Ġtub":594,"Ġap":595,"Ġpl":596,"opro":597,"Ġlymphoma":598,"Ġassociated":599,"ff":600,"enti":601,"Ġhyd":602,"Ġor":603,"ung":604,"uria":605,"Ġabnormal":606,"pha":607,"Ġseiz":608,"Ġcardi":609,"Ġform":610,"Ġben":611,"aneous":612,"oss":613,"ay":614,"osa":615,"ort":616,"Ġbenign":617,"ood":618,"ea":619,"pr":620,"Ġpain":621,"form":622,"Ġmon":623,"Ġabs":624,"Ġinjury":625,"Ġprogressive":626,"Ġidi":627,"Ġscle":628,"Ġcent":629,"Ġdegener":630,"per":631,"Ġsystem":632,"Ġmyopathy":633,"Ġinfanti":634,"Ġun":635,"enia":636,"Ġidiopathic":637,"nal":638,"Ġpo":639,"Ġmac":640,"ual":641,"aryng":642,"Ġinfantile":643,"rogen":644,"ateral":645,"Ġspinal":646,"rial":647,"Ġect":648,"Ġcr":649,"Ġcle":650,"Ġhead":651,"Ġfacial":652,"Ġgran":653,"Ġanomal":654,"angi":655,"Ġpos":656,"ast":657,"ema":658,"ence":659,"esia":660,"ysm":661,"ist":662,"ick":663,"air":664,"yt":665,"ocal":666,"Ġver":667,"Ġmalign":668,"oblas":669,"Ġcomple":670,"opathies":671,"terior":672,"ocereb":673,"usion":674,"thalm":675,"Ġintr":676,"Ġcar":677,"igment":678,"Ġcarcinoma":679,"Ġtooth":680,"Ġoptic":681,"rocephal":682,"ian":683,"ri":684,"Ġ7":685,"ail":686,"Ġhypoplas":687,"ug":688,"ult":689,"Ġneph":690,"path":691,"Ġcl":692,"Ġepid":693,"Ġangi":694,"Ġdi":695,"Ġem":696,"phys":697,"iciency":698,"irus":699,"Ġpne":700,"Ġres":701,"ild":702,"Ġnerv":703,"Ġob":704,"tions":705,"rophic":706,"Ġmalignant":707,"Ġdue":708,"ortic":709,"ulin":710,"ophag":711,"Ġspastic":712,"Ġca":713,"iac":714,"Ġmalform":715,"yroid":716,"Ġsle":717,"ogenic":718,"uct":719,"Ġeryth":720,"Ġcentral":721,"Ġfever":722,"Ġwith":723,"bin":724,"utaneous":725,"sies":726,"Ġpneum":727,"otic":728,"iff":729,"ophil":730,"Ġnervous":731,"olic":732,"Ġcatar":733,"cess":734,"asia":735,"Ġpigment":736,"Ġtumors":737,"ero":738,"Ġcancers":739,"li":740,"Ġpartial":741,"Ġ8":742,"roti":743,"Ġnec":744,"Ġheart":745,"Ġinter":746,"Ġintrac":747,"itive":748,"idase":749,"atitis":750,"Ġsleep":751,"lex":752,"acter":753,"ogic":754,"alc":755,"ystic":756,"Ġadult":757,"Ġintra":758,"Ġfract":759,"ef":760,"st":761,"Ġrh":762,"Ġalpha":763,"lamm":764,"Ġdiabet":765,"Ġanemia":766,"odyst":767,"Ġcataract":768,"Ġinjuries":769,"Ġdem":770,"Ġmyocl":771,"pt":772,"row":773,"ight":774,"vel":775,"Ġul":776,"Ġsm":777,"idosis":778,"Ġartery":779,"Ġdr":780,"eta":781,"Ġarth":782,"Ġsec":783,"Ġacqu":784,"Ġdiabetes":785,"letion":786,"Ġfl":787,"oxic":788,"illary":789,"Ġgranul":790,"use":791,"Ġneon":792,"rophies":793,"ocerebellar":794,"Ġmed":795,"ired":796,"oprotein":797,"Ġacquired":798,"ms":799,"out":800,"itiv":801,"Ġref":802,"Ġhemorrhag":803,"Ġglyc":804,"function":805,"iasis":806,"aryngeal":807,"amin":808,"rad":809,"Ġneonatal":810,"ose":811,"Ġlim":812,"ma":813,"ont":814,"Ġskin":815,"isti":816,"Ġcardiomy":817,"Ġmuc":818,"Ġbone":819,"Ġear":820,"Ġventricular":821,"Ġcorn":822,"ix":823,"immun":824,"ized":825,"ritis":826,"ind":827,"thy":828,"Ġ9":829,"orph":830,"rost":831,"Ġretin":832,"Ġol":833,"estinal":834,"hyd":835,"Ġsin":836,"Ġsup":837,"Ġgang":838,"Ġinflamm":839,"Ġcerebellar":840,"Ġsten":841,"Ġintracranial":842,"vul":843,"etal":844,"Ġdysfunction":845,"Ġchild":846,"Ġdeletion":847,"Ġes":848,"asal":849,"Ġ11":850,"und":851,"Ġauto":852,"Ġhypoplasia":853,"ytic":854,"ody":855,"itus":856,"Ġiii":857,"Ġdiff":858,"Ġcorneal":859,"str":860,"pathies":861,"physeal":862,"rog":863,"ert":864,"ack":865,"Ġcomp":866,"odermal":867,"Ġwithout":868,"Ġhypog":869,"Ġspin":870,"Ġthyroid":871,"Ġliver":872,"Ġcranial":873,"Ġmari":874,"rani":875,"sych":876,"Ġcleft":877,"Ġmotor":878,"ong":879,"int":880,"ock":881,"ostosis":882,"Ġgeneral":883,"ae":884,"ercul":885,"Ġey":886,"ithel":887,"Ġmetab":888,"Ġsensory":889,"Ġdegeneration":890,"erv":891,"genesis":892,"Ġbrach":893,"Ġresp":894,"immune":895,"itu":896,"Ġrad":897,"Ġpara":898,"Ġich":899,"erly":900,"Ġformerly":901,"lob":902,"Ġcrani":903,"ore":904,"Ġretinal":905,"Ġichthy":906,"ension":907,"Ġaph":908,"Ġmarie":909,"auc":910,"enic":911,"olar":912,"Ġmuscle":913,"velop":914,"Ġlimb":915,"ating":916,"ole":917,"Ġent":918,"onad":919,"ophthalm":920,"iform":921,"Ġpalsy":922,"Ġisch":923,"ison":924,"Ġpsych":925,"Ġvascular":926,"Ġocul":927,"Ġpap":928,"emat":929,"Ġsinus":930,"Ġparal":931,"ium":932,"mental":933,"Ġdevelop":934,"Ġencephalopathy":935,"war":936,"romat":937,"imal":938,"arcoma":939,"Ġocular":940,"ydactyly":941,"odystrophy":942,"eur":943,"inemia":944,"Ġtubercul":945,"Ġcardiac":946,"Ġmit":947,"Ġanomalies":948,"Ġepiderm":949,"arcot":950,"omatous":951,"Ġcardiomyopathy":952,"olysis":953,"Ġcharcot":954,"Ġall":955,"Ġadr":956,"Ġheadach":957,"Ġbil":958,"ticul":959,"Ġprol":960,"rocephaly":961,"cr":962,"Ġmes":963,"odef":964,"ance":965,"Ġdistal":966,"Ġves":967,"Ġhypers":968,"erative":969,"Ġfail":970,"Ġperiod":971,"Ġimmunodef":972,"Ġautoimmune":973,"Ġloss":974,"Ġkid":975,"Ġshort":976,"Ġabnormalities":977,"Ġro":978,"Ġpe":979,"Ġmar":980,"Ġimp":981,"struc":982,"Ġnod":983,"yposis":984,"Ġlung":985,"sions":986,"ney":987,"Ġgeneralized":988,"ans":989,"Ġfo":990,"Ġalc":991,"Ġdel":992,"icul":993,"Ġinfarc":994,"ondyl":995,"Ġcysts":996,"Ġdementi":997,"anth":998,"omyel":999,"Ġamyl":1000,"eth":1001,"Ġval":1002,"ions":1003,"yph":1004,"tides":1005,"tiv":1006,"Ġsep":1007,"Ġtris":1008,"ochond":1009,"fer":1010,"ge":1011,"edema":1012,"emor":1013,"ement":1014,"Ġphosph":1015,"omatosis":1016,"oblastic":1017,"itivity":1018,"Ġalcoh":1019,"Ġkerat":1020,"kinson":1021,"Ġimmunodeficiency":1022,"her":1023,"yne":1024,"opia":1025,"Ġprotein":1026,"Ġlike":1027,"ler":1028,"na":1029,"lear":1030,"opl":1031,"Ġbull":1032,"Ġpoison":1033,"Ġchildh":1034,"Ġamyloid":1035,"Ġov":1036,"Ġparkinson":1037,"Ġhemat":1038,"Ġtrisomy":1039,"Ġchildhood":1040,"lase":1041,"Ġchol":1042,"Ġlow":1043,"Ġneurol":1044,"Ġsclerosis":1045,"Ġcerv":1046,"Ġseizure":1047,"Ġpoisoning":1048,"Ġcutaneous":1049,"Ġneuropathies":1050,"ps":1051,"uff":1052,"onal":1053,"Ġvari":1054,"ancy":1055,"Ġpitu":1056,"Ġbeta":1057,"Ġstat":1058,"esist":1059,"ogenesis":1060,"Ġpituitary":1061,"Ġsym":1062,"Ġhisti":1063,"Ġresist":1064,"Ġleukemias":1065,"Ġcord":1066,"Ġseizures":1067,"uter":1068,"Ġcomplex":1069,"orn":1070,"Ġven":1071,"Ġspinocerebellar":1072,"Ġkidney":1073,"Ġ13":1074,"Ġaneur":1075,"Ġmyoclonic":1076,"Ġparaple":1077,"Ġaneurysm":1078,"Ġgal":1079,"Ġhepatic":1080,"Ġdrug":1081,"asis":1082,"olytic":1083,"Ġvit":1084,"lyc":1085,"lec":1086,"pheral":1087,"Ġhemorrhage":1088,"iation":1089,"occ":1090,"Ġneural":1091,"Ġlymphocytic":1092,"Ġdystonia":1093,"Ġsever":1094,"lication":1095,"Ġperipheral":1096,"Ġulc":1097,"Ġeye":1098,"Ġbody":1099,"Ġcongenit":1100,"Ġsex":1101,"Ġsevere":1102,"inosis":1103,"Ġ10":1104,"Ġvis":1105,"ogical":1106,"inary":1107,"Ġdep":1108,"ophageal":1109,"Ġdiffuse":1110,"Ġpanc":1111,"Ġhair":1112,"olism":1113,"Ġintestinal":1114,"Ġinflammatory":1115,"Ġcd":1116,"orage":1117,"Ġhypot":1118,"Ġstorage":1119,"Ġfac":1120,"Ġdefects":1121,"Ġpalm":1122,"Ġmeth":1123,"Ġobstruc":1124,"Ġfailure":1125,"Ġmig":1126,"ysplasia":1127,"Ġsecond":1128,"lip":1129,"ok":1130,"Ġen":1131,"osp":1132,"ocr":1133,"antar":1134,"Ġpreg":1135,"Ġepilepsies":1136,"Ġdwar":1137,"Ġcir":1138,"Ġhand":1139,"urg":1140,"Ġspondyl":1141,"Ġdermat":1142,"Ġposterior":1143,"Ġpregn":1144,"Ġdwarf":1145,"rotic":1146,"Ġmem":1147,"adder":1148,"east":1149,"olated":1150,"Ġectodermal":1151,"Ġhemorrhagic":1152,"Ġallerg":1153,"md":1154,"Ġmel":1155,"Ġgland":1156,"Ġhern":1157,"Ġcarcinomas":1158,"ocytop":1159,"Ġisolated":1160,"Ġparaplegia":1161,"Ġcongenita":1162,"Ġprost":1163,"Ġdementia":1164,"Ġdwarfism":1165,"io":1166,"tical":1167,"Ġabscess":1168,"Ġichthyosis":1169,"ry":1170,"utis":1171,"ins":1172,"Ġfol":1173,"ococc":1174,"ird":1175,"he":1176,"Ġec":1177,"rol":1178,"tious":1179,"Ġmo":1180,"emp":1181,"Ġfist":1182,"Ġdehyd":1183,"teb":1184,"Ġmicrocephaly":1185,"Ġmalformation":1186,"Ġfistul":1187,"bran":1188,"ioma":1189,"Ġneur":1190,"Ġencephalitis":1191,"man":1192,"ass":1193,"andib":1194,"ixed":1195,"pur":1196,"Ġophthalm":1197,"let":1198,"Ġgi":1199,"actor":1200,"Ġvariant":1201,"rous":1202,"omel":1203,"ardial":1204,"plasias":1205,"Ġblind":1206,"Ġbreast":1207,"oencephal":1208,"Ġig":1209,"Ġmixed":1210,"Ġfetal":1211,"Ġchor":1212,"Ġiv":1213,"ronch":1214,"Ġgluc":1215,"Ġglauc":1216,"Ġdevelopmental":1217,"Ġneurologic":1218,"Ġz":1219,"arth":1220,"Ġpel":1221,"omer":1222,"oplastic":1223,"ific":1224,"Ġpoly":1225,"Ġearly":1226,"Ġgalact":1227,"ii":1228,"til":1229,"Ġdup":1230,"Ġcalc":1231,"osin":1232,"Ġfocal":1233,"Ġcont":1234,"encephaly":1235,"ocytosis":1236,"Ġinsuff":1237,"Ġparalysis":1238,"ferase":1239,"ker":1240,"Ġmell":1241,"omic":1242,"ella":1243,"ylase":1244,"ish":1245,"Ġpup":1246,"Ġhypoth":1247,"Ġinfectious":1248,"rogenase":1249,"Ġadrenal":1250,"Ġmellitus":1251,"cle":1252,"Ġfron":1253,"egal":1254,"Ġdehydrogenase":1255,"tur":1256,"astr":1257,"ypical":1258,"Ġ12":1259,"Ġatypical":1260,"Ġhydrox":1261,"sd":1262,"othel":1263,"rotid":1264,"ain":1265,"Ġste":1266,"Ġfactor":1267,"enter":1268,"rax":1269,"Ġanterior":1270,"Ġext":1271,"romatosis":1272,"ite":1273,"itt":1274,"Ġdepr":1275,"urr":1276,"Ġdeform":1277,"Ġmonosom":1278,"ithelial":1279,"Ġdf":1280,"igital":1281,"roxysm":1282,"Ġrespir":1283,"Ġmitochond":1284,"Ġy":1285,"Ġtran":1286,"Ġred":1287,"ide":1288,"Ġvar":1289,"Ġmacular":1290,"ocrine":1291,"gias":1292,"Ġhall":1293,"Ġcombin":1294,"Ġdepend":1295,"Ġmonosomy":1296,"Ġcombined":1297,"iosis":1298,"Ġperson":1299,"lobulin":1300,"Ġox":1301,"Ġduct":1302,"Ġaortic":1303,"Ġbronch":1304,"Ġlar":1305,"Ġpolyne":1306,"Ġsmall":1307,"Ġstenosis":1308,"Ġmethyl":1309,"Ġpolyneuro":1310,"gl":1311,"Ġdental":1312,"Ġsim":1313,"Ġchond":1314,"Ġstr":1315,"Ġreac":1316,"Ġparoxysm":1317,"Ġfractures":1318,"Ġgangli":1319,"Ġtransi":1320,"Ġuter":1321,"omotor":1322,"Ġatr":1323,"ensitivity":1324,"Ġsystemic":1325,"bl":1326,"ner":1327,"onias":1328,"iss":1329,"Ġconvul":1330,"ofacial":1331,"kele":1332,"Ġurinary":1333,"Ġfracture":1334,"Ġpregnancy":1335,"ait":1336,"ession":1337,"plastic":1338,"Ġhemangi":1339,"atitides":1340,"oblast":1341,"osinophil":1342,"Ġmitochondrial":1343,"keletal":1344,"Ġpseudo":1345,"Ġhypertension":1346,"Ġcarb":1347,"Ġalcohol":1348,"Ġsecondary":1349,"Ġpersonal":1350,"ropathy":1351,"asth":1352,"Ġvag":1353,"iral":1354,"Ġlymphomas":1355,"Ġrecurr":1356,"Ġvestib":1357,"ux":1358,"Ġtremor":1359,"rowth":1360,"Ġglycogen":1361,"Ġparoxysmal":1362,"ren":1363,"osyl":1364,"roses":1365,"rocyt":1366,"Ġtrauma":1367,"Ġgiant":1368,"itic":1369,"ns":1370,"nes":1371,"icular":1372,"opic":1373,"Ġrem":1374,"Ġgast":1375,"umb":1376,"irid":1377,"Ġwe":1378,"Ġasp":1379,"oderma":1380,"Ġemb":1381,"aw":1382,"Ġcystic":1383,"Ġdyskin":1384,"Ġbladder":1385,"Ġmetabolic":1386,"andibular":1387,"mann":1388,"ton":1389,"Ġma":1390,"ople":1391,"ological":1392,"ransferase":1393,"Ġoral":1394,"Ġmalformations":1395,"iary":1396,"Ġsw":1397,"Ġmr":1398,"ocarcin":1399,"Ġneg":1400,"rosp":1401,"Ġpalate":1402,"Ġheadache":1403,"rof":1404,"aring":1405,"uch":1406,"nea":1407,"Ġinfarction":1408,"Ġbullosa":1409,"aph":1410,"Ġinc":1411,"ilar":1412,"Ġmale":1413,"Ġerythro":1414,"oplantar":1415,"Ġcervical":1416,"Ġpalmoplantar":1417,"Ġglomer":1418,"Ġepidermolysis":1419,"Ġfoot":1420,"Ġduplication":1421,"Ġtis":1422,"Ġpur":1423,"Ġeosinophil":1424,"Ġmyeloid":1425,"Ġdiabetic":1426,"Ġtiss":1427,"ive":1428,"Ġbar":1429,"Ġvasc":1430,"Ġreflex":1431,"Ġblindness":1432,"Ġvascul":1433,"Ġhum":1434,"Ġinv":1435,"Ġlateral":1436,"Ġhearing":1437,"Ġcoron":1438,"licular":1439,"ik":1440,"ition":1441,"ata":1442,"Ġaud":1443,"Ġviral":1444,"iases":1445,"Ġatrial":1446,"Ġhemolytic":1447,"Ġtrich":1448,"acterial":1449,"Ġbilateral":1450,"cop":1451,"Ġos":1452,"Ġsal":1453,"ominal":1454,"Ġnons":1455,"Ġvirus":1456,"rag":1457,"Ġadenoma":1458,"Ġimpair":1459,"Ġagenesis":1460,"Ġble":1461,"Ġlate":1462,"Ġgrowth":1463,"genic":1464,"iferative":1465,"Ġexper":1466,"Ġthrombocytop":1467,"tebral":1468,"ier":1469,"tia":1470,"ony":1471,"Ġhorm":1472,"ulf":1473,"usions":1474,"Ġlac":1475,"imental":1476,"Ġmyc":1477,"Ġmyasth":1478,"Ġparas":1479,"Ġcarotid":1480,"Ġglaucoma":1481,"Ġrecurrent":1482,"Ġtissue":1483,"hl":1484,"ied":1485,"derma":1486,"Ġmyot":1487,"Ġpre":1488,"Ġjo":1489,"Ġimper":1490,"Ġschiz":1491,"Ġabsence":1492,"Ġpositive":1493,"empor":1494,"Ġexperimental":1495,"Ġimperf":1496,"Ġcap":1497,"osum":1498,"olys":1499,"Ġcontr":1500,"Ġcortical":1501,"Ġmyocardial":1502,"Ġflu":1503,"Ġrespiratory":1504,"iomas":1505,"mus":1506,"Ġdil":1507,"Ġtoxic":1508,"Ġneuronal":1509,"rich":1510,"Ġgastro":1511,"ber":1512,"blas":1513,"dominal":1514,"ie":1515,"Ġmor":1516,"Ġsynth":1517,"itory":1518,"Ġbe":1519,"ticular":1520,"Ġ17":1521,"Ġhyperlip":1522,"Ġanomaly":1523,"Ġallergic":1524,"dactyly":1525,"kerat":1526,"alam":1527,"roup":1528,"osidase":1529,"Ġtach":1530,"Ġhiv":1531,"Ġax":1532,"Ġnev":1533,"Ġtract":1534,"Ġarterial":1535,"Ġesophageal":1536,"Ġaphasia":1537,"Ġpancre":1538,"ococcal":1539,"Ġtransient":1540,"Ġcm":1541,"Ġpath":1542,"Ġdysm":1543,"aden":1544,"vern":1545,"vers":1546,"Ġcoa":1547,"Ġretinitis":1548,"Ġvalve":1549,"Ġmelan":1550,"fib":1551,"yal":1552,"Ġot":1553,"tig":1554,"anic":1555,"iple":1556,"Ġpremat":1557,"Ġresistant":1558,"Ġlarge":1559,"emporal":1560,"onus":1561,"atase":1562,"orac":1563,"Ġright":1564,"veolar":1565,"ept":1566,"Ġwil":1567,"Ġperiodic":1568,"Ġpersonality":1569,"Ġhormone":1570,"transferase":1571,"erc":1572,"este":1573,"Ġpy":1574,"ids":1575,"Ġphen":1576,"Ġsubac":1577,"Ġarteri":1578,"Ġendocrine":1579,"oprol":1580,"Ġpigmentosa":1581,"Ġganglios":1582,"Ġauditory":1583,"titis":1584,"onomic":1585,"Ġclas":1586,"Ġpat":1587,"ypt":1588,"olip":1589,"arian":1590,"ofib":1591,"Ġsympt":1592,"lect":1593,"Ġinsufficiency":1594,"Ġnegative":1595,"ble":1596,"ele":1597,"nos":1598,"Ġqu":1599,"Ġloc":1600,"Ġ22":1601,"athyroid":1602,"Ġspl":1603,"Ġast":1604,"Ġpolydactyly":1605,"Ġsensor":1606,"ythm":1607,"Ġprostatic":1608,"oni":1609,"Ġnyst":1610,"agmus":1611,"quam":1612,"Ġhypogonad":1613,"omelic":1614,"Ġnystagmus":1615,"iphyseal":1616,"pl":1617,"zing":1618,"ĠÃ":1619,"Ġcal":1620,"ulb":1621,"Ġlaryngeal":1622,"ologic":1623,"otrop":1624,"Ġleft":1625,"Ġdermatitis":1626,"Ġophthalmople":1627,"Ġatresia":1628,"Ġpremature":1629,"Ġaplasia":1630,"Ġbas":1631,"Ġgait":1632,"Ġneut":1633,"imer":1634,"Ġanti":1635,"Ġ21":1636,"rophthalm":1637,"Ġherp":1638,"Ġextr":1639,"Ġovarian":1640,"Ġdu":1641,"enb":1642,"ord":1643,"Ġte":1644,"phosph":1645,"emal":1646,"omatic":1647,"ineural":1648,"Ġhepat":1649,"angiect":1650,"Ġfollicular":1651,"Ġsubacute":1652,"vic":1653,"Ġcam":1654,"Ġdiss":1655,"Ġbacterial":1656,"Ġging":1657,"Ġgastr":1658,"Ġlethal":1659,"Ġautonomic":1660,"omyc":1661,"Ġaprax":1662,"Ġvenous":1663,"Ġpolyneuropathy":1664,"Ġrod":1665,"ern":1666,"asias":1667,"Ġlob":1668,"tine":1669,"Ġpalsies":1670,"Ġcolor":1671,"omyelitis":1672,"Ġglomerul":1673,"yg":1674,"Ġhet":1675,"Ġgm":1676,"Ġand":1677,"Ġmicrophthalm":1678,"Ġcavern":1679,"Ġarthro":1680,"Ġpurpur":1681,"onych":1682,"oac":1683,"ald":1684,"esias":1685,"osyn":1686,"oscle":1687,"Ġgra":1688,"Ġtrig":1689,"oproteinemia":1690,"Ġhypothalam":1691,"Ġuterine":1692,"Ġimperfect":1693,"oproliferative":1694,"alang":1695,"Ġmin":1696,"omn":1697,"acch":1698,"Ġ15":1699,"Ġhyperplasia":1700,"Ġpseudoh":1701,"Ġpains":1702,"Ġclass":1703,"Ġgingiv":1704,"sti":1705,"yot":1706,"Ġve":1707,"ror":1708,"Ġtor":1709,"Ġtonic":1710,"Ġfeb":1711,"opec":1712,"ech":1713,"Ġcone":1714,"Ġneurofib":1715,"upt":1716,"Ġtraumas":1717,"rodysplasia":1718,"rotizing":1719,"Ġnecrotizing":1720,"Ġsimple":1721,"Ġskeletal":1722,"Ġpick":1723,"Ġfanc":1724,"Ġhyperc":1725,"Ġwh":1726,"Ġabdominal":1727,"ycard":1728,"Ġaciduria":1729,"Ġcrypt":1730,"Ġtuberculosis":1731,"Ġstature":1732,"Ġvitamin":1733,"Ġhetero":1734,"Ġcavernous":1735,"sis":1736,"tl":1737,"Ġuro":1738,"Ġden":1739,"inating":1740,"esth":1741,"Ġni":1742,"ited":1743,"Ġles":1744,"etra":1745,"Ġalopec":1746,"Ġdiver":1747,"Ġsensorineural":1748,"Ġalopecia":1749,"ts":1750,"Ġsph":1751,"Ġcox":1752,"Ġcyt":1753,"Ġnoc":1754,"Ġlang":1755,"ective":1756,"Ġdysostosis":1757,"opharyngeal":1758,"Ġprot":1759,"achn":1760,"Ġthrombosis":1761,"Ġhypertrophic":1762,"ortical":1763,"Ġhemorrhages":1764,"Ġmetabolism":1765,"Ġhuman":1766,"Ġcoronary":1767,"Ġjoint":1768,"Ġarthrogr":1769,"Ġimperfecta":1770,"born":1771,"Ġpress":1772,"Ġpolyc":1773,"ovascular":1774,"Ġvertig":1775,"Ġparkinsonism":1776,"Ġdependent":1777,"ca":1778,"oroid":1779,"sor":1780,"Ġsarc":1781,"emann":1782,"Ġalveolar":1783,"ectal":1784,"Ġosteop":1785,"Ġadenocarcin":1786,"Ġhepatitis":1787,"Ġulcer":1788,"Ġfistula":1789,"Ġimpairment":1790,"quamous":1791,"matic":1792,"yel":1793,"Ġtic":1794,"Ġha":1795,"uss":1796,"Ġlo":1797,"eling":1798,"Ġach":1799,"Ġatt":1800,"actory":1801,"rosing":1802,"Ġparane":1803,"Ġalbin":1804,"orphyr":1805,"Ġbrachydactyly":1806,"Ġseptal":1807,"Ġdyskinesia":1808,"Ġparaneoplastic":1809,"Ġdan":1810,"Ġmid":1811,"Ġtel":1812,"Ġnasal":1813,"Ġbor":1814,"Ġlam":1815,"eld":1816,"ection":1817,"Ġneu":1818,"Ġleg":1819,"Ġket":1820,"Ġreg":1821,"Ġpolyposis":1822,"Ġblock":1823,"Ġprolap":1824,"Ġmembran":1825,"zo":1826,"Ġsarcoma":1827,"Ġsulf":1828,"emin":1829,"Ġ14":1830,"ational":1831,"Ġank":1832,"Ġatrophies":1833,"Ġthorac":1834,"Ġleukoencephal":1835,"Ġpupil":1836,"Ġpancreatic":1837,"Ġmicrophthalmia":1838,"Ġdiverticul":1839,"los":1840,"rile":1841,"ination":1842,"Ġgr":1843,"Ġ18":1844,"Ġwa":1845,"Ġorg":1846,"Ġpneumonia":1847,"Ġolig":1848,"Ġradiation":1849,"Ġnodular":1850,"Ġdelay":1851,"Ġcalcific":1852,"Ġremod":1853,"Ġmrx":1854,"Ġtachycard":1855,"Ġandrogen":1856,"stitial":1857,"Ġarthrogryposis":1858,"Ġpressure":1859,"Ġalbinism":1860,"eum":1861,"fusion":1862,"Ġic":1863,"Ġplas":1864,"Ġbran":1865,"Ġgird":1866,"Ġconc":1867,"Ġasth":1868,"Ġmyoclonus":1869,"Ġcomplic":1870,"Ġfebrile":1871,"Ġgirdle":1872,"ning":1873,"rov":1874,"Ġaids":1875,"Ġsyncop":1876,"Ġbre":1877,"Ġgroup":1878,"Ġele":1879,"raine":1880,"Ġaccess":1881,"Ġneuron":1882,"Ġcerebrosp":1883,"Ġoccl":1884,"Ġgenital":1885,"Ġtubular":1886,"Ġmigraine":1887,"Ġdilated":1888,"Ġbranch":1889,"Ġaccessory":1890,"Ġcerebrospinal":1891,"Ġmc":1892,"Ġnail":1893,"Ġfasc":1894,"opolys":1895,"Ġbasal":1896,"Ġhype":1897,"Ġdysgenesis":1898,"Ġhyperg":1899,"rhythm":1900,"Ġagnos":1901,"Ġinterm":1902,"rade":1903,"Ġischemic":1904,"Ġhypersensitivity":1905,"Ġfront":1906,"acchar":1907,"ound":1908,"ritides":1909,"Ġed":1910,"Ġdigital":1911,"Ġcan":1912,"ars":1913,"ush":1914,"emas":1915,"Ġdeath":1916,"eck":1917,"Ġdysplasias":1918,"Ġrheum":1919,"Ġcdg":1920,"Ġfluid":1921,"Ġhypothalamic":1922,"de":1923,"Ġod":1924,"Ġsick":1925,"Ġpyr":1926,"ulation":1927,"itz":1928,"ilateral":1929,"Ġhyperp":1930,"ocyte":1931,"able":1932,"Ġcomplement":1933,"iridae":1934,"Ġschizoph":1935,"Ġaxonal":1936,"Ġastrocyt":1937,"Ġtelangiect":1938,"oep":1939,"zhe":1940,"Ġsl":1941,"Ġavul":1942,"Ġbov":1943,"Ġbow":1944,"tern":1945,"Ġimmune":1946,"Ġinsulin":1947,"Ġabnormality":1948,"Ġstenoses":1949,"hlers":1950,"ulbar":1951,"Ġbovine":1952,"gic":1953,"Ġdes":1954,"oneph":1955,"roma":1956,"Ġrupt":1957,"Ġehlers":1958,"uclear":1959,"Ġib":1960,"Ġthumb":1961,"Ġamyot":1962,"Ġischemia":1963,"Ġkeratoderma":1964,"Ġextra":1965,"Ġcontract":1966,"Ġhypogonadism":1967,"Ġgastric":1968,"Ġheterot":1969,"Ġdanlos":1970,"eroid":1971,"Ġple":1972,"Ġequ":1973,"Ġvon":1974,"Ġglut":1975,"Ġencephalopathies":1976,"Ġfibrous":1977,"Ġadenomas":1978,"Ġacidosis":1979,"Ġfevers":1980,"Ġhalluc":1981,"Ġlocus":1982,"hep":1983,"mal":1984,"our":1985,"Ġup":1986,"Ġmast":1987,"omet":1988,"Ġhyal":1989,"Ġbur":1990,"obacter":1991,"Ġobstruction":1992,"Ġeosinophilic":1993,"Ġgangliosidosis":1994,"Ġtib":1995,"Ġedema":1996,"Ġman":1997,"omp":1998,"old":1999,"Ġneurogenic":2000,"isms":2001,"Ġdystrophies":2002,"omatoses":2003,"orrhea":2004,"Ġsubc":2005,"ochrom":2006,"ocytoses":2007,"Ġmeningitis":2008,"Ġunilateral":2009,"Ġnephropathy":2010,"Ġperiodon":2011,"Ġophthalmoplegia":2012,"roch":2013,"ina":2014,"Ġlong":2015,"ench":2016,"Ġchoroid":2017,"oventricular":2018,"Ġarthritis":2019,"Ġheadaches":2020,"Ġhernia":2021,"Ġthrombocytopenia":2022,"opolysacchar":2023,"loc":2024,"nb":2025,"uth":2026,"Ġme":2027,"ors":2028,"Ġav":2029,"odactyly":2030,"Ġacet":2031,"ternal":2032,"Ġspont":2033,"Ġalzhe":2034,"Ġpers":2035,"Ġleukodystrophy":2036,"Ġphot":2037,"Ġcorp":2038,"Ġcolob":2039,"Ġclonic":2040,"Ġinterstitial":2041,"Ġmucopolysacchar":2042,"creas":2043,"lobulinemia":2044,"Ġalzheimer":2045,"ger":2046,"oi":2047,"Ġcre":2048,"Ġpor":2049,"ocele":2050,"Ġeff":2051,"atelet":2052,"Ġblood":2053,"Ġout":2054,"Ġplatelet":2055,"Ġgranulomatous":2056,"Ġgangl":2057,"Ġoculomotor":2058,"Ġteeth":2059,"Ġspontaneous":2060,"oarth":2061,"Ġsquamous":2062,"ino":2063,"Ġcutis":2064,"Ġbi":2065,"Ġvas":2066,"Ġdysph":2067,"oustic":2068,"yltransferase":2069,"Ġreticul":2070,"Ġentero":2071,"Ġchondrodysplasia":2072,"keratosis":2073,"achnoid":2074,"Ġpersist":2075,"Ġmucopolysaccharidosis":2076,"fic":2077,"junc":2078,"nar":2079,"port":2080,"ases":2081,"ater":2082,"osarcoma":2083,"Ġhun":2084,"edi":2085,"eminal":2086,"Ġgsd":2087,"epithelial":2088,"Ġatri":2089,"ophosph":2090,"oxylase":2091,"Ġlipodystrophy":2092,"Ġmedull":2093,"Ġpurpura":2094,"Ġfanconi":2095,"Ġthoracic":2096,"oietic":2097,"junctiv":2098,"aus":2099,"pid":2100,"Ġill":2101,"Ġcall":2102,"Ġtes":2103,"Ġhip":2104,"action":2105,"uric":2106,"atid":2107,"off":2108,"ofusc":2109,"Ġlipofusc":2110,"Ġfibrosis":2111,"Ġgenetic":2112,"intestinal":2113,"Ġpapill":2114,"Ġvisual":2115,"blast":2116,"Ġnevus":2117,"Ġpolycystic":2118,"sch":2119,"Ġsk":2120,"Ġceroid":2121,"ator":2122,"Ġrep":2123,"raph":2124,"odys":2125,"Ġ46":2126,"Ġorof":2127,"Ġrhin":2128,"ontocerebellar":2129,"hepatic":2130,"Ġpersistent":2131,"au":2132,"loss":2133,"val":2134,"way":2135,"Ġu":2136,"Ġcns":2137,"ash":2138,"att":2139,"Ġfunction":2140,"Ġlup":2141,"ets":2142,"Ġmyx":2143,"Ġtrait":2144,"ammary":2145,"Ġendomet":2146,"Ġapp":2147,"Ġphosphate":2148,"Ġamyloidosis":2149,"Ġsaliv":2150,"Ġmyasthenic":2151,"bs":2152,"cd":2153,"nath":2154,"Ġdent":2155,"eness":2156,"inase":2157,"Ġcil":2158,"atent":2159,"Ġmov":2160,"Ġhs":2161,"phrag":2162,"amp":2163,"Ġchole":2164,"Ġacoustic":2165,"Ġxx":2166,"Ġjaw":2167,"unct":2168,"pression":2169,"Ġdegenerations":2170,"Ġectopic":2171,"ophilia":2172,"Ġmemory":2173,"Ġdysmorph":2174,"eptor":2175,"Ġdissemin":2176,"dural":2177,"romas":2178,"Ġgu":2179,"Ġgonad":2180,"Ġana":2181,"oglob":2182,"Ġsequ":2183,"Ġexternal":2184,"Ġangle":2185,"Ġspasm":2186,"Ġage":2187,"Ġdermatitides":2188,"Ġsclerosing":2189,"uctase":2190,"Ġolf":2191,"Ġpelvic":2192,"Ġblepha":2193,"Ġbasilar":2194,"Ġnoctur":2195,"Ġlupus":2196,"ling":2197,"Ġath":2198,"Ġess":2199,"alass":2200,"ential":2201,"arathyroid":2202,"Ġpen":2203,"iton":2204,"acc":2205,"oles":2206,"Ġanimal":2207,"Ġconduc":2208,"Ġthalass":2209,"ability":2210,"Ġmeta":2211,"ammag":2212,"Ġradial":2213,"Ġbiliary":2214,"Ġcholest":2215,"Ġcholeste":2216,"Ġpoisonings":2217,"Ġresistance":2218,"Ġcirrh":2219,"Ġvasculitis":2220,"Ġtrigeminal":2221,"Ġcorpus":2222,"Ġtox":2223,"Ġhypop":2224,"Ġactin":2225,"otyp":2226,"Ġmyopia":2227,"Ġreceptor":2228,"ropath":2229,"Ġhypoplastic":2230,"Ġsexual":2231,"Ġdeformity":2232,"Ġconvulsions":2233,"Ġinvol":2234,"Ġsymptom":2235,"Ġsimplex":2236,"Ġcomplications":2237,"Ġmovement":2238,"Ġessential":2239,"renia":2240,"Ġir":2241,"enz":2242,"Ġring":2243,"ocutaneous":2244,"Ġchain":2245,"ucc":2246,"yme":2247,"Ġglob":2248,"Ġover":2249,"Ġsuper":2250,"Ġchorea":2251,"oblastoma":2252,"Ġvestibular":2253,"Ġnonsyn":2254,"Ġneurofibromatosis":2255,"Ġniemann":2256,"Ġskull":2257,"Ġsalivary":2258,"Ġolfactory":2259,"Ġporphyr":2260,"Ġpunct":2261,"Ġtw":2262,"omegal":2263,"Ġhigh":2264,"Ġair":2265,"Ġinher":2266,"Ġrick":2267,"roneal":2268,"Ġpolym":2269,"Ġamel":2270,"axial":2271,"Ġblack":2272,"Ġcoll":2273,"Ġhyperten":2274,"Ġplag":2275,"Ġnecrosis":2276,"itivities":2277,"utism":2278,"Ġhypercalc":2279,"Ġremodeling":2280,"Ġconcus":2281,"sen":2282,"ses":2283,"vis":2284,"inuria":2285,"ondrom":2286,"arb":2287,"Ġpag":2288,"icit":2289,"Ġtur":2290,"Ġhtl":2291,"Ġaur":2292,"Ġfemal":2293,"Ġinborn":2294,"ocephal":2295,"Ġdeficit":2296,"derm":2297,"Ġleber":2298,"Ġarg":2299,"Ġtre":2300,"Ġcommun":2301,"osteron":2302,"Ġabsent":2303,"Ġobes":2304,"Ġsecre":2305,"Ġabscesses":2306,"Ġvestibul":2307,"Ġparasitic":2308,"Ġgastrointestinal":2309,"Ġcmt":2310,"Ġwhite":2311,"Ġborne":2312,"Ġhyperost":2313,"Ġcoloboma":2314,"Ġcallosum":2315,"Ġnonsyndrom":2316,"Ġfemale":2317,"doch":2318,"inf":2319,"ones":2320,"Ġplex":2321,"Ġmammary":2322,"Ġvul":2323,"Ġvocal":2324,"ums":2325,"Ġepis":2326,"Ġepithel":2327,"Ġthym":2328,"Ġgloss":2329,"Ġblue":2330,"Ġbrachial":2331,"Ġlower":2332,"Ġneuralgia":2333,"Ġdfnb":2334,"Ġapraxia":2335,"Ġhtlv":2336,"yros":2337,"Ġpach":2338,"osus":2339,"ositis":2340,"Ġhol":2341,"ust":2342,"Ġgest":2343,"Ġgauc":2344,"Ġepithelial":2345,"Ġlymphedema":2346,"Ġencephalomyelitis":2347,"Ġdiaphrag":2348,"Ġdemyel":2349,"Ġcraniofacial":2350,"Ġbeh":2351,"Ġglomeruloneph":2352,"osclerosis":2353,"Ġpseudohyp":2354,"Ġlipofuscinosis":2355,"Ġinherited":2356,"bil":2357,"fe":2358,"pd":2359,"erenti":2360,"Ġdam":2361,"Ġcys":2362,"Ġsyndactyly":2363,"Ġdisc":2364,"Ġind":2365,"Ġbile":2366,"Ġlys":2367,"Ġlocal":2368,"enth":2369,"Ġ16":2370,"icient":2371,"Ġinclusion":2372,"ostoses":2373,"Ġnonp":2374,"Ġtransm":2375,"Ġgingival":2376,"Ġcomplementation":2377,"Ġdisseminated":2378,"Ġnonsyndromic":2379,"sh":2380,"ta":2381,"Ġdna":2382,"Ġcog":2383,"asm":2384,"isis":2385,"Ġsyndromic":2386,"idrotic":2387,"Ġgall":2388,"raw":2389,"Ġconjunctiv":2390,"Ġacanth":2391,"otal":2392,"otemporal":2393,"ovirus":2394,"Ġcoag":2395,"tivity":2396,"Ġstress":2397,"Ġnocturnal":2398,"ct":2399,"sk":2400,"eryth":2401,"eses":2402,"Ġmur":2403,"ley":2404,"iter":2405,"ocard":2406,"etric":2407,"utz":2408,"Ġvii":2409,"odic":2410,"Ġald":2411,"Ġarrhythm":2412,"Ġxy":2413,"Ġtrach":2414,"Ġepileptic":2415,"Ġsubdural":2416,"Ġfibr":2417,"ochlear":2418,"eae":2419,"Ġulnar":2420,"Ġaphasias":2421,"Ġpapillary":2422,"Ġvisc":2423,"Ġneuritis":2424,"Ġreductase":2425,"Ġherpes":2426,"Ġtachycardia":2427,"Ġtelangiectasia":2428,"malonic":2429,"Ġupper":2430,"lossal":2431,"den":2432,"toxic":2433,"ice":2434,"Ġdisloc":2435,"Ġvan":2436,"Ġventric":2437,"Ġ24":2438,"vertebral":2439,"Ġamnes":2440,"ropoietic":2441,"Ġosteoarth":2442,"arynx":2443,"Ġvertebral":2444,"Ġcomplete":2445,"Ġdevelopment":2446,"Ġhistiocytic":2447,"Ġhypotrich":2448,"Ġfistulas":2449,"aphyl":2450,"Ġneutrop":2451,"Ġgonadal":2452,"Ġthalassemia":2453,"Ġgaucher":2454,"auro":2455,"mia":2456,"ted":2457,"tosis":2458,"Ġia":2459,"Ġros":2460,"ontia":2461,"esophageal":2462,"opias":2463,"Ġvi":2464,"Ġchore":2465,"ymal":2466,"Ġwal":2467,"ermann":2468,"Ġlymphoproliferative":2469,"ogenous":2470,"Ġocc":2471,"Ġmetach":2472,"Ġoliv":2473,"Ġesophag":2474,"Ġperox":2475,"enteric":2476,"versal":2477,"otropic":2478,"Ġcolorectal":2479,"Ġcoxa":2480,"Ġdemyelinating":2481,"Ġhypotrichosis":2482,"bert":2483,"feld":2484,"rob":2485,"erap":2486,"aria":2487,"Ġmen":2488,"Ġmeg":2489,"Ġtyros":2490,"Ġhir":2491,"yses":2492,"Ġlab":2493,"ace":2494,"Ġdeficient":2495,"Ġchang":2496,"odysplasia":2497,"Ġstate":2498,"uber":2499,"Ġprox":2500,"Ġendothel":2501,"Ġtuberculoses":2502,"Ġalcoholic":2503,"Ġfacies":2504,"Ġhernias":2505,"Ġcalcul":2506,"Ġankyl":2507,"Ġfrontotemporal":2508,"Ġodont":2509,"arathyroidism":2510,"Ġcholesterol":2511,"Ġcommunic":2512,"draw":2513,"fan":2514,"hin":2515,"oon":2516,"ption":2517,"ration":2518,"Ġseb":2519,"Ġmax":2520,"Ġmegal":2521,"Ġtotal":2522,"leb":2523,"Ġnight":2524,"itation":2525,"Ġfung":2526,"Ġdisk":2527,"Ġliss":2528,"etase":2529,"amo":2530,"Ġanal":2531,"Ġlep":2532,"Ġweb":2533,"apul":2534,"Ġpolyp":2535,"Ġscot":2536,"Ġpulp":2537,"Ġmeningioma":2538,"Ġacidemia":2539,"Ġhydatid":2540,"Ġcardiovascular":2541,"Ġepidural":2542,"Ġdiar":2543,"Ġwithdraw":2544,"Ġcraniosyn":2545,"yphil":2546,"Ġaneurysms":2547,"insulin":2548,"Ġreaction":2549,"enburg":2550,"Ġclassic":2551,"Ġlesions":2552,"ammaglobulinemia":2553,"Ġcholestasis":2554,"Ġproximal":2555,"Ġwithdrawal":2556,"aur":2557,"oul":2558,"vular":2559,"Ġus":2560,"Ġdig":2561,"osamin":2562,"Ġhom":2563,"aci":2564,"ocular":2565,"thromb":2566,"amine":2567,"Ġanemias":2568,"Ġlev":2569,"Ġparan":2570,"Ġepiphyseal":2571,"Ġpres":2572,"Ġprec":2573,"Ġadd":2574,"Ġspasms":2575,"Ġdysfunctions":2576,"Ġadren":2577,"emoral":2578,"Ġhematoma":2579,"Ġobstructive":2580,"Ġcarboxylase":2581,"Ġdentin":2582,"Ġosteopo":2583,"Ġadenocarcinoma":2584,"creased":2585,"Ġenteropathy":2586,"Ġcirrhosis":2587,"az":2588,"iol":2589,"ious":2590,"line":2591,"lux":2592,"Ġsial":2593,"inogen":2594,"asive":2595,"ister":2596,"romal":2597,"ito":2598,"Ġfel":2599,"Ġrib":2600,"ocys":2601,"Ġhypox":2602,"odigital":2603,"Ġ23":2604,"Ġmyopathies":2605,"Ġwol":2606,"Ġperiton":2607,"Ġlipoprotein":2608,"ocytoma":2609,"Ġerup":2610,"Ġschw":2611,"Ġneck":2612,"rown":2613,"Ġgranuloma":2614,"Ġrobin":2615,"Ġmouth":2616,"Ġtremors":2617,"Ġsynthase":2618,"Ġcalcification":2619,"Ġequine":2620,"Ġobesity":2621,"elect":2622,"eric":2623,"ention":2624,"estive":2625,"Ġmer":2626,"Ġtet":2627,"Ġdec":2628,"idoses":2629,"Ġgo":2630,"Ġhypo":2631,"sible":2632,"Ġleak":2633,"Ġspg":2634,"Ġker":2635,"Ġhemophag":2636,"Ġadh":2637,"Ġxanth":2638,"Ġexc":2639,"Ġfried":2640,"avior":2641,"Ġhydrocephal":2642,"etaphyseal":2643,"Ġglycosyl":2644,"Ġmitral":2645,"Ġneuralgias":2646,"Ġspondyloep":2647,"Ġigm":2648,"Ġembry":2649,"Ġerythroderma":2650,"Ġcampt":2651,"onychia":2652,"Ġregion":2653,"Ġleukoencephalopathy":2654,"Ġschizophrenia":2655,"Ġtibial":2656,"Ġciliary":2657,"Ġvulv":2658,"Ġperoxis":2659,"Ġcraniosynostosis":2660,"Ġhemophagocytic":2661,"Ġhydrocephalus":2662,"cent":2663,"ex":2664,"ioses":2665,"pos":2666,"titides":2667,"Ġpas":2668,"Ġpter":2669,"orial":2670,"omen":2671,"Ġhms":2672,"romatic":2673,"tional":2674,"Ġrig":2675,"Ġrub":2676,"ida":2677,"Ġant":2678,"Ġ20":2679,"Ġ25":2680,"Ġhypertr":2681,"Ġspong":2682,"Ġstromal":2683,"ipar":2684,"rodactyly":2685,"Ġmeningeal":2686,"Ġdegenerative":2687,"Ġrespon":2688,"Ġkeratosis":2689,"Ġulcers":2690,"tility":2691,"Ġhydroxylase":2692,"Ġduod":2693,"esthesia":2694,"Ġplasma":2695,"Ġbowel":2696,"Ġsubcortical":2697,"ophosphat":2698,"Ġdiaphragmatic":2699,"Ġglycosylation":2700,"bal":2701,"bital":2702,"cs":2703,"ratent":2704,"Ġtin":2705,"ery":2706,"Ġsud":2707,"istic":2708,"Ġmut":2709,"Ġmandibular":2710,"Ġber":2711,"Ġbif":2712,"Ġlen":2713,"eles":2714,"idal":2715,"athet":2716,"inetic":2717,"Ġko":2718,"Ġcommon":2719,"Ġcompression":2720,"Ġamauro":2721,"Ġmultic":2722,"Ġencephalitides":2723,"Ġchromosomal":2724,"Ġmultiplex":2725,"Ġopen":2726,"Ġmeningiomas":2727,"Ġuret":2728,"odystrophies":2729,"Ġparalyses":2730,"Ġbullous":2731,"Ġvitre":2732,"turb":2733,"Ġmaj":2734,"Ġmycobacter":2735,"Ġmyotonic":2736,"Ġextrem":2737,"Ġelev":2738,"Ġamyotrophic":2739,"Ġacetyl":2740,"Ġmetaphyseal":2741,"Ġhirsch":2742,"Ġdiarrh":2743,"Ġhmsn":2744,"Ġresponsive":2745,"ratentorial":2746,"dd":2747,"lu":2748,"ule":2749,"osiform":2750,"Ġtroph":2751,"Ġfing":2752,"Ġdisturb":2753,"opontocerebellar":2754,"Ġlich":2755,"Ġgamm":2756,"Ġgrade":2757,"ings":2758,"Ġwor":2759,"verse":2760,"Ġlymphoblastic":2761,"Ġqt":2762,"Ġfruct":2763,"Ġthromboses":2764,"Ġgranular":2765,"Ġintrahepatic":2766,"Ġmedial":2767,"Ġvaria":2768,"Ġhemangioma":2769,"Ġembolism":2770,"Ġvein":2771,"etrating":2772,"Ġrupture":2773,"Ġuve":2774,"Ġcholedoch":2775,"uccin":2776,"Ġcoagulation":2777,"Ġvisceral":2778,"Ġmetachromatic":2779,"Ġolivopontocerebellar":2780,"Ġweber":2781,"berg":2782,"ds":2783,"for":2784,"land":2785,"inemias":2786,"arg":2787,"Ġmat":2788,"Ġterat":2789,"Ġtroch":2790,"Ġfus":2791,"Ġfemoral":2792,"Ġback":2793,"Ġline":2794,"ections":2795,"igm":2796,"ardenburg":2797,"Ġstro":2798,"Ġhemiple":2799,"Ġperiv":2800,"Ġcerebell":2801,"app":2802,"Ġamb":2803,"seous":2804,"Ġmicroc":2805,"Ġshe":2806,"Ġerythemat":2807,"Ġsupra":2808,"Ġecz":2809,"purative":2810,"Ġdfna":2811,"Ġtorsion":2812,"Ġvertigo":2813,"Ġwaardenburg":2814,"Ġagnosia":2815,"Ġatrioventricular":2816,"Ġtesticular":2817,"Ġendometrial":2818,"Ġairway":2819,"Ġrickets":2820,"erentiated":2821,"Ġdamage":2822,"Ġwalker":2823,"kes":2824,"ls":2825,"ozo":2826,"Ġsti":2827,"inous":2828,"ese":2829,"oric":2830,"osal":2831,"osch":2832,"Ġbrown":2833,"Ġlenti":2834,"Ġdeep":2835,"ilities":2836,"Ġhypophosphat":2837,"Ġchar":2838,"odg":2839,"Ġinfant":2840,"epend":2841,"Ġwound":2842,"Ġstaphyl":2843,"ermaph":2844,"Ġseg":2845,"Ġsensitive":2846,"Ġerror":2847,"Ġmesenteric":2848,"Ġcircul":2849,"Ġpupillary":2850,"Ġfrontal":2851,"Ġmethylmalonic":2852,"Ġasperg":2853,"Ġcapillary":2854,"Ġneurom":2855,"Ġprolapse":2856,"Ġsulfatase":2857,"Ġsickness":2858,"Ġpaget":2859,"Ġepisodic":2860,"Ġrigid":2861,"ermaphrod":2862,"gue":2863,"jer":2864,"lin":2865,"sum":2866,"Ġel":2867,"tile":2868,"Ġsyphil":2869,"enous":2870,"Ġcock":2871,"ise":2872,"Ġmann":2873,"omia":2874,"Ġhp":2875,"iatic":2876,"Ġnut":2877,"Ġdysenter":2878,"iciencies":2879,"irub":2880,"chol":2881,"ross":2882,"Ġxp":2883,"Ġcells":2884,"Ġasym":2885,"reich":2886,"ohn":2887,"Ġangina":2888,"Ġmyelogenous":2889,"Ġureth":2890,"yroidism":2891,"Ġintraepithelial":2892,"Ġhypoglossal":2893,"Ġichthyosiform":2894,"Ġphosphor":2895,"Ġdepression":2896,"Ġhyperlipoproteinemia":2897,"Ġhaem":2898,"rovascular":2899,"Ġastrocytoma":2900,"Ġmedullary":2901,"Ġanaplastic":2902,"Ġhyperostosis":2903,"Ġglossopharyngeal":2904,"Ġbehavior":2905,"odgkin":2906,"aut":2907,"iomy":2908,"les":2909,"Ġsem":2910,"arachnoid":2911,"Ġmil":2912,"Ġnormal":2913,"ulmonary":2914,"operative":2915,"Ġrp":2916,"Ġacc":2917,"Ġlead":2918,"Ġneurotoxic":2919,"rosarcoma":2920,"Ġstra":2921,"Ġtri":2922,"Ġretr":2923,"Ġmicrog":2924,"Ġsubarachnoid":2925,"Ġfibro":2926,"Ġcold":2927,"oneuro":2928,"uvate":2929,"omalac":2930,"avirus":2931,"Ġplac":2932,"Ġpneumonias":2933,"lioma":2934,"Ġstates":2935,"Ġoxidase":2936,"Ġoligod":2937,"Ġdelayed":2938,"ediate":2939,"Ġsymptoms":2940,"Ġtrochlear":2941,"Ġperiventricular":2942,"ermaphroditis":2943,"dle":2944,"ioid":2945,"spr":2946,"tative":2947,"Ġdip":2948,"ines":2949,"inations":2950,"Ġcand":2951,"icus":2952,"oseph":2953,"Ġtong":2954,"Ġhh":2955,"lebran":2956,"Ġfor":2957,"Ġlax":2958,"itin":2959,"amel":2960,"elli":2961,"ott":2962,"Ġatelect":2963,"Ġiia":2964,"Ġstri":2965,"Ġparap":2966,"version":2967,"Ġthird":2968,"ectodermal":2969,"ostatic":2970,"acher":2971,"Ġdystrophic":2972,"Ġjunction":2973,"Ġperfor":2974,"Ġabuse":2975,"Ġbrainst":2976,"antitative":2977,"Ġmeningoencephal":2978,"Ġpla":2979,"Ġclear":2980,"Ġnephritis":2981,"Ġreflux":2982,"Ġfaci":2983,"Ġdermatofib":2984,"Ġhydroxy":2985,"Ġvagus":2986,"Ġvaginal":2987,"Ġsynthetase":2988,"Ġmelanoma":2989,"Ġwillebran":2990,"Ġquantitative":2991,"Ġattack":2992,"Ġorgan":2993,"Ġhyperglyc":2994,"ropathies":2995,"Ġinvolv":2996,"Ġplexus":2997,"Ġcogn":2998,"Ġendothelial":2999,"Ġfriedreich":3000,"Ġhirschspr":3001,"Ġbrainstem":3002,"Ġwillebrand":3003,"Ġhirschsprung":3004,"ayne":3005,"dm":3006,"iari":3007,"me":3008,"ras":3009,"td":3010,"Ġsid":3011,"Ġpsor":3012,"Ġmerc":3013,"omach":3014,"phal":3015,"opulmonary":3016,"urias":3017,"ille":3018,"Ġgre":3019,"ranul":3020,"otoxic":3021,"ebic":3022,"Ġiron":3023,"Ġwern":3024,"ensitivities":3025,"ifest":3026,"Ġcerebro":3027,"endothel":3028,"Ġhex":3029,"Ġamn":3030,"Ġapnea":3031,"pathetic":3032,"Ġemphys":3033,"Ġcirc":3034,"Ġweight":3035,"Ġtoxicity":3036,"omycosis":3037,"omnia":3038,"Ġfascicul":3039,"Ġcontractures":3040,"Ġmanifest":3041,"Ġhypertensive":3042,"Ġneutropenia":3043,"Ġmaxillary":3044,"Ġlentig":3045,"Ġcockayne":3046,"ew":3047,"ga":3048,"ius":3049,"kal":3050,"mn":3051,"ycl":3052,"Ġpect":3053,"atures":3054,"Ġmas":3055,"osens":3056,"romandibular":3057,"Ġaff":3058,"Ġfati":3059,"Ġinvers":3060,"Ġrich":3061,"oler":3062,"genital":3063,"Ġchem":3064,"Ġchiari":3065,"Ġanh":3066,"Ġantib":3067,"Ġparesis":3068,"uscular":3069,"ohyd":3070,"Ġfibrom":3071,"Ġataxias":3072,"Ġtransfusion":3073,"Ġsmith":3074,"Ġmucolip":3075,"Ġinflammation":3076,"wareness":3077,"lipp":3078,"Ġcontusion":3079,"oblastomas":3080,"Ġswine":3081,"Ġmyasthenia":3082,"Ġcryptogenic":3083,"Ġsarcomas":3084,"Ġasthma":3085,"Ġsyncope":3086,"Ġdysmorphism":3087,"erapy":3088,"Ġlissencephaly":3089,"eros":3090,"ket":3091,"min":3092,"oendothel":3093,"rum":3094,"rate":3095,"Ġpp":3096,"Ġpem":3097,"Ġmild":3098,"osc":3099,"Ġtas":3100,"Ġhodgkin":3101,"phig":3102,"Ġsynostosis":3103,"usive":3104,"ili":3105,"Ġacro":3106,"Ġhyperinsulin":3107,"Ġwill":3108,"ancies":3109,"abd":3110,"ohyph":3111,"Ġfibromatosis":3112,"Ġsensitivity":3113,"Ġangiopathy":3114,"orphic":3115,"Ġoculocutaneous":3116,"Ġperoneal":3117,"Ġhistiocytosis":3118,"Ġneuritides":3119,"Ġglucose":3120,"Ġmyotonia":3121,"Ġsplit":3122,"Ġlobe":3123,"alangeal":3124,"Ġconcussive":3125,"Ġturner":3126,"osteronism":3127,"Ġtransmis":3128,"erythropoietic":3129,"Ġfungal":3130,"Ġlichen":3131,"Ġmercur":3132,"Ġpemphig":3133,"ks":3134,"mur":3135,"Ġsil":3136,"Ġsyr":3137,"enias":3138,"inoses":3139,"onec":3140,"Ġcmd":3141,"isphosph":3142,"Ġhur":3143,"Ġautism":3144,"Ġbisphosph":3145,"activity":3146,"Ġdysp":3147,"Ġcond":3148,"Ġstomach":3149,"Ġparag":3150,"Ġalb":3151,"erman":3152,"ermia":3153,"ophys":3154,"Ġlymphaden":3155,"ovenous":3156,"Ġphase":3157,"illar":3158,"Ġintoler":3159,"Ġrhabd":3160,"Ġcataracts":3161,"Ġthyroiditis":3162,"Ġhypersensitivities":3163,"Ġseptic":3164,"Ġhypotension":3165,"okal":3166,"Ġcontusions":3167,"ittent":3168,"Ġarteriovenous":3169,"Ġmiddle":3170,"Ġsequence":3171,"Ġporphyria":3172,"Ġargin":3173,"Ġglomerulonephritis":3174,"Ġmurmur":3175,"Ġusher":3176,"osaminidase":3177,"Ġfeline":3178,"Ġsudden":3179,"Ġamaurosis":3180,"Ġlinear":3181,"Ġstaphylococcal":3182,"ez":3183,"ean":3184,"hib":3185,"kinetic":3186,"metric":3187,"Ġdens":3188,"Ġdre":3189,"Ġsign":3190,"Ġcross":3191,"Ġptosis":3192,"Ġtend":3193,"Ġhab":3194,"Ġnk":3195,"eding":3196,"Ġfatal":3197,"Ġfood":3198,"Ġfrag":3199,"ops":3200,"Ġbo":3201,"Ġrest":3202,"oceles":3203,"Ġek":3204,"rap":3205,"Ġchl":3206,"Ġhyperbil":3207,"Ġatrophic":3208,"arcomas":3209,"ipital":3210,"ubert":3211,"Ġhemian":3212,"encephalies":3213,"ione":3214,"Ġcolon":3215,"Ġcolonic":3216,"Ġfeatures":3217,"Ġorth":3218,"Ġmacul":3219,"Ġpneumon":3220,"Ġfour":3221,"Ġdeformities":3222,"Ġreactive":3223,"Ġinvasive":3224,"Ġlactic":3225,"Ġsplenic":3226,"Ġlanger":3227,"Ġorofacial":3228,"Ġpachy":3229,"Ġfructose":3230,"Ġcandid":3231,"Ġplaqu":3232,"Ġhyperbilirub":3233,"aemia":3234,"aund":3235,"bb":3236,"co":3237,"dl":3238,"niti":3239,"virus":3240,"tit":3241,"Ġsac":3242,"onate":3243,"Ġcoma":3244,"Ġpure":3245,"aton":3246,"Ġham":3247,"iative":3248,"uster":3249,"Ġdissoc":3250,"oclas":3251,"Ġtypes":3252,"unt":3253,"iast":3254,"Ġleiomy":3255,"Ġneuroc":3256,"Ġkyph":3257,"Ġhemoglob":3258,"Ġreversal":3259,"Ġdystonias":3260,"ifuss":3261,"Ġpostoperative":3262,"Ġnonc":3263,"tington":3264,"Ġsensation":3265,"Ġosteogenesis":3266,"Ġplantar":3267,"Ġemery":3268,"Ġretinosch":3269,"Ġcontact":3270,"Ġsymptomatic":3271,"Ġtick":3272,"Ġorganic":3273,"Ġbreak":3274,"ochrome":3275,"omegaly":3276,"Ġfibrill":3277,"Ġmajor":3278,"Ġtongue":3279,"Ġdermatofibrosarcoma":3280,"Ġcognitive":3281,"Ġantibody":3282,"Ġtransmissible":3283,"Ġdreifuss":3284,"nitine":3285,"tmann":3286,"Ġet":3287,"Ġonych":3288,"rot":3289,"aresis":3290,"icke":3291,"Ġmosa":3292,"Ġtetra":3293,"ome":3294,"Ġaf":3295,"Ġsynov":3296,"opros":3297,"Ġling":3298,"ocochlear":3299,"Ġnew":3300,"utter":3301,"ump":3302,"unn":3303,"Ġneurode":3304,"Ġ32":3305,"Ġars":3306,"Ġperic":3307,"ization":3308,"Ġamino":3309,"Ġopitz":3310,"Ġtransection":3311,"Ġinsensitivity":3312,"Ġorbital":3313,"Ġangio":3314,"Ġmedias":3315,"radicul":3316,"Ġhypoglyc":3317,"Ġoculo":3318,"Ġpapul":3319,"Ġstatus":3320,"Ġsympathetic":3321,"Ġiga":3322,"Ġpolyradicul":3323,"Ġhypothyroidism":3324,"Ġdepressive":3325,"Ġossi":3326,"blastic":3327,"Ġphenomen":3328,"Ġcytochrome":3329,"Ġprotuber":3330,"Ġdiverticulum":3331,"Ġintermediate":3332,"Ġavulsion":3333,"Ġhallucinations":3334,"Ġpenetrating":3335,"Ġtoxoplasm":3336,"Ġvestibulocochlear":3337,"Ġholopros":3338,"Ġgestational":3339,"Ġlocalized":3340,"Ġsebace":3341,"oulder":3342,"Ġcamptodactyly":3343,"Ġtrophoblastic":3344,"Ġerythematosus":3345,"Ġinvolvement":3346,"Ġwernicke":3347,"Ġmosaic":3348,"cc":3349,"iat":3350,"mond":3351,"oathet":3352,"reas":3353,"sm":3354,"algia":3355,"eram":3356,"Ġdiast":3357,"Ġsj":3358,"Ġsol":3359,"Ġscl":3360,"org":3361,"osing":3362,"Ġtard":3363,"emb":3364,"Ġbart":3365,"actin":3366,"Ġdyserythropoietic":3367,"ellular":3368,"Ġactiv":3369,"Ġlew":3370,"Ġhyperth":3371,"oplasia":3372,"ances":3373,"Ġxero":3374,"Ġjak":3375,"Ġshock":3376,"Ġcystaden":3377,"Ġschist":3378,"Ġinst":3379,"rogenic":3380,"Ġverbal":3381,"ocerebral":3382,"Ġclos":3383,"Ġpigmented":3384,"Ġpigmentary":3385,"Ġglycoprotein":3386,"Ġentrap":3387,"Ġischemias":3388,"Ġinfarctions":3389,"lycan":3390,"Ġinsufficiencies":3391,"Ġapraxias":3392,"Ġminimal":3393,"Ġurogenital":3394,"Ġmembrane":3395,"Ġintermittent":3396,"Ġrheumatic":3397,"Ġavulsions":3398,"Ġheterotopia":3399,"Ġcreutz":3400,"Ġamelogenesis":3401,"Ġsecreting":3402,"Ġlysosomal":3403,"Ġarrhythmogenic":3404,"Ġchoreoathet":3405,"feldt":3406,"Ġduodenal":3407,"Ġmycobacterium":3408,"ermaphroditism":3409,"Ġentrapment":3410,"Ġcreutzfeldt":3411,"ah":3412,"aine":3413,"awareness":3414,"mer":3415,"ria":3416,"Ġser":3417,"inos":3418,"Ġcephal":3419,"aric":3420,"Ġpros":3421,"iction":3422,"omon":3423,"Ġhen":3424,"Ġhar":3425,"iap":3426,"Ġnas":3427,"Ġnarc":3428,"ites":3429,"Ġri":3430,"Ġgers":3431,"oli":3432,"oliosis":3433,"amps":3434,"Ġix":3435,"Ġiib":3436,"obulbar":3437,"Ġthy":3438,"enstr":3439,"Ġjaund":3440,"Ġcerebrovascular":3441,"Ġaber":3442,"Ġabor":3443,"Ġpolys":3444,"abilities":3445,"Ġpostaxial":3446,"Ġshig":3447,"Ġshoulder":3448,"ergic":3449,"Ġtransport":3450,"Ġtransections":3451,"Ġaggressive":3452,"Ġhypertrophy":3453,"Ġunawareness":3454,"Ġmacrocephaly":3455,"rition":3456,"ugh":3457,"Ġrefr":3458,"Ġrefsum":3459,"Ġthyroiditides":3460,"Ġente":3461,"Ġdermatosis":3462,"Ġconvulsion":3463,"Ġdyskinesias":3464,"Ġpathological":3465,"aldosteronism":3466,"Ġganglia":3467,"Ġconduction":3468,"ski":3469,"Ġhypertrich":3470,"Ġneurotoxicity":3471,"Ġhamart":3472,"Ġsebaceous":3473,"dh":3474,"ya":3475,"role":3476,"Ġcycl":3477,"Ġpet":3478,"Ġmod":3479,"oskeletal":3480,"Ġter":3481,"omening":3482,"itr":3483,"Ġinsi":3484,"Ġband":3485,"Ġbund":3486,"actile":3487,"iduria":3488,"Ġacyl":3489,"rophil":3490,"Ġmyok":3491,"ardi":3492,"Ġhyperuric":3493,"Ġspot":3494,"Ġneuroectodermal":3495,"adr":3496,"Ġparathyroid":3497,"Ġkle":3498,"Ġlymphatic":3499,"ogy":3500,"Ġsubst":3501,"Ġosteochond":3502,"erging":3503,"Ġfeet":3504,"Ġsclero":3505,"Ġunipar":3506,"Ġectrodactyly":3507,"Ġverteb":3508,"Ġcarnitine":3509,"Ġcomplication":3510,"Ġpsychomotor":3511,"Ġdementias":3512,"Ġhematomas":3513,"Ġpancreas":3514,"Ġprostate":3515,"Ġgalactose":3516,"Ġpolyneuropathies":3517,"Ġhemangiomas":3518,"ikil":3519,"Ġduane":3520,"Ġadenocarcinomas":3521,"Ġsyncopes":3522,"Ġagnosias":3523,"arsal":3524,"Ġhallucination":3525,"Ġhuntington":3526,"pidus":3527,"Ġillness":3528,"ocephaly":3529,"Ġdislocation":3530,"Ġoccipital":3531,"Ġurethral":3532,"Ġmicrognath":3533,"icuspid":3534,"Ġgerstmann":3535,"Ġinsipidus":3536,"Ġmyokym":3537,"Ġuniparental":3538,"aj":3539,"bom":3540,"eu":3541,"gu":3542,"Ġsomat":3543,"Ġpine":3544,"atment":3545,"Ġmps":3546,"osarcomas":3547,"Ġhid":3548,"phen":3549,"Ġnose":3550,"Ġfuc":3551,"Ġfall":3552,"ocl":3553,"igin":3554,"Ġacrom":3555,"tinuria":3556,"ading":3557,"Ġarr":3558,"iller":3559,"Ġsciatic":3560,"ohisti":3561,"ithiasis":3562,"Ġpostp":3563,"Ġmicrod":3564,"Ġarteritis":3565,"Ġmeningococcal":3566,"entil":3567,"Ġepidemic":3568,"Ġpigmentation":3569,"liomas":3570,"Ġintervertebral":3571,"Ġepidermolytic":3572,"Ġmesothel":3573,"uterine":3574,"Ġsteroid":3575,"Ġreactions":3576,"Ġuterus":3577,"Ġaspir":3578,"Ġbarr":3579,"omycoses":3580,"Ġictal":3581,"Ġavian":3582,"otype":3583,"Ġhypercalcemia":3584,"Ġtreatment":3585,"Ġventricle":3586,"Ġvariable":3587,"Ġaspergill":3588,"Ġretraction":3589,"Ġmucolipidosis":3590,"Ġekbom":3591,"Ġneurodegener":3592,"Ġjakob":3593,"Ġhypertrichosis":3594,"ear":3595,"fl":3596,"ful":3597,"hyp":3598,"oat":3599,"sc":3600,"Ġsn":3601,"enatal":3602,"ontine":3603,"Ġcel":3604,"isc":3605,"Ġtemporal":3606,"iteal":3607,"Ġfore":3608,"Ġfatt":3609,"openia":3610,"Ġblas":3611,"elf":3612,"aceae":3613,"Ġneoplasia":3614,"amidal":3615,"Ġhypokal":3616,"Ġacrocephal":3617,"cher":3618,"Ġreading":3619,"ostotic":3620,"oids":3621,"Ġjoseph":3622,"Ġtricuspid":3623,"rican":3624,"ohum":3625,"rops":3626,"Ġcoli":3627,"Ġpseudot":3628,"Ġendocard":3629,"yria":3630,"Ġpainful":3631,"oproteinemias":3632,"opliteal":3633,"Ġhairy":3634,"ocytopenia":3635,"Ġyo":3636,"bladder":3637,"Ġglycogenosis":3638,"Ġurol":3639,"Ġvertigos":3640,"ushing":3641,"Ġastrocytomas":3642,"blastoma":3643,"Ġmovements":3644,"Ġgallbladder":3645,"Ġspondyloepiphyseal":3646,"Ġextremity":3647,"Ġfatigue":3648,"Ġparagang":3649,"Ġfibrillation":3650,"Ġxeroderma":3651,"Ġchoreoathetosis":3652,"Ġarrest":3653,"Ġfatty":3654,"agen":3655,"aud":3656,"da":3657,"nold":3658,"sp":3659,"ty":3660,"yx":3661,"Ġom":3662,"Ġsenile":3663,"enn":3664,"inc":3665,"Ġpopliteal":3666,"orad":3667,"ornea":3668,"Ġtension":3669,"Ġtemp":3670,"Ġtactile":3671,"ometaphyseal":3672,"Ġnemal":3673,"ulsive":3674,"Ġinapp":3675,"Ġbir":3676,"Ġbulbar":3677,"Ġrect":3678,"ocortical":3679,"Ġdecreased":3680,"ecific":3681,"Ġneoplastic":3682,"Ġchr":3683,"Ġchondrom":3684,"Ġinfer":3685,"Ġinfancy":3686,"oto":3687,"tex":3688,"Ġleigh":3689,"adel":3690,"Ġarnold":3691,"Ġlymphoid":3692,"Ġasc":3693,"ovag":3694,"Ġpall":3695,"Ġdiamond":3696,"Ġmeningitides":3697,"Ġcluster":3698,"Ġresor":3699,"Ġinternal":3700,"Ġintrav":3701,"Ġgranulomatosis":3702,"Ġprolong":3703,"Ġfailures":3704,"Ġdelta":3705,"Ġglaucomas":3706,"Ġnevi":3707,"Ġpyogenic":3708,"Ġneutrophil":3709,"Ġherpetic":3710,"Ġlamellar":3711,"Ġslow":3712,"Ġactinic":3713,"Ġpunctata":3714,"Ġtwin":3715,"Ġadhes":3716,"Ġdiarrhea":3717,"Ġcholedochal":3718,"Ġsheath":3719,"Ġneuromuscular":3720,"Ġparaparesis":3721,"Ġaffective":3722,"oclastic":3723,"Ġbundle":3724,"ohumeral":3725,"Ġnemaline":3726,"ej":3727,"fol":3728,"gnes":3729,"ha":3730,"kn":3731,"alp":3732,"alan":3733,"Ġsurg":3734,"inn":3735,"Ġcur":3736,"Ġcitr":3737,"Ġmus":3738,"Ġmole":3739,"Ġtrop":3740,"Ġbab":3741,"acet":3742,"Ġgor":3743,"Ġgef":3744,"Ġev":3745,"Ġhypoma":3746,"Ġanox":3747,"Ġcong":3748,"Ġhyperl":3749,"Ġhyperplasias":3750,"Ġspe":3751,"Ġsperm":3752,"Ġwater":3753,"achment":3754,"Ġpharyngeal":3755,"Ġamin":3756,"Ġsca":3757,"ohyp":3758,"ropri":3759,"Ġsubcl":3760,"Ġosteonec":3761,"Ġadenomatous":3762,"eger":3763,"Ġagammaglobulinemia":3764,"Ġhydrops":3765,"Ġporo":3766,"Ġverr":3767,"Ġpigmentosum":3768,"lexia":3769,"Ġretinopathy":3770,"Ġpsychoses":3771,"Ġcervix":3772,"Ġvener":3773,"lycer":3774,"Ġbronchial":3775,"Ġbronchiol":3776,"ercise":3777,"Ġphenyl":3778,"Ġgravis":3779,"Ġlesion":3780,"Ġmembranous":3781,"Ġmrxs":3782,"Ġpyruvate":3783,"Ġperiodontal":3784,"enchymal":3785,"Ġchoroidal":3786,"valvular":3787,"Ġplagi":3788,"Ġtrache":3789,"Ġosteoporosis":3790,"Ġvitreore":3791,"Ġstroke":3792,"Ġintolerance":3793,"Ġargininos":3794,"Ġdensity":3795,"Ġhyperbilirubinemia":3796,"Ġafrican":3797,"Ġhypoglycemia":3798,"Ġphenomenon":3799,"Ġholoprosencephaly":3800,"Ġscler":3801,"Ġjaundice":3802,"Ġblast":3803,"Ġinappropri":3804,"ejun":3805,"Ġhypomagnes":3806,"Ġinappropriate":3807,"ou":3808,"tra":3809,"uage":3810,"zb":3811,"Ġarc":3812,"Ġdo":3813,"Ġsitus":3814,"enh":3815,"ara":3816,"arning":3817,"Ġps":3818,"atum":3819,"atoid":3820,"Ġmu":3821,"Ġtak":3822,"Ġnan":3823,"Ġfuch":3824,"Ġlyme":3825,"active":3826,"ocon":3827,"Ġgerm":3828,"ams":3829,"elliform":3830,"uctal":3831,"Ġacth":3832,"eptic":3833,"ages":3834,"Ġlearning":3835,"tinopathy":3836,"Ġhyperkeratosis":3837,"Ġhyperchol":3838,"Ġhyperactivity":3839,"Ġwell":3840,"ada":3841,"Ġstoma":3842,"essel":3843,"ipoproteinemia":3844,"Ġkn":3845,"ismus":3846,"Ġjohn":3847,"Ġabduc":3848,"rocytic":3849,"own":3850,"Ġcolitis":3851,"iore":3852,"Ġthrombophilia":3853,"rogenesis":3854,"Ġintrauterine":3855,"Ġepidermal":3856,"Ġhypersomn":3857,"Ġmarrow":3858,"Ġobstructions":3859,"Ġenamel":3860,"Ġchoriore":3861,"Ġpeliz":3862,"Ġcarbohyd":3863,"Ġosseous":3864,"Ġbleeding":3865,"Ġparasit":3866,"Ġlanguage":3867,"Ġosteopet":3868,"Ġlambert":3869,"Ġocclusive":3870,"Ġruptures":3871,"Ġcontracture":3872,"Ġpleural":3873,"Ġorofaci":3874,"Ġatheros":3875,"Ġamnestic":3876,"Ġparanoid":3877,"Ġschwann":3878,"igmoid":3879,"Ġoligodend":3880,"Ġlingual":3881,"Ġsubstance":3882,"Ġspeech":3883,"Ġverruc":3884,"Ġargininosuccin":3885,"Ġcarbohydrate":3886,"Ġorofaciodigital":3887,"Ġatheroscle":3888,"eti":3889,"eil":3890,"nitus":3891,"pyr":3892,"ves":3893,"vens":3894,"yer":3895,"Ġdand":3896,"inopathy":3897,"Ġcost":3898,"Ġpan":3899,"ani":3900,"Ġmcop":3901,"orax":3902,"Ġtay":3903,"Ġnoon":3904,"Ġbro":3905,"Ġbroc":3906,"Ġlact":3907,"elor":3908,"Ġdeple":3909,"Ġdejer":3910,"oll":3911,"Ġneovascular":3912,"Ġvol":3913,"Ġvessel":3914,"Ġconn":3915,"Ġmyositis":3916,"erebral":3917,"Ġarm":3918,"Ġglioma":3919,"ogranul":3920,"retion":3921,"oviridae":3922,"ionic":3923,"kinase":3924,"Ġoccul":3925,"Ġshell":3926,"Ġosteolysis":3927,"Ġimmunoblastic":3928,"ocalc":3929,"Ġmedian":3930,"aeus":3931,"Ġpsychosis":3932,"romatoses":3933,"Ġtuberculous":3934,"Ġvalg":3935,"Ġhypotonia":3936,"Ġface":3937,"Ġgalactosidase":3938,"Ġstevens":3939,"Ġvaric":3940,"glut":3941,"rocytosis":3942,"Ġincon":3943,"Ġeosinophilia":3944,"Ġthrombocytopenic":3945,"ĠÃ©":3946,"enberg":3947,"Ġcamp":3948,"ygium":3949,"Ġachond":3950,"Ġattention":3951,"Ġplasm":3952,"Ġocclusion":3953,"Ġthumbs":3954,"Ġeffect":3955,"ficial":3956,"odysplastic":3957,"Ġcalculi":3958,"Ġperitoneal":3959,"Ġeruption":3960,"Ġmerzb":3961,"Ġpassive":3962,"Ġpterygium":3963,"Ġtinnitus":3964,"luenz":3965,"Ġsegmental":3966,"Ġjunctional":3967,"Ġinversus":3968,"Ġorthostatic":3969,"Ġfourth":3970,"Ġretinoschisis":3971,"Ġceliac":3972,"Ġyoung":3973,"Ġgorlin":3974,"Ġvenereal":3975,"Ġhypercholeste":3976,"Ġjohnson":3977,"Ġpelizaeus":3978,"Ġosteopetrosis":3979,"Ġnoonan":3980,"Ġdepletion":3981,"Ġdejerine":3982,"Ġmerzbacher":3983,"aum":3984,"get":3985,"iuria":3986,"va":3987,"Ġon":3988,"Ġeth":3989,"Ġsa":3990,"Ġsing":3991,"Ġsag":3992,"Ġsymph":3993,"Ġctr":3994,"Ġcbl":3995,"Ġmass":3996,"Ġhys":3997,"Ġhel":3998,"Ġnuclear":3999,"Ġfir":4000,"Ġfre":4001,"elia":4002,"Ġren":4003,"tick":4004,"Ġgyn":4005,"Ġ19":4006,"Ġdysarth":4007,"odontia":4008,"imosis":4009,"Ġanus":4010,"Ġconstr":4011,"ingement":4012,"ucle":4013,"Ġspect":4014,"Ġatopic":4015,"Ġneuroax":4016,"Ġile":4017,"ibosyl":4018,"Ġlymphangi":4019,"Ġlymphocyte":4020,"oglobulin":4021,"Ġprop":4022,"Ġtrue":4023,"Ġheat":4024,"absor":4025,"Ġscid":4026,"Ġcortex":4027,"Ġencephalomyel":4028,"Ġlipid":4029,"Ġsubm":4030,"akia":4031,"Ġendemic":4032,"Ġcatat":4033,"Ġurine":4034,"aviridae":4035,"Ġplus":4036,"Ġerythema":4037,"raden":4038,"Ġsuppurative":4039,"Ġdifferentiated":4040,"Ġeyel":4041,"ematous":4042,"Ġroot":4043,"Ġimpingement":4044,"Ġovine":4045,"Ġvision":4046,"omelia":4047,"Ġreduc":4048,"Ġconvulsive":4049,"osylc":4050,"Ġincomp":4051,"Ġveget":4052,"Ġblocks":4053,"Ġprolapses":4054,"Ġdiverticula":4055,"Ġperiodontitis":4056,"Ġbiogenesis":4057,"Ġblackfan":4058,"Ġepithelioid":4059,"Ġadrenocortical":4060,"Ġperoxisome":4061,"Ġspongiform":4062,"Ġelevated":4063,"Ġerrors":4064,"Ġphosphoribosyl":4065,"oneuropathy":4066,"Ġdipl":4067,"Ġamnesia":4068,"Ġtaste":4069,"Ġmercury":4070,"Ġbisphosphonate":4071,"Ġpachyonychia":4072,"Ġterror":4073,"Ġcitrull":4074,"Ġhypomagnesemia":4075,"Ġoligodendrog":4076,"Ġdandy":4077,"elorism":4078,"Ġhypercholesterole":4079,"Ġneuroaxonal":4080,"Ġvegetative":4081,"lo":4082,"oin":4083,"py":4084,"pal":4085,"stein":4086,"Ġof":4087,"Ġdh":4088,"ank":4089,"atosis":4090,"orch":4091,"Ġtyph":4092,"omple":4093,"Ġho":4094,"Ġhamm":4095,"Ġhorn":4096,"phalangeal":4097,"yndactyly":4098,"Ġnig":4099,"Ġnmd":4100,"Ġfem":4101,"Ġfil":4102,"Ġfusion":4103,"Ġdisomy":4104,"ope":4105,"Ġbal":4106,"ocial":4107,"olitis":4108,"ett":4109,"Ġeating":4110,"Ġhyposp":4111,"Ġhypocalc":4112,"Ġlevel":4113,"Ġsple":4114,"rosy":4115,"Ġwall":4116,"obstruc":4117,"Ġepend":4118,"ubular":4119,"Ġarachnoid":4120,"Ġhemoch":4121,"Ġprodrom":4122,"Ġleukocyte":4123,"Ġamo":4124,"Ġexercise":4125,"aff":4126,"Ġmicro":4127,"Ġthrombotic":4128,"Ġtransform":4129,"Ġapical":4130,"Ġcry":4131,"Ġcramp":4132,"Ġcartil":4133,"igmentation":4134,"Ġangioma":4135,"Ġangiitis":4136,"Ġgranulomas":4137,"Ġmucosal":4138,"Ġsupratentorial":4139,"rograde":4140,"Ġenter":4141,"Ġlosses":4142,"Ġsepsis":4143,"lective":4144,"Ġdermatoses":4145,"Ġpregnancies":4146,"Ġglucosidase":4147,"Ġbronchopulmonary":4148,"Ġvasculitides":4149,"Ġregurg":4150,"Ġankle":4151,"Ġtachycardias":4152,"Ġeleph":4153,"Ġeds":4154,"Ġoutlet":4155,"Ġfunctional":4156,"Ġappend":4157,"Ġhsan":4158,"Ġblepharoph":4159,"Ġiris":4160,"Ġthymic":4161,"Ġviii":4162,"Ġosteoarthritis":4163,"Ġchange":4164,"Ġleprosy":4165,"Ġaddiction":4166,"Ġureteral":4167,"Ġgamma":4168,"Ġsyphilis":4169,"omalacia":4170,"Ġcandidiasis":4171,"Ġarsenic":4172,"Ġossific":4173,"Ġactivator":4174,"Ġinstability":4175,"Ġacrocephalosyn":4176,"Ġoccult":4177,"Ġctrct":4178,"Ġspectrum":4179,"Ġincompet":4180,"Ġependym":4181,"dp":4182,"ni":4183,"ues":4184,"Ġsan":4185,"Ġsand":4186,"Ġsomatic":4187,"Ġpra":4188,"Ġpann":4189,"osidosis":4190,"Ġah":4191,"its":4192,"Ġrectal":4193,"ocortic":4194,"olase":4195,"thes":4196,"thesis":4197,"Ġebs":4198,"Ġeaton":4199,"Ġdysaut":4200,"odyn":4201,"Ġanos":4202,"Ġacin":4203,"Ġacne":4204,"teroid":4205,"Ġmyopathic":4206,"Ġneuropath":4207,"Ġstem":4208,"Ġstones":4209,"Ġaltern":4210,"Ġkinase":4211,"Ġklipp":4212,"Ġtherapy":4213,"Ġxl":4214,"Ġlymphohisti":4215,"ifacial":4216,"izomelic":4217,"Ġpolar":4218,"othi":4219,"Ġprimitive":4220,"omatoid":4221,"Ġgene":4222,"Ġgenit":4223,"Ġmyelin":4224,"Ġmyelopathy":4225,"aved":4226,"Ġorigin":4227,"Ġpoor":4228,"Ġmacrog":4229,"Ġnephrotic":4230,"acteristic":4231,"Ġcardiomyopathies":4232,"Ġcompulsive":4233,"Ġpsychogenic":4234,"Ġneurological":4235,"Ġcervic":4236,"Ġdependence":4237,"Ġoxid":4238,"Ġmorqu":4239,"Ġpathologic":4240,"Ġwilms":4241,"Ġphenotype":4242,"Ġquadr":4243,"Ġlobar":4244,"Ġclassical":4245,"Ġpupils":4246,"Ġdesm":4247,"Ġibd":4248,"Ġcollagen":4249,"Ġremodelings":4250,"Ġchanges":4251,"Ġcharacteristic":4252,"Ġrigidity":4253,"Ġlaxa":4254,"Ġhexosaminidase":4255,"Ġemphysema":4256,"Ġpectus":4257,"Ġtendon":4258,"Ġnewborn":4259,"unnel":4260,"Ġsolitary":4261,"Ġshigella":4262,"Ġmyokymia":4263,"Ġtropical":4264,"Ġosteonecrosis":4265,"Ġporokeratosis":4266,"Ġfuchs":4267,"Ġelephanti":4268,"Ġblepharophimosis":4269,"Ġklippel":4270,"fish":4271,"hr":4272,"hans":4273,"iotic":4274,"uous":4275,"wa":4276,"Ġud":4277,"Ġunc":4278,"inth":4279,"essions":4280,"Ġpot":4281,"ica":4282,"ats":4283,"Ġmd":4284,"Ġmach":4285,"ora":4286,"Ġtons":4287,"Ġhl":4288,"Ġhash":4289,"Ġns":4290,"edemas":4291,"Ġfran":4292,"Ġborder":4293,"Ġlg":4294,"Ġly":4295,"idemia":4296,"ecal":4297,"ecretion":4298,"Ġgold":4299,"Ġeb":4300,"Ġdysplastic":4301,"igo":4302,"rand":4303,"chond":4304,"tinence":4305,"Ġhyperm":4306,"Ġwald":4307,"ado":4308,"adias":4309,"Ġepimer":4310,"Ġkall":4311,"Ġ31":4312,"Ġhemic":4313,"Ġhemophilia":4314,"Ġperc":4315,"Ġperiap":4316,"encephalic":4317,"aps":4318,"Ġpoli":4319,"Ġscoliosis":4320,"Ġexfol":4321,"Ġlipidosis":4322,"Ġsystolic":4323,"Ġtransverse":4324,"Ġpseudop":4325,"Ġhepatitides":4326,"akary":4327,"Ġagraph":4328,"Ġurid":4329,"Ġtour":4330,"Ġinsomnia":4331,"Ġtube":4332,"Ġscleroses":4333,"Ġdihyd":4334,"rotia":4335,"Ġarthritides":4336,"aminase":4337,"Ġgangren":4338,"Ġbrachy":4339,"olep":4340,"Ġpsychotic":4341,"Ġvesic":4342,"iculo":4343,"Ġovary":4344,"Ġrespiration":4345,"gluc":4346,"Ġmaple":4347,"Ġachal":4348,"Ġketoac":4349,"Ġneuronopathy":4350,"Ġrheumatoid":4351,"Ġdysphasia":4352,"accid":4353,"Ġgloboid":4354,"Ġsuperficial":4355,"Ġsecretion":4356,"Ġpseudohypo":4357,"enthal":4358,"Ġdigestive":4359,"Ġhypoxia":4360,"Ġfinger":4361,"Ġhypophosphatemic":4362,"Ġsyrup":4363,"Ġdysprax":4364,"ophyseal":4365,"ioneuro":4366,"Ġshellfish":4367,"osylceram":4368,"Ġprodromal":4369,"Ġpannicul":4370,"Ġneuropathic":4371,"Ġepimerase":4372,"Ġperiapical":4373,"fd":4374,"fs":4375,"gel":4376,"itions":4377,"ky":4378,"oro":4379,"pp":4380,"Ġti":4381,"Ġdim":4382,"Ġstil":4383,"Ġsigmoid":4384,"Ġcs":4385,"asting":4386,"Ġpil":4387,"Ġmandib":4388,"Ġmeck":4389,"Ġmiller":4390,"leolar":4391,"Ġnic":4392,"usual":4393,"Ġfet":4394,"Ġfif":4395,"Ġfinn":4396,"opa":4397,"Ġbac":4398,"ocyst":4399,"ocranial":4400,"Ġgro":4401,"imoto":4402,"irium":4403,"Ġleyd":4404,"Ġwr":4405,"rong":4406,"Ġarv":4407,"Ġhemis":4408,"ymphocytic":4409,"ogl":4410,"ostomy":4411,"Ġsea":4412,"Ġpolyd":4413,"othorax":4414,"ofol":4415,"Ġsubepend":4416,"Ġmyelitis":4417,"Ġhypertelorism":4418,"Ġurtic":4419,"prt":4420,"Ġunusual":4421,"Ġectopia":4422,"Ġcarin":4423,"Ġcaus":4424,"ophilus":4425,"Ġrhizomelic":4426,"Ġflaccid":4427,"radi":4428,"Ġinflammations":4429,"Ġrespons":4430,"ophthalmos":4431,"imalleolar":4432,"Ġprolactin":4433,"Ġdelirium":4434,"Ġhematologic":4435,"Ġfacio":4436,"Ġmigration":4437,"Ġgalactos":4438,"Ġimpaired":4439,"Ġlacer":4440,"olyses":4441,"ĠÃ¶":4442,"ordial":4443,"Ġcanal":4444,"Ġschizophren":4445,"ourinary":4446,"Ġreticuloendothel":4447,"inflamm":4448,"Ġodontogenic":4449,"Ġhomocys":4450,"Ġprecoc":4451,"Ġbifid":4452,"Ġdisturbance":4453,"Ġmannosidase":4454,"iting":4455,"Ġdystrophica":4456,"Ġsidero":4457,"osensitive":4458,"Ġfibromyal":4459,"Ġrhabdomy":4460,"opsia":4461,"Ġpneumonitis":4462,"Ġlangerhans":4463,"Ġhemoglobin":4464,"Ġsjog":4465,"lycanopathy":4466,"Ġscleroderma":4467,"Ġpseudotumor":4468,"Ġprolonged":4469,"Ġanoxia":4470,"Ġabducens":4471,"Ġhyster":4472,"absorption":4473,"Ġgenitourinary":4474,"Ġmorquio":4475,"Ġmeckel":4476,"Ġfinnish":4477,"fm":4478,"kers":4479,"less":4480,"larg":4481,"okinase":4482,"rach":4483,"ss":4484,"alcul":4485,"Ġsof":4486,"Ġsay":4487,"Ġstick":4488,"onent":4489,"Ġcro":4490,"Ġcaf":4491,"anese":4492,"oster":4493,"osine":4494,"ositides":4495,"Ġts":4496,"Ġhu":4497,"usch":4498,"Ġful":4499,"Ġflex":4500,"Ġdispl":4501,"Ġbones":4502,"Ġlarynx":4503,"Ġra":4504,"ocellular":4505,"Ġdeg":4506,"Ġdevic":4507,"idism":4508,"ecker":4509,"Ġgyr":4510,"olus":4511,"olaryng":4512,"olence":4513,"ences":4514,"utch":4515,"Ġej":4516,"Ġdefective":4517,"ellow":4518,"Ġantic":4519,"ranuclear":4520,"Ġmyofib":4521,"osomiasis":4522,"Ġsporad":4523,"Ġpareses":4524,"Ġkap":4525,"uble":4526,"Ġadoles":4527,"Ġxq":4528,"Ġperin":4529,"Ġselective":4530,"Ġmalaria":4531,"Ġphil":4532,"Ġimm":4533,"Ġamebic":4534,"Ġexostoses":4535,"Ġcornea":4536,"rocystic":4537,"Ġprimordial":4538,"Ġmetat":4539,"artz":4540,"Ġbrun":4541,"Ġiddm":4542,"Ġpseudobulbar":4543,"Ġdermal":4544,"Ġund":4545,"Ġpoikil":4546,"Ġmacro":4547,"Ġnephrogenic":4548,"Ġangiomatosis":4549,"Ġemerging":4550,"iaceae":4551,"istian":4552,"inding":4553,"Ġcomponent":4554,"Ġmesomelic":4555,"Ġvesicular":4556,"Ġmarfan":4557,"Ġfove":4558,"Ġsymmetric":4559,"Ġhistiocytoses":4560,"Ġvitelliform":4561,"Ġulcerative":4562,"Ġmigr":4563,"Ġenlarg":4564,"Ġallergy":4565,"Ġpolyend":4566,"ishman":4567,"Ġyellow":4568,"Ġstrept":4569,"Ġaspart":4570,"Ġincomple":4571,"ierre":4572,"Ġpseudohermaphroditism":4573,"Ġsphing":4574,"Ġwake":4575,"Ġasthmatic":4576,"Ġneuronopathic":4577,"Ġhypergonad":4578,"Ġhyalohyph":4579,"ausen":4580,"Ġblepharosp":4581,"Ġthymus":4582,"Ġlabor":4583,"Ġcalculus":4584,"lebitis":4585,"apulohumeral":4586,"Ġgoiter":4587,"Ġcirculation":4588,"Ġtriphalangeal":4589,"Ġplacental":4590,"Ġfaciosc":4591,"Ġanhidrotic":4592,"Ġbartter":4593,"Ġrefractory":4594,"Ġhyperuricemia":4595,"Ġchristian":4596,"Ġsurgical":4597,"Ġgynec":4598,"Ġhypospadias":4599,"Ġincompetence":4600,"Ġlgmd":4601,"Ġsideroblastic":4602,"Ġsjogren":4603,"Ġdisplac":4604,"Ġsporadic":4605,"Ġincomplete":4606,"bismus":4607,"iet":4608,"mm":4609,"neas":4610,"nith":4611,"ool":4612,"oesophageal":4613,"uz":4614,"vi":4615,"xia":4616,"roton":4617,"Ġductal":4618,"Ġsi":4619,"Ġsur":4620,"Ġcav":4621,"anal":4622,"attic":4623,"Ġtunnel":4624,"iam":4625,"Ġnor":4626,"itar":4627,"edull":4628,"Ġbell":4629,"Ġlight":4630,"Ġlattic":4631,"Ġdet":4632,"Ġgas":4633,"Ġgust":4634,"utrition":4635,"ode":4636,"Ġante":4637,"Ġacrof":4638,"Ġmyh":4639,"Ġleishman":4640,"Ġspi":4641,"Ġneuroses":4642,"Ġpred":4643,"Ġkra":4644,"Ġkne":4645,"Ġkors":4646,"Ġhemifacial":4647,"oidal":4648,"Ġdystrog":4649,"Ġcortic":4650,"orrhag":4651,"Ġsubvalvular":4652,"artum":4653,"Ġqter":4654,"ocytomas":4655,"Ġcoal":4656,"Ġthromboph":4657,"akoff":4658,"odermia":4659,"Ġcleid":4660,"radural":4661,"etalipoproteinemia":4662,"Ġlimbs":4663,"crine":4664,"Ġmarch":4665,"Ġlungs":4666,"Ġdepos":4667,"ospasm":4668,"Ġallergies":4669,"Ġeccrine":4670,"Ġchoreas":4671,"Ġpelger":4672,"Ġextradural":4673,"Ġatresias":4674,"Ġpseudoobstruc":4675,"Ġpersonalities":4676,"Ġincis":4677,"Ġpreaxial":4678,"Ġpatella":4679,"Ġhypogonadotropic":4680,"esthesias":4681,"Ġbreath":4682,"Ġcanine":4683,"Ġhyperparathyroidism":4684,"Ġglutaric":4685,"Ġburk":4686,"Ġporc":4687,"Ġauricular":4688,"Ġconjunctivitis":4689,"Ġaldolase":4690,"Ġperoxisomal":4691,"position":4692,"Ġmicrocornea":4693,"Ġstiff":4694,"Ġdysentery":4695,"Ġstrabismus":4696,"Ġmanifestations":4697,"Ġhurler":4698,"Ġhenoch":4699,"Ġfucosidase":4700,"Ġpostpartum":4701,"Ġbirth":4702,"Ġcongestive":4703,"Ġdouble":4704,"Ġmachado":4705,"Ġborderline":4706,"Ġachalasia":4707,"Ġsoft":4708,"Ġblepharospasm":4709,"Ġfacioscapulohumeral":4710,"edullary":4711,"Ġlattice":4712,"Ġkorsakoff":4713,"bd":4714,"do":4715,"ding":4716,"eletion":4717,"gd":4718,"gs":4719,"hi":4720,"ield":4721,"Ġirid":4722,"rogressive":4723,"Ġsr":4724,"ena":4725,"aris":4726,"ester":4727,"Ġpk":4728,"Ġpyl":4729,"Ġpust":4730,"Ġmis":4731,"Ġmood":4732,"ostr":4733,"Ġhmn":4734,"phia":4735,"Ġnag":4736,"ulitis":4737,"itant":4738,"Ġdisability":4739,"Ġingu":4740,"Ġbusch":4741,"Ġla":4742,"acu":4743,"urity":4744,"idual":4745,"Ġelect":4746,"Ġhypov":4747,"Ġhypomyel":4748,"sias":4749,"elling":4750,"Ġanirid":4751,"Ġanesthesia":4752,"Ġ27":4753,"Ġinfest":4754,"Ġinfratentorial":4755,"uck":4756,"Ġacyltransferase":4757,"rophia":4758,"Ġwart":4759,"Ġwasting":4760,"Ġstage":4761,"Ġstone":4762,"cles":4763,"ipolar":4764,"Ġals":4765,"Ġarticular":4766,"Ġadip":4767,"atism":4768,"ocyth":4769,"orylase":4770,"Ġserous":4771,"Ġmalabsorption":4772,"Ġ42":4773,"Ġretrop":4774,"Ġscapul":4775,"Ġscalp":4776,"Ġmicrotia":4777,"Ġlipoid":4778,"Ġlipomatosis":4779,"Ġislet":4780,"otorhin":4781,"Ġimmunoglobulin":4782,"avian":4783,"Ġtubul":4784,"Ġresidual":4785,"iffer":4786,"Ġintracerebral":4787,"ptomatic":4788,"Ġarthropathy":4789,"Ġhypersecretion":4790,"Ġvalvular":4791,"Ġveno":4792,"okes":4793,"Ġenzo":4794,"insic":4795,"Ġige":4796,"Ġfetalis":4797,"Ġcalcinosis":4798,"Ġdepress":4799,"Ġswe":4800,"uchi":4801,"Ġglomerular":4802,"Ġgastroenter":4803,"Ġpurpuras":4804,"Ġgraft":4805,"Ġminor":4806,"Ġprotozo":4807,"Ġnails":4808,"ompaction":4809,"Ġporencephaly":4810,"Ġrhinorrhea":4811,"Ġconductive":4812,"Ġhypoparathyroidism":4813,"Ġindepend":4814,"Ġnonprogressive":4815,"Ġepilepticus":4816,"Ġrosenthal":4817,"Ġembryonal":4818,"Ġeczema":4819,"Ġatelectasis":4820,"Ġatelectases":4821,"Ġperforation":4822,"uberty":4823,"Ġnoncompaction":4824,"Ġhyperthermia":4825,"Ġprosthesis":4826,"Ġendocarditis":4827,"adelphia":4828,"Ġresorption":4829,"Ġgefs":4830,"Ġsubclavian":4831,"Ġhemochromatosis":4832,"Ġregurgitation":4833,"Ġossification":4834,"Ġkallmann":4835,"Ġpseudohypoaldosteronism":4836,"Ġfifth":4837,"Ġleydig":4838,"Ġadolescent":4839,"Ġphiladelphia":4840,"Ġpoikiloderma":4841,"Ġinguinal":4842,"Ġaniridia":4843,"Ġenzootic":4844,"Ġindependent":4845,"ck":4846,"hal":4847,"hol":4848,"iatal":4849,"loid":4850,"mr":4851,"nik":4852,"oromandibular":4853,"Ġell":4854,"Ġsach":4855,"Ġsix":4856,"inelli":4857,"Ġcp":4858,"astic":4859,"arin":4860,"arse":4861,"Ġpud":4862,"Ġpontocerebellar":4863,"Ġta":4864,"Ġtap":4865,"omorphic":4866,"Ġhdl":4867,"lein":4868,"Ġaw":4869,"Ġaz":4870,"ula":4871,"ittal":4872,"emoglob":4873,"Ġfer":4874,"opap":4875,"Ġincreased":4876,"Ġbod":4877,"Ġbird":4878,"Ġbite":4879,"Ġbulb":4880,"Ġlens":4881,"Ġlute":4882,"Ġgil":4883,"etz":4884,"Ġvo":4885,"Ġvog":4886,"Ġvacu":4887,"igu":4888,"Ġander":4889,"Ġ26":4890,"Ġ28":4891,"eps":4892,"ardinelli":4893,"Ġhyperphosph":4894,"Ġih":4895,"Ġwest":4896,"Ġstable":4897,"Ġepi":4898,"Ġtherm":4899,"omastia":4900,"Ġjejun":4901,"Ġleukodystrophies":4902,"Ġseip":4903,"izing":4904,"Ġpolyn":4905,"Ġpharyng":4906,"ogenital":4907,"Ġmuscul":4908,"Ġmicros":4909,"Ġfibrosing":4910,"Ġshar":4911,"Ġshap":4912,"Ġadenomatosis":4913,"Ġmyeloproliferative":4914,"Ġmyelomon":4915,"ullous":4916,"Ġassociation":4917,"Ġoromandibular":4918,"avan":4919,"Ġmonocl":4920,"Ġposition":4921,"Ġpneumococcal":4922,"Ġnode":4923,"Ġneurile":4924,"Ġmethylc":4925,"umbil":4926,"Ġmycoplasm":4927,"Ġpathway":4928,"iplegia":4929,"Ġwilson":4930,"Ġpattern":4931,"Ġsphe":4932,"Ġlange":4933,"Ġimpairments":4934,"Ġtibia":4935,"Ġeffusion":4936,"Ġganglion":4937,"Ġmyxoid":4938,"enzyme":4939,"Ġsuperior":4940,"Ġaura":4941,"Ġdeficits":4942,"Ġconjunctivitides":4943,"Ġtracheal":4944,"Ġdislocations":4945,"Ġmegakary":4946,"Ġcommunication":4947,"Ġcommunicable":4948,"Ġscotoma":4949,"Ġscotomas":4950,"Ġhydatidiform":4951,"thrombin":4952,"Ġschwartz":4953,"Ġtetras":4954,"Ġkeratitis":4955,"Ġvulvar":4956,"Ġberardinelli":4957,"Ġmulticentric":4958,"Ġmulticystic":4959,"Ġambly":4960,"Ġmeningoencephalitis":4961,"Ġattacks":4962,"Ġfasciculation":4963,"Ġlentiginosis":4964,"keton":4965,"hibition":4966,"Ġplaques":4967,"Ġmediastinal":4968,"Ġserum":4969,"Ġpineal":4970,"phenyl":4971,"Ġtemporomandibular":4972,"Ġspermat":4973,"Ġphenylketon":4974,"Ġachondrogenesis":4975,"Ġeffects":4976,"Ġsingle":4977,"orchidism":4978,"operoneal":4979,"Ġmicroangi":4980,"Ġdysauton":4981,"Ġlyase":4982,"Ġpoliomyelitis":4983,"Ġsubependymal":4984,"Ġhomocystinuria":4985,"Ġprecocious":4986,"Ġdetachment":4987,"Ġcleidocranial":4988,"Ġbuschke":4989,"Ġdepressed":4990,"Ġsixth":4991,"Ġhyperphosphat":4992,"Ġmyelomonocytic":4993,"Ġmonoclonal":4994,"aert":4995,"equ":4996,"np":4997,"put":4998,"rimal":4999,"ser":5000,"syn":5001,"sessive":5002,"trom":5003,"uy":5004,"uis":5005,"Ġili":5006,"ere":5007,"erfusion":5008,"Ġdari":5009,"Ġduch":5010,"Ġster":5011,"Ġsert":5012,"Ġsite":5013,"enne":5014,"Ġcoc":5015,"Ġprom":5016,"Ġpontine":5017,"atric":5018,"Ġmyp":5019,"Ġmutism":5020,"Ġmenstr":5021,"Ġfh":5022,"Ġfilar":5023,"Ġbied":5024,"Ġbern":5025,"Ġlister":5026,"occl":5027,"ola":5028,"Ġneed":5029,"ents":5030,"Ġvin":5031,"Ġhypoh":5032,"Ġhypodontia":5033,"Ġdysc":5034,"Ġchest":5035,"Ġconfusion":5036,"rant":5037,"ouse":5038,"udative":5039,"Ġhyperal":5040,"Ġhyperam":5041,"Ġhyperphenyl":5042,"Ġspine":5043,"Ġspecific":5044,"Ġneuroepithelial":5045,"Ġwied":5046,"Ġword":5047,"Ġarticul":5048,"Ġglom":5049,"Ġprof":5050,"Ġproduc":5051,"upational":5052,"enstrom":5053,"Ġperior":5054,"Ġtriple":5055,"reg":5056,"Ġretrograde":5057,"Ġscar":5058,"Ġexudative":5059,"Ġnonket":5060,"Ġbrux":5061,"Ġosteodysplastic":5062,"Ġcoenzyme":5063,"Ġtransferase":5064,"Ġschon":5065,"rodyst":5066,"Ġoroph":5067,"Ġplan":5068,"Ġcardio":5069,"Ġnephron":5070,"Ġdigenic":5071,"Ġobsessive":5072,"Ġhypogammaglobulinemia":5073,"oretinal":5074,"Ġhematological":5075,"okerat":5076,"ocrinopathy":5077,"Ġhands":5078,"Ġspondylometaphyseal":5079,"Ġechin":5080,"Ġsteat":5081,"Ġpalmoplantaris":5082,"Ġpancreatitis":5083,"Ġotorrhea":5084,"olipid":5085,"otropin":5086,"Ġbranchial":5087,"Ġbranchio":5088,"Ġdeaths":5089,"Ġamyotrophy":5090,"Ġgluten":5091,"Ġtestis":5092,"Ġendometri":5093,"Ġpolymic":5094,"Ġpolymorphic":5095,"Ġhypercalciuria":5096,"Ġoccupational":5097,"Ġesophagus":5098,"Ġwolff":5099,"Ġbifida":5100,"Ġfingers":5101,"Ġdisturbances":5102,"Ġfusari":5103,"Ġaccid":5104,"Ġstrauss":5105,"Ġplacent":5106,"Ġhyperglycinemia":5107,"Ġsigns":5108,"Ġsacral":5109,"Ġdissociative":5110,"Ġclosed":5111,"Ġmicrognathia":5112,"Ġforeign":5113,"Ġadhesion":5114,"Ġmuscles":5115,"Ġincontinence":5116,"Ġconstric":5117,"Ġencephalomyelitides":5118,"Ġoligodendroglioma":5119,"Ġspleen":5120,"Ġanosmia":5121,"Ġwaldenstrom":5122,"Ġmandibul":5123,"Ġresponse":5124,"Ġfibromyalgia":5125,"Ġfulm":5126,"Ġhypergonadotropic":5127,"Ġdisplacement":5128,"Ġdystroglycanopathy":5129,"orrhagic":5130,"Ġpseudoobstruction":5131,"Ġporcine":5132,"Ġpyloric":5133,"Ġsachs":5134,"Ġduchenne":5135,"Ġsertoli":5136,"Ġbiedl":5137,"Ġhyperphenylalan":5138,"Ġwiedemann":5139,"Ġnonketotic":5140,"ek":5141,"right":5142,"yan":5143,"rosies":5144,"tier":5145,"eri":5146,"Ġder":5147,"Ġseas":5148,"inz":5149,"onogenesis":5150,"Ġcas":5151,"Ġcop":5152,"Ġcast":5153,"arter":5154,"Ġperman":5155,"Ġpuberty":5156,"ander":5157,"Ġms":5158,"Ġmater":5159,"Ġmdd":5160,"Ġtal":5161,"Ġten":5162,"Ġterm":5163,"Ġhor":5164,"romel":5165,"leuk":5166,"Ġnf":5167,"Ġnad":5168,"ulosis":5169,"itch":5170,"Ġfrom":5171,"Ġdiscr":5172,"Ġbog":5173,"ysteroid":5174,"Ġlaf":5175,"Ġlaryng":5176,"aciduria":5177,"ocardial":5178,"Ġgig":5179,"Ġvw":5180,"ationary":5181,"odent":5182,"imetaphyseal":5183,"Ġconradi":5184,"Ġinfluenz":5185,"Ġlem":5186,"Ġhyperkal":5187,"Ġspr":5188,"Ġatonic":5189,"roside":5190,"Ġwarb":5191,"Ġstationary":5192,"ipp":5193,"Ġthan":5194,"Ġthiam":5195,"Ġ30":5196,"Ġhemi":5197,"ophth":5198,"opharyng":5199,"Ġglc":5200,"uppurative":5201,"Ġcerebroside":5202,"Ġleukopl":5203,"nev":5204,"Ġretro":5205,"ova":5206,"Ġphys":5207,"rocalc":5208,"Ġparotid":5209,"Ġfibroses":5210,"Ġtoes":5211,"Ġornith":5212,"Ġuni":5213,"Ġcramps":5214,"Ġcleaved":5215,"Ġcln":5216,"Ġempy":5217,"Ġpneumothorax":5218,"ifferentiated":5219,"Ġspina":5220,"Ġrot":5221,"anthine":5222,"Ġgalactosylceram":5223,"Ġhydroxysteroid":5224,"itted":5225,"Ġvagin":5226,"Ġmrt":5227,"Ġerythrokerat":5228,"Ġtrichothi":5229,"Ġnonsuppurative":5230,"Ġmorb":5231,"Ġmorg":5232,"phosphatase":5233,"Ġglomerulosclerosis":5234,"osclerotic":5235,"alangy":5236,"Ġpolycyth":5237,"Ġlegs":5238,"Ġcanavan":5239,"Ġphotosensitive":5240,"Ġpapilloma":5241,"Ġreperfusion":5242,"Ġirr":5243,"Ġglobal":5244,"Ġhypertensions":5245,"Ġplague":5246,"Ġcystin":5247,"Ġosteoarthropathy":5248,"Ġleprosies":5249,"Ġparanasal":5250,"Ġhypoxanthine":5251,"Ġworker":5252,"Ġstim":5253,"Ġcirculating":5254,"Ġmanifestation":5255,"Ġsynovial":5256,"Ġangioedema":5257,"Ġprotuberans":5258,"Ġlewy":5259,"Ġpolysyndactyly":5260,"Ġhidraden":5261,"entilation":5262,"Ġaspergillosis":5263,"Ġneurodegenerative":5264,"Ġvitreoretinopathy":5265,"Ġphosphoribosyltransferase":5266,"Ġtyphus":5267,"Ġamoebic":5268,"ocorticoid":5269,"Ġhashimoto":5270,"Ġhemicran":5271,"Ġgustatory":5272,"Ġburkitt":5273,"Ġvoice":5274,"Ġvogt":5275,"Ġmethylcroton":5276,"Ġdarier":5277,"Ġbernard":5278,"Ġhyperammon":5279,"Ġproducing":5280,"Ġbogaert":5281,"Ġthiamine":5282,"ai":5283,"ges":5284,"hs":5285,"men":5286,"mel":5287,"nutrition":5288,"pen":5289,"tc":5290,"uj":5291,"uod":5292,"zen":5293,"Ġuse":5294,"Ġush":5295,"Ġotorhin":5296,"Ġsed":5297,"Ġcushing":5298,"asilar":5299,"ark":5300,"ises":5301,"Ġpig":5302,"Ġpenile":5303,"Ġport":5304,"atoph":5305,"Ġmp":5306,"ori":5307,"orum":5308,"Ġhosp":5309,"Ġhprt":5310,"iations":5311,"Ġaort":5312,"ulent":5313,"Ġfar":5314,"Ġfur":5315,"Ġdistr":5316,"opal":5317,"Ġbot":5318,"Ġbecker":5319,"Ġland":5320,"Ġlatent":5321,"ely":5322,"acr":5323,"urn":5324,"urge":5325,"idine":5326,"ilis":5327,"Ġge":5328,"Ġgh":5329,"Ġgol":5330,"Ġgout":5331,"entation":5332,"Ġva":5333,"Ġverm":5334,"amyd":5335,"Ġhypn":5336,"ummer":5337,"Ġdyslexia":5338,"odular":5339,"ima":5340,"une":5341,"unar":5342,"Ġacral":5343,"otransferase":5344,"agi":5345,"Ġlec":5346,"Ġlept":5347,"Ġdisordered":5348,"Ġwag":5349,"Ġstasis":5350,"Ġstokes":5351,"Ġsturge":5352,"Ġparam":5353,"Ġauts":5354,"Ġalport":5355,"Ġalex":5356,"Ġepstein":5357,"Ġthom":5358,"Ġ33":5359,"tric":5360,"Ġprote":5361,"Ġprogr":5362,"Ġprocess":5363,"Ġperst":5364,"Ġserog":5365,"retin":5366,"ricult":5367,"axy":5368,"abular":5369,"kinesia":5370,"Ġiiia":5371,"Ġmetast":5372,"Ġmicrocephal":5373,"Ġlipase":5374,"Ġfibular":5375,"Ġfibrocystic":5376,"Ġopac":5377,"Ġrelaps":5378,"Ġcarcinoid":5379,"Ġmyelocytic":5380,"Ġthrombo":5381,"Ġthrombocyth":5382,"Ġide":5383,"akness":5384,"Ġagricult":5385,"osphate":5386,"Ġuremic":5387,"Ġvertical":5388,"Ġcarpal":5389,"rix":5390,"Ġobst":5391,"ophilic":5392,"Ġulna":5393,"Ġgranulocytic":5394,"Ġmucinous":5395,"Ġsupranuclear":5396,"oleuk":5397,"ophthalmia":5398,"Ġprolymphocytic":5399,"Ġmarines":5400,"Ġpalmito":5401,"Ġmethemoglob":5402,"Ġzoster":5403,"Ġpelvis":5404,"omicron":5405,"Ġhallux":5406,"Ġbronchi":5407,"Ġsimp":5408,"Ġtransitional":5409,"Ġweakness":5410,"Ġlacrimal":5411,"Ġlacunar":5412,"Ġgastroesophageal":5413,"Ġhyperlipoproteinemias":5414,"Ġpathwa":5415,"Ġextram":5416,"Ġdissection":5417,"Ġcryptorchidism":5418,"Ġnocard":5419,"Ġloe":5420,"Ġneuroma":5421,"Ġedemas":5422,"Ġmastocytosis":5423,"Ġhyaline":5424,"blastomas":5425,"Ġpenis":5426,"Ġporphyrias":5427,"Ġpunctate":5428,"arboxylase":5429,"umscr":5430,"Ġglomerulonephritides":5431,"Ġtransmitted":5432,"Ġventricul":5433,"Ġtyrosinemia":5434,"amoeb":5435,"Ġpolyps":5436,"Ġlevin":5437,"Ġlentis":5438,"Ġvitreous":5439,"Ġhemiplegia":5440,"Ġeczematous":5441,"Ġasymptomatic":5442,"Ġmilk":5443,"Ġpsoriasis":5444,"Ġcircumscr":5445,"Ġwilli":5446,"Ġpemphigoid":5447,"Ġlymphadenitis":5448,"Ġchlamyd":5449,"Ġplaque":5450,"Ġprotuberan":5451,"Ġnarcolep":5452,"Ġabortion":5453,"Ġenteropathies":5454,"Ġhamartoma":5455,"Ġmicrodeletion":5456,"Ġaspirin":5457,"Ġparagangliomas":5458,"Ġbroca":5459,"ollis":5460,"Ġfirst":5461,"Ġenteritis":5462,"Ġdesmoplastic":5463,"glucos":5464,"inflammatory":5465,"Ġstickler":5466,"Ġperinatal":5467,"Ġpolyendocrinopathy":5468,"Ġacrofacial":5469,"Ġscapuloperoneal":5470,"Ġtetrasomy":5471,"Ġdysautonomia":5472,"Ġlisteria":5473,"Ġechinococc":5474,"Ġhyperphenylalaninemia":5475,"Ġseasonal":5476,"Ġpermanent":5477,"Ġterminal":5478,"Ġthanatoph":5479,"Ġstimul":5480,"Ġhospital":5481,"Ġperstans":5482,"Ġserogroup":5483,"Ġagricultural":5484,"Ġobstetric":5485,"Ġmarinesco":5486,"Ġpathways":5487,"Ġthanatophoric":5488,"aid":5489,"atine":5490,"be":5491,"ey":5492,"focal":5493,"ken":5494,"ld":5495,"monic":5496,"qt":5497,"we":5498,"ying":5499,"yositis":5500,"yamo":5501,"tid":5502,"Ġdsd":5503,"Ġside":5504,"inemic":5505,"inhibition":5506,"Ġcms":5507,"asms":5508,"Ġpox":5509,"Ġpanic":5510,"Ġpfe":5511,"Ġpeptic":5512,"antic":5513,"atus":5514,"osseous":5515,"omandibular":5516,"Ġhard":5517,"Ġhist":5518,"iae":5519,"uli":5520,"Ġsynostoses":5521,"eman":5522,"Ġfa":5523,"Ġfat":5524,"Ġdist":5525,"Ġdistin":5526,"Ġbard":5527,"Ġbrad":5528,"Ġbix":5529,"Ġbites":5530,"Ġlig":5531,"Ġlaur":5532,"els":5533,"ellect":5534,"acyt":5535,"Ġdex":5536,"Ġdeaminase":5537,"uration":5538,"Ġgam":5539,"ency":5540,"eter":5541,"itil":5542,"Ġero":5543,"Ġvom":5544,"Ġvip":5545,"Ġvacc":5546,"Ġhypoxic":5547,"Ġdysh":5548,"Ġanx":5549,"uron":5550,"ylomicron":5551,"Ġstre":5552,"ronmental":5553,"Ġepic":5554,"Ġkik":5555,"verted":5556,"Ġthre":5557,"Ġ36":5558,"Ġarch":5559,"Ġarachn":5560,"Ġadverse":5561,"Ġperthes":5562,"Ġmalle":5563,"tism":5564,"Ġphae":5565,"Ġimage":5566,"quin":5567,"Ġexcess":5568,"Ġmultis":5569,"Ġmuller":5570,"Ġmultifocal":5571,"Ġnonf":5572,"Ġfibros":5573,"Ġfibers":5574,"Ġintellect":5575,"Ġadenomatoid":5576,"Ġimmuno":5577,"ighth":5578,"avy":5579,"avicular":5580,"Ġapple":5581,"Ġmonil":5582,"Ġunna":5583,"physes":5584,"Ġdry":5585,"Ġflav":5586,"Ġgranulosa":5587,"iformis":5588,"Ġdelusion":5589,"Ġinfarct":5590,"Ġphosphorylase":5591,"Ġenvi":5592,"Ġmotility":5593,"Ġmoyamo":5594,"Ġsteal":5595,"ittle":5596,"Ġvarus":5597,"Ġoxy":5598,"Ġmethylglut":5599,"tonasal":5600,"Ġmaha":5601,"Ġbare":5602,"Ġosler":5603,"Ġsalmon":5604,"Ġcaps":5605,"Ġmelanocytic":5606,"Ġmelanotic":5607,"Ġpatter":5608,"Ġsplen":5609,"Ġhepato":5610,"Ġhepatocellular":5611,"Ġsphen":5612,"Ġmidline":5613,"Ġgram":5614,"Ġsickle":5615,"Ġpleomorphic":5616,"Ġrepair":5617,"Ġrepeti":5618,"dermatitis":5619,"osterone":5620,"Ġlysine":5621,"Ġamnesias":5622,"Ġmegac":5623,"Ġankylosing":5624,"Ġexcitation":5625,"Ġspondyloepimetaphyseal":5626,"Ġtinea":5627,"Ġembolisms":5628,"Ġteratoma":5629,"Ġhemiplegic":5630,"omalacias":5631,"Ġperforations":5632,"Ġgreat":5633,"Ġalbright":5634,"Ġmaculopap":5635,"Ġrieger":5636,"Ġabortions":5637,"Ġinfertility":5638,"Ġhyperlys":5639,"Ġplagiocephaly":5640,"Ġchorioretinal":5641,"Ġconnective":5642,"Ġcampomelic":5643,"Ġsagittal":5644,"Ġeyelid":5645,"Ġcitrullinemia":5646,"Ġnmdar":5647,"Ġacrocephalosyndactyly":5648,"Ġsandh":5649,"Ġelephantiasis":5650,"Ġcaused":5651,"Ġschizophrenias":5652,"Ġknee":5653,"Ġbodies":5654,"Ġthermal":5655,"Ġjejunal":5656,"Ġpolyneur":5657,"umbilical":5658,"Ġcocaine":5659,"Ġplacenta":5660,"Ġwarburg":5661,"rocalcinosis":5662,"Ġuniversal":5663,"Ġpolycythemia":5664,"Ġbotul":5665,"Ġrelapsing":5666,"Ġbardet":5667,"Ġbixler":5668,"Ġphaeohyph":5669,"Ġintellectual":5670,"Ġenvironmental":5671,"Ġmoyamoya":5672,"Ġmahaim":5673,"Ġmaculopapular":5674,"atin":5675,"cm":5676,"dactyl":5677,"gesia":5678,"hart":5679,"low":5680,"lamps":5681,"nc":5682,"nd":5683,"oal":5684,"oen":5685,"rs":5686,"ret":5687,"tum":5688,"xy":5689,"yte":5690,"zd":5691,"Ġromb":5692,"Ġench":5693,"tian":5694,"Ġdur":5695,"Ġdyt":5696,"Ġself":5697,"Ġcb":5698,"Ġcic":5699,"Ġpd":5700,"Ġpub":5701,"Ġpierre":5702,"Ġmn":5703,"Ġmody":5704,"Ġmolar":5705,"Ġmanic":5706,"Ġmga":5707,"orp":5708,"osi":5709,"osquamous":5710,"Ġtarsal":5711,"Ġaa":5712,"Ġnorm":5713,"emens":5714,"Ġfoss":5715,"Ġdisabilities":5716,"opaus":5717,"Ġbd":5718,"Ġbun":5719,"Ġball":5720,"Ġbacter":5721,"Ġbour":5722,"Ġbatt":5723,"Ġliv":5724,"Ġlumb":5725,"Ġray":5726,"ocul":5727,"Ġdev":5728,"idrosis":5729,"idemias":5730,"Ġgaz":5731,"olymph":5732,"ete":5733,"eterm":5734,"Ġeighth":5735,"Ġvitil":5736,"Ġcheil":5737,"odium":5738,"unistic":5739,"Ġactivity":5740,"ranean":5741,"irect":5742,"udinal":5743,"ylation":5744,"Ġneurohyp":5745,"Ġws":5746,"Ġwool":5747,"antom":5748,"Ġalve":5749,"Ġinfected":5750,"Ġprenatal":5751,"Ġkel":5752,"Ġkear":5753,"Ġthin":5754,"Ġ34":5755,"Ġ35":5756,"Ġare":5757,"Ġadams":5758,"ibri":5759,"Ġxii":5760,"Ġlymphangiect":5761,"ograph":5762,"Ġjack":5763,"ifer":5764,"Ġmalnutrition":5765,"neys":5766,"Ġreck":5767,"Ġheavy":5768,"Ġphob":5769,"Ġphantom":5770,"abdominal":5771,"Ġexanth":5772,"ithin":5773,"Ġnonb":5774,"ofasc":5775,"Ġpulmonic":5776,"Ġopport":5777,"artment":5778,"Ġisomer":5779,"Ġtransc":5780,"Ġscheu":5781,"rodys":5782,"Ġotitis":5783,"Ġplat":5784,"Ġunkn":5785,"Ġcarney":5786,"Ġnephrosis":5787,"Ġnephropathies":5788,"Ġclub":5789,"ophila":5790,"erous":5791,"Ġsmo":5792,"Ġdrus":5793,"Ġmediter":5794,"Ġlimited":5795,"Ġmucocutaneous":5796,"Ġretina":5797,"Ġsinoat":5798,"Ġesotrop":5799,"Ġbrachym":5800,"ituitar":5801,"Ġcraniopharyng":5802,"orean":5803,"Ġkidneys":5804,"Ġaneurysmal":5805,"Ġneuralgic":5806,"ospasms":5807,"Ġdepriv":5808,"Ġoxal":5809,"Ġchondrodyst":5810,"Ġerythroblast":5811,"Ġbarre":5812,"Ġjoubert":5813,"Ġimperfor":5814,"Ġmorv":5815,"Ġcmh":5816,"Ġgangliosidoses":5817,"ĠÃ¼":5818,"Ġocclusions":5819,"Ġmastocytoses":5820,"Ġhyalinosis":5821,"Ġmanson":5822,"Ġsubcutaneous":5823,"Ġdysmorphic":5824,"ropathic":5825,"Ġtwelf":5826,"ocephalies":5827,"Ġacanthosis":5828,"Ġpresenile":5829,"Ġaddison":5830,"ocystis":5831,"Ġwolf":5832,"Ġperitonitis":5833,"Ġeruptions":5834,"Ġantenatal":5835,"Ġmaturity":5836,"Ġstrokes":5837,"Ġhpc":5838,"Ġdysenteries":5839,"osensory":5840,"Ġhyperinsulinemic":5841,"Ġrestless":5842,"Ġmediastin":5843,"iatric":5844,"organic":5845,"Ġacromegal":5846,"Ġneutrophilic":5847,"Ġbaby":5848,"Ġstomatitis":5849,"Ġhypersomnolence":5850,"Ġargininosuccinic":5851,"Ġsaint":5852,"Ġhorner":5853,"Ġlymphohistiocytosis":5854,"Ġpanniculitis":5855,"oglut":5856,"ofollicular":5857,"Ġhysterical":5858,"Ġmyofibr":5859,"Ġmacrothromb":5860,"Ġgynecomastia":5861,"iety":5862,"Ġglomus":5863,"Ġpolymicrog":5864,"Ġmaternal":5865,"Ġlafora":5866,"Ġornithine":5867,"Ġmethylcrotonyl":5868,"Ġlecithin":5869,"Ġpalmitoyltransferase":5870,"Ġpfeiffer":5871,"Ġvomiting":5872,"Ġanxiety":5873,"Ġmalleolus":5874,"Ġpatterson":5875,"Ġsandhoff":5876,"lampsia":5877,"oalveolar":5878,"Ġfossa":5879,"opausal":5880,"Ġvitiligo":5881,"Ġwoolly":5882,"Ġopportunistic":5883,"Ġscheuermann":5884,"Ġunknown":5885,"Ġmediterranean":5886,"Ġsinoatrial":5887,"ituitarism":5888,"Ġtwelfth":5889,"ba":5890,"cb":5891,"fman":5892,"ih":5893,"igenic":5894,"mas":5895,"oa":5896,"oas":5897,"oanal":5898,"rias":5899,"riasis":5900,"sens":5901,"tase":5902,"ution":5903,"Ġ0":5904,"Ġoth":5905,"Ġest":5906,"rolase":5907,"ernal":5908,"Ġday":5909,"Ġslipp":5910,"inergic":5911,"onema":5912,"icardi":5913,"Ġmg":5914,"Ġmad":5915,"Ġmoles":5916,"orenal":5917,"Ġtortic":5918,"Ġtenth":5919,"omb":5920,"omo":5921,"Ġhutch":5922,"Ġhiatal":5923,"yns":5924,"Ġnph":5925,"Ġninth":5926,"Ġsynostotic":5927,"Ġfish":5928,"Ġfsh":5929,"Ġinhib":5930,"Ġinhal":5931,"Ġbs":5932,"Ġbed":5933,"Ġbio":5934,"Ġbeck":5935,"Ġbimalleolar":5936,"Ġbipolar":5937,"Ġlh":5938,"eli":5939,"ocost":5940,"idi":5941,"ider":5942,"olyposis":5943,"etts":5944,"ama":5945,"ament":5946,"aryl":5947,"Ġdysraph":5948,"Ġdyssyn":5949,"Ġchann":5950,"ellosis":5951,"Ġanth":5952,"Ġconversion":5953,"otroph":5954,"urop":5955,"agon":5956,"aginous":5957,"chole":5958,"arditis":5959,"ardium":5960,"Ġspind":5961,"Ġwat":5962,"Ġstomat":5963,"Ġstrain":5964,"Ġpark":5965,"arct":5966,"ronuclear":5967,"Ġkl":5968,"verrich":5969,"Ġhemim":5970,"ibed":5971,"Ġinclusions":5972,"Ġlymphocytopenia":5973,"Ġgliomas":5974,"tren":5975,"Ġjap":5976,"Ġleukocyt":5977,"Ġ43":5978,"oxyl":5979,"Ġameric":5980,"opathia":5981,"andular":5982,"otherapy":5983,"Ġexostosis":5984,"orrheas":5985,"Ġfiber":5986,"Ġfibromas":5987,"Ġopca":5988,"Ġcolic":5989,"Ġgenu":5990,"Ġadenomatoses":5991,"Ġmyelopathies":5992,"lick":5993,"akening":5994,"Ġagg":5995,"Ġimmunologic":5996,"Ġapolip":5997,"pharon":5998,"Ġmononeuropathy":5999,"Ġcentronuclear":6000,"Ġunverrich":6001,"Ġangiitides":6002,"Ġerythropoietic":6003,"Ġsecret":6004,"Ġcompartment":6005,"Ġproliferative":6006,"anthus":6007,"anthoma":6008,"Ġcholang":6009,"Ġparaplegias":6010,"Ġech":6011,"Ġophthalmopathy":6012,"Ġpolygl":6013,"Ġdepressions":6014,"Ġvara":6015,"Ġcarbamo":6016,"Ġvagina":6017,"Ġhumeral":6018,"Ġcoronal":6019,"Ġdilat":6020,"alangism":6021,"Ġsphinc":6022,"Ġcytomegal":6023,"Ġloop":6024,"Ġoligoph":6025,"Ġextrapyr":6026,"Ġheterotopias":6027,"geria":6028,"Ġrhinitis":6029,"Ġmyxoma":6030,"Ġsequard":6031,"otypic":6032,"Ġconcussion":6033,"Ġepithelioma":6034,"Ġnonpolyposis":6035,"sky":6036,"Ġmegalencephaly":6037,"Ġhypoal":6038,"Ġexcessive":6039,"Ġmutation":6040,"Ġeleventh":6041,"Ġuveitis":6042,"Ġmatter":6043,"Ġwounds":6044,"Ġsegment":6045,"Ġasymmetric":6046,"Ġchemotherapy":6047,"Ġconditions":6048,"Ġfragile":6049,"untary":6050,"Ġkyphosis":6051,"Ġtoxoplasmosis":6052,"Ġtarda":6053,"Ġtardive":6054,"Ġnasopharyngeal":6055,"Ġspots":6056,"Ġfallot":6057,"Ġmesothelioma":6058,"Ġaspiration":6059,"flow":6060,"Ġhypokalemia":6061,"Ġhypokalemic":6062,"ovaginal":6063,"Ġintraventricular":6064,"Ġmutil":6065,"Ġhypercholesterolemia":6066,"Ġtransformation":6067,"Ġependymoma":6068,"Ġprader":6069,"Ġudp":6070,"Ġuridyl":6071,"Ġstill":6072,"rongyl":6073,"Ġurticaria":6074,"Ġundifferentiated":6075,"Ġmarfanoid":6076,"Ġsphingomyel":6077,"Ġsurf":6078,"Ġleishmaniasis":6079,"Ġawakening":6080,"Ġshaped":6081,"Ġhypohidrotic":6082,"Ġprofund":6083,"Ġcastle":6084,"neville":6085,"Ġerythrokeratodermia":6086,"Ġdistress":6087,"Ġthromboemb":6088,"oleukodystrophy":6089,"Ġcircumscribed":6090,"Ġkikuchi":6091,"Ġmultisyst":6092,"Ġmullerian":6093,"Ġsalmonella":6094,"Ġromberg":6095,"Ġbourneville":6096,"Ġlived":6097,"Ġnonbullous":6098,"Ġimperforate":6099,"Ġmyofibrillar":6100,"Ġother":6101,"Ġestrogen":6102,"Ġslipped":6103,"Ġtorticollis":6104,"Ġbiotin":6105,"Ġchannel":6106,"Ġapolipoprotein":6107,"Ġunverricht":6108,"Ġsecretory":6109,"Ġpolyglandular":6110,"Ġsphincter":6111,"Ġextrapyramidal":6112,"di":6113,"fb":6114,"iate":6115,"ietal":6116,"iological":6117,"lant":6118,"litz":6119,"mic":6120,"oot":6121,"oyl":6122,"por":6123,"rd":6124,"sed":6125,"tz":6126,"uen":6127,"uation":6128,"Ġil":6129,"Ġog":6130,"Ġoh":6131,"Ġull":6132,"alac":6133,"alamin":6134,"era":6135,"Ġsat":6136,"Ġstein":6137,"Ġsummer":6138,"inoma":6139,"inical":6140,"Ġcob":6141,"Ġcof":6142,"Ġcow":6143,"Ġcastr":6144,"Ġcochlear":6145,"Ġclick":6146,"asin":6147,"assi":6148,"arrhythm":6149,"isian":6150,"Ġpom":6151,"icore":6152,"anz":6153,"anine":6154,"Ġmpt":6155,"oride":6156,"Ġtdp":6157,"Ġhal":6158,"Ġhib":6159,"led":6160,"lequin":6161,"lepharon":6162,"phe":6163,"iams":6164,"Ġakinetic":6165,"Ġna":6166,"Ġno":6167,"Ġnuch":6168,"itor":6169,"ypan":6170,"Ġfuk":6171,"Ġfow":6172,"Ġfiss":6173,"opyr":6174,"opoietic":6175,"Ġbp":6176,"Ġbinding":6177,"Ġlgl":6178,"Ġlqt":6179,"Ġrath":6180,"Ġdeb":6181,"Ġdeterior":6182,"idox":6183,"iltra":6184,"Ġgar":6185,"Ġhypoc":6186,"umatic":6187,"Ġdysg":6188,"odes":6189,"iglycer":6190,"unay":6191,"Ġanophthalmia":6192,"Ġcontin":6193,"Ġconver":6194,"Ġconsc":6195,"Ġacrop":6196,"agg":6197,"teur":6198,"Ġmyalgia":6199,"Ġleuc":6200,"Ġhyperch":6201,"eberg":6202,"actant":6203,"Ġwer":6204,"Ġwar":6205,"adian":6206,"adass":6207,"Ġstric":6208,"Ġparietal":6209,"Ġalkal":6210,"versions":6211,"ectomy":6212,"Ġ37":6213,"ubercul":6214,"Ġhemiat":6215,"Ġgli":6216,"Ġprogeria":6217,"Ġherlitz":6218,"enstein":6219,"ensitive":6220,"Ġjadass":6221,"Ġtrypan":6222,"aptic":6223,"endal":6224,"ricans":6225,"Ġphak":6226,"rocon":6227,"ohl":6228,"Ġencephalomy":6229,"Ġposttra":6230,"Ġpostchole":6231,"Ġlipodystrophies":6232,"Ġintes":6233,"ochondrom":6234,"Ġdiaphyseal":6235,"ivirus":6236,"Ġcough":6237,"Ġtranspor":6238,"Ġhypertrophies":6239,"Ġoi":6240,"Ġinsensitive":6241,"Ġmonocular":6242,"Ġcri":6243,"Ġcryst":6244,"ocerebros":6245,"Ġspasticity":6246,"Ġcatarrh":6247,"Ġnecro":6248,"Ġrhythm":6249,"Ġflank":6250,"Ġears":6251,"ertrophy":6252,"Ġradio":6253,"Ġsinusitis":6254,"Ġmesodermal":6255,"Ġroland":6256,"Ġpetit":6257,"Ġnodule":6258,"ansky":6259,"Ġproteinosis":6260,"Ġhistiocyte":6261,"Ġmigrain":6262,"Ġenz":6263,"Ġdermatomy":6264,"omelan":6265,"Ġglucocorticoid":6266,"arthritis":6267,"astric":6268,"Ġdeformans":6269,"glot":6270,"oplegic":6271,"Ġblindnesses":6272,"Ġmycotic":6273,"Ġmyotubular":6274,"Ġhyperlipemia":6275,"Ġhepatocerebral":6276,"Ġgingivitis":6277,"Ġneurofibromatoses":6278,"esthetic":6279,"Ġsarcoid":6280,"Ġsulfate":6281,"Ġleukoencephalitis":6282,"Ġcalcifications":6283,"Ġfascicular":6284,"Ġpyramidal":6285,"Ġpyridox":6286,"Ġheterotaxy":6287,"Ġphoto":6288,"crease":6289,"Ġdysphasias":6290,"Ġhunter":6291,"Ġappar":6292,"Ġcholec":6293,"Ġamelia":6294,"dermas":6295,"Ġhyperostoses":6296,"Ġpseudohypop":6297,"Ġmegaloblastic":6298,"Ġdecarboxylase":6299,"Ġleakage":6300,"Ġkerasin":6301,"Ġregional":6302,"Ġpasteur":6303,"Ġberry":6304,"Ġuveal":6305,"Ġcerebellum":6306,"Ġsyphilitic":6307,"Ġmeningoencephalitides":6308,"phalocele":6309,"Ġemphysemas":6310,"ewski":6311,"Ġchemical":6312,"Ġwilliams":6313,"Ġpemphigus":6314,"Ġsyring":6315,"Ġpericardial":6316,"Ġdiastolic":6317,"Ġpetrous":6318,"omeningeal":6319,"Ġmesotheliomas":6320,"Ġbarrett":6321,"Ġneurodegeneration":6322,"Ġurological":6323,"Ġinferior":6324,"Ġnanism":6325,"Ġbroad":6326,"Ġsymphysis":6327,"Ġpropionic":6328,"Ġsubmandibular":6329,"Ġterrors":6330,"Ġnigricans":6331,"odynia":6332,"Ġtonsillar":6333,"Ġhemisph":6334,"Ġcrouz":6335,"Ġantichol":6336,"Ġsweat":6337,"Ġpudendal":6338,"Ġazorean":6339,"Ġmycoplasma":6340,"Ġfilarial":6341,"Ġvincent":6342,"Ġschonlein":6343,"Ġstraussler":6344,"Ġmandibulofacial":6345,"yanagi":6346,"Ġgigan":6347,"Ġtrichothiodystrophy":6348,"Ġotorhinolaryng":6349,"Ġmicrocephalic":6350,"Ġdrusen":6351,"Ġamerican":6352,"Ġsurfactant":6353,"Ġullrich":6354,"Ġcastration":6355,"Ġmptp":6356,"Ġconscious":6357,"Ġstrict":6358,"Ġjadassohn":6359,"Ġposttraumatic":6360,"Ġtransporter":6361,"Ġanticholinergic":6362,"bor":6363,"but":6364,"cf":6365,"ctive":6366,"eochrom":6367,"house":6368,"iuric":6369,"kel":6370,"len":6371,"mo":6372,"oj":6373,"oz":6374,"ove":6375,"rid":6376,"renic":6377,"vid":6378,"ws":6379,"roplasia":6380,"rotal":6381,"erent":6382,"eriton":6383,"Ġda":6384,"Ġdiplegia":6385,"Ġsen":6386,"Ġsor":6387,"Ġsant":6388,"Ġsad":6389,"Ġsitu":6390,"Ġstern":6391,"Ġsuccin":6392,"enfeld":6393,"inson":6394,"inish":6395,"arate":6396,"isata":6397,"esp":6398,"Ġpb":6399,"atr":6400,"Ġtym":6401,"Ġtone":6402,"Ġtest":6403,"Ġhan":6404,"Ġhyg":6405,"Ġhidrotic":6406,"Ġhigm":6407,"ynch":6408,"Ġnar":6409,"ules":6410,"iters":6411,"Ġfis":6412,"opar":6413,"opian":6414,"Ġlc":6415,"Ġrta":6416,"utt":6417,"Ġeg":6418,"odal":6419,"unit":6420,"terin":6421,"tegr":6422,"Ġhyperthy":6423,"Ġneurotic":6424,"Ġwet":6425,"obacterial":6426,"ipt":6427,"Ġprem":6428,"Ġkenn":6429,"Ġlymphedemas":6430,"Ġprog":6431,"ostasis":6432,"Ġdystrophia":6433,"apid":6434,"apillary":6435,"ref":6436,"Ġrett":6437,"Ġphon":6438,"Ġpheochrom":6439,"Ġsczd":6440,"omata":6441,"Ġnonl":6442,"ductal":6443,"ropod":6444,"Ġmicron":6445,"Ġmicrop":6446,"Ġsubunit":6447,"Ġfibula":6448,"owsky":6449,"Ġarteritides":6450,"ochoroid":6451,"Ġcollec":6452,"Ġgenicul":6453,"ival":6454,"Ġfryns":6455,"Ġtransloc":6456,"aker":6457,"Ġendocardial":6458,"Ġapneas":6459,"Ġhydroc":6460,"print":6461,"Ġmalignancy":6462,"Ġsleb":6463,"uctural":6464,"Ġnecrol":6465,"Ġnecrob":6466,"Ġintraductal":6467,"Ġmedia":6468,"Ġcardiomyopathic":6469,"acker":6470,"Ġpapular":6471,"Ġnodoventricular":6472,"Ġinfarcts":6473,"ondylic":6474,"ferr":6475,"Ġhistiocytoma":6476,"orneal":6477,"Ġpancyt":6478,"ospermia":6479,"Ġglandular":6480,"ococcus":6481,"rolithiasis":6482,"Ġzoon":6483,"ification":6484,"ained":6485,"ocarcinoma":6486,"Ġaxenfeld":6487,"eptual":6488,"ĠÃ¨":6489,"Ġophthalmoplegias":6490,"oscleroses":6491,"Ġsarcog":6492,"Ġlouis":6493,"Ġlegg":6494,"Ġlegion":6495,"Ġmembranoproliferative":6496,"rovirus":6497,"Ġbreech":6498,"Ġmcc":6499,"Ġrheumatism":6500,"Ġequin":6501,"Ġglutam":6502,"Ġperiodontitides":6503,"Ġcreatine":6504,"Ġhunt":6505,"Ġappear":6506,"Ġguill":6507,"Ġactinomyc":6508,"Ġepithelium":6509,"Ġankylosis":6510,"auriculo":6511,"Ġdentinogenesis":6512,"inogenemia":6513,"Ġxanthogranul":6514,"Ġantley":6515,"Ġduoden":6516,"Ġvariabil":6517,"Ġcerebello":6518,"Ġmannosidosis":6519,"Ġhaemophilus":6520,"Ġsemantic":6521,"Ġoligodontia":6522,"Ġsilver":6523,"Ġcondition":6524,"Ġmurmurs":6525,"Ġpneumonitides":6526,"Ġbreakage":6527,"Ġmosaicism":6528,"Ġharlequin":6529,"Ġkleine":6530,"Ġillnesses":6531,"Ġfallopian":6532,"Ġparaganglioma":6533,"Ġpallid":6534,"Ġplagiocephalies":6535,"Ġparasitosis":6536,"Ġparasitoses":6537,"Ġonly":6538,"Ġsymphalangism":6539,"Ġdysarthria":6540,"Ġdiplopia":6541,"Ġdiplopias":6542,"Ġfemur":6543,"Ġfemoro":6544,"Ġalternating":6545,"Ġpotassi":6546,"Ġperceptual":6547,"Ġagraphia":6548,"Ġgangrene":6549,"Ġdyspraxia":6550,"Ġdiminish":6551,"Ġgalactosemia":6552,"Ġreticuloendotheliosis":6553,"Ġcaffe":6554,"Ġkaposi":6555,"Ġmigratory":6556,"Ġenlarged":6557,"Ġthrombophlebitis":6558,"Ġincisor":6559,"Ġpustular":6560,"Ġhypoventilation":6561,"Ġhypomyelinating":6562,"Ġretroperiton":6563,"Ġtapet":6564,"Ġepiphyses":6565,"Ġpositional":6566,"Ġnephronophth":6567,"Ġgalactosylceramide":6568,"Ġcystinosis":6569,"Ġleptomeningeal":6570,"Ġdistinctive":6571,"Ġarachnodactyly":6572,"Ġmethylglutac":6573,"Ġuniversalis":6574,"Ġcheilitis":6575,"Ġmorvan":6576,"Ġpolymicrogyria":6577,"Ġhutchinson":6578,"Ġinhibitor":6579,"Ġspindle":6580,"Ġleukocytoclastic":6581,"Ġcarbamoyl":6582,"Ġcastleman":6583,"Ġnuchal":6584,"Ġdeterioration":6585,"Ġmigraines":6586,"Ġcrouzon":6587,"Ġtymp":6588,"Ġhyperthyrox":6589,"Ġcollecting":6590,"Ġgeniculate":6591,"Ġappearance":6592,"auriculovertebral":6593,"Ġpotassium":6594,"Ġdiminished":6595,"Ġretroperitoneal":6596,"Ġnephronophthisis":6597,"bat":6598,"bum":6599,"borg":6600,"gf":6601,"gal":6602,"growth":6603,"iitis":6604,"junction":6605,"king":6606,"ptic":6607,"ram":6608,"uer":6609,"vasive":6610,"with":6611,"weger":6612,"yb":6613,"ye":6614,"zlow":6615,"Ġeas":6616,"Ġumbilical":6617,"algias":6618,"roy":6619,"erated":6620,"Ġds":6621,"Ġdow":6622,"Ġdown":6623,"Ġsug":6624,"Ġsore":6625,"Ġsry":6626,"Ġsella":6627,"Ġcyc":6628,"essi":6629,"Ġpc":6630,"Ġpv":6631,"Ġpity":6632,"atch":6633,"Ġml":6634,"Ġmang":6635,"Ġmink":6636,"oris":6637,"orid":6638,"osuria":6639,"oside":6640,"Ġtum":6641,"omies":6642,"Ġhm":6643,"Ġhort":6644,"Ġhermaphroditism":6645,"leptic":6646,"philis":6647,"Ġaor":6648,"Ġagr":6649,"Ġnaj":6650,"uses":6651,"Ġfum":6652,"optic":6653,"operic":6654,"Ġinversion":6655,"ysp":6656,"Ġlind":6657,"Ġlca":6658,"Ġlynch":6659,"elan":6660,"Ġrup":6661,"oca":6662,"ocar":6663,"ursor":6664,"iderm":6665,"Ġgel":6666,"Ġgard":6667,"Ġgood":6668,"ette":6669,"Ġeig":6670,"Ġvel":6671,"Ġvill":6672,"Ġvacter":6673,"umm":6674,"Ġchil":6675,"Ġchoanal":6676,"igral":6677,"eller":6678,"elloses":6679,"ellweger":6680,"Ġann":6681,"Ġanis":6682,"Ġanonychia":6683,"Ġ29":6684,"ranodal":6685,"eptive":6686,"epiphyseal":6687,"agia":6688,"agnos":6689,"Ġneurosy":6690,"Ġneurosis":6691,"Ġneuroblastoma":6692,"Ġneuroleptic":6693,"Ġiis":6694,"Ġworm":6695,"ormonogenesis":6696,"adi":6697,"ads":6698,"obar":6699,"iproc":6700,"ront":6701,"ronous":6702,"Ġalacr":6703,"iley":6704,"Ġprion":6705,"Ġpreling":6706,"Ġku":6707,"Ġkin":6708,"Ġthi":6709,"ector":6710,"Ġadduc":6711,"ophor":6712,"ible":6713,"ogastric":6714,"atial":6715,"Ġproc":6716,"Ġproge":6717,"Ġpern":6718,"ift":6719,"omyx":6720,"Ġreciproc":6721,"Ġcombat":6722,"Ġpharynx":6723,"que":6724,"Ġexst":6725,"Ġpostc":6726,"uncal":6727,"ofaci":6728,"Ġlipoat":6729,"Ġsubglot":6730,"Ġosteochondrom":6731,"Ġerb":6732,"Ġtransposition":6733,"akias":6734,"Ġhypertonia":6735,"Ġsche":6736,"Ġschinz":6737,"Ġmeningocele":6738,"eating":6739,"Ġmonocytic":6740,"Ġpool":6741,"Ġmalignancies":6742,"Ġintrinsic":6743,"Ġclo":6744,"Ġangiomatoses":6745,"Ġarthropod":6746,"Ġflo":6747,"indness":6748,"Ġretinopathies":6749,"hyde":6750,"hydrotic":6751,"Ġstenosing":6752,"Ġester":6753,"Ġeyes":6754,"Ġradius":6755,"Ġcraniocerebral":6756,"Ġnodules":6757,"Ġproteinuria":6758,"Ġfolding":6759,"Ġophthalmopathies":6760,"Ġchori":6761,"Ġzon":6762,"Ġzellweger":6763,"Ġcalcium":6764,"tured":6765,"Ġextranodal":6766,"glu":6767,"Ġstructural":6768,"Ġgangliog":6769,"blindness":6770,"nesic":6771,"Ġweill":6772,"Ġweiss":6773,"Ġneglect":6774,"Ġcapitis":6775,"Ġdysmnesic":6776,"Ġoto":6777,"oracic":6778,"Ġarteriosus":6779,"Ġpatent":6780,"ordination":6781,"Ġfollicularis":6782,"Ġcolorblindness":6783,"Ġglomerulopathy":6784,"ygous":6785,"Ġtrigger":6786,"Ġdengue":6787,"Ġketotic":6788,"Ġketoglut":6789,"Ġgrisc":6790,"dehyde":6791,"Ġdesquam":6792,"Ġextrahepatic":6793,"Ġextraocular":6794,"Ġburning":6795,"Ġdysphonia":6796,"Ġenterob":6797,"ophosphate":6798,"Ġhipp":6799,"Ġdentoalveolar":6800,"Ġxxy":6801,"Ġjaws":6802,"Ġovergrowth":6803,"Ġplagues":6804,"Ġholm":6805,"Ġcystine":6806,"Ġcystinuria":6807,"robasilar":6808,"erapeu":6809,"Ġtyrosinemias":6810,"Ġpolyposes":6811,"Ġprecursor":6812,"Ġadrenoleukodystrophy":6813,"Ġhypertriglycer":6814,"Ġkozlow":6815,"Ġureter":6816,"Ġacetylgal":6817,"Ġambigu":6818,"Ġcharge":6819,"Ġsicknesses":6820,"Ġelastic":6821,"Ġnutrition":6822,"Ġsemd":6823,"Ġfasciculations":6824,"Ġmassive":6825,"Ġhyperinsulinism":6826,"Ġmercurial":6827,"Ġlymphadenopathy":6828,"Ġfragility":6829,"Ġhemoglobinuria":6830,"Ġsynovitis":6831,"uttering":6832,"Ġschistosomiasis":6833,"omonas":6834,"enstrual":6835,"Ġenteroc":6836,"Ġvertebrobasilar":6837,"Ġsomatosensory":6838,"Ġchondromalac":6839,"acetoac":6840,"acetabular":6841,"Ġtracheoesophageal":6842,"Ġscleredema":6843,"Ġschwannoma":6844,"Ġargininosuccinate":6845,"Ġatherosclerotic":6846,"Ġneovascularization":6847,"Ġdhmn":6848,"Ġbaltic":6849,"Ġcartilage":6850,"Ġalternari":6851,"Ġpoorly":6852,"Ġoxidative":6853,"Ġarvc":6854,"Ġlaceration":6855,"Ġhuet":6856,"Ġfoveal":6857,"Ġaspartate":6858,"Ġsiemens":6859,"Ġbreathing":6860,"Ġgastroenteritis":6861,"Ġprotozoal":6862,"ckeberg":6863,"Ġmusculoskeletal":6864,"Ġphenylketonuria":6865,"Ġneedles":6866,"Ġdyscalcul":6867,"Ġconfusional":6868,"romelic":6869,"Ġdiscrim":6870,"ippo":6871,"Ġempyema":6872,"Ġmorbill":6873,"Ġmorgag":6874,"Ġhyperammonemia":6875,"Ġaorta":6876,"opalat":6877,"Ġnarcolepsy":6878,"Ġdyshormonogenesis":6879,"Ġdelusional":6880,"Ġenchondrom":6881,"Ġjackson":6882,"Ġplatysp":6883,"Ġmediastinum":6884,"Ġmacrothrombocytopenia":6885,"Ġbeckwith":6886,"Ġdyssynerg":6887,"Ġjapanese":6888,"Ġaggreg":6889,"Ġconverg":6890,"Ġcrystall":6891,"ocerebrosidase":6892,"Ġrolandic":6893,"Ġenzyme":6894,"Ġpyridoxine":6895,"Ġgigantism":6896,"Ġpancytopenia":6897,"Ġzoonotic":6898,"Ġcaffey":6899,"Ġmethylglutaconic":6900,"Ġhyperthyroxinemia":6901,"Ġeastern":6902,"Ġcycle":6903,"Ġagramm":6904,"Ġruptured":6905,"Ġvacterl":6906,"Ġneurosyphilis":6907,"Ġprelingual":6908,"Ġprogeroid":6909,"Ġsubglottic":6910,"Ġschinzel":6911,"Ġketoglutarate":6912,"Ġgriscelli":6913,"erapeutic":6914,"Ġkozlowski":6915,"Ġacetylgalact":6916,"aple":6917,"aortic":6918,"bing":6919,"don":6920,"eon":6921,"foot":6922,"glyc":6923,"hn":6924,"han":6925,"haus":6926,"no":6927,"oe":6928,"oast":6929,"ptions":6930,"pecific":6931,"utional":6932,"var":6933,"wer":6934,"yre":6935,"yric":6936,"Ġure":6937,"Ġroc":6938,"Ġdopa":6939,"Ġske":6940,"Ġsting":6941,"ensi":6942,"inas":6943,"Ġcer":6944,"Ġcant":6945,"Ġcann":6946,"Ġcild":6947,"asemia":6948,"esc":6949,"esani":6950,"Ġpont":6951,"Ġpitt":6952,"icc":6953,"atums":6954,"Ġmir":6955,"Ġmay":6956,"ortion":6957,"Ġtn":6958,"Ġtar":6959,"omias":6960,"phleb":6961,"Ġai":6962,"Ġaqu":6963,"Ġarous":6964,"Ġaicardi":6965,"Ġfle":6966,"Ġfund":6967,"Ġfield":6968,"Ġdisinhibition":6969,"openic":6970,"Ġbf":6971,"Ġbin":6972,"Ġbing":6973,"Ġlund":6974,"acyl":6975,"acea":6976,"Ġrud":6977,"Ġruss":6978,"olmia":6979,"ology":6980,"uton":6981,"aryls":6982,"Ġdyskeratosis":6983,"oduod":6984,"igit":6985,"Ġane":6986,"Ġanoxic":6987,"ucent":6988,"otubular":6989,"otrach":6990,"Ġmyofasc":6991,"ude":6992,"osomiases":6993,"ardt":6994,"yll":6995,"ylor":6996,"Ġspur":6997,"ebius":6998,"Ġatel":6999,"Ġneurot":7000,"Ġneurosens":7001,"Ġiic":7002,"Ġwin":7003,"Ġstuttering":7004,"Ġparenchymal":7005,"obility":7006,"Ġalar":7007,"Ġalag":7008,"Ġaltit":7009,"Ġprur":7010,"Ġkjer":7011,"Ġthalam":7012,"ophob":7013,"opharynx":7014,"Ġxi":7015,"Ġreticular":7016,"Ġreye":7017,"ogn":7018,"Ġdystonic":7019,"Ġjer":7020,"Ġjamp":7021,"Ġtrena":7022,"Ġserop":7023,"Ġserocon":7024,"angl":7025,"Ġ45":7026,"Ġ47":7027,"Ġrecall":7028,"oxanthoma":7029,"Ġretention":7030,"Ġheredit":7031,"Ġimd":7032,"Ġimbal":7033,"Ġamc":7034,"Ġexocrine":7035,"ohep":7036,"oholic":7037,"Ġencephalocele":7038,"Ġpostural":7039,"Ġnonalc":7040,"Ġnoninsulin":7041,"Ġpauc":7042,"Ġdominantly":7043,"Ġlipidoses":7044,"Ġsubaortic":7045,"Ġfibroid":7046,"Ġarteries":7047,"Ġbrittle":7048,"Ġsensations":7049,"Ġosteosclerosis":7050,"Ġataxic":7051,"Ġadenosine":7052,"Ġcoarct":7053,"Ġfreck":7054,"Ġmyeloma":7055,"Ġpseudoxanthoma":7056,"Ġagain":7057,"Ġagranul":7058,"Ġagangl":7059,"Ġfeil":7060,"Ġhypertonias":7061,"odermas":7062,"Ġtoe":7063,"Ġapert":7064,"formis":7065,"Ġpouch":7066,"Ġanomalous":7067,"Ġnephrolithiasis":7068,"Ġempt":7069,"Ġerythrocytosis":7070,"Ġpneumocystis":7071,"Ġinterval":7072,"Ġflat":7073,"indler":7074,"Ġsupern":7075,"Ġdifferenti":7076,"roglossal":7077,"ertrophic":7078,"Ġcompound":7079,"Ġaphth":7080,"Ġsinusitides":7081,"romatous":7082,"romatopsia":7083,"Ġhypersomnia":7084,"yphen":7085,"Ġlowry":7086,"Ġhypoten":7087,"Ġengel":7088,"Ġspondylocost":7089,"utisms":7090,"Ġmoebius":7091,"Ġzyg":7092,"Ġgalactokinase":7093,"Ġfrontonasal":7094,"Ġhydroxyphen":7095,"Ġdependant":7096,"Ġnonspecific":7097,"Ġlatex":7098,"ulfatase":7099,"Ġfluent":7100,"Ġbeat":7101,"Ġtachyp":7102,"fibr":7103,"Ġpyel":7104,"Ġarteriopathy":7105,"Ġantithrombin":7106,"Ġextrac":7107,"ygyria":7108,"rorenal":7109,"Ġprotection":7110,"Ġloose":7111,"orphyrinogen":7112,"Ġprolapsed":7113,"Ġleukoencephalopathies":7114,"Ġremodelling":7115,"Ġhyperpigmentation":7116,"Ġhyperpyre":7117,"oepithel":7118,"Ġburn":7119,"Ġportal":7120,"Ġoutput":7121,"Ġoutflow":7122,"Ġbiphen":7123,"odysgenesis":7124,"Ġdentate":7125,"Ġcilia":7126,"Ġguanine":7127,"Ġathet":7128,"ammaglobulin":7129,"Ġhypopigmentation":7130,"Ġsexually":7131,"Ġricketts":7132,"dermatitides":7133,"Ġpseudohypertrophic":7134,"Ġconjunctival":7135,"Ġarrhythmia":7136,"Ġfibrillary":7137,"Ġrosacea":7138,"Ġsialaden":7139,"Ġgoiters":7140,"Ġkeratitides":7141,"Ġvulva":7142,"Ġhemiplegias":7143,"Ġhpe":7144,"Ġphosphorylation":7145,"Ġhaemorrhagic":7146,"Ġlaxity":7147,"illed":7148,"Ġamniotic":7149,"Ġhabit":7150,"Ġneurocutaneous":7151,"Ġlewand":7152,"Ġnasopharynx":7153,"Ġthyroglossal":7154,"Ġrefractive":7155,"Ġpeters":7156,"Ġomphalocele":7157,"Ġintravascular":7158,"Ġaminotransferase":7159,"oconiosis":7160,"oconjunctiv":7161,"Ġstomatitides":7162,"Ġschwannomas":7163,"pyruvate":7164,"Ġethyl":7165,"Ġdysarthrias":7166,"Ġreduction":7167,"ointer":7168,"Ġofc":7169,"Ġebstein":7170,"Ġacinar":7171,"Ġquadriple":7172,"Ġagraphias":7173,"Ġtouraine":7174,"Ġbrachyolmia":7175,"Ġdyspraxias":7176,"Ġnicol":7177,"Ġbacillary":7178,"Ġarvd":7179,"Ġlacerations":7180,"Ġsayre":7181,"Ġhyalohyphomycosis":7182,"Ġhyalohyphomycoses":7183,"Ġkrabb":7184,"Ġmarchesani":7185,"Ġdeposits":7186,"Ġtubulointer":7187,"Ġtaylor":7188,"Ġgilbert":7189,"Ġneurilemm":7190,"Ġspherocytosis":7191,"Ġamblyopia":7192,"Ġperioral":7193,"Ġnadh":7194,"Ġhemicrania":7195,"Ġpigeon":7196,"Ġgoltz":7197,"Ġalexia":7198,"Ġmethemoglobinemia":7199,"Ġsimpson":7200,"acytoid":7201,"Ġrepetitive":7202,"Ġbotulism":7203,"Ġmng":7204,"Ġbatten":7205,"Ġkearns":7206,"ibrio":7207,"Ġdeprivation":7208,"Ġinhalation":7209,"Ġdilatation":7210,"Ġoligophrenia":7211,"Ġuridylyltransferase":7212,"Ġfowl":7213,"Ġbpes":7214,"Ġcontinuous":7215,"Ġhyperchylomicron":7216,"Ġphotoall":7217,"Ġhemisphere":7218,"Ġnarrow":7219,"Ġpremenstrual":7220,"Ġmicronucle":7221,"Ġpityriasis":7222,"Ġgardner":7223,"Ġlipoatrophic":7224,"Ġmorgagni":7225,"Ġagrammatic":7226,"Ġarousal":7227,"Ġlundborg":7228,"Ġrussell":7229,"arylsulfatase":7230,"Ġthalamic":7231,"Ġjampel":7232,"Ġtrenaunay":7233,"Ġseropos":7234,"Ġnonalcoholic":7235,"Ġagainst":7236,"Ġempty":7237,"Ġsupernum":7238,"Ġdifferentiation":7239,"Ġspondylocostal":7240,"Ġbiphenotypic":7241,"bi":7242,"bp":7243,"burg":7244,"bts":7245,"ev":7246,"eker":7247,"eosinophil":7248,"fil":7249,"fting":7250,"fold":7251,"jd":7252,"kd":7253,"ki":7254,"mias":7255,"neph":7256,"nick":7257,"oron":7258,"qtl":7259,"rations":7260,"sn":7261,"vanc":7262,"viridae":7263,"wick":7264,"xual":7265,"yarrhythm":7266,"zell":7267,"rote":7268,"rotoxic":7269,"Ġdon":7270,"Ġdic":7271,"Ġdor":7272,"Ġdol":7273,"Ġdav":7274,"Ġset":7275,"Ġsuc":7276,"Ġsound":7277,"Ġsott":7278,"Ġsocial":7279,"enner":7280,"enorrhea":7281,"enetrating":7282,"inomas":7283,"inate":7284,"onyl":7285,"Ġcod":7286,"Ġcatal":7287,"Ġcps":7288,"Ġpf":7289,"Ġpn":7290,"Ġpin":7291,"Ġpilar":7292,"Ġpedi":7293,"anol":7294,"anical":7295,"atter":7296,"Ġmend":7297,"Ġmorph":7298,"Ġmiosis":7299,"Ġmech":7300,"Ġmutisms":7301,"orge":7302,"osensitivity":7303,"Ġtm":7304,"Ġtog":7305,"Ġhb":7306,"Ġhap":7307,"letions":7308,"phan":7309,"Ġnond":7310,"Ġnucle":7311,"edion":7312,"emerging":7313,"Ġfav":7314,"Ġdisp":7315,"opard":7316,"opsias":7317,"opagnos":7318,"Ġinde":7319,"Ġbh":7320,"Ġbit":7321,"Ġbuck":7322,"Ġlenz":7323,"elme":7324,"actic":7325,"Ġrapid":7326,"ocystic":7327,"ocolitis":7328,"Ġdeletions":7329,"idia":7330,"iding":7331,"Ġgun":7332,"olitides":7333,"entral":7334,"utane":7335,"Ġeis":7336,"Ġeie":7337,"Ġventil":7338,"Ġdysostoses":7339,"Ġdyschond":7340,"raum":7341,"united":7342,"ellings":7343,"ellaceae":7344,"Ġanet":7345,"Ġantis":7346,"Ġanton":7347,"Ġconj":7348,"Ġacad":7349,"Ġache":7350,"Ġacalcul":7351,"otos":7352,"otence":7353,"eption":7354,"eptid":7355,"agious":7356,"Ġmyositides":7357,"ymening":7358,"chrom":7359,"Ġleopard":7360,"Ġhyperimmun":7361,"Ġhyperkinetic":7362,"Ġhypereosinophil":7363,"Ġsparse":7364,"adal":7365,"Ġparac":7366,"obronch":7367,"oblepharon":7368,"ephaly":7369,"ipple":7370,"Ġka":7371,"Ġki":7372,"Ġkr":7373,"Ġkary":7374,"versible":7375,"Ġthost":7376,"Ġthick":7377,"Ġaref":7378,"Ġhemophilus":7379,"Ġadam":7380,"Ġadie":7381,"ophyt":7382,"Ġreemerging":7383,"Ġlymphoplasm":7384,"Ġlymphogranul":7385,"ogoni":7386,"oides":7387,"Ġjob":7388,"Ġjbts":7389,"Ġleukokerat":7390,"angial":7391,"neum":7392,"Ġasd":7393,"oxy":7394,"inking":7395,"aba":7396,"Ġtumoral":7397,"Ġblenn":7398,"Ġpostphleb":7399,"ropic":7400,"Ġintoxic":7401,"Ġbrug":7402,"Ġgenito":7403,"Ġadenovirus":7404,"Ġadenohyp":7405,"Ġfrench":7406,"Ġurach":7407,"yryl":7408,"Ġtubal":7409,"prs":7410,"Ġmacros":7411,"rier":7412,"Ġangiomas":7413,"Ġangiofollicular":7414,"Ġdiath":7415,"Ġdietz":7416,"Ġdieker":7417,"Ġrestric":7418,"Ġcaud":7419,"Ġpneumoconiosis":7420,"Ġintracellular":7421,"Ġintraocular":7422,"vely":7423,"Ġmediated":7424,"Ġmucosa":7425,"Ġsuppression":7426,"vulus":7427,"Ġautoinflammatory":7428,"Ġclefts":7429,"Ġradicul":7430,"Ġentamoeb":7431,"ticulostr":7432,"Ġprolifer":7433,"cracker":7434,"Ġmesangial":7435,"Ġrous":7436,"Ġpeel":7437,"Ġmarg":7438,"Ġimplant":7439,"Ġimpotence":7440,"ethyl":7441,"Ġkeratoconjunctiv":7442,"instein":7443,"Ġmotion":7444,"Ġgiedion":7445,"Ġigg":7446,"Ġdupuy":7447,"Ġcontagious":7448,"Ġdfn":7449,"Ġvaras":7450,"Ġlarva":7451,"aitser":7452,"Ġmarote":7453,"Ġsweating":7454,"ocarcinomas":7455,"Ġbaraitser":7456,"Ġaudi":7457,"Ġsynthesis":7458,"Ġbeats":7459,"Ġhyperlipidemia":7460,"Ġdysmyel":7461,"ofibroma":7462,"Ġophthalmoplegic":7463,"Ġneutral":7464,"Ġextras":7465,"omnias":7466,"yotonia":7467,"Ġcryptococc":7468,"Ġachromatopsia":7469,"orphyria":7470,"Ġmidb":7471,"Ġthoraco":7472,"Ġdiverticulosis":7473,"Ġgrn":7474,"Ġasthmas":7475,"Ġcomplices":7476,"Ġhyperox":7477,"Ġpyrim":7478,"Ġhyperprol":7479,"Ġsliding":7480,"Ġacetyltransferase":7481,"Ġphototoxic":7482,"Ġporencephalies":7483,"Ġpapillomatosis":7484,"lossia":7485,"Ġtraits":7486,"Ġdentofacial":7487,"Ġhsn":7488,"arathyroidisms":7489,"Ġcirrhoses":7490,"Ġinvoluntary":7491,"Ġplexiform":7492,"Ġpachymening":7493,"Ġnonpenetrating":7494,"Ġesophagitis":7495,"Ġankyloblepharon":7496,"Ġmaxill":7497,"Ġusual":7498,"iolase":7499,"Ġxanthomatosis":7500,"Ġembryopathy":7501,"Ġmutase":7502,"Ġlenticulostr":7503,"Ġkoj":7504,"Ġacetylglucos":7505,"Ġtrophoblast":7506,"Ġteratoid":7507,"Ġfused":7508,"Ġasperger":7509,"Ġelast":7510,"Ġnutcracker":7511,"Ġdipetal":7512,"Ġhht":7513,"Ġstriaton":7514,"Ġpsors":7515,"Ġpsoriatic":7516,"Ġgreen":7517,"Ġinversa":7518,"Ġrichard":7519,"Ġalbers":7520,"Ġcrossed":7521,"Ġboeck":7522,"Ġdissociation":7523,"Ġneurocardi":7524,"Ġkyphoses":7525,"Ġkyphosc":7526,"Ġonychodystrophy":7527,"Ġtoxoplasma":7528,"Ġtoxoplasmoses":7529,"Ġclosure":7530,"Ġentrapments":7531,"Ġprosopagnos":7532,"Ġriver":7533,"Ġaberration":7534,"Ġaberrant":7535,"Ġaberrations":7536,"Ġmodif":7537,"Ġklein":7538,"Ġosteochondrosis":7539,"Ġfucosidosis":7540,"Ġaspergilloses":7541,"Ġendocarditides":7542,"Ġurologic":7543,"Ġpallister":7544,"Ġevent":7545,"Ġhyperlucent":7546,"Ġaminoac":7547,"Ġtracheobronch":7548,"Ġverrucous":7549,"Ġcosta":7550,"Ġmcops":7551,"Ġvolvulus":7552,"aumann":7553,"Ġsaguen":7554,"Ġmasseter":7555,"Ġrenotubular":7556,"Ġileal":7557,"Ġreduced":7558,"Ġcryopyr":7559,"Ġsanfil":7560,"Ġahus":7561,"Ġacinic":7562,"Ġexfoliation":7563,"Ġtourette":7564,"Ġrhabdomyosarcoma":7565,"Ġdegos":7566,"Ġgyrata":7567,"Ġejm":7568,"Ġmetatarsal":7569,"Ġbrunzell":7570,"Ġlightning":7571,"Ġspielme":7572,"Ġiridogoni":7573,"Ġmisfold":7574,"Ġinfestation":7575,"Ġinfestations":7576,"nikov":7577,"Ġellipt":7578,"Ġshared":7579,"Ġmegakaryocytic":7580,"Ġspermatogenic":7581,"Ġmicroangiopathy":7582,"Ġmenstruation":7583,"occlusive":7584,"Ġhyperalgesia":7585,"Ġarticulation":7586,"Ġbruxism":7587,"Ġfulminant":7588,"Ġvwd":7589,"Ġopacities":7590,"Ġbronchiect":7591,"Ġloeys":7592,"Ġligament":7593,"Ġphaeohyphomycosis":7594,"Ġpubis":7595,"Ġneurohypophyseal":7596,"Ġsmooth":7597,"Ġwatson":7598,"Ġprofunda":7599,"Ġpomt":7600,"Ġhibern":7601,"Ġrathke":7602,"Ġgarland":7603,"Ġphakomatosis":7604,"Ġpostcholedoch":7605,"Ġconsciousness":7606,"Ġpheochromocytoma":7607,"Ġnecrolysis":7608,"Ġguillain":7609,"Ġvariabilis":7610,"Ġsugar":7611,"Ġhorton":7612,"Ġannular":7613,"Ġurea":7614,"Ġaqued":7615,"Ġneurosensory":7616,"Ġalagille":7617,"illedema":7618,"Ġlewandowsky":7619,"Ġethylmalonic":7620,"Ġtubulointerstitial":7621,"Ġsottas":7622,"Ġpediatric":7623,"Ġmechanical":7624,"Ġindex":7625,"Ġeiee":7626,"Ġpostphlebitic":7627,"Ġbrugada":7628,"Ġadenohypophyseal":7629,"Ġlenticulostriate":7630,"Ġacetylglucosamine":7631,"Ġstriatonigral":7632,"Ġneurocardiogenic":7633,"Ġsaguenay":7634,"Ġspielmeyer":7635,"Ġmisfolding":7636,"aux":7637,"cq":7638,"cular":7639,"din":7640,"fel":7641,"gc":7642,"gh":7643,"gn":7644,"hausen":7645,"jar":7646,"kan":7647,"kmann":7648,"lenia":7649,"met":7650,"nier":7651,"ois":7652,"oke":7653,"oimmune":7654,"otine":7655,"peral":7656,"rt":7657,"rel":7658,"sin":7659,"to":7660,"uate":7661,"ventricular":7662,"veness":7663,"xial":7664,"yder":7665,"Ġ'":7666,"Ġigh":7667,"Ġarylsulfatase":7668,"roli":7669,"tiform":7670,"err":7671,"erate":7672,"Ġdural":7673,"Ġdba":7674,"Ġso":7675,"Ġsomn":7676,"Ġsoul":7677,"Ġsector":7678,"ineral":7679,"ontal":7680,"Ġcub":7681,"Ġcomas":7682,"Ġcoh":7683,"Ġcpt":7684,"Ġcathet":7685,"Ġceram":7686,"are":7687,"articular":7688,"isia":7689,"Ġpi":7690,"Ġpt":7691,"Ġpes":7692,"Ġpof":7693,"Ġpott":7694,"Ġpili":7695,"ana":7696,"Ġmos":7697,"Ġmec":7698,"Ġmim":7699,"Ġmag":7700,"Ġmant":7701,"Ġmgr":7702,"Ġmadel":7703,"ored":7704,"ortis":7705,"orhe":7706,"Ġhog":7707,"Ġhae":7708,"Ġhaw":7709,"Ġhoff":7710,"phet":7711,"phyx":7712,"iad":7713,"iating":7714,"ynaud":7715,"Ġak":7716,"Ġau":7717,"itone":7718,"Ġbm":7719,"Ġbest":7720,"Ġlub":7721,"Ġlaw":7722,"elerated":7723,"acar":7724,"Ġrt":7725,"Ġrus":7726,"Ġram":7727,"Ġrend":7728,"Ġragg":7729,"Ġricc":7730,"Ġdetr":7731,"Ġdebran":7732,"ura":7733,"etti":7734,"athion":7735,"athisia":7736,"the":7737,"Ġew":7738,"Ġelec":7739,"Ġvl":7740,"Ġhypob":7741,"odon":7742,"odis":7743,"sian":7744,"igler":7745,"rophakia":7746,"ranencephaly":7747,"otr":7748,"ymic":7749,"Ġhyperh":7750,"Ġspik":7751,"ebi":7752,"ebiasis":7753,"roste":7754,"Ġwis":7755,"Ġstu":7756,"Ġstart":7757,"Ġparv":7758,"essor":7759,"roneph":7760,"Ġalter":7761,"Ġpreterm":7762,"Ġkal":7763,"Ġkline":7764,"Ġ38":7765,"ubo":7766,"Ġada":7767,"Ġadj":7768,"Ġrele":7769,"ralogy":7770,"Ġcellular":7771,"Ġproct":7772,"Ġperine":7773,"ife":7774,"Ġtrip":7775,"Ġ49":7776,"Ġasphyx":7777,"izz":7778,"Ġpolio":7779,"Ġphag":7780,"Ġphalang":7781,"Ġamphet":7782,"Ġscr":7783,"Ġscrotal":7784,"Ġexer":7785,"rocyte":7786,"Ġepileptiform":7787,"ionosis":7788,"Ġiiic":7789,"Ġiiib":7790,"seg":7791,"osteogenesis":7792,"Ġnonimmune":7793,"ofetal":7794,"roportion":7795,"Ġmicrom":7796,"Ġmicrovascular":7797,"Ġlipoma":7798,"Ġlipoproteinemia":7799,"Ġfibroma":7800,"Ġshy":7801,"Ġshprint":7802,"Ġbruc":7803,"Ġbrill":7804,"Ġcolus":7805,"Ġsensitivities":7806,"Ġosteo":7807,"Ġosteoid":7808,"Ġcoarse":7809,"Ġfras":7810,"Ġangioneuro":7811,"Ġmyelofib":7812,"Ġschm":7813,"Ġoro":7814,"Ġmyocardium":7815,"Ġdermoid":7816,"Ġcatt":7817,"Ġurb":7818,"yrinth":7819,"Ġapros":7820,"Ġmonochrom":7821,"Ġcrcs":7822,"Ġcrigler":7823,"Ġgrand":7824,"Ġverlo":7825,"Ġintram":7826,"ritic":7827,"ugu":7828,"Ġnephrocalcinosis":7829,"Ġclaw":7830,"Ġpneumor":7831,"Ġnecroses":7832,"Ġflutter":7833,"amina":7834,"Ġlimit":7835,"orphous":7836,"rostomia":7837,"Ġdiffus":7838,"Ġspinobulbar":7839,"Ġradicular":7840,"Ġparainf":7841,"Ġpsychiatric":7842,"Ġparalytic":7843,"Ġroth":7844,"Ġphosphatase":7845,"Ġamyloidoses":7846,"Ġoval":7847,"Ġparkinsonian":7848,"Ġvarieg":7849,"Ġhistiocytomas":7850,"Ġcongenitas":7851,"Ġhypotonic":7852,"Ġmigrans":7853,"ospinal":7854,"Ġspondyloarth":7855,"Ġmelkers":7856,"Ġmelnick":7857,"Ġherniation":7858,"Ġfollic":7859,"heim":7860,"Ġzone":7861,"Ġpolychond":7862,"Ġductus":7863,"Ġchondro":7864,"asthenia":7865,"Ġembolic":7866,"Ġerythroblastic":7867,"Ġvasculopathy":7868,"Ġnonsphe":7869,"Ġmycobacterial":7870,"Ġhyperlipemias":7871,"Ġmelanomas":7872,"ercular":7873,"Ġarteriosclerotic":7874,"ĠÃ«":7875,"Ġbasophilic":7876,"Ġteebi":7877,"Ġgastritis":7878,"Ġlobular":7879,"Ġhypercortis":7880,"Ġtics":7881,"Ġneuromas":7882,"Ġketosis":7883,"Ġpneumoniae":7884,"Ġremodellings":7885,"Ġconcentric":7886,"Ġgenitalia":7887,"Ġfasciitis":7888,"Ġfronto":7889,"Ġdesmin":7890,"Ġeffusions":7891,"Ġmedulloblastoma":7892,"Ġillusion":7893,"Ġillusions":7894,"odysplasias":7895,"Ġcholesteat":7896,"Ġhypopituitarism":7897,"Ġinvolutional":7898,"Ġglobulin":7899,"Ġoverlo":7900,"Ġtree":7901,"Ġgestosis":7902,"Ġdiaphragm":7903,"Ġcoagul":7904,"ocardi":7905,"Ġtyrosinase":7906,"Ġseborrh":7907,"lebitides":7908,"Ġdisks":7909,"Ġdigit":7910,"Ġpresentation":7911,"Ġwolman":7912,"Ġtetan":7913,"Ġtetralogy":7914,"Ġrubber":7915,"Ġmutant":7916,"Ġmycobacteriosis":7917,"Ġgammap":7918,"Ġworkers":7919,"berger":7920,"Ġmicrocystic":7921,"Ġhypophosphatemia":7922,"Ġasymmet":7923,"Ġaccelerated":7924,"oneuropathies":7925,"Ġfores":7926,"Ġforamina":7927,"Ġstriate":7928,"Ġhydroxyacyl":7929,"Ġsided":7930,"minth":7931,"Ġsilv":7932,"Ġcandidiases":7933,"Ġsacro":7934,"Ġleiomyomatosis":7935,"Ġpericarditis":7936,"Ġpolyradiculoneuropathy":7937,"Ġcyclic":7938,"ajo":7939,"Ġmicrodontia":7940,"Ġrectum":7941,"Ġascites":7942,"ovagin":7943,"Ġresorptions":7944,"Ġbronchiolitis":7945,"Ġarcuate":7946,"Ġatherosclerosis":7947,"Ġvolkmann":7948,"Ġvalgus":7949,"Ġhelminth":7950,"Ġcatatonia":7951,"Ġnmda":7952,"affin":7953,"Ġtransformations":7954,"Ġappendic":7955,"Ġacrocephalosyndactyl":7956,"odynias":7957,"Ġlymphohistiocytoses":7958,"Ġmacroglobulinemia":7959,"Ġdihydrop":7960,"Ġvesico":7961,"Ġcarinatum":7962,"Ġcarinatums":7963,"Ġreticuloendothelioses":7964,"Ġraynaud":7965,"Ġdegrad":7966,"Ġenlargement":7967,"Ġelectro":7968,"Ġwarts":7969,"Ġandersen":7970,"Ġpharyngo":7971,"Ġpromin":7972,"Ġplanus":7973,"Ġdisplacements":7974,"Ġlemli":7975,"Ġsprue":7976,"Ġphysiological":7977,"Ġvaginitis":7978,"Ġthrombocythemia":7979,"Ġdext":7980,"Ġerosion":7981,"Ġvaccinal":7982,"uronidase":7983,"Ġepicanthus":7984,"Ġthree":7985,"Ġareolar":7986,"Ġreckling":7987,"Ġacromegaly":7988,"oxylate":7989,"Ġcholangitis":7990,"Ġmutilation":7991,"Ġmultisystem":7992,"Ġtrypanosomiasis":7993,"Ġcritical":7994,"ojejun":7995,"Ġfisher":7996,"tegration":7997,"uerperal":7998,"Ġdowling":7999,"Ġmanganese":8000,"Ġtumour":8001,"Ġnajjar":8002,"Ġlindau":8003,"Ġalacrima":8004,"Ġplatyspondylic":8005,"Ġcrystalline":8006,"Ġaneup":8007,"Ġmyofascial":8008,"Ġatelosteogenesis":8009,"Ġhereditaria":8010,"Ġaganglionosis":8011,"Ġaphthous":8012,"Ġhyperpyrexia":8013,"Ġnicolau":8014,"Ġkrabbe":8015,"Ġphotoallergic":8016,"Ġdorfman":8017,"Ġtmj":8018,"Ġdisproportion":8019,"Ġantisocial":8020,"Ġlymphoplasmacytoid":8021,"Ġurachal":8022,"Ġmaroteaux":8023,"Ġextrasyst":8024,"Ġrichardson":8025,"Ġkyphoscoliosis":8026,"Ġmodifier":8027,"Ġcryopyrin":8028,"Ġsanfilippo":8029,"felter":8030,"Ġsoulier":8031,"Ġcatheter":8032,"Ġmantle":8033,"Ġmadelung":8034,"Ġrendu":8035,"Ġragged":8036,"Ġklinefelter":8037,"Ġamphetamine":8038,"Ġshprintzen":8039,"Ġangioneurotic":8040,"Ġparainfluenz":8041,"Ġmelkersson":8042,"Ġnonspherocytic":8043,"Ġhypercortisolism":8044,"Ġoverload":8045,"bow":8046,"dr":8047,"ford":8048,"gm":8049,"hem":8050,"hers":8051,"iq":8052,"iella":8053,"kh":8054,"lan":8055,"lory":8056,"ooste":8057,"ped":8058,"porphyrinogen":8059,"rup":8060,"sia":8061,"tb":8062,"uit":8063,"vas":8064,"worm":8065,"wang":8066,"wart":8067,"Ġub":8068,"Ġeast":8069,"Ġitch":8070,"ales":8071,"tii":8072,"Ġdd":8073,"Ġdm":8074,"Ġdop":8075,"Ġdrop":8076,"Ġdrain":8077,"Ġdors":8078,"Ġdark":8079,"Ġsut":8080,"ene":8081,"eni":8082,"enmen":8083,"ini":8084,"onne":8085,"Ġcc":8086,"Ġcf":8087,"Ġcach":8088,"Ġcecal":8089,"arias":8090,"arino":8091,"esmann":8092,"esomelic":8093,"esaur":8094,"Ġpir":8095,"Ġpch":8096,"Ġpied":8097,"icogenic":8098,"ato":8099,"atz":8100,"ature":8101,"Ġmh":8102,"Ġmi":8103,"Ġmeas":8104,"Ġmtd":8105,"omac":8106,"Ġht":8107,"Ġhop":8108,"Ġheal":8109,"Ġhost":8110,"Ġhak":8111,"Ġhay":8112,"Ġhsd":8113,"leph":8114,"Ġaural":8115,"Ġnb":8116,"Ġnos":8117,"Ġnem":8118,"Ġnav":8119,"Ġnermann":8120,"ulous":8121,"uloses":8122,"itting":8123,"usor":8124,"usory":8125,"embran":8126,"Ġfal":8127,"Ġfair":8128,"Ġfrax":8129,"Ġftl":8130,"Ġfemin":8131,"Ġftd":8132,"openias":8133,"Ġiniti":8134,"Ġbc":8135,"Ġbu":8136,"Ġbra":8137,"Ġbase":8138,"Ġburg":8139,"Ġbins":8140,"Ġbald":8141,"Ġlock":8142,"Ġlait":8143,"elast":8144,"acs":8145,"acob":8146,"acral":8147,"activ":8148,"Ġrat":8149,"Ġrash":8150,"Ġriley":8151,"oci":8152,"ocomelia":8153,"uris":8154,"urysm":8155,"Ġgutt":8156,"olon":8157,"olydactyly":8158,"Ġnear":8159,"ther":8160,"Ġeph":8161,"Ġeurop":8162,"Ġvib":8163,"ami":8164,"Ġhypomat":8165,"Ġhypochrom":8166,"Ġdysch":8167,"Ġdysref":8168,"rae":8169,"Ġcha":8170,"Ġchyl":8171,"Ġchik":8172,"odental":8173,"odion":8174,"immel":8175,"iger":8176,"unya":8177,"Ġanencephaly":8178,"Ġanhydrotic":8179,"Ġcontig":8180,"Ġconsum":8181,"Ġacroc":8182,"otes":8183,"otrich":8184,"terinary":8185,"ire":8186,"teleph":8187,"tines":8188,"osomes":8189,"Ġhyperplastic":8190,"Ġatfb":8191,"Ġneuroend":8192,"actable":8193,"rosin":8194,"Ġion":8195,"Ġwid":8196,"Ġwood":8197,"Ġwea":8198,"Ġwhe":8199,"Ġwbs":8200,"Ġwohl":8201,"Ġstrongyl":8202,"Ġparat":8203,"arction":8204,"arcomatous":8205,"obil":8206,"obut":8207,"plasm":8208,"ipoprotein":8209,"ippl":8210,"Ġali":8211,"Ġepul":8212,"Ġinfective":8213,"erebrate":8214,"oplasmic":8215,"Ġkell":8216,"verulent":8217,"Ġthph":8218,"Ġthesaur":8219,"Ġhemipar":8220,"Ġadvanc":8221,"ophan":8222,"Ġreent":8223,"Ġreversible":8224,"oglobulinemia":8225,"oglycer":8226,"Ġproper":8227,"Ġprothrombin":8228,"ostom":8229,"achis":8230,"Ġjeg":8231,"Ġjacob":8232,"Ġtrench":8233,"Ġtrimalleolar":8234,"Ġtriad":8235,"Ġleuko":8236,"onstit":8237,"Ġmaltase":8238,"Ġmallory":8239,"Ġ48":8240,"netii":8241,"Ġreconstit":8242,"tising":8243,"Ġphlebitis":8244,"axis":8245,"abolic":8246,"abry":8247,"Ġscald":8248,"Ġexpos":8249,"Ġmultin":8250,"Ġpostencephal":8251,"Ġoch":8252,"ofac":8253,"Ġmetacar":8254,"roptosis":8255,"ichsen":8256,"Ġlipomatoses":8257,"Ġliposarcoma":8258,"Ġsubd":8259,"Ġ50":8260,"Ġ51":8261,"Ġ59":8262,"Ġpulverulent":8263,"aneurysm":8264,"ochle":8265,"Ġbrenner":8266,"Ġosteoma":8267,"Ġosteomyelitis":8268,"Ġosteolyses":8269,"Ġisa":8270,"Ġanginas":8271,"Ġcystathion":8272,"Ġmyelodysplasia":8273,"Ġmyelodysplastic":8274,"Ġinducible":8275,"Ġthrombocytosis":8276,"Ġtransfer":8277,"Ġaga":8278,"Ġschindler":8279,"Ġschaumann":8280,"Ġassociative":8281,"Ġendodon":8282,"Ġimmunological":8283,"erature":8284,"aval":8285,"yrias":8286,"Ġhydrolase":8287,"Ġorb":8288,"ungunya":8289,"Ġectasia":8290,"Ġclefting":8291,"Ġheaded":8292,"Ġpostin":8293,"Ġintractable":8294,"Ġcarp":8295,"Ġclock":8296,"Ġangiomatous":8297,"Ġobli":8298,"Ġerythrocyte":8299,"ophilias":8300,"lexias":8301,"Ġdiabete":8302,"Ġmedic":8303,"Ġmucoep":8304,"vulsive":8305,"Ġesthes":8306,"Ġcompens":8307,"Ġparaesophageal":8308,"Ġcranium":8309,"Ġcraniometaphyseal":8310,"Ġcraniomandibular":8311,"Ġoculopharyngeal":8312,"Ġimmunodeficiencies":8313,"Ġrobert":8314,"Ġpeutz":8315,"Ġmartin":8316,"Ġdelusory":8317,"Ġvalga":8318,"Ġseptum":8319,"Ġphospholipid":8320,"Ġhematuria":8321,"Ġcholangi":8322,"Ġcholera":8323,"uffy":8324,"Ġhistid":8325,"Ġvenez":8326,"occid":8327,"osporon":8328,"Ġspondylo":8329,"Ġdermatozo":8330,"Ġfold":8331,"Ġfolate":8332,"Ġeclampsia":8333,"leton":8334,"Ġglucoseph":8335,"Ġglucocerebrosidase":8336,"Ġpolyangi":8337,"Ġvariation":8338,"lobulinemic":8339,"Ġlarsen":8340,"Ġmethylmal":8341,"Ġcarbon":8342,"Ġremitting":8343,"Ġasplenia":8344,"awa":8345,"Ġbarber":8346,"Ġtricho":8347,"Ġtrichosporon":8348,"Ġthrombocytopenias":8349,"ieri":8350,"Ġpreinf":8351,"Ġschizoid":8352,"Ġcontraction":8353,"Ġdilation":8354,"Ġtoxicities":8355,"Ġpyre":8356,"Ġarteriosclerosis":8357,"Ġganglioside":8358,"yptophan":8359,"ofibromas":8360,"Ġextrinsic":8361,"phosphate":8362,"Ġhepatoma":8363,"Ġhepatorenal":8364,"Ġdissec":8365,"Ġmicrophthalmos":8366,"Ġgraves":8367,"Ġtrigon":8368,"Ġveterinary":8369,"Ġfancier":8370,"Ġuroporphyrinogen":8371,"Ġcoxiella":8372,"Ġvertiginous":8373,"yelitis":8374,"Ġmidf":8375,"Ġmcard":8376,"Ġhyperglobulinemic":8377,"Ġheterotopic":8378,"Ġmastocytoma":8379,"Ġhyalinoses":8380,"Ġburnetii":8381,"ompens":8382,"Ġmeig":8383,"Ġmeesmann":8384,"Ġmerosin":8385,"Ġphotosensitivity":8386,"Ġcolobomatous":8387,"Ġeffort":8388,"Ġvasospasm":8389,"Ġdysphagia":8390,"Ġreticulosis":8391,"Ġreticuloses":8392,"Ġpapillomas":8393,"Ġrhinitides":8394,"valvar":8395,"ashi":8396,"Ġmyxomatous":8397,"nathia":8398,"Ġhscr":8399,"Ġmetaplasia":8400,"Ġcholestatic":8401,"Ġoveruse":8402,"Ġpuncture":8403,"omegalies":8404,"Ġcollins":8405,"Ġcollodion":8406,"Ġobesities":8407,"Ġpachygyria":8408,"Ġacanthocytosis":8409,"Ġmurine":8410,"Ġaldosterone":8411,"Ġamnesic":8412,"Ġesophagitides":8413,"Ġlabhart":8414,"Ġodontoma":8415,"Ġfungus":8416,"Ġlissencephalies":8417,"Ġlevy":8418,"Ġpreserv":8419,"Ġosteoporoses":8420,"Ġosteopoikil":8421,"Ġfelty":8422,"Ġrobinow":8423,"Ġmerr":8424,"Ġdecerebrate":8425,"Ġrubra":8426,"Ġsponge":8427,"Ġkoyanagi":8428,"Ġsupraventricular":8429,"Ġsupravalvar":8430,"Ġelbow":8431,"Ġurethra":8432,"otoxicity":8433,"Ġfasciculoventricular":8434,"Ġpectoris":8435,"Ġafferent":8436,"Ġrichieri":8437,"Ġanhed":8438,"Ġfibromyositis":8439,"Ġacrodermatitis":8440,"Ġhabermann":8441,"Ġfoodbor":8442,"opsoas":8443,"Ġpachyderm":8444,"cois":8445,"Ġretinoschises":8446,"Ġtetraple":8447,"Ġpapulosquamous":8448,"Ġbarton":8449,"Ġschistosomal":8450,"Ġinstabilities":8451,"Ġharada":8452,"Ġpolyseros":8453,"Ġvertebro":8454,"Ġsomatotropin":8455,"Ġacromesomelic":8456,"Ġtemperature":8457,"Ġmusicogenic":8458,"Ġmolecular":8459,"Ġgefsp":8460,"Ġwaterhouse":8461,"Ġsubclinical":8462,"Ġbronchiolo":8463,"enhar":8464,"Ġnanophthalmos":8465,"Ġhypersomnias":8466,"Ġtaybi":8467,"Ġvalgas":8468,"Ġvalgum":8469,"Ġplasmodium":8470,"Ġethanol":8471,"Ġsubmuc":8472,"Ġcatatonic":8473,"Ġhamman":8474,"Ġcartilaginous":8475,"Ġappendage":8476,"Ġmacroglobulin":8477,"Ġelephantiases":8478,"Ġtonsil":8479,"Ġfrancois":8480,"Ġgoldenhar":8481,"Ġexfoliative":8482,"ioneuroblastoma":8483,"Ġpanniculitides":8484,"Ġcsnb":8485,"Ġpilocytic":8486,"Ġnicotine":8487,"Ġfetofetal":8488,"Ġpolydip":8489,"Ġpolydyst":8490,"Ġpseudotumors":8491,"Ġcafe":8492,"Ġflexib":8493,"Ġbruns":8494,"Ġsymmetrical":8495,"Ġstreptococcus":8496,"Ġaspartyl":8497,"Ġcavus":8498,"Ġnorth":8499,"Ġspiroch":8500,"Ġpredis":8501,"Ġthrombophlebitides":8502,"Ġincisors":8503,"Ġgastroenteritides":8504,"Ġprotozoan":8505,"Ġfertility":8506,"Ġvacuolar":8507,"Ġpharyngoesophageal":8508,"Ġneurilem":8509,"Ġamblyopias":8510,"uyama":8511,"Ġiliopsoas":8512,"Ġsterility":8513,"Ġbruxisms":8514,"Ġoropharyngeal":8515,"Ġfulminating":8516,"Ġhorse":8517,"Ġhemihyp":8518,"Ġirritant":8519,"gesic":8520,"penning":8521,"Ġvermis":8522,"Ġwagr":8523,"Ġproteus":8524,"Ġextramedullary":8525,"Ġventriculomegaly":8526,"Ġstimulating":8527,"Ġlaurence":8528,"Ġvipoma":8529,"Ġstreak":8530,"Ġfibrosarcomatous":8531,"Ġsplenomegaly":8532,"Ġsphenoid":8533,"Ġcicatric":8534,"Ġgaze":8535,"ographic":8536,"omotion":8537,"arylacetoac":8538,"Ġecho":8539,"Ġhypoalphal":8540,"Ġsaturn":8541,"Ġcofactor":8542,"Ġnaeg":8543,"Ġfukuyama":8544,"Ġdysgraph":8545,"Ġalkalosis":8546,"Ġintestines":8547,"Ġnecrotising":8548,"Ġdermatomyositis":8549,"Ġapparent":8550,"Ġpseudohypoparathyroidism":8551,"Ġsituational":8552,"Ġtestes":8553,"Ġhygroma":8554,"Ġfemoroacetabular":8555,"Ġfumarylacetoac":8556,"Ġchilaid":8557,"Ġreciprocal":8558,"Ġexstrophy":8559,"Ġzonular":8560,"Ġambiguus":8561,"Ġelasticum":8562,"Ġchondromalacia":8563,"Ġmorbilliform":8564,"Ġacetylgalactosaminidase":8565,"Ġfundus":8566,"Ġpyeloneph":8567,"Ġmngie":8568,"Ġhapple":8569,"Ġbitemporal":8570,"Ġeisenmen":8571,"Ġventilator":8572,"Ġhypereosinophilic":8573,"Ġintoxication":8574,"Ġmacrosomia":8575,"Ġrestrictive":8576,"Ġintracellulare":8577,"Ġroussy":8578,"Ġdupuytren":8579,"Ġaudiogenic":8580,"Ġmidbrain":8581,"Ġhyperoxal":8582,"Ġdipetalonema":8583,"Ġiridogoniodysgenesis":8584,"Ġelliptocytosis":8585,"Ġbronchiectasis":8586,"oreductase":8587,"Ġdetrusor":8588,"Ġdebrancher":8589,"Ġhypobetalipoproteinemia":8590,"Ġschmid":8591,"Ġpneumorrh":8592,"Ġseborrhe":8593,"Ġforestier":8594,"Ġsacroili":8595,"Ġpiriformis":8596,"Ġmtdps":8597,"Ġnavajo":8598,"embranous":8599,"Ġbinswang":8600,"Ġeuropean":8601,"Ġhypomaturation":8602,"Ġhypochromic":8603,"Ġchikungunya":8604,"Ġcontiguous":8605,"Ġneuroendocrine":8606,"Ġweaver":8607,"Ġthesaurism":8608,"Ġadvanced":8609,"oglycerate":8610,"Ġproperdin":8611,"Ġreconstitution":8612,"Ġscalded":8613,"Ġmetacarpal":8614,"Ġoblique":8615,"Ġdermatozoic":8616,"Ġpreinfarction":8617,"Ġfoodborne":8618,"Ġfumarylacetoacetase":8619,"baum":8620,"cn":8621,"dino":8622,"go":8623,"garis":8624,"hes":8625,"iver":8626,"iqu":8627,"jective":8628,"kl":8629,"kus":8630,"loch":8631,"lers":8632,"med":8633,"medullary":8634,"nh":8635,"otile":8636,"pc":8637,"pro":8638,"pase":8639,"pers":8640,"polydactyly":8641,"ring":8642,"sps":8643,"utier":8644,"uelan":8645,"ueller":8646,"xx":8647,"ytia":8648,"zy":8649,"Ġenc":8650,"Ġung":8651,"time":8652,"erary":8653,"erkal":8654,"Ġdub":8655,"Ġdend":8656,"Ġdrow":8657,"Ġdyx":8658,"Ġdirect":8659,"Ġsus":8660,"Ġsotos":8661,"enosis":8662,"enostomy":8663,"indrom":8664,"onvulsive":8665,"Ġct":8666,"Ġcyp":8667,"Ġcurr":8668,"Ġcacch":8669,"Ġcfe":8670,"Ġcigu":8671,"ission":8672,"estr":8673,"esidi":8674,"Ġpic":8675,"Ġpph":8676,"Ġpep":8677,"Ġpdh":8678,"ano":8679,"Ġmun":8680,"Ġmaf":8681,"Ġmiss":8682,"oretic":8683,"orbital":8684,"Ġtob":8685,"Ġtab":8686,"omm":8687,"ometa":8688,"Ġhg":8689,"Ġhus":8690,"Ġhant":8691,"Ġhnp":8692,"iab":8693,"Ġagen":8694,"Ġnid":8695,"Ġnesidi":8696,"uloplasm":8697,"ulnar":8698,"itel":8699,"usis":8700,"edish":8701,"ems":8702,"Ġfm":8703,"Ġfamil":8704,"Ġflec":8705,"Ġdism":8706,"opo":8707,"opur":8708,"operi":8709,"Ġinverted":8710,"Ġinorganic":8711,"Ġbes":8712,"Ġbul":8713,"Ġbick":8714,"Ġbert":8715,"Ġbbb":8716,"ysip":8717,"Ġlm":8718,"Ġlad":8719,"Ġlysis":8720,"Ġlamin":8721,"Ġlux":8722,"Ġlpl":8723,"Ġldl":8724,"elsen":8725,"acil":8726,"acillary":8727,"Ġrid":8728,"Ġreb":8729,"Ġrams":8730,"oconus":8731,"urnal":8732,"ides":8733,"ilder":8734,"Ġgan":8735,"olaryngeal":8736,"utam":8737,"Ġeuth":8738,"amidase":8739,"amide":8740,"genase":8741,"Ġhypt":8742,"Ġhypom":8743,"umulation":8744,"Ġcher":8745,"Ġchag":8746,"imotor":8747,"ello":8748,"ellig":8749,"Ġanl":8750,"Ġanib":8751,"Ġanast":8752,"Ġanaphyl":8753,"Ġinfund":8754,"Ġinfiltra":8755,"rophag":8756,"ouston":8757,"udness":8758,"udley":8759,"Ġhyperemia":8760,"Ġhyperand":8761,"ylv":8762,"Ġatroph":8763,"Ġattr":8764,"Ġneurop":8765,"Ġneurodermatitis":8766,"Ġneurodermatitides":8767,"Ġie":8768,"Ġip":8769,"inea":8770,"obalamin":8771,"ystectomy":8772,"rone":8773,"Ġalps":8774,"ermias":8775,"Ġprune":8776,"Ġkart":8777,"Ġkau":8778,"Ġarb":8779,"Ġarmd":8780,"Ġhemoside":8781,"Ġadne":8782,"ophytia":8783,"Ġlymphoretic":8784,"oglyc":8785,"Ġprotr":8786,"ostoma":8787,"achond":8788,"ensor":8789,"Ġjerv":8790,"iforn":8791,"ifying":8792,"Ġabuses":8793,"Ġleukemic":8794,"Ġmaloccl":8795,"Ġ44":8796,"apse":8797,"Ġrecogn":8798,"Ġaseptic":8799,"izations":8800,"izontal":8801,"rey":8802,"retinal":8803,"Ġretroc":8804,"oves":8805,"Ġphac":8806,"Ġphyt":8807,"Ġphyll":8808,"Ġimmer":8809,"Ġamput":8810,"Ġamenorrhea":8811,"illus":8812,"othoracic":8813,"Ġexotrop":8814,"mentary":8815,"kins":8816,"Ġiiis":8817,"Ġencephaloceles":8818,"Ġblister":8819,"osteroid":8820,"Ġpostv":8821,"Ġoca":8822,"Ġchromosomes":8823,"Ġnonorganic":8824,"Ġnonmedullary":8825,"ropia":8826,"Ġmicromelic":8827,"Ġpav":8828,"Ġsubt":8829,"Ġsublux":8830,"Ġ53":8831,"Ġshw":8832,"Ġsheld":8833,"Ġopa":8834,"Ġcolli":8835,"Ġosteodystrophy":8836,"Ġcoordination":8837,"Ġangel":8838,"Ġerysip":8839,"Ġthrombasthenia":8840,"Ġtransaminase":8841,"Ġpseudoc":8842,"Ġschueller":8843,"Ġendolymph":8844,"estone":8845,"unctional":8846,"Ġcataple":8847,"roxy":8848,"Ġinsect":8849,"Ġapop":8850,"Ġhydranencephaly":8851,"ayas":8852,"Ġmonone":8853,"Ġcentr":8854,"Ġcenter":8855,"Ġunder":8856,"Ġcriss":8857,"Ġcrisis":8858,"Ġgranule":8859,"Ġnephritides":8860,"Ġangiopathies":8861,"Ġangiokerat":8862,"Ġdiurnal":8863,"Ġcaroli":8864,"Ġmalformed":8865,"Ġpneumocephal":8866,"Ġintraosseous":8867,"Ġintraabdominal":8868,"strom":8869,"Ġsma":8870,"Ġdrinking":8871,"Ġgranulomatoses":8872,"aminidase":8873,"radren":8874,"Ġmucous":8875,"thyretin":8876,"Ġretinoblastoma":8877,"rogl":8878,"Ġichthyoses":8879,"Ġaphonia":8880,"Ġpsychos":8881,"Ġoculocereb":8882,"Ġepidermoid":8883,"Ġmesoblastic":8884,"Ġmesenter":8885,"Ġshortness":8886,"Ġrol":8887,"Ġround":8888,"Ġmarkes":8889,"ansen":8890,"Ġkeratoses":8891,"Ġkeratoconus":8892,"Ġhematopoietic":8893,"Ġenur":8894,"Ġspondylitis":8895,"Ġmoon":8896,"Ġneuraminidase":8897,"Ġgier":8898,"Ġzen":8899,"Ġpolyarthritis":8900,"Ġgalactorrhea":8901,"Ġcalcifying":8902,"Ġsteely":8903,"Ġdfsp":8904,"blestone":8905,"nesium":8906,"Ġswedish":8907,"Ġerythrodermas":8908,"Ġtrichophytia":8909,"Ġsaldino":8910,"Ġbleed":8911,"iere":8912,"Ġmycoses":8913,"Ġpreec":8914,"Ġhyperlipidemias":8915,"Ġtachyarrhythm":8916,"Ġcmm":8917,"Ġpaternal":8918,"Ġlocomotor":8919,"Ġsensorimotor":8920,"plenia":8921,"Ġcaliforn":8922,"Ġhypothalamus":8923,"echiae":8924,"Ġcryptophthalmos":8925,"Ġnielsen":8926,"Ġspheroid":8927,"Ġjoints":8928,"Ġloudness":8929,"Ġattachment":8930,"Ġleukoencephalitides":8931,"Ġgruber":8932,"Ġcomplicated":8933,"roviridae":8934,"Ġbranched":8935,"Ġmcph":8936,"Ġmckus":8937,"arsk":8938,"Ġtelangiectatic":8939,"Ġbowen":8940,"Ġbowing":8941,"Ġamyotrophies":8942,"Ġequival":8943,"Ġburns":8944,"Ġburuli":8945,"Ġsubcorneal":8946,"Ġavascular":8947,"Ġvasa":8948,"Ġvasospasms":8949,"Ġvasoplegic":8950,"atera":8951,"Ġhunermann":8952,"Ġatrio":8953,"Ġmedulloblastomas":8954,"Ġguadal":8955,"Ġguinea":8956,"Ġanagen":8957,"Ġageus":8958,"Ġblepharoptosis":8959,"acco":8960,"otypes":8961,"Ġcolloid":8962,"Ġturc":8963,"Ġtreacher":8964,"Ġvulgaris":8965,"Ġpseudohyperkal":8966,"Ġdiscs":8967,"Ġindirect":8968,"Ġcogan":8969,"Ġarrhythmias":8970,"Ġherpesvirus":8971,"Ġneutropenias":8972,"Ġchoreatic":8973,"Ġscott":8974,"Ġgoutier":8975,"Ġspgf":8976,"Ġrubinstein":8977,"Ġmajewski":8978,"luent":8979,"Ġteratomas":8980,"Ġcerebellopar":8981,"Ġsheep":8982,"Ġsupravalvular":8983,"ozoa":8984,"Ġneuromyelitis":8985,"Ġbehaviors":8986,"Ġbehavioral":8987,"Ġmilroy":8988,"Ġaccumulation":8989,"Ġfibroelast":8990,"ermaphroditisms":8991,"inester":8992,"Ġhydroxybut":8993,"Ġlentigines":8994,"Ġmucolipidoses":8995,"oendothelioma":8996,"Ġppk":8997,"Ġwillis":8998,"Ġpemphigoids":8999,"Ġhurst":9000,"Ġintolerances":9001,"Ġrhabdoid":9002,"Ġhabitus":9003,"Ġhemianopia":9004,"Ġhemianopias":9005,"Ġhemianopsia":9006,"Ġhemianopsias":9007,"Ġmaculopathy":9008,"Ġnonconvulsive":9009,"Ġplantaris":9010,"Ġoculoauriculovertebral":9011,"Ġdiastasis":9012,"Ġhyperthyroidism":9013,"Ġcystadenoma":9014,"Ġthyrotoxic":9015,"Ġshiga":9016,"Ġmyokymias":9017,"ajara":9018,"Ġhidradren":9019,"oclavicular":9020,"Ġomodysplasia":9021,"Ġadhesions":9022,"ohypertrophy":9023,"Ġbronchiolitides":9024,"Ġvitreoretin":9025,"Ġtakayas":9026,"Ġwells":9027,"Ġchorioretinopathy":9028,"Ġlactate":9029,"Ġstevenson":9030,"glutaric":9031,"Ġonc":9032,"Ġhelic":9033,"Ġconstriction":9034,"Ġcatatonias":9035,"Ġcitrullinemias":9036,"Ġoligodendrogliomas":9037,"Ġhammond":9038,"Ġhypocalciuric":9039,"Ġependymomas":9040,"Ġoxidoreductase":9041,"Ġbrachyteleph":9042,"Ġtietz":9043,"ofollic":9044,"Ġimmotile":9045,"Ġfoveomac":9046,"Ġmigrations":9047,"Ġbelly":9048,"Ġmyhre":9049,"Ġpustulosis":9050,"Ġhypomyelination":9051,"Ġhdlcq":9052,"Ġmegakaryoblastic":9053,"equal":9054,"Ġoropharynx":9055,"Ġendometrium":9056,"Ġfusariosis":9057,"Ġfusarioses":9058,"Ġcopper":9059,"Ġtalip":9060,"Ġhorizontal":9061,"odentate":9062,"Ġinfluenza":9063,"Ġleukoplakia":9064,"Ġpneumothoraxs":9065,"Ġvaginitides":9066,"Ġportugu":9067,"Ġthomson":9068,"Ġthomsen":9069,"Ġprocessing":9070,"Ġthrombocythemias":9071,"Ġechinococcosis":9072,"Ġnonfamilial":9073,"Ġnonfluent":9074,"Ġmoniliasis":9075,"Ġballoon":9076,"Ġlumbar":9077,"Ġalveolitis":9078,"Ġkeloidal":9079,"Ġlymphangiectasia":9080,"Ġesotropia":9081,"Ġesotropias":9082,"Ġbrachymes":9083,"Ġcraniopharyngioma":9084,"Ġcraniopharyngiomas":9085,"Ġchondrodystrophy":9086,"Ġmethylcrotonylglyc":9087,"agonoma":9088,"Ġklump":9089,"Ġsphingomyelinase":9090,"Ġthromboembolism":9091,"Ġlivedo":9092,"Ġohdo":9093,"Ġcobblestone":9094,"Ġencephalomyopathic":9095,"Ġradioulnar":9096,"Ġsarcoidosis":9097,"Ġstricture":9098,"Ġsenior":9099,"Ġegg":9100,"Ġkenned":9101,"Ġsarcoglycan":9102,"Ġequinus":9103,"Ġtympanic":9104,"Ġgoodman":9105,"Ġholmes":9106,"Ġenterocolitis":9107,"opalatodigital":9108,"Ġdyssynergia":9109,"Ġconvergence":9110,"Ġbinasal":9111,"Ġbinge":9112,"oduodenostomy":9113,"Ġcoarctation":9114,"Ġagranulocytosis":9115,"Ġhypotensions":9116,"Ġhydroxyphenyl":9117,"ammaglobulinemias":9118,"Ġhyperchylomicronemia":9119,"Ġsupernumerary":9120,"Ġbuckley":9121,"Ġproliferation":9122,"Ġmarginal":9123,"Ġmaxillofacial":9124,"ineralization":9125,"Ġcohen":9126,"Ġmagnesium":9127,"Ġbmiq":9128,"rosteosis":9129,"Ġscratch":9130,"Ġfraser":9131,"Ġverloes":9132,"Ġasymmetry":9133,"Ġacrocephalosyndactylies":9134,"Ġprominent":9135,"ojejunostomy":9136,"Ġaneuploid":9137,"Ġhakim":9138,"Ġftld":9139,"Ġionizing":9140,"Ġkelly":9141,"Ġexposure":9142,"Ġvenezuelan":9143,"Ġmethylmalonyl":9144,"Ġmcardle":9145,"Ġosteopoikilosis":9146,"Ġmacroglobulinaemia":9147,"Ġnaegeli":9148,"Ġcurrarino":9149,"Ġcfeom":9150,"Ġciguatera":9151,"Ġmafd":9152,"Ġtobacco":9153,"Ġbickel":9154,"Ġbertrand":9155,"Ġlaminar":9156,"Ġramsay":9157,"Ġchagas":9158,"Ġanastom":9159,"Ġinfundib":9160,"Ġadnex":9161,"Ġjervell":9162,"Ġrecognition":9163,"Ġphyllodes":9164,"Ġimmersion":9165,"Ġexotropia":9166,"Ġsheldon":9167,"Ġerysipel":9168,"Ġendolymphatic":9169,"Ġpneumocephalus":9170,"Ġcalifornia":9171,"Ġmckusick":9172,"Ġequivalent":9173,"Ġguadalajara":9174,"Ġpseudohyperkalemia":9175,"Ġgoutieres":9176,"Ġcerebelloparenchymal":9177,"Ġfoveomacular":9178,"Ġportuguese":9179,"Ġmethylcrotonylglycinuria":9180,"bur":9181,"bite":9182,"eo":9183,"eus":9184,"euk":9185,"fec":9186,"fusions":9187,"farin":9188,"gda":9189,"hiasis":9190,"ient":9191,"jb":9192,"kit":9193,"kam":9194,"lich":9195,"lak":9196,"lonus":9197,"mor":9198,"nuclear":9199,"naviridae":9200,"otia":9201,"pontine":9202,"ris":9203,"rac":9204,"rell":9205,"rion":9206,"sz":9207,"sad":9208,"sug":9209,"tac":9210,"uent":9211,"uft":9212,"vs":9213,"yos":9214,"ziger":9215,"Ġrom":9216,"ali":9217,"room":9218,"roplastic":9219,"rointestinal":9220,"rough":9221,"roblastoma":9222,"tium":9223,"Ġdenti":9224,"Ġsd":9225,"Ġsic":9226,"Ġsun":9227,"Ġsne":9228,"Ġsak":9229,"Ġsna":9230,"enohumeral":9231,"inar":9232,"inia":9233,"onc":9234,"onim":9235,"onym":9236,"onium":9237,"Ġcac":9238,"Ġcath":9239,"Ġcyl":9240,"Ġcoccid":9241,"asmus":9242,"arn":9243,"arus":9244,"arch":9245,"arson":9246,"Ġpm":9247,"Ġped":9248,"Ġpec":9249,"Ġpent":9250,"Ġpock":9251,"Ġpuerperal":9252,"Ġpuffy":9253,"icz":9254,"ania":9255,"antin":9256,"atose":9257,"Ġmt":9258,"Ġmv":9259,"Ġmol":9260,"Ġmert":9261,"Ġmush":9262,"Ġmks":9263,"Ġmfm":9264,"oria":9265,"orhin":9266,"osas":9267,"osoma":9268,"osity":9269,"osedi":9270,"Ġtro":9271,"Ġton":9272,"Ġtod":9273,"Ġtrous":9274,"Ġtoni":9275,"Ġtamp":9276,"omial":9277,"omembranous":9278,"Ġhc":9279,"Ġhr":9280,"Ġhies":9281,"Ġherm":9282,"Ġhyt":9283,"Ġhisian":9284,"leaf":9285,"Ġais":9286,"Ġaromat":9287,"Ġaplastic":9288,"Ġaarsk":9289,"Ġnr":9290,"Ġnyc":9291,"Ġnatal":9292,"Ġnemat":9293,"Ġnaff":9294,"Ġsynch":9295,"Ġsynpolydactyly":9296,"itamin":9297,"itable":9298,"ypsin":9299,"edia":9300,"Ġfec":9301,"Ġfhl":9302,"Ġfitz":9303,"Ġfecal":9304,"Ġfraum":9305,"Ġfabry":9306,"Ġdistic":9307,"Ġdisjunction":9308,"opd":9309,"opall":9310,"opterin":9311,"Ġinad":9312,"Ġinner":9313,"Ġincrease":9314,"Ġinequal":9315,"Ġbud":9316,"Ġbang":9317,"Ġbuch":9318,"Ġbaz":9319,"ystitis":9320,"Ġlp":9321,"Ġlv":9322,"Ġlis":9323,"Ġller":9324,"Ġlok":9325,"Ġlump":9326,"acul":9327,"Ġruv":9328,"Ġrcd":9329,"ticis":9330,"ocomial":9331,"Ġdew":9332,"Ġdecrease":9333,"urida":9334,"idurias":9335,"ectin":9336,"Ġga":9337,"Ġgc":9338,"Ġgraden":9339,"Ġgjb":9340,"entulous":9341,"etast":9342,"thle":9343,"utsug":9344,"Ġea":9345,"Ġehr":9346,"amy":9347,"amush":9348,"Ġhypochond":9349,"Ġhypopharyngeal":9350,"Ġdysb":9351,"Ġdysseg":9352,"Ġchds":9353,"Ġchudley":9354,"odia":9355,"sile":9356,"siveness":9357,"imia":9358,"Ġanore":9359,"Ġanca":9360,"Ġacl":9361,"Ġacamp":9362,"Ġacrorenal":9363,"otarsal":9364,"irrh":9365,"teine":9366,"Ġmyofacial":9367,"yma":9368,"ymen":9369,"ymethyl":9370,"Ġhyperv":9371,"Ġhyperkerat":9372,"Ġhyperaldosteronism":9373,"ylosis":9374,"Ġsprain":9375,"Ġspider":9376,"Ġatd":9377,"Ġatod":9378,"acted":9379,"rose":9380,"rosus":9381,"Ġwel":9382,"Ġstab":9383,"Ġstability":9384,"Ġstabilities":9385,"Ġparis":9386,"Ġpartum":9387,"ipoproteinemias":9388,"Ġalpers":9389,"Ġalstrom":9390,"Ġaleuk":9391,"Ġprep":9392,"Ġking":9393,"verleaf":9394,"Ġthec":9395,"Ġtherapeutic":9396,"Ġ39":9397,"Ġaren":9398,"Ġhemostatic":9399,"ophalangeal":9400,"Ġcellulitis":9401,"Ġlymphotropic":9402,"Ġlymphomatoid":9403,"Ġglm":9404,"Ġglenohumeral":9405,"trypsin":9406,"ognath":9407,"Ġprower":9408,"uki":9409,"Ġjoh":9410,"Ġjew":9411,"Ġjanz":9412,"Ġperia":9413,"Ġperim":9414,"Ġperip":9415,"Ġperineural":9416,"Ġpervasive":9417,"Ġtryptophan":9418,"Ġleukomalacia":9419,"Ġleukomalacias":9420,"Ġsez":9421,"ydactyl":9422,"Ġcomatose":9423,"Ġass":9424,"Ġasrt":9425,"reh":9426,"Ġretrob":9427,"Ġretained":9428,"Ġphocomelia":9429,"tibial":9430,"Ġamish":9431,"axia":9432,"abas":9433,"ogenetic":9434,"Ġscirrh":9435,"othymic":9436,"rocard":9437,"lyte":9438,"mund":9439,"kinesis":9440,"Ġiiid":9441,"seau":9442,"Ġpalms":9443,"ohisian":9444,"Ġblunt":9445,"Ġpostmen":9446,"allow":9447,"Ġmultimin":9448,"gression":9449,"gruent":9450,"omaternal":9451,"Ġnont":9452,"Ġnonne":9453,"Ġnoncle":9454,"ropin":9455,"ropion":9456,"ichia":9457,"Ġfibromatoses":9458,"Ġshep":9459,"owitz":9460,"Ġopd":9461,"Ġopsoc":9462,"Ġopales":9463,"ocheil":9464,"Ġbruton":9465,"Ġbrgda":9466,"ycephaly":9467,"Ġgenomic":9468,"Ġgenome":9469,"Ġosteomas":9470,"Ġosteosarcoma":9471,"eningeal":9472,"Ġisland":9473,"Ġcoq":9474,"Ġfrider":9475,"lices":9476,"Ġtransfusions":9477,"aka":9478,"Ġagm":9479,"Ġaging":9480,"Ġschilder":9481,"otorenal":9482,"Ġmeningomyel":9483,"Ġoat":9484,"Ġcatech":9485,"ava":9486,"yrim":9487,"Ġhydroneph":9488,"ayer":9489,"Ġsclerosus":9490,"Ġcentrocytic":9491,"Ġunst":9492,"Ġpoint":9493,"Ġcrushing":9494,"astrointestinal":9495,"Ġvernal":9496,"Ġverticis":9497,"Ġcaries":9498,"Ġcarey":9499,"Ġnephros":9500,"Ġnephropathic":9501,"Ġcll":9502,"Ġangiosarcoma":9503,"Ġdiph":9504,"Ġnervosa":9505,"Ġobl":9506,"Ġerythr":9507,"Ġhearts":9508,"Ġsleeper":9509,"lexic":9510,"alcaba":9511,"efe":9512,"storp":9513,"veld":9514,"Ġsmd":9515,"Ġsmed":9516,"Ġflushing":9517,"Ġmedium":9518,"aminergic":9519,"osexual":9520,"Ġsuppr":9521,"etales":9522,"Ġescher":9523,"Ġautokinetic":9524,"Ġpsychosexual":9525,"Ġpapilledema":9526,"Ġtuberculoid":9527,"Ġmesenchymal":9528,"Ġvesical":9529,"Ġperiodont":9530,"Ġrokit":9531,"Ġpearson":9532,"Ġmarmor":9533,"Ġnodal":9534,"Ġnodding":9535,"omyelia":9536,"Ġsepto":9537,"Ġphosphoglycerate":9538,"Ġproteins":9539,"Ġovotes":9540,"Ġlowe":9541,"uffard":9542,"Ġ135":9543,"Ġgalen":9544,"Ġpalmar":9545,"Ġpalmaris":9546,"Ġspondylosis":9547,"Ġherniated":9548,"Ġprostatitis":9549,"Ġchorio":9550,"Ġivs":9551,"arthrosis":9552,"Ġpolyostotic":9553,"till":9554,"Ġhydroxymethyl":9555,"Ġsteatosis":9556,"Ġfactors":9557,"Ġextensi":9558,"Ġdfsps":9559,"Ġmitochondria":9560,"Ġyin":9561,"Ġhallermann":9562,"Ġoxoprol":9563,"Ġoxyphil":9564,"Ġbronchogenic":9565,"Ġsimian":9566,"blatt":9567,"Ġhemangiomatosis":9568,"Ġhemangioperic":9569,"Ġpseudoachond":9570,"osyltransferase":9571,"icularis":9572,"Ġembolus":9573,"Ġswallow":9574,"Ġtrichin":9575,"Ġtrichomonas":9576,"Ġtrichorhin":9577,"ulfov":9578,"Ġschizencephalic":9579,"bery":9580,"Ġmorax":9581,"Ġaxial":9582,"Ġdysmet":9583,"Ġotosclerosis":9584,"Ġotolaryng":9585,"Ġpyelect":9586,"Ġpykn":9587,"Ġpatellar":9588,"olipomas":9589,"Ġquerv":9590,"Ġlocomotion":9591,"plt":9592,"Ġcalici":9593,"Ġantiphosph":9594,"Ġantitrypsin":9595,"Ġherpeti":9596,"Ġrodent":9597,"osynov":9598,"Ġgraefe":9599,"Ġtriglycer":9600,"Ġminus":9601,"Ġmineral":9602,"Ġminicore":9603,"Ġgingivitides":9604,"upted":9605,"Ġdentine":9606,"Ġcytogenetic":9607,"Ġprotop":9608,"Ġaches":9609,"Ġlambd":9610,"Ġsulfatid":9611,"Ġgrinding":9612,"opolysyndactyly":9613,"accharide":9614,"Ġedentulous":9615,"arseness":9616,"Ġslo":9617,"Ġdesulfov":9618,"Ġextrapontine":9619,"obacteriaceae":9620,"Ġmeval":9621,"Ġmeara":9622,"Ġganglionic":9623,"Ġvasogenic":9624,"Ġreticulum":9625,"ediens":9626,"Ġatriohisian":9627,"Ġpapillitis":9628,"nathism":9629,"Ġsequestr":9630,"Ġspasmodic":9631,"Ġathle":9632,"Ġthalassemias":9633,"Ġtoxemia":9634,"Ġhypopnea":9635,"uccinase":9636,"Ġoverd":9637,"Ġoveractive":9638,"Ġpolymyositis":9639,"Ġcollapse":9640,"Ġpagets":9641,"Ġauriculo":9642,"Ġarginase":9643,"Ġvestibulopathy":9644,"ustment":9645,"Ġgestural":9646,"Ġcystitis":9647,"asmidia":9648,"Ġacanthocheil":9649,"Ġolivo":9650,"robial":9651,"Ġmega":9652,"Ġankyloses":9653,"Ġanalgesic":9654,"Ġlepromatous":9655,"Ġpolyploid":9656,"Ġhomonym":9657,"Ġlipoproteinemias":9658,"Ġrobinson":9659,"Ġadhd":9660,"Ġxanthomatoses":9661,"Ġembryo":9662,"Ġembryonic":9663,"Ġantral":9664,"Ġspongy":9665,"Ġmulticore":9666,"Ġextremely":9667,"ulean":9668,"Ġeczemas":9669,"Ġhypophosphatasia":9670,"Ġinfants":9671,"choline":9672,"Ġstriatal":9673,"Ġstriata":9674,"Ġhydroxyglutaric":9675,"Ġorganothi":9676,"Ġhyperglycemic":9677,"Ġcerebroocul":9678,"Ġcircum":9679,"Ġcircadian":9680,"Ġweights":9681,"Ġlentiginoses":9682,"Ġhodgkins":9683,"Ġacrooste":9684,"Ġsilo":9685,"Ġcondyl":9686,"Ġparagonim":9687,"Ġsepticemia":9688,"Ġsepticaemia":9689,"okalemic":9690,"Ġorthomyx":9691,"Ġleiomyoma":9692,"Ġonychodysplasia":9693,"rotropin":9694,"Ġlingu":9695,"Ġpolyradiculopathy":9696,"Ġpolyradiculopathies":9697,"Ġossif":9698,"emberm":9699,"Ġschistosoma":9700,"Ġnarcotic":9701,"Ġthyrotropin":9702,"Ġcyclothymic":9703,"Ġmodels":9704,"Ġmoderate":9705,"adrenal":9706,"Ġosteochondrodysplasia":9707,"Ġvertebrae":9708,"Ġsteroidogenesis":9709,"Ġurolithiasis":9710,"Ġascar":9711,"Ġprolongation":9712,"alanine":9713,"Ġsurgery":9714,"Ġcursive":9715,"Ġbabes":9716,"Ġphenylalanine":9717,"ouzy":9718,"Ġarci":9719,"Ġtako":9720,"Ġatheroscleroses":9721,"Ġbroken":9722,"Ġvaricose":9723,"Ġvaricella":9724,"Ġethm":9725,"Ġfrey":9726,"Ġlymphangioma":9727,"Ġhypercholesterolemias":9728,"Ġhoarseness":9729,"Ġhypocalcemia":9730,"Ġhypocalciuria":9731,"Ġspleens":9732,"Ġquadriplegia":9733,"Ġcollagenous":9734,"Ġudd":9735,"Ġuncompens":9736,"Ġnsrd":9737,"Ġfranc":9738,"Ġebola":9739,"Ġtime":9740,"Ġfetomaternal":9741,"Ġbacteroid":9742,"Ġgroen":9743,"Ġgroove":9744,"Ġdeliriums":9745,"Ġschizophreniform":9746,"Ġcrohn":9747,"Ġtsubo":9748,"Ġtsutsug":9749,"Ġgyrate":9750,"Ġimmediate":9751,"Ġmetatropic":9752,"Ġgynecologic":9753,"Ġanterograde":9754,"Ġleishmaniases":9755,"Ġpkd":9756,"Ġnaga":9757,"Ġlaron":9758,"Ġadipic":9759,"Ġretropos":9760,"Ġellis":9761,"Ġbulbo":9762,"Ġbulbospinal":9763,"Ġanderson":9764,"epsin":9765,"Ġmusculorum":9766,"Ġneedle":9767,"Ġarticulatory":9768,"Ġsteatocyst":9769,"Ġendometrioid":9770,"Ġaccident":9771,"Ġaccidental":9772,"Ġconstrictive":9773,"Ġcaspase":9774,"arteri":9775,"Ġtenosynov":9776,"Ġlemierre":9777,"Ġhyperkalemia":9778,"Ġleukoplakias":9779,"Ġretroverted":9780,"Ġphysical":9781,"Ġhidradenitis":9782,"Ġhemicranias":9783,"Ġfurrow":9784,"Ġlandouzy":9785,"Ġgeographic":9786,"Ġvermicularis":9787,"Ġwagner":9788,"Ġproteostasis":9789,"Ġprogressi":9790,"Ġmetastatic":9791,"Ġideomotor":9792,"Ġideational":9793,"Ġextramammary":9794,"Ġnocardiosis":9795,"Ġnocardioses":9796,"Ġloeff":9797,"Ġchlamydophila":9798,"Ġechinococcoses":9799,"Ġstimulus":9800,"Ġbradycard":9801,"Ġgamstorp":9802,"Ġthreat":9803,"Ġmegacolon":9804,"Ġhyperlysinemia":9805,"Ġduring":9806,"Ġnormokalemic":9807,"Ġbdplt":9808,"Ġbacteremia":9809,"Ġgazali":9810,"Ġxiii":9811,"Ġisomerism":9812,"Ġclubfoot":9813,"Ġmansoni":9814,"Ġstomatocytosis":9815,"Ġstomatognath":9816,"Ġcytomegalic":9817,"Ġsphingomyelin":9818,"Ġlivedoid":9819,"Ġsteinert":9820,"Ġfissure":9821,"Ġdebre":9822,"Ġwarfarin":9823,"Ġglioblastoma":9824,"Ġcholecystitis":9825,"Ġpasteurella":9826,"Ġotorhinolaryngological":9827,"Ġotorhinolaryngologic":9828,"Ġsores":9829,"Ġsuccinyl":9830,"Ġhanhart":9831,"ochoroidopathy":9832,"Ġnecrobiotic":9833,"ferritin":9834,"Ġtapetoretinal":9835,"Ġaortitis":9836,"idermoid":9837,"Ġkinesthetic":9838,"Ġadducted":9839,"Ġcloverleaf":9840,"Ġfloor":9841,"Ġdesquamative":9842,"Ġhippel":9843,"Ġmercurialism":9844,"Ġdiscrimination":9845,"hauser":9846,"Ġstings":9847,"Ġcerulean":9848,"Ġcantrell":9849,"Ġponto":9850,"Ġflea":9851,"Ġaltitudinal":9852,"Ġimbalance":9853,"Ġfreckle":9854,"Ġengelmann":9855,"Ġtachypnea":9856,"fibrinogenemia":9857,"oepithelioma":9858,"Ġsialadenitis":9859,"Ġquadriplegic":9860,"Ġmicronuclei":9861,"Ġtogaviridae":9862,"Ġconjug":9863,"Ġkaryotype":9864,"Ġareflexic":9865,"Ġcaudal":9866,"Ġthoracoabdominal":9867,"Ġaqueductal":9868,"reliosis":9869,"Ġighd":9870,"Ġsouth":9871,"Ġsomnolence":9872,"Ġceramidase":9873,"Ġewing":9874,"Ġelectric":9875,"Ġstuart":9876,"Ġadjustment":9877,"Ġrelease":9878,"Ġphalanges":9879,"Ġexertional":9880,"Ġmicrometast":9881,"Ġmyelofibrosis":9882,"Ġcattle":9883,"Ġrothmund":9884,"Ġsilverman":9885,"Ġhelminthiasis":9886,"Ġdihydropyrim":9887,"Ġelectrolyte":9888,"Ġdextrocard":9889,"Ġrecklinghausen":9890,"Ġdorsal":9891,"Ġmeasles":9892,"Ġnosocomial":9893,"Ġfalse":9894,"Ġinitiation":9895,"Ġchauffard":9896,"Ġconsumption":9897,"Ġwheat":9898,"Ġpostencephalitic":9899,"Ġochron":9900,"Ġisaacs":9901,"Ġpostinfec":9902,"Ġmucoepidermoid":9903,"Ġpyrexial":9904,"Ġtrigonocephaly":9905,"Ġpreserved":9906,"Ġcicatricial":9907,"Ġchilaiditi":9908,"Ġeisenmenger":9909,"Ġhyperoxaluria":9910,"Ġseborrheic":9911,"Ġbinswanger":9912,"Ġdendritic":9913,"Ġdrowning":9914,"Ġpicorn":9915,"Ġhantavirus":9916,"Ġhnpcc":9917,"Ġnesidioblast":9918,"Ġdismemberm":9919,"Ġrebound":9920,"Ġeuthyroid":9921,"Ġhyperandrogen":9922,"Ġarbovirus":9923,"Ġhemosiderosis":9924,"Ġmalocclusion":9925,"Ġcataplexy":9926,"Ġangiokeratoma":9927,"Ġmarkesbery":9928,"Ġpreeclampsia":9929,"Ġhydroxybutyric":9930,"Ġtalipes":9931,"Ġklumpke":9932,"Ġkennedy":9933,"Ġanastomotic":9934,"Ġadnexal":9935,"yoshi":9936,"Ġsnake":9937,"Ġcathepsin":9938,"Ġmushroom":9939,"osediphosphatase":9940,"Ġtrousseau":9941,"Ġtamponad":9942,"Ġaromatase":9943,"Ġaarskog":9944,"Ġnaffziger":9945,"Ġfraumeni":9946,"Ġdistichiasis":9947,"opallid":9948,"Ġbuchem":9949,"Ġloken":9950,"Ġruvalcaba":9951,"Ġehrlich":9952,"amushi":9953,"Ġdyssegmental":9954,"Ġacampomelic":9955,"Ġretrobulbar":9956,"Ġscirrhous":9957,"Ġpostmenopausal":9958,"Ġmultiminicore":9959,"Ġnoncleaved":9960,"Ġopsoclonus":9961,"Ġopalescent":9962,"Ġfriderichsen":9963,"Ġcatechol":9964,"Ġunstable":9965,"Ġescherichia":9966,"Ġrokitansky":9967,"Ġovotesticular":9968,"Ġextensively":9969,"Ġswallowing":9970,"Ġtrichorhinophalangeal":9971,"Ġantiphospholipid":9972,"Ġherpetiformis":9973,"Ġhomonymous":9974,"Ġtsutsugamushi":9975,"Ġstomatognathic":9976,"Ġpostinfectious":9977,"00":9978,"aemic":9979,"agener":9980,"bu":9981,"cad":9982,"ceral":9983,"copic":9984,"ei":9985,"erod":9986,"eorge":9987,"fava":9988,"gable":9989,"hm":9990,"hel":9991,"ham":9992,"hof":9993,"ieth":9994,"lor":9995,"lenh":9996,"nf":9997,"nus":9998,"nig":9999,"nox":10000,"nair":10001,"par":10002,"pan":10003,"pric":10004,"relia":10005,"sson":10006,"sack":10007,"tter":10008,"uated":10009,"uill":10010,"uana":10011,"uosity":10012,"vo":10013,"vr":10014,"water":10015,"yle":10016,"yhan":10017,"zation":10018,"Ġit":10019,"Ġow":10020,"Ġrog":10021,"align":10022,"roduc":10023,"ties":10024,"erens":10025,"eruloplasm":10026,"Ġdk":10027,"Ġdot":10028,"Ġsth":10029,"Ġsyd":10030,"Ġsap":10031,"Ġsuff":10032,"Ġsister":10033,"Ġsodium":10034,"ened":10035,"enuated":10036,"inatory":10037,"onodular":10038,"Ġci":10039,"Ġcen":10040,"Ġcum":10041,"Ġcad":10042,"Ġcst":10043,"Ġcroup":10044,"Ġcush":10045,"Ġcoff":10046,"Ġcvid":10047,"Ġcjd":10048,"aret":10049,"areses":10050,"istr":10051,"eshe":10052,"Ġpental":10053,"Ġporph":10054,"Ġpfic":10055,"Ġpcc":10056,"Ġpads":10057,"Ġputam":10058,"icemia":10059,"anes":10060,"ates":10061,"atoses":10062,"atrial":10063,"atabolic":10064,"Ġmm":10065,"Ġmies":10066,"Ġmea":10067,"Ġmik":10068,"Ġmhs":10069,"Ġmopd":10070,"orectal":10071,"Ġtem":10072,"Ġtall":10073,"Ġtort":10074,"Ġtau":10075,"Ġtsh":10076,"Ġtdh":10077,"Ġhfe":10078,"Ġhutter":10079,"Ġhymen":10080,"iafava":10081,"Ġazo":10082,"Ġauric":10083,"Ġawareness":10084,"Ġakinesia":10085,"Ġnat":10086,"Ġnile":10087,"Ġnaus":10088,"Ġnova":10089,"Ġnckeberg":10090,"Ġnyhan":10091,"ulus":10092,"ulitides":10093,"ulating":10094,"ulman":10095,"itrous":10096,"ypass":10097,"eder":10098,"eddon":10099,"emer":10100,"Ġfolic":10101,"Ġford":10102,"Ġfuj":10103,"opr":10104,"opy":10105,"oppy":10106,"Ġbon":10107,"Ġbic":10108,"Ġbos":10109,"Ġbut":10110,"Ġbony":10111,"Ġbaker":10112,"Ġbypass":10113,"Ġlid":10114,"Ġlutz":10115,"Ġlaz":10116,"Ġlosing":10117,"Ġlayer":10118,"elon":10119,"elson":10120,"Ġrit":10121,"Ġrim":10122,"Ġrsh":10123,"Ġrls":10124,"Ġrasmus":10125,"ocin":10126,"ocapillary":10127,"Ġdeglu":10128,"urati":10129,"ilian":10130,"ilobar":10131,"ecial":10132,"ecox":10133,"Ġgs":10134,"Ġgem":10135,"Ġgord":10136,"Ġgnath":10137,"Ġgbb":10138,"olent":10139,"olact":10140,"ente":10141,"entary":10142,"vex":10143,"eteral":10144,"Ġeul":10145,"Ġeec":10146,"Ġvers":10147,"amylase":10148,"amberg":10149,"Ġhypoac":10150,"Ġhypour":10151,"Ġdeferens":10152,"umin":10153,"Ġdysth":10154,"Ġdyscr":10155,"Ġdyskinetic":10156,"Ġche":10157,"Ġchot":10158,"odactyl":10159,"imentary":10160,"igar":10161,"unning":10162,"Ġanorectal":10163,"omavirus":10164,"Ġconus":10165,"Ġconotr":10166,"Ġconvex":10167,"inger":10168,"Ġacs":10169,"Ġaction":10170,"ranc":10171,"iest":10172,"irection":10173,"Ġmyoglob":10174,"Ġmyopias":10175,"Ġmyomelan":10176,"chal":10177,"Ġhyperesthesia":10178,"Ġhyperesthesias":10179,"Ġhyperferritin":10180,"ebral":10181,"Ġatp":10182,"Ġatrich":10183,"Ġneurovis":10184,"Ġips":10185,"Ġwt":10186,"Ġward":10187,"Ġwine":10188,"Ġwitt":10189,"Ġwiss":10190,"Ġwester":10191,"Ġwander":10192,"Ġwieth":10193,"adia":10194,"adip":10195,"Ġstap":10196,"Ġstarg":10197,"Ġparad":10198,"Ġparry":10199,"obrach":10200,"obloch":10201,"ipa":10202,"Ġepm":10203,"Ġpring":10204,"Ġkas":10205,"Ġkink":10206,"Ġkoch":10207,"Ġkuster":10208,"Ġthro":10209,"Ġheme":10210,"Ġhemeral":10211,"ymphoblastic":10212,"ophalangy":10213,"Ġreim":10214,"Ġregression":10215,"Ġlymphocytosis":10216,"Ġglanz":10217,"atis":10218,"ostrongyl":10219,"ukenberg":10220,"ensis":10221,"Ġjones":10222,"Ġjean":10223,"ified":10224,"ifunctional":10225,"Ġtruncal":10226,"Ġtrifunctional":10227,"encephalitis":10228,"Ġleukosis":10229,"Ġleukoses":10230,"Ġcompr":10231,"Ġasa":10232,"Ġash":10233,"Ġpoland":10234,"inkel":10235,"Ġheub":10236,"oval":10237,"Ġpha":10238,"Ġphp":10239,"Ġphalangeal":10240,"nesses":10241,"quois":10242,"abis":10243,"ills":10244,"illing":10245,"othiolase":10246,"Ġcore":10247,"Ġcorne":10248,"ionyl":10249,"ionasal":10250,"Ġpalatal":10251,"Ġblo":10252,"Ġpostm":10253,"Ġprime":10254,"allosal":10255,"gren":10256,"omatosa":10257,"Ġnoninf":10258,"Ġnongo":10259,"Ġmetal":10260,"roporphyria":10261,"Ġparoti":10262,"key":10263,"Ġlips":10264,"Ġliposarcomas":10265,"Ġsubnormal":10266,"Ġsubjective":10267,"Ġshfm":10268,"Ġshoke":10269,"Ġintention":10270,"Ġoperative":10271,"Ġoppen":10272,"Ġoptb":10273,"yce":10274,"Ġcolitides":10275,"Ġosteodysplasia":10276,"Ġosteoclastic":10277,"Ġadenyl":10278,"Ġisomal":10279,"Ġcole":10280,"Ġcystoid":10281,"Ġmyelomas":10282,"Ġmyelopathic":10283,"Ġmyeloblastic":10284,"Ġmyelomening":10285,"Ġthrombus":10286,"Ġthrombopenic":10287,"Ġidenti":10288,"Ġtransthyretin":10289,"Ġperios":10290,"Ġschn":10291,"Ġschoen":10292,"Ġschamberg":10293,"erstein":10294,"Ġmeningoceles":10295,"Ġovern":10296,"Ġacidoses":10297,"Ġendophthalm":10298,"Ġtuberous":10299,"Ġhydrocephaly":10300,"ayan":10301,"Ġmonoplegic":10302,"Ġmonckeberg":10303,"Ġsclerodactyly":10304,"Ġunipolar":10305,"Ġporoma":10306,"Ġmacrocytic":10307,"angiocapillary":10308,"Ġ79":10309,"Ġclin":10310,"Ġclouston":10311,"Ġemerg":10312,"Ġerythromel":10313,"Ġ84":10314,"Ġnecrotic":10315,"Ġsleeping":10316,"Ġintraoperative":10317,"Ġdress":10318,"Ġseckel":10319,"Ġfloppy":10320,"Ġgranulomatosa":10321,"Ġglycine":10322,"Ġ91":10323,"Ġretinoblastomas":10324,"Ġoliver":10325,"Ġolsz":10326,"Ġchildren":10327,"Ġestren":10328,"Ġspino":10329,"sychiatric":10330,"Ġgeneralisata":10331,"Ġbrachydactyl":10332,"ituation":10333,"Ġlimbic":10334,"Ġenteric":10335,"iforme":10336,"Ġpsychological":10337,"Ġallodynia":10338,"Ġalloimmune":10339,"Ġbilirub":10340,"Ġmesial":10341,"Ġmesomelia":10342,"Ġmesangiocapillary":10343,"Ġmark":10344,"Ġimpul":10345,"Ġvalley":10346,"Ġpancoast":10347,"Ġeng":10348,"ocytopenias":10349,"Ġprostatitides":10350,"insky":10351,"insser":10352,"head":10353,"Ġneurinoma":10354,"Ġfetali":10355,"Ġglucosamin":10356,"Ġglucosylceram":10357,"Ġzinc":10358,"Ġzinsser":10359,"arthritides":10360,"Ġpolyomavirus":10361,"tilaginous":10362,"Ġsteele":10363,"Ġstephan":10364,"Ġdeforming":10365,"Ġyang":10366,"bling":10367,"aito":10368,"Ġrecurrence":10369,"Ġrecurrences":10370,"Ġgastaut":10371,"Ġcysticerc":10372,"Ġswiss":10373,"Ġinco":10374,"Ġhumero":10375,"Ġhormonogenesis":10376,"Ġmyotonias":10377,"Ġcapital":10378,"Ġcontractive":10379,"Ġbeemer":10380,"Ġotsc":10381,"Ġotopalatodigital":10382,"Ġarterioscleroses":10383,"Ġpatell":10384,"Ġquad":10385,"Ġastatic":10386,"Ġcalv":10387,"Ġbasement":10388,"Ġandrade":10389,"Ġgravid":10390,"Ġveins":10391,"Ġtorti":10392,"echt":10393,"Ġhypercatabolic":10394,"Ġheteroz":10395,"Ġcoxpd":10396,"Ġcoxsack":10397,"Ġcytotoxic":10398,"Ġattenuated":10399,"Ġborrelia":10400,"Ġsyncopal":10401,"Ġcanadian":10402,"arsus":10403,"Ġtelangiectasias":10404,"Ġdesbu":10405,"Ġpleurop":10406,"oureteral":10407,"Ġupsh":10408,"Ġhyaloid":10409,"Ġherniations":10410,"Ġmeier":10411,"Ġavium":10412,"creases":10413,"Ġcree":10414,"Ġcreveld":10415,"Ġbiphosphate":10416,"Ġvasovag":10417,"Ġdysphoric":10418,"Ġillum":10419,"atidyl":10420,"Ġpapillitides":10421,"Ġreproduc":10422,"odysplas":10423,"Ġnocturnus":10424,"Ġpena":10425,"accular":10426,"Ġtoxin":10427,"Ġoveractivity":10428,"Ġtwins":10429,"Ġconcussions":10430,"arbamylase":10431,"Ġpagon":10432,"Ġvestibulopathies":10433,"Ġcmtx":10434,"Ġdameshe":10435,"Ġacanthoma":10436,"erythro":10437,"iterans":10438,"ocardiac":10439,"Ġaldrich":10440,"Ġxyy":10441,"Ġrosai":10442,"Ġmetachronous":10443,"robi":10444,"Ġmeniere":10445,"Ġtyrosine":10446,"Ġlabyrinth":10447,"ubertal":10448,"Ġendothelioma":10449,"Ġodontomas":10450,"Ġcommunicating":10451,"Ġdigits":10452,"Ġdigeorge":10453,"Ġhomoz":10454,"thrombinemia":10455,"Ġsialic":10456,"Ġsialuria":10457,"Ġperitonitides":10458,"Ġmerkel":10459,"Ġleaks":10460,"Ġleakages":10461,"Ġcamptomelic":10462,"Ġrubella":10463,"Ġlenticular":10464,"Ġlennox":10465,"ddr":10466,"Ġlichthe":10467,"Ġgammopathy":10468,"Ġuveitides":10469,"Ġlineage":10470,"Ġdysenteriae":10471,"Ġhhf":10472,"Ġstriopallid":10473,"Ġorganizing":10474,"Ġmastitis":10475,"Ġfatigable":10476,"Ġrichner":10477,"Ġanhidrosis":10478,"oendotheliomas":10479,"Ġhyperinsulinemia":10480,"Ġlichenoides":10481,"Ġhurthle":10482,"ophysial":10483,"Ġhabituation":10484,"Ġhemianopic":10485,"dlr":10486,"Ġneurocyt":10487,"Ġonycholysis":10488,"Ġtetrahyd":10489,"Ġholoprosencephalies":10490,"Ġcystadenomas":10491,"Ġcystadenocarcinoma":10492,"Ġcystadenocarcinomas":10493,"Ġschistosomiases":10494,"Ġcephalgia":10495,"Ġpolysplenia":10496,"Ġhamartomatous":10497,"Ġhamartoblastoma":10498,"Ġhyperuricemic":10499,"Ġosteochondritis":10500,"Ġosteochondroses":10501,"Ġpostprand":10502,"Ġsneddon":10503,"Ġforear":10504,"Ġforehead":10505,"Ġarrests":10506,"Ġsclerae":10507,"Ġblastomycosis":10508,"Ġknuck":10509,"Ġkniest":10510,"Ġknobloch":10511,"Ġverruciformis":10512,"Ġmcopcb":10513,"Ġvessels":10514,"Ġvarices":10515,"Ġvaricelliform":10516,"Ġachondroplasia":10517,"Ġplasminogen":10518,"Ġcbld":10519,"Ġfire":10520,"Ġfree":10521,"Ġileitis":10522,"Ġpropionyl":10523,"Ġofd":10524,"Ġofds":10525,"Ġwallenberg":10526,"Ġenteritides":10527,"nios":10528,"Ġpraecox":10529,"hrig":10530,"Ġuncinate":10531,"Ġhla":10532,"Ġfrank":10533,"Ġgoldberg":10534,"Ġgoldblatt":10535,"Ġhypermobility":10536,"Ġperception":10537,"Ġuridyltransferase":10538,"Ġdihydroxy":10539,"Ġvesicoureteral":10540,"Ġketoacidosis":10541,"Ġketoaciduria":10542,"Ġwriting":10543,"Ġhemisp":10544,"inflammation":10545,"Ġflexor":10546,"Ġstreptococcal":10547,"Ġstreptoz":10548,"Ġmarchiafava":10549,"Ġdeposition":10550,"Ġsrps":10551,"Ġpku":10552,"Ġtubulopathy":10553,"Ġcpeo":10554,"Ġpudlak":10555,"Ġgilford":10556,"Ġmicroscopic":10557,"Ġmicroangiopathies":10558,"Ġdetachments":10559,"Ġhyperphosphatemia":10560,"Ġsteatohep":10561,"Ġconstrictions":10562,"Ġmsud":10563,"Ġfrommel":10564,"Ġinfluenzae":10565,"Ġhyperkalemic":10566,"Ġspring":10567,"Ġempyemas":10568,"Ġmorgell":10569,"Ġirritable":10570,"Ġfarber":10571,"Ġgehrig":10572,"Ġvault":10573,"Ġparamyotonia":10574,"Ġprogression":10575,"Ġprocesses":10576,"Ġmetastasis":10577,"Ġsimplices":10578,"Ġdsds":10579,"Ġharding":10580,"Ġhistological":10581,"uronate":10582,"Ġepicondyl":10583,"Ġapplebaum":10584,"Ġcapsular":10585,"Ġpolyneuritic":10586,"Ġphaeohyphomycoses":10587,"Ġbunion":10588,"Ġdeviation":10589,"Ġalveolitides":10590,"Ġrecklenh":10591,"Ġphobia":10592,"Ġtranscarbamylase":10593,"Ġoxalosis":10594,"Ġmaternally":10595,"Ġhemimotor":10596,"Ġcolics":10597,"Ġcytomegalovirus":10598,"Ġhypoalbum":10599,"Ġcobalamin":10600,"Ġcowden":10601,"iltrating":10602,"Ġhemiatrophy":10603,"Ġstrictures":10604,"Ġsantos":10605,"Ġsadd":10606,"Ġpbc":10607,"Ġnonlymphocytic":10608,"Ġnonlymphoblastic":10609,"ochoroidal":10610,"Ġhydroceles":10611,"Ġlegionnair":10612,"Ġxanthogranulomatous":10613,"Ġtapetochoroidal":10614,"buminemic":10615,"Ġgeline":10616,"Ġvillonodular":10617,"ofacioskeletal":10618,"Ġscheie":10619,"glutin":10620,"Ġganglioglioma":10621,"Ġgangliogliomas":10622,"Ġhypertriglyceridemia":10623,"Ġalternariosis":10624,"Ġalternarioses":10625,"Ġdyscalculia":10626,"Ġdyscalculias":10627,"Ġaggregate":10628,"Ġcannabis":10629,"otrache":10630,"Ġneurotrophic":10631,"Ġwinter":10632,"Ġseroconversion":10633,"Ġpauci":10634,"Ġzygomatic":10635,"Ġathetoid":10636,"Ġseropositivity":10637,"Ġdolich":10638,"Ġsetting":10639,"Ġsucrose":10640,"Ġpinpric":10641,"Ġfavre":10642,"Ġdyschondrosteosis":10643,"eptidase":10644,"Ġhyperimmunoglobulinemia":10645,"Ġkrukenberg":10646,"Ġadamantin":10647,"Ġlymphogranuloma":10648,"oxygenase":10649,"Ġdiathesis":10650,"Ġkeratoconjunctivitis":10651,"Ġkojew":10652,"Ġprosopagnosia":10653,"Ġaminoaciduria":10654,"Ġhibernation":10655,"Ġcubital":10656,"Ġmeconium":10657,"Ġakathisia":10658,"Ġlawler":10659,"Ġrussian":10660,"Ġvldlr":10661,"Ġstartle":10662,"Ġparvovirus":10663,"Ġasphyxiating":10664,"Ġurbach":10665,"Ġparainfluenza":10666,"Ġubiqu":10667,"Ġdopamine":10668,"Ġdrainage":10669,"Ġsutural":10670,"Ġmiyoshi":10671,"Ġnbia":10672,"Ġfeminization":10673,"Ġbaldness":10674,"Ġvibration":10675,"Ġacrocallosal":10676,"obilinogen":10677,"Ġmultinodular":10678,"ofacionasal":10679,"Ġcystathionine":10680,"Ġcarpenter":10681,"Ġesthesioneuroblastoma":10682,"Ġmidface":10683,"Ġpachydermoperi":10684,"Ġsubmucous":10685,"Ġpredisposition":10686,"Ġhemihypertrophy":10687,"Ġpyelonephritis":10688,"Ġhgprt":10689,"Ġinfiltrative":10690,"ylvian":10691,"Ġneuropsychiatric":10692,"Ġkartagener":10693,"Ġpavor":10694,"Ġpsychosocial":10695,"Ġmesenteritis":10696,"Ġenuresis":10697,"Ġgierke":10698,"Ġzenker":10699,"Ġtelangiectatica":10700,"Ġfibroelastosis":10701,"inesterase":10702,"Ġvitreoretinochoroidopathy":10703,"Ġtakayasu":10704,"Ġhydroxyphenylpyruvate":10705,"Ġsicca":10706,"Ġcylindrom":10707,"arnyx":10708,"Ġmvcd":10709,"Ġsynchronous":10710,"Ġfecd":10711,"Ġlvnc":10712,"Ġlumpy":10713,"Ġgradenigo":10714,"Ġanorexia":10715,"Ġaclf":10716,"Ġwelander":10717,"Ġjewish":10718,"Ġsezary":10719,"Ġhydronephrosis":10720,"Ġobliterans":10721,"Ġsuppressor":10722,"Ġmarmorata":10723,"Ġquervain":10724,"Ġtriglyceride":10725,"Ġossifying":10726,"Ġgroenou":10727,"Ġprogressiva":10728,"Ġconjugate":10729,"Ġdextrocardia":10730,"Ġochronosis":10731,"Ġhyperandrogenism":10732,"Ġrogers":10733,"alignment":10734,"Ġsthag":10735,"Ġsydenh":10736,"Ġcushion":10737,"Ġcoffin":10738,"Ġpentalogy":10739,"Ġporphobilinogen":10740,"Ġmiescher":10741,"Ġtortuosity":10742,"Ġhutterite":10743,"Ġazoospermia":10744,"Ġnausea":10745,"Ġfordyce":10746,"Ġrasmussen":10747,"Ġdegluti":10748,"Ġgordon":10749,"Ġgbbb":10750,"Ġhypouricemia":10751,"Ġchotzen":10752,"Ġconotruncal":10753,"irectional":10754,"Ġmyomelanocytic":10755,"Ġhyperferritinemia":10756,"Ġatrichia":10757,"Ġneurovisceral":10758,"Ġwandering":10759,"Ġwiethe":10760,"Ġstargardt":10761,"Ġkinky":10762,"Ġglanzmann":10763,"Ġnoninfiltrating":10764,"Ġnongoitrous":10765,"Ġshokeir":10766,"Ġoppenheim":10767,"Ġidentity":10768,"Ġschoenlein":10769,"Ġolszewski":10770,"Ġglucosaminide":10771,"Ġcoxsackie":10772,"Ġdesbuquois":10773,"Ġupshaw":10774,"Ġvasovagal":10775,"Ġreproductive":10776,"Ġdameshek":10777,"Ġhomozygous":10778,"Ġlichtheim":10779,"Ġstriopallidodentate":10780,"Ġpostprandial":10781,"Ġknuckle":10782,"Ġrecklenhausen":10783,"Ġhypoalbuminemia":10784,"Ġpinprick":10785,"Ġubiquitin":10786,"10":10787,"ake":10788,"bank":10789,"citation":10790,"dal":10791,"dyn":10792,"dem":10793,"digit":10794,"dnig":10795,"fly":10796,"field":10797,"front":10798,"gb":10799,"gth":10800,"gesias":10801,"gastrointestinal":10802,"hd":10803,"ht":10804,"histi":10805,"horn":10806,"havior":10807,"hardt":10808,"ief":10809,"kt":10810,"kott":10811,"mp":10812,"metal":10813,"mans":10814,"nm":10815,"nant":10816,"nogenic":10817,"pm":10818,"pat":10819,"pet":10820,"pox":10821,"rase":10822,"ruct":10823,"sph":10824,"suit":10825,"ui":10826,"uosp":10827,"uerstein":10828,"vie":10829,"wor":10830,"will":10831,"yers":10832,"zilian":10833,"Ġond":10834,"Ġuv":10835,"Ġerg":10836,"Ġito":10837,"ale":10838,"alyc":10839,"albuminemic":10840,"roin":10841,"roblastomas":10842,"tim":10843,"tide":10844,"erius":10845,"eritone":10846,"Ġdg":10847,"Ġdos":10848,"Ġdac":10849,"Ġdanc":10850,"Ġdail":10851,"Ġdmd":10852,"Ġdiple":10853,"Ġderc":10854,"Ġss":10855,"Ġsul":10856,"Ġsir":10857,"Ġsack":10858,"Ġsemin":10859,"Ġsoles":10860,"Ġsonne":10861,"enis":10862,"iness":10863,"inizing":10864,"invasive":10865,"onemias":10866,"onidal":10867,"onsiveness":10868,"Ġcz":10869,"Ġcari":10870,"Ġcrow":10871,"Ġcement":10872,"Ġcbs":10873,"Ġcpd":10874,"Ġcada":10875,"Ġcgd":10876,"Ġcprs":10877,"asp":10878,"asic":10879,"aration":10880,"arria":10881,"isjunction":10882,"estion":10883,"esch":10884,"esigenic":10885,"Ġpell":10886,"Ġpend":10887,"Ġpill":10888,"Ġposte":10889,"Ġpow":10890,"Ġpgl":10891,"Ġpct":10892,"Ġpbd":10893,"icidal":10894,"anut":10895,"anter":10896,"anub":10897,"atas":10898,"atom":10899,"Ġmb":10900,"Ġmob":10901,"Ġmmd":10902,"Ġmisc":10903,"Ġmumm":10904,"orb":10905,"oreg":10906,"osigmoid":10907,"Ġtb":10908,"Ġtular":10909,"Ġtangi":10910,"Ġtail":10911,"Ġtempor":10912,"Ġtauro":10913,"Ġtylosis":10914,"omid":10915,"omous":10916,"omocys":10917,"omphal":10918,"Ġheb":10919,"Ġhad":10920,"Ġhyst":10921,"Ġhymph":10922,"Ġhone":10923,"Ġhuss":10924,"Ġhiat":10925,"Ġhyb":10926,"Ġhistr":10927,"romy":10928,"romial":10929,"levo":10930,"Ġaat":10931,"Ġait":10932,"Ġnhe":10933,"Ġnbl":10934,"Ġnominal":10935,"Ġnostr":10936,"Ġnavicular":10937,"Ġnipple":10938,"Ġnaito":10939,"ulo":10940,"uloma":10941,"ulant":10942,"ulative":10943,"ulicz":10944,"Ġsyndes":10945,"Ġsyndactyl":10946,"Ġsynaptic":10947,"Ġsynechiae":10948,"ita":10949,"itan":10950,"itol":10951,"itudinal":10952,"uste":10953,"edo":10954,"emeral":10955,"Ġfg":10956,"Ġfin":10957,"Ġfas":10958,"Ġfig":10959,"Ġfox":10960,"Ġfalc":10961,"Ġfcd":10962,"Ġfgs":10963,"Ġfoci":10964,"Ġdisfunction":10965,"Ġdisori":10966,"opel":10967,"opontine":10968,"opituitarism":10969,"Ġintegration":10970,"Ġinactiv":10971,"Ġba":10972,"Ġbam":10973,"Ġbig":10974,"Ġbies":10975,"Ġbron":10976,"Ġboth":10977,"Ġberg":10978,"Ġbetal":10979,"Ġbeur":10980,"Ġbass":10981,"Ġbcc":10982,"Ġbatter":10983,"ysian":10984,"Ġlr":10985,"Ġls":10986,"Ġlog":10987,"Ġlign":10988,"Ġlav":10989,"Ġleri":10990,"Ġlittle":10991,"Ġlprs":10992,"eland":10993,"actions":10994,"acylase":10995,"Ġrac":10996,"Ġrab":10997,"Ġrna":10998,"ocrani":10999,"ocerv":11000,"ocerc":11001,"oconi":11002,"ocamp":11003,"ocornea":11004,"ocaval":11005,"Ġdecl":11006,"Ġdeacylase":11007,"urus":11008,"uritis":11009,"ided":11010,"idod":11011,"ilob":11012,"iltr":11013,"Ġgt":11014,"Ġgus":11015,"Ġglas":11016,"Ġgond":11017,"Ġgug":11018,"Ġgass":11019,"Ġgarg":11020,"olen":11021,"olor":11022,"oleste":11023,"olithiasis":11024,"olpyruvate":11025,"Ġneth":11026,"encycl":11027,"vefront":11028,"etch":11029,"ialdehyde":11030,"athe":11031,"athione":11032,"ths":11033,"therapeutic":11034,"through":11035,"Ġvs":11036,"Ġvam":11037,"Ġvir":11038,"Ġvhl":11039,"Ġvater":11040,"amb":11041,"ame":11042,"amen":11043,"ames":11044,"Ġhypos":11045,"Ġhypesthesia":11046,"Ġhypomelan":11047,"Ġdyslip":11048,"Ġdysrhythm":11049,"Ġdysinhibition":11050,"Ġdysalbuminemic":11051,"icious":11052,"Ġchn":11053,"Ġchias":11054,"Ġchand":11055,"Ġchurg":11056,"Ġchylomicron":11057,"oda":11058,"odont":11059,"odisc":11060,"imean":11061,"unken":11062,"Ġanomic":11063,"Ġanodontia":11064,"Ġanarch":11065,"Ġanatom":11066,"ingu":11067,"ingosine":11068,"Ġinfiltr":11069,"Ġacatal":11070,"Ġacrosp":11071,"Ġacrodys":11072,"otass":11073,"uronal":11074,"iesis":11075,"eptal":11076,"epiderm":11077,"agnant":11078,"Ġmyd":11079,"udwick":11080,"ympathetic":11081,"chester":11082,"chocerc":11083,"Ġletal":11084,"tinism":11085,"Ġhyperfunction":11086,"Ġhyperex":11087,"Ġhyperneph":11088,"ylic":11089,"Ġspren":11090,"Ġspecial":11091,"ebl":11092,"ebrow":11093,"ebiases":11094,"Ġatkin":11095,"Ġneurobe":11096,"Ġneurogastrointestinal":11097,"roshi":11098,"roseptal":11099,"Ġiod":11100,"Ġwing":11101,"Ġwenstein":11102,"Ġstorm":11103,"Ġstup":11104,"Ġstases":11105,"Ġstrong":11106,"Ġstagnant":11107,"clp":11108,"Ġparson":11109,"arce":11110,"obac":11111,"obullous":11112,"obasilar":11113,"ephalic":11114,"ipec":11115,"rontonasal":11116,"ronectin":11117,"Ġprl":11118,"Ġprinz":11119,"Ġkb":11120,"Ġkab":11121,"Ġkinetic":11122,"Ġkines":11123,"Ġcongenitally":11124,"Ġthc":11125,"ectopia":11126,"uberg":11127,"Ġarcl":11128,"Ġarsen":11129,"plexia":11130,"Ġadysplasia":11131,"ealed":11132,"Ġxe":11133,"Ġreiter":11134,"Ġreverse":11135,"Ġlymphomatous":11136,"Ġlymphosarcoma":11137,"Ġlymphosarcomas":11138,"Ġlymphofollicular":11139,"Ġglial":11140,"Ġglue":11141,"atio":11142,"ativis":11143,"ache":11144,"achy":11145,"aches":11146,"achman":11147,"uping":11148,"Ġjux":11149,"Ġjuberg":11150,"Ġtrep":11151,"Ġtritan":11152,"Ġcerebrum":11153,"Ġabd":11154,"Ġleukopenia":11155,"Ġseeman":11156,"uretic":11157,"anganes":11158,"ydii":11159,"Ġmalt":11160,"Ġ40":11161,"Ġ41":11162,"neuronal":11163,"Ġreceptive":11164,"oxical":11165,"oxide":11166,"rew":11167,"read":11168,"Ġheel":11169,"Ġheroin":11170,"Ġretrof":11171,"Ġreturn":11172,"ovarus":11173,"tish":11174,"Ġphencycl":11175,"quito":11176,"quency":11177,"abach":11178,"illa":11179,"ogenes":11180,"Ġscn":11181,"Ġscorp":11182,"Ġexit":11183,"Ġexpan":11184,"Ġexomphal":11185,"Ġcorectopia":11186,"lytic":11187,"ional":11188,"kinesias":11189,"kinesigenic":11190,"Ġpalp":11191,"ohr":11192,"Ġencephalomalacia":11193,"Ġblow":11194,"Ġprimum":11195,"omatose":11196,"Ġnonthromb":11197,"Ġnonneph":11198,"Ġnonchrom":11199,"Ġnonocclusive":11200,"Ġnontherapeutic":11201,"Ġnonepiderm":11202,"Ġnonkinesigenic":11203,"ofruct":11204,"ofrontonasal":11205,"Ġmicrocyt":11206,"Ġmicrosp":11207,"Ġlipomas":11208,"Ġsubs":11209,"Ġsubling":11210,"Ġ55":11211,"Ġshuff":11212,"Ġshift":11213,"Ġpulsion":11214,"Ġintranuclear":11215,"Ġopioid":11216,"Ġopercular":11217,"Ġbrief":11218,"ycomb":11219,"Ġgenotoxic":11220,"ocytes":11221,"ivided":11222,"Ġosteitis":11223,"Ġadenoid":11224,"Ġadenomy":11225,"Ġisoval":11226,"Ġcoin":11227,"Ġcoup":11228,"Ġfruste":11229,"ergy":11230,"Ġmyelinosis":11231,"Ġthrombocytoses":11232,"antid":11233,"Ġtransves":11234,"Ġtransneuronal":11235,"Ġpseudomembranous":11236,"Ġheparin":11237,"Ġperianeurysm":11238,"Ġags":11239,"Ġagnathia":11240,"Ġagglutin":11241,"Ġagnogenic":11242,"Ġfeuerstein":11243,"Ġfetish":11244,"Ġschulman":11245,"Ġschilling":11246,"ersinia":11247,"Ġoyanagi":11248,"Ġacidemias":11249,"Ġacidurias":11250,"Ġendomy":11251,"Ġendogenous":11252,"estosterone":11253,"Ġdermopathy":11254,"Ġdermoids":11255,"Ġcats":11256,"Ġuracil":11257,"avatum":11258,"Ġinsomnias":11259,"Ġapocrine":11260,"Ġpls":11261,"Ġplumb":11262,"ffner":11263,"entia":11264,"Ġhydro":11265,"Ġhydrotic":11266,"Ġcardiogenic":11267,"Ġforme":11268,"Ġmonon":11269,"Ġmonoblastic":11270,"Ġmonostotic":11271,"Ġmonophosphate":11272,"Ġmonoxide":11273,"Ġabstinence":11274,"Ġidiocy":11275,"Ġsclerocystic":11276,"Ġcentrot":11277,"Ġpouter":11278,"Ġporomas":11279,"Ġmacrostomia":11280,"Ġectd":11281,"Ġectasias":11282,"Ġectropion":11283,"Ġcrib":11284,"Ġcrest":11285,"Ġcrack":11286,"Ġcrimean":11287,"Ġpositivity":11288,"istling":11289,"igmented":11290,"Ġoptica":11291,"rie":11292,"Ġnephroses":11293,"Ġclaud":11294,"Ġclinical":11295,"Ġepidid":11296,"Ġangiomy":11297,"Ġangiogenesis":11298,"Ġdiphosphatase":11299,"Ġdioxygenase":11300,"orticate":11301,"Ġerytherm":11302,"Ġerythemas":11303,"Ġerythrodys":11304,"Ġerythrophag":11305,"Ġcentralis":11306,"Ġpneumonic":11307,"Ġpneumocyst":11308,"Ġpneumophila":11309,"liel":11310,"Ġinterse":11311,"Ġinterdigit":11312,"lexy":11313,"Ġintradural":11314,"Ġdrunken":11315,"Ġgranulomous":11316,"Ġneonator":11317,"radiation":11318,"Ġcornelia":11319,"Ġretinae":11320,"Ġolli":11321,"Ġautoinflammation":11322,"Ġcompreh":11323,"Ġhypogammaglobulinemias":11324,"Ġthyroidal":11325,"Ġeyebrow":11326,"Ġcranio":11327,"Ġaphonias":11328,"oley":11329,"oleiomy":11330,"Ġenthes":11331,"Ġischaemic":11332,"Ġpsychophys":11333,"Ġoculodent":11334,"Ġpapa":11335,"Ġtuberculin":11336,"creta":11337,"Ġvesicul":11338,"Ġpeep":11339,"Ġpeeling":11340,"Ġpeanut":11341,"Ġpearce":11342,"Ġmarburg":11343,"Ġimpulsive":11344,"Ġnodes":11345,"Ġnodosum":11346,"Ġalcap":11347,"Ġdelusions":11348,"Ġseparation":11349,"Ġphosphoen":11350,"Ġphosphatidyl":11351,"Ġphosphofruct":11352,"Ġhematopo":11353,"Ġcholester":11354,"Ġlowenstein":11355,"Ġvarix":11356,"Ġvariola":11357,"Ġcomplexes":11358,"Ġvena":11359,"lecanthus":11360,"Ġvisuosp":11361,"Ġhairs":11362,"ospir":11363,"osplen":11364,"osporid":11365,"Ġmelorhe":11366,"Ġglands":11367,"tically":11368,"rolateral":11369,"Ġmoore":11370,"Ġmount":11371,"Ġmoya":11372,"Ġdehydroch":11373,"Ġfistulae":11374,"Ġneurinomas":11375,"mani":11376,"Ġophthalmia":11377,"Ġvariants":11378,"Ġbreasts":11379,"Ġglucosyl":11380,"Ġpolyarter":11381,"Ġcontrol":11382,"ishing":11383,"Ġpuppet":11384,"Ġyersinia":11385,"Ġlarsson":11386,"Ġmethyltransferase":11387,"Ġchondrocalcinosis":11388,"Ġchondrogl":11389,"Ġstrump":11390,"Ġstretch":11391,"Ġstrudwick":11392,"Ġgangliocytoma":11393,"Ġtransition":11394,"neri":11395,"Ġpseudoex":11396,"Ġpseudoinflammatory":11397,"Ġcarbam":11398,"Ġwear":11399,"Ġweil":11400,"Ġwears":11401,"Ġaspg":11402,"Ġswelling":11403,"Ġmrd":11404,"Ġnegativis":11405,"rofol":11406,"Ġerythroleuk":11407,"Ġfootwart":11408,"Ġpurulent":11409,"Ġpursuit":11410,"Ġeosinophilias":11411,"Ġdiabeticorum":11412,"Ġtissues":11413,"Ġreflexes":11414,"Ġinvag":11415,"Ġcoronavirus":11416,"Ġsalih":11417,"Ġmycosis":11418,"Ġpreex":11419,"Ġpretibial":11420,"Ġpreinvasive":11421,"Ġschizo":11422,"Ġschizotyp":11423,"Ġcontractions":11424,"Ġcorticalis":11425,"Ġfluoride":11426,"Ġpathology":11427,"Ġprematurity":11428,"Ġsubacromial":11429,"Ġlocoreg":11430,"plant":11431,"Ġcalf":11432,"Ġcalve":11433,"Ġtelecanthus":11434,"Ġhepatosplen":11435,"Ġcamurati":11436,"oacral":11437,"Ġhypothalamo":11438,"alangia":11439,"Ġtorre":11440,"Ġtorsad":11441,"Ġtorranc":11442,"Ġneurofibromas":11443,"Ġwhistling":11444,"Ġlesch":11445,"Ġdiverg":11446,"Ġcytos":11447,"Ġcytopathy":11448,"Ġarthrogryp":11449,"Ġhaemat":11450,"Ġlouping":11451,"Ġachm":11452,"Ġlamb":11453,"Ġketo":11454,"Ġmembranes":11455,"Ġgrutz":11456,"Ġwavefront":11457,"Ġandrogenetic":11458,"Ġicp":11459,"Ġiceland":11460,"Ġconcealed":11461,"Ġfasciol":11462,"Ġfrontobasilar":11463,"Ġedm":11464,"Ġedmd":11465,"Ġcdgi":11466,"Ġcdgii":11467,"Ġpyruv":11468,"Ġtelangiectases":11469,"zhev":11470,"Ġcontractural":11471,"Ġpleuris":11472,"Ġglutathione":11473,"Ġups":11474,"Ġlongitudinal":11475,"Ġacetabular":11476,"Ġphotophob":11477,"gerigar":11478,"Ġbiological":11479,"Ġbietti":11480,"Ġreticuloid":11481,"Ġlipofuscin":11482,"Ġpapillon":11483,"Ġreplication":11484,"Ġrhinorrheas":11485,"Ġrhinotrache":11486,"ashes":11487,"Ġdentatus":11488,"Ġdisseminata":11489,"Ġguam":11490,"Ġgonadotropin":11491,"Ġanaplasm":11492,"Ġconducting":11493,"Ġactinobac":11494,"Ġirradiation":11495,"Ġsuperinf":11496,"Ġpolymy":11497,"Ġauricul":11498,"Ġtreated":11499,"Ġcommunity":11500,"Ġthymine":11501,"Ġgestation":11502,"Ġbehc":11503,"bilane":11504,"Ġdamages":11505,"Ġcystitides":11506,"Ġindiffer":11507,"Ġindolent":11508,"Ġlocalisata":11509,"shot":11510,"Ġviscer":11511,"Ġvanishing":11512,"Ġneutropenic":11513,"Ġrosenberg":11514,"Ġviib":11515,"Ġesophago":11516,"Ġmenkes":11517,"Ġmenopausal":11518,"Ġcommunicative":11519,"Ġmegalocornea":11520,"Ġtotalis":11521,"Ġhomg":11522,"Ġpresb":11523,"Ġpresyn":11524,"Ġprecalyc":11525,"Ġdentins":11526,"Ġeruptive":11527,"Ġdecorticate":11528,"Ġhypoaldosteronism":11529,"Ġhypokinesia":11530,"Ġadhal":11531,"Ġxanthomatous":11532,"Ġexcavatum":11533,"Ġvulvovaginal":11534,"Ġspongi":11535,"Ġsudek":11536,"Ġmutations":11537,"Ġlength":11538,"Ġkozhev":11539,"Ġamauroses":11540,"Ġdiarrhetic":11541,"Ġwork":11542,"Ġuveopa":11543,"Ġmaturation":11544,"Ġfusospir":11545,"Ġcerebelloretinal":11546,"Ġambulation":11547,"Ġsupraoptic":11548,"Ġcharlevo":11549,"Ġpagetoid":11550,"Ġichthyosiforme":11551,"Ġichthyosiformes":11552,"Ġphosphorus":11553,"Ġhaemorrh":11554,"Ġsemilobar":11555,"Ġsemialdehyde":11556,"Ġfibrohisti":11557,"Ġfibroathe":11558,"Ġtongues":11559,"Ġforest":11560,"Ġparapareses":11561,"Ġorganoid":11562,"Ġhyperglycinemias":11563,"Ġinvolving":11564,"Ġcognition":11565,"Ġsiderius":11566,"Ġcerebroretinal":11567,"Ġhexose":11568,"Ġmasoch":11569,"Ġchemot":11570,"Ġppa":11571,"Ġhyperinsulinisms":11572,"onectin":11573,"Ġbisphosphate":11574,"Ġlymphadenitides":11575,"Ġarginino":11576,"Ġboydii":11577,"Ġchloride":11578,"Ġmacula":11579,"Ġfournier":11580,"Ġdissociations":11581,"Ġleiomyosarcoma":11582,"Ġbreaks":11583,"Ġbreakthrough":11584,"Ġfibrillations":11585,"Ġetf":11586,"rotestosterone":11587,"Ġangioedemas":11588,"Ġhypoglycemias":11589,"Ġpapulosis":11590,"Ġpolyradiculoneuropathies":11591,"Ġactivated":11592,"Ġlewis":11593,"Ġhyperthermias":11594,"Ġixa":11595,"omeningitis":11596,"Ġbands":11597,"Ġsclerodermas":11598,"Ġvertebrogenic":11599,"Ġmicrognathism":11600,"gues":11601,"Ġpineocytoma":11602,"hypopituitarism":11603,"Ġsnyder":11604,"Ġpseudotubercul":11605,"tyoca":11606,"oradicul":11607,"Ġrectus":11608,"Ġchrist":11609,"Ġchondromanub":11610,"Ġpallidal":11611,"foliation":11612,"Ġevr":11613,"Ġevents":11614,"ohypogastric":11615,"Ġgermin":11616,"Ġpanhypopituitarism":11617,"Ġlactation":11618,"Ġincontin":11619,"Ġplasmacyt":11620,"Ġonchocerc":11621,"Ġhelena":11622,"Ġfrequency":11623,"Ġencephalomyelopathy":11624,"Ġeyelids":11625,"Ġeyelashes":11626,"Ġimpingements":11627,"Ġhypercholesterolemic":11628,"Ġhoard":11629,"Ġhammer":11630,"Ġnigra":11631,"Ġbalantid":11632,"Ġamoebiasis":11633,"Ġregurgitant":11634,"Ġossificans":11635,"Ġdysautonomic":11636,"Ġmyelinoclas":11637,"Ġmyelinoclastic":11638,"Ġcervico":11639,"Ġpotter":11640,"Ġhypermanganes":11641,"apsulating":11642,"Ġdihydrotestosterone":11643,"Ġvesicovaginal":11644,"glucose":11645,"Ġcsf":11646,"Ġpilomat":11647,"Ġpilonidal":11648,"Ġfetus":11649,"Ġground":11650,"ogluc":11651,"Ġurticarias":11652,"Ġfacioauriculovertebral":11653,"Ġgalactosemias":11654,"Ġcanale":11655,"Ġcanalicular":11656,"Ġflexneri":11657,"Ġdevice":11658,"Ġejacul":11659,"Ġanticip":11660,"Ġcava":11661,"Ġcavity":11662,"Ġanteroseptal":11663,"Ġanterolateral":11664,"Ġpredominant":11665,"Ġknees":11666,"Ġcorticostr":11667,"Ġcorticotropin":11668,"Ġcoalwor":11669,"Ġsrxy":11670,"Ġnager":11671,"Ġelectron":11672,"Ġhypovole":11673,"Ġvenoocclusive":11674,"Ġsweet":11675,"nikow":11676,"Ġluteoma":11677,"Ġluteinizing":11678,"Ġihps":11679,"Ġsharp":11680,"equate":11681,"Ġiliocaval":11682,"Ġiliohypogastric":11683,"Ġstere":11684,"Ġsterile":11685,"Ġmenstrual":11686,"Ġdyscephalic":11687,"Ġhyperalgesias":11688,"regulation":11689,"Ġschonberg":11690,"Ġbranchiootorenal":11691,"Ġaccidents":11692,"Ġmandibuloacral":11693,"Ġmddga":11694,"Ġmddgb":11695,"Ġdiscrete":11696,"Ġgalactosylceramidase":11697,"Ġpapillomavirus":11698,"Ġhidradenitides":11699,"Ġhypnic":11700,"Ġhypnogenic":11701,"Ġmethemoglobin":11702,"Ġnarcoleptic":11703,"uliar":11704,"Ġmoniliases":11705,"Ġrepetition":11706,"Ġhyperlysinuria":11707,"Ġbotulisms":11708,"Ġcbas":11709,"Ġmolars":11710,"Ġbuny":11711,"Ġbactericidal":11712,"Ġdeviations":11713,"Ġneurohypophysial":11714,"Ġphobic":11715,"Ġisomerisms":11716,"rodysplasias":11717,"Ġsmoke":11718,"Ġbrachymorph":11719,"Ġerythroblastosis":11720,"Ġmansonella":11721,"Ġaddisonian":11722,"Ġwolfram":11723,"Ġacromegaloid":11724,"Ġsainton":11725,"Ġdaytime":11726,"Ġnphp":11727,"Ġfshd":11728,"Ġbscl":11729,"Ġdysraphism":11730,"Ġanthrax":11731,"Ġcholangitides":11732,"Ġsegmentation":11733,"Ġudpglucose":11734,"Ġthromboembolic":11735,"Ġmultisystemic":11736,"Ġilio":11737,"Ġoguchi":11738,"Ġcofs":11739,"Ġnoise":11740,"Ġwerdnig":11741,"uberculous":11742,"Ġintestine":11743,"Ġcatarrhal":11744,"Ġnecrolytic":11745,"Ġdermatomyositides":11746,"Ġapparatus":11747,"Ġpseudohypoparathyroidisms":11748,"esponsiveness":11749,"espread":11750,"Ġlcat":11751,"Ġkenny":11752,"Ġprognathism":11753,"Ġmicropol":11754,"Ġmicropenis":11755,"Ġtranslocation":11756,"Ġhydrocele":11757,"Ġlegionella":11758,"Ġequinovarus":11759,"Ġglutamate":11760,"Ġdiminisheds":11761,"ramnios":11762,"Ġhmg":11763,"opericardium":11764,"Ġvelopharyngeal":11765,"Ġvillous":11766,"adiolar":11767,"Ġkininogen":11768,"Ġpernicious":11769,"Ġpostcomatose":11770,"Ġcloud":11771,"Ġfloating":11772,"Ġhippocamp":11773,"Ġxxyy":11774,"Ġdiscriminatory":11775,"Ġmethylglutaconicaciduria":11776,"oastrocyt":11777,"Ġskew":11778,"Ġskeleton":11779,"Ġmirror":11780,"Ġtndm":11781,"Ġrudimentary":11782,"otracheal":11783,"Ġspurs":11784,"Ġwinchester":11785,"Ġalarm":11786,"Ġseroconversions":11787,"Ġ450":11788,"Ġextracerebral":11789,"Ġseropositivities":11790,"Ġdictyoca":11791,"Ġdavis":11792,"Ġmorphine":11793,"Ġnondisjunction":11794,"Ġanetoderma":11795,"Ġkaroshi":11796,"Ġkienb":11797,"Ġleukokeratosis":11798,"Ġleukokeratoses":11799,"Ġblennorrhagic":11800,"Ġcryptococcosis":11801,"Ġcryptococcoses":11802,"Ġhyperprolinemia":11803,"Ġhyperprolactin":11804,"Ġpachymeningitis":11805,"Ġpachymeningitides":11806,"Ġmosquito":11807,"Ġmims":11808,"Ġhoffman":11809,"Ġrtas":11810,"Ġricci":11811,"Ġspikes":11812,"Ġwiskott":11813,"Ġalterations":11814,"Ġproctocolitis":11815,"Ġperineur":11816,"Ġphagocyte":11817,"Ġaprosencephaly":11818,"Ġintramedullary":11819,"Ġfolliculitis":11820,"Ġpolychondritis":11821,"Ġcholesteatoma":11822,"Ġcoagulations":11823,"Ġgammapathy":11824,"ovaginitis":11825,"Ġappendiceal":11826,"Ġdegradation":11827,"Ġextrasystoles":11828,"Ġhopf":11829,"Ġfairbank":11830,"Ġfraxe":11831,"Ġbrazilian":11832,"Ġburger":11833,"Ġdyschromatosis":11834,"Ġwidespread":11835,"Ġwohlwill":11836,"Ġalien":11837,"Ġreentrant":11838,"Ġjeghers":11839,"Ġsubdivided":11840,"Ġendodontically":11841,"Ġmedication":11842,"Ġglucosephosphate":11843,"Ġdissecting":11844,"Ġmerritt":11845,"Ġpolydystrophic":11846,"Ġsaturnism":11847,"Ġschmidt":11848,"Ġencapsulating":11849,"Ġcacchi":11850,"Ġageneses":11851,"Ġniddm":11852,"Ġfamily":11853,"Ġluxation":11854,"Ġcherry":11855,"Ġanlage":11856,"Ġanaphylactic":11857,"Ġatrophoderma":11858,"Ġkaufman":11859,"Ġretrocochlear":11860,"Ġphacomatosis":11861,"Ġshwachman":11862,"Ġapoplexy":11863,"Ġrolling":11864,"Ġbleedings":11865,"Ġtachyarrhythmia":11866,"Ġspheroids":11867,"Ġturcica":11868,"Ġhelicobacter":11869,"Ġbrachymesophalangy":11870,"Ġinfundibular":11871,"Ġromano":11872,"Ġsakati":11873,"Ġcoccidioid":11874,"Ġpeculiar":11875,"Ġtrois":11876,"Ġnrclp":11877,"Ġinadequate":11878,"Ġbudgerigar":11879,"odiaphyseal":11880,"Ġhyperventilation":11881,"Ġaleukemic":11882,"Ġtheca":11883,"Ġnontuberculous":11884,"Ġpointes":11885,"Ġdiphther":11886,"Ġhydroxymethylbilane":11887,"Ġoxyphilic":11888,"Ġpseudoachondroplastic":11889,"Ġacanthocheilonema":11890,"Ġacroosteolysis":11891,"Ġcondyloma":11892,"Ġparagonimus":11893,"Ġascarid":11894,"Ġsteatocystoma":11895,"Ġloeffler":11896,"Ġdihydropyrimidine":11897,"Ġowren":11898,"eruloplasminemia":11899,"Ġsaposin":11900,"Ġcumulative":11901,"Ġmikulicz":11902,"Ġhymenolep":11903,"Ġauricle":11904,"Ġnatural":11905,"Ġfujimoto":11906,"Ġeulenburg":11907,"Ġconvexity":11908,"Ġmyoglobinuria":11909,"Ġwissler":11910,"Ġwestermani":11911,"Ġstapes":11912,"Ġparadoxical":11913,"Ġpringle":11914,"Ġkasabach":11915,"Ġthroat":11916,"Ġhemeralopia":11917,"Ġreimann":11918,"Ġheubner":11919,"Ġbloom":11920,"Ġadenylos":11921,"Ġerythromelalgia":11922,"Ġimpulse":11923,"Ġglucosylceramide":11924,"Ġstephanurus":11925,"Ġcysticercosis":11926,"Ġpleuropneum":11927,"Ġilluminating":11928,"Ġsaddan":11929,"Ġgelineau":11930,"Ġgroenouw":11931,"Ġsydenham":11932,"havioral":11933,"sphingosine":11934,"Ġondine":11935,"Ġdacry":11936,"Ġdancing":11937,"Ġdaily":11938,"Ġsonnei":11939,"Ġcarious":11940,"Ġpostex":11941,"anteric":11942,"Ġmiscarria":11943,"Ġtangier":11944,"Ġtemporary":11945,"Ġhystrix":11946,"Ġhymphohisti":11947,"Ġhoneycomb":11948,"Ġhiatus":11949,"Ġhybrid":11950,"Ġhistrionic":11951,"Ġnhej":11952,"Ġnblst":11953,"Ġnostras":11954,"Ġsyndesm":11955,"Ġdisorientation":11956,"opelvic":11957,"Ġbiesecker":11958,"Ġbronz":11959,"Ġbetalipoprotein":11960,"Ġbeuren":11961,"Ġbattered":11962,"Ġlignac":11963,"ocervical":11964,"oconioses":11965,"idodip":11966,"ilobular":11967,"Ġgondii":11968,"Ġgugliel":11969,"Ġgargoyl":11970,"olesterol":11971,"Ġvamas":11972,"Ġchiasmatic":11973,"Ġanarchic":11974,"Ġanatomical":11975,"Ġacrospi":11976,"Ġsprengel":11977,"Ġneurobehavioral":11978,"Ġstrongyle":11979,"Ġparsonage":11980,"Ġprinzmetal":11981,"Ġkinesigenic":11982,"Ġarsenical":11983,"Ġseemanova":11984,"Ġretroflex":11985,"Ġphencyclidine":11986,"Ġscorpion":11987,"Ġexomphalos":11988,"Ġnonnephropathic":11989,"Ġnonchromaffin":11990,"Ġnonepidermolytic":11991,"Ġsublingual":11992,"Ġshuffling":11993,"Ġgenotoxicant":11994,"Ġperianeurysmal":11995,"Ġagglutinin":11996,"Ġplumbism":11997,"Ġcentrotemporal":11998,"Ġerythrophagocytic":11999,"Ġinterdigitating":12000,"Ġneonatorum":12001,"Ġcomprehension":12002,"Ġvesiculobullous":12003,"Ġphosphoenolpyruvate":12004,"Ġphosphofructokinase":12005,"Ġvisuospatial":12006,"Ġdehydrocholesterol":12007,"Ġchondrogladiolar":12008,"Ġstrumpell":12009,"Ġpseudoexfoliation":12010,"Ġnegativistic":12011,"Ġpreexcitation":12012,"Ġschizotypal":12013,"Ġlocoregional":12014,"Ġhepatosplenomegaly":12015,"Ġtorrance":12016,"Ġicelandic":12017,"Ġprecalyceal":12018,"Ġcharlevoix":12019,"Ġfibrohistiocytic":12020,"Ġchondromanubrial":12021,"Ġcorticostriatal":12022,"aun":12023,"bh":12024,"bm":12025,"br":12026,"bed":12027,"bility":12028,"cation":12029,"cious":12030,"dx":12031,"eol":12032,"eogenic":12033,"ezing":12034,"eou":12035,"eune":12036,"gve":12037,"grown":12038,"hole":12039,"hodgkin":12040,"hara":12041,"iro":12042,"iph":12043,"ieur":12044,"iologic":12045,"iello":12046,"joen":12047,"ka":12048,"km":12049,"kos":12050,"kle":12051,"ked":12052,"lism":12053,"lhof":12054,"my":12055,"molar":12056,"natal":12057,"ncr":12058,"oect":12059,"oea":12060,"oaden":12061,"oonych":12062,"oaxial":12063,"oosseous":12064,"pk":12065,"px":12066,"pas":12067,"ping":12068,"pect":12069,"past":12070,"pigin":12071,"potarsal":12072,"rb":12073,"rus":12074,"red":12075,"rine":12076,"responsiveness":12077,"ster":12078,"sang":12079,"tor":12080,"tensi":12081,"tamy":12082,"uori":12083,"uedo":12084,"uysian":12085,"vd":12086,"vp":12087,"vt":12088,"ven":12089,"wh":12090,"witz":12091,"winkel":12092,"zol":12093,"Ġut":12094,"alv":12095,"alister":12096,"rotein":12097,"eremia":12098,"erich":12099,"erupted":12100,"Ġdc":12101,"Ġdp":12102,"Ġdra":12103,"Ġdactyl":12104,"Ġdrag":12105,"Ġdyg":12106,"Ġdpd":12107,"Ġdunn":12108,"Ġdutch":12109,"Ġsg":12110,"Ġsost":12111,"Ġsly":12112,"Ġsock":12113,"Ġsuccinase":12114,"enoses":12115,"enfl":12116,"inopathies":12117,"integration":12118,"onasal":12119,"onomo":12120,"Ġcph":12121,"Ġced":12122,"Ġcot":12123,"Ġcca":12124,"Ġccm":12125,"Ġcochle":12126,"articul":12127,"isobut":12128,"isylvian":12129,"esian":12130,"estern":12131,"Ġpg":12132,"Ġpac":12133,"Ġpant":12134,"Ġppr":12135,"Ġpts":12136,"Ġpomp":12137,"Ġpits":12138,"Ġpfm":12139,"ices":12140,"iceptive":12141,"aneal":12142,"atous":12143,"atrophic":12144,"Ġmard":12145,"Ġmarc":12146,"Ġmorn":12147,"Ġmele":12148,"Ġmioses":12149,"Ġmosch":12150,"Ġmott":12151,"Ġmobility":12152,"Ġmohr":12153,"orus":12154,"osh":12155,"osyst":12156,"osamine":12157,"osacral":12158,"osaccular":12159,"Ġtc":12160,"Ġtd":12161,"Ġtat":12162,"Ġtop":12163,"Ġtow":12164,"Ġtsc":12165,"omed":12166,"Ġhd":12167,"Ġhf":12168,"Ġhig":12169,"Ġhag":12170,"Ġhitt":12171,"Ġhbl":12172,"Ġhpl":12173,"Ġheck":12174,"Ġhga":12175,"Ġhugh":12176,"Ġhermaphroditisms":12177,"phot":12178,"iativ":12179,"Ġaip":12180,"Ġaure":12181,"Ġautis":12182,"Ġaplasias":12183,"Ġafibrinogenemia":12184,"Ġnd":12185,"Ġnys":12186,"Ġnov":12187,"Ġnance":12188,"ulosa":12189,"Ġsynerg":12190,"itas":12191,"edural":12192,"edow":12193,"emper":12194,"Ġfc":12195,"Ġfs":12196,"Ġfro":12197,"Ġfine":12198,"Ġformal":12199,"Ġfug":12200,"Ġfix":12201,"Ġfemor":12202,"Ġfors":12203,"Ġfcs":12204,"Ġdisorg":12205,"Ġdisaccharide":12206,"Ġdisintegration":12207,"opp":12208,"opol":12209,"operitone":12210,"Ġinn":12211,"Ġinatt":12212,"Ġinability":12213,"Ġingrown":12214,"Ġbt":12215,"Ġbel":12216,"Ġbol":12217,"Ġbuc":12218,"Ġbann":12219,"Ġbord":12220,"Ġbucc":12221,"Ġlin":12222,"Ġlop":12223,"Ġlut":12224,"Ġlag":12225,"Ġlud":12226,"Ġlib":12227,"Ġlass":12228,"Ġlah":12229,"Ġluton":12230,"Ġluft":12231,"Ġlncr":12232,"Ġlerich":12233,"eless":12234,"elock":12235,"elberg":12236,"acunc":12237,"acytic":12238,"Ġrs":12239,"Ġry":12240,"Ġrum":12241,"Ġrms":12242,"Ġraph":12243,"Ġrippl":12244,"Ġrunning":12245,"oco":12246,"ocochle":12247,"ured":12248,"uramine":12249,"idg":12250,"idemic":12251,"idium":12252,"idirectional":12253,"ilogy":12254,"ilibri":12255,"iljoen":12256,"ilitas":12257,"eco":12258,"Ġgp":12259,"Ġgon":12260,"Ġgill":12261,"Ġgay":12262,"Ġgero":12263,"Ġgren":12264,"Ġgpd":12265,"Ġgunn":12266,"Ġgitel":12267,"olin":12268,"olia":12269,"olith":12270,"olpos":12271,"olences":12272,"oluysian":12273,"olopp":12274,"enteral":12275,"entration":12276,"etting":12277,"etella":12278,"athies":12279,"athoracic":12280,"itiformis":12281,"itization":12282,"Ġeag":12283,"Ġvc":12284,"Ġvoh":12285,"Ġviv":12286,"Ġvcf":12287,"Ġvibrio":12288,"Ġvkh":12289,"Ġviljoen":12290,"aments":12291,"Ġhypor":12292,"Ġhypopro":12293,"Ġhypero":12294,"Ġhypoproteinemia":12295,"Ġhypesthesias":12296,"umatoid":12297,"umarin":12298,"Ġdysequ":12299,"Ġdysregulation":12300,"rav":12301,"raft":12302,"Ġchat":12303,"Ġchap":12304,"Ġchok":12305,"Ġchedia":12306,"odigit":12307,"ulare":12308,"sier":12309,"imin":12310,"imke":12311,"imitar":12312,"igan":12313,"Ġanophthalmos":12314,"Ġanogenital":12315,"Ġconst":12316,"Ġacd":12317,"Ġactive":12318,"Ġacrod":12319,"Ġaceta":12320,"Ġacrodysplasia":12321,"Ġacumin":12322,"rophosphate":12323,"otox":12324,"otonia":12325,"otrophic":12326,"agh":12327,"Ġmymy":12328,"chior":12329,"Ġleud":12330,"arditides":12331,"Ġhyperek":12332,"Ġhyperref":12333,"yler":12334,"ylsphingosine":12335,"Ġspax":12336,"Ġspace":12337,"Ġspatial":12338,"ebe":12339,"ebaut":12340,"ebetalipoproteinemia":12341,"Ġneuroretin":12342,"Ġneuroblastomas":12343,"Ġneurobor":12344,"rosarcomas":12345,"rosmolar":12346,"Ġiid":12347,"Ġira":12348,"Ġiomid":12349,"Ġwadia":12350,"Ġwestern":12351,"ancerous":12352,"ade":12353,"Ġstatic":12354,"Ġstraw":12355,"Ġstump":12356,"Ġstrand":12357,"Ġpars":12358,"Ġparina":12359,"Ġparesthesia":12360,"Ġparesthesias":12361,"Ġparenteral":12362,"essin":12363,"Ġalg":12364,"Ġalk":12365,"Ġalobar":12366,"ermelon":12367,"Ġprene":12368,"Ġprieur":12369,"Ġkar":12370,"Ġkos":12371,"Ġkur":12372,"Ġkob":12373,"Ġkann":12374,"Ġkug":12375,"Ġkuss":12376,"Ġklu":12377,"Ġkiller":12378,"Ġkfs":12379,"Ġkohl":12380,"Ġkimmel":12381,"Ġkolopp":12382,"Ġthur":12383,"Ġthomas":12384,"Ġthri":12385,"Ġthiolase":12386,"ubral":12387,"Ġhemolysis":12388,"pled":12389,"plementary":12390,"ophyma":12391,"ibacillary":12392,"ibrey":12393,"Ġxyl":12394,"Ġrein":12395,"Ġglb":12396,"Ġgly":12397,"Ġgliosis":12398,"tridium":12399,"oidism":12400,"achi":12401,"upr":12402,"Ġdystasia":12403,"ensen":12404,"Ġjc":12405,"Ġjug":12406,"Ġjorge":12407,"Ġjansen":12408,"Ġjames":12409,"Ġjeune":12410,"Ġjensen":12411,"Ġperitone":12412,"Ġperisylvian":12413,"ifting":12414,"Ġtric":12415,"Ġtrunc":12416,"Ġtrilogy":12417,"Ġabri":12418,"Ġabras":12419,"Ġabrup":12420,"Ġleukostasis":12421,"onscious":12422,"apn":12423,"apt":12424,"nekam":12425,"Ġrecr":12426,"Ġcomm":12427,"Ġcomitant":12428,"izin":12429,"ending":12430,"Ġrete":12431,"Ġretrog":12432,"Ġphleb":12433,"Ġphhi":12434,"Ġphlor":12435,"Ġameg":12436,"Ġamyt":12437,"Ġamebiasis":12438,"quez":12439,"abi":12440,"Ġtumorigenic":12441,"andez":12442,"ogeneses":12443,"Ġscax":12444,"Ġscars":12445,"Ġscdo":12446,"Ġscimitar":12447,"Ġexsang":12448,"Ġcortis":12449,"Ġmulibrey":12450,"ically":12451,"Ġpalatin":12452,"ither":12453,"Ġencephalitic":12454,"Ġencephaloclastic":12455,"Ġencephalomalacias":12456,"Ġblv":12457,"Ġbloch":12458,"Ġpostsyn":12459,"Ġpostnatal":12460,"Ġchromophob":12461,"Ġchromaffin":12462,"grediens":12463,"Ġnonobstruc":12464,"Ġnonhodgkin":12465,"Ġnonphot":12466,"ofemoral":12467,"Ġmich":12468,"Ġcardior":12469,"ransferr":12470,"Ġsubfer":12471,"Ġfibronectin":12472,"Ġshield":12473,"Ġarterio":12474,"Ġintellig":12475,"Ġdiaper":12476,"Ġcarcinomatosis":12477,"Ġcarcinomatoses":12478,"Ġcolum":12479,"ocytopathy":12480,"ocytoid":12481,"Ġosteomalacia":12482,"Ġosteopathia":12483,"Ġosteocar":12484,"Ġosteophyt":12485,"Ġosteohypertrophy":12486,"Ġosteodysplas":12487,"Ġadenofibroma":12488,"ythms":12489,"Ġisochrom":12490,"Ġcount":12491,"Ġcoumarin":12492,"Ġfrias":12493,"Ġmyelodis":12494,"Ġerections":12495,"lications":12496,"Ġlieou":12497,"Ġiduronidase":12498,"Ġiduronate":12499,"Ġtransplant":12500,"Ġtransgrediens":12501,"Ġpseudog":12502,"Ġpseudorhe":12503,"akut":12504,"Ġaggr":12505,"Ġagyria":12506,"Ġhypertyros":12507,"Ġschimmel":12508,"Ġschimke":12509,"Ġoedema":12510,"Ġorotic":12511,"Ġmyocarditis":12512,"Ġendodermal":12513,"Ġimmunoproliferative":12514,"Ġjuven":12515,"Ġuric":12516,"avage":12517,"avuori":12518,"Ġtubercular":12519,"Ġapkd":12520,"Ġplant":12521,"Ġhydr":12522,"ungual":12523,"Ġformimin":12524,"ayama":12525,"eau":12526,"prech":12527,"Ġmong":12528,"Ġmononeuropathies":12529,"Ġmonkey":12530,"Ġinfantilism":12531,"Ġunex":12532,"Ġunerupted":12533,"Ġmacle":12534,"Ġcrs":12535,"Ġcritch":12536,"Ġpositivities":12537,"ickness":12538,"Ġvera":12539,"Ġvery":12540,"Ġintrathoracic":12541,"Ġoptical":12542,"ritional":12543,"Ġ70":12544,"Ġhypoplasias":12545,"ulty":12546,"Ġnephroma":12547,"Ġclot":12548,"Ġclls":12549,"Ġclausen":12550,"Ġdiencephalic":12551,"Ġresting":12552,"Ġcave":12553,"Ġcarol":12554,"Ġpneumoconioses":12555,"Ġ81":12556,"Ġheartbe":12557,"Ġinternuclear":12558,"Ġrhythms":12559,"Ġuleryth":12560,"Ġdrash":12561,"Ġdracunc":12562,"Ġdrifting":12563,"Ġarthromy":12564,"Ġflow":12565,"Ġfluct":12566,"Ġfldem":12567,"msen":12568,"functional":12569,"maul":12570,"Ġmucinosis":12571,"Ġmucha":12572,"immunity":12573,"Ġsupine":12574,"Ġsupplementary":12575,"Ġdysfunctional":12576,"Ġautoimmunity":12577,"Ġdifficul":12578,"erton":12579,"Ġcompos":12580,"Ġspinulosa":12581,"Ġradi":12582,"Ġparaph":12583,"lobular":12584,"Ġaphakia":12585,"ophthalmic":12586,"Ġvesiculo":12587,"Ġhyperstim":12588,"Ġpee":12589,"Ġpeoa":12590,"Ġmarble":12591,"Ġmarsh":12592,"Ġmarks":12593,"Ġimpacted":12594,"Ġnodofasc":12595,"ondyly":12596,"Ġamylo":12597,"ethre":12598,"Ġvalves":12599,"Ġvalpro":12600,"Ġsepiap":12601,"Ġtrisomies":12602,"Ġkeratoac":12603,"Ġkeratodermas":12604,"nai":12605,"Ġhematocele":12606,"Ġhematoceles":12607,"Ġhistiocytoid":12608,"Ġdrugs":12609,"Ġneurally":12610,"Ġ100":12611,"Ġcda":12612,"Ġcdls":12613,"Ġhypotony":12614,"Ġmethion":12615,"okinetic":12616,"Ġenergy":12617,"Ġspondylometa":12618,"Ġmelker":12619,"Ġmelchior":12620,"Ġhernandez":12621,"Ġfolling":12622,"Ġeca":12623,"Ġecch":12624,"Ġeccent":12625,"Ġeconomo":12626,"rolactin":12627,"empers":12628,"oencephalopathy":12629,"Ġigd":12630,"Ġglucosaminidase":12631,"Ġglucuronidase":12632,"Ġglucagonoma":12633,"Ġzim":12634,"arthroses":12635,"omeric":12636,"ificial":12637,"tillo":12638,"Ġdupre":12639,"Ġcalcinoses":12640,"Ġ1210":12641,"Ġextensor":12642,"Ġdeformed":12643,"roxysmal":12644,"Ġhallgren":12645,"Ġdependency":12646,"Ġducts":12647,"Ġbronchospasm":12648,"Ġreacting":12649,"bla":12650,"blad":12651,"Ġhemangioendothelioma":12652,"Ġcarboxy":12653,"irales":12654,"Ġglycogenoses":12655,"Ġremission":12656,"Ġwegener":12657,"Ġweyers":12658,"Ġemboli":12659,"Ġmagen":12660,"Ġswyer":12661,"Ġswami":12662,"ocarcinosarcoma":12663,"Ġerythrohepatic":12664,"Ġbarb":12665,"Ġtrichoepithelioma":12666,"Ġoster":12667,"Ġostium":12668,"Ġbleb":12669,"Ġparasomnia":12670,"Ġparasomnias":12671,"Ġprev":12672,"Ġcontre":12673,"berry":12674,"iew":12675,"Ġmorsier":12676,"keratotic":12677,"Ġtracts":12678,"Ġmelanosis":12679,"Ġotc":12680,"Ġwilhel":12681,"Ġpyoderma":12682,"Ġphenotypes":12683,"olipidosis":12684,"Ġquinc":12685,"ythmic":12686,"Ġbasedow":12687,"Ġgaits":12688,"Ġantidi":12689,"Ġduhr":12690,"Ġtear":12691,"Ġhepatomas":12692,"Ġgastrin":12693,"Ġlobstein":12694,"Ġlobster":12695,"oacid":12696,"oacoustic":12697,"Ġgraham":12698,"Ġminer":12699,"stiel":12700,"Ġtoriello":12701,"Ġneurofibroma":12702,"Ġwhyte":12703,"Ġheterochrom":12704,"Ġuropathy":12705,"Ġcytoplasmic":12706,"Ġnociceptive":12707,"Ġpressures":12708,"Ġparkinsonisms":12709,"Ġsarcomatous":12710,"Ġulcerans":12711,"yelocytic":12712,"Ġketothiolase":12713,"Ġgrebe":12714,"Ġoligodactyly":12715,"Ġice":12716,"Ġconcentration":12717,"Ġbreeder":12718,"Ġneuronopathies":12719,"Ġmcalister":12720,"Ġhyperopia":12721,"Ġhyperosmolar":12722,"Ġedematous":12723,"Ġcanker":12724,"Ġhyperpipec":12725,"Ġschizophrenic":12726,"Ġslen":12727,"Ġslsn":12728,"Ġbowed":12729,"onephosphate":12730,"Ġpleuro":12731,"Ġpleocon":12732,"Ġmanz":12733,"Ġmeatal":12734,"Ġavoid":12735,"Ġavsd":12736,"Ġphotopa":12737,"Ġcorpse":12738,"Ġcretinism":12739,"Ġbiphosphatase":12740,"Ġvasopr":12741,"Ġreticulate":12742,"Ġreticulata":12743,"Ġatrium":12744,"Ġlipofuscinoses":12745,"Ġskills":12746,"atorubral":12747,"odysostosis":12748,"auer":12749,"Ġfunctions":12750,"Ġmyxedema":12751,"cds":12752,"Ġdentatorubral":12753,"Ġxxx":12754,"Ġathe":12755,"Ġathabas":12756,"Ġmetaplasias":12757,"Ġtoxemias":12758,"Ġglobin":12759,"Ġporphyrin":12760,"Ġpolymorphous":12761,"Ġameloblastic":12762,"Ġhypercalciuric":12763,"arboxyl":12764,"Ġturk":12765,"Ġcmtd":12766,"Ġepisodes":12767,"Ġglossitis":12768,"fev":12769,"Ġgallst":12770,"Ġacanthomas":12771,"Ġacantholytic":12772,"ocardia":12773,"Ġaldosteronism":12774,"Ġfibrinogen":12775,"Ġosteoarthritides":12776,"Ġviis":12777,"Ġchoreic":12778,"Ġperoxidase":12779,"Ġmenet":12780,"Ġtyrosinosis":12781,"Ġendotheliomas":12782,"Ġanalgesia":12783,"apulo":12784,"Ġhydatidosis":12785,"Ġhydatidoses":12786,"auricul":12787,"Ġlevine":12788,"Ġlevator":12789,"Ġprecancerous":12790,"Ġaddic":12791,"azi":12792,"Ġsialurias":12793,"Ġhypoxias":12794,"Ġhypoadrenal":12795,"Ġxanthoma":12796,"exis":12797,"positions":12798,"iparum":12799,"Ġureteric":12800,"Ġmyotonica":12801,"Ġextreme":12802,"Ġextremities":12803,"Ġdiarrheogenic":12804,"Ġgammopathies":12805,"Ġworinger":12806,"Ġcholedochostomy":12807,"Ġcholedochoduodenostomy":12808,"Ġcholedochojejunostomy":12809,"uccinate":12810,"Ġteratocarcinosarcoma":12811,"apping":12812,"Ġmicrocytic":12813,"Ġshee":12814,"Ġerythemato":12815,"Ġsupraumbilical":12816,"Ġstaphylococcus":12817,"Ġnutritional":12818,"Ġmilker":12819,"Ġretrusion":12820,"Ġforamen":12821,"Ġforelock":12822,"amelia":12823,"Ġdystrophicas":12824,"Ġfaciocardi":12825,"Ġgreither":12826,"otoxicosis":12827,"Ġpectori":12828,"ohydrolase":12829,"Ġfibromuscular":12830,"Ġppn":12831,"Ġtasting":12832,"Ġlichenoid":12833,"Ġsilic":12834,"Ġbisphosphatase":12835,"Ġsignific":12836,"Ġbouill":12837,"Ġrestenosis":12838,"Ġchlo":12839,"Ġhyperbilirubinemias":12840,"Ġleiomyomas":12841,"Ġleiomyosarcomas":12842,"Ġtetraamelia":12843,"Ġpapulous":12844,"Ġpapuloses":12845,"Ġpapulosa":12846,"Ġphenomenons":12847,"Ġsolid":12848,"Ġshocks":12849,"Ġcystadenofibroma":12850,"Ġcystadenofibromas":12851,"Ġclostridium":12852,"ahr":12853,"ahara":12854,"Ġserpigin":12855,"inositol":12856,"Ġcephalgias":12857,"Ġcephalothoracic":12858,"Ġhennekam":12859,"Ġnarcosis":12860,"oliomyelitis":12861,"Ġjaundices":12862,"Ġcyclohydrolase":12863,"Ġhyperuricemias":12864,"Ġkleffner":12865,"Ġmicrognathias":12866,"Ġmicrognathisms":12867,"Ġsomatotroph":12868,"oclonus":12869,"Ġpostpoliomyelitis":12870,"Ġacrocephalopolysyndactyly":12871,"Ġrectocolitis":12872,"Ġrectosigmoid":12873,"Ġascending":12874,"Ġcurv":12875,"acetonephosphate":12876,"Ġanoxias":12877,"Ġosteonecroses":12878,"Ġporok":12879,"Ġsclera":12880,"enhall":12881,"Ġpsaum":12882,"Ġpsuedo":12883,"Ġhypersomnolences":12884,"Ġchorioretin":12885,"Ġlactose":12886,"Ġvoluntary":12887,"Ġsaethre":12888,"Ġcbla":12889,"Ġcblb":12890,"Ġreno":12891,"Ġrenpenning":12892,"ucleosis":12893,"Ġlymphangiomas":12894,"Ġtyphoid":12895,"Ġfilamin":12896,"Ġbalo":12897,"Ġbalkan":12898,"Ġhemochromatoses":12899,"affective":12900,"Ġcrying":12901,"Ġcartilages":12902,"Ġsandrow":12903,"Ġpraev":12904,"Ġahc":12905,
[...]
