#version: 0.2 - Trained by `huggingface/tokenizers`
a l
t i
e r
r o
i n
Ġ s
Ġ d
e n
a s
o n
Ġ c
a r
i s
e s
Ġ p
i c
a n
a t
o s
o r
Ġ m
o m
Ġ t
Ġ h
ro m
p h
Ġ a
l e
y n
Ġ n
i a
u l
Ġs yn
Ġd is
d rom
u s
Ġsyn drom
e d
e m
i t
Ġ in
o p
y p
Ġ f
Ġ b
Ġsyndrom e
ti on
e l
y s
Ġ l
ti c
a c
Ġ r
o c
u r
e as
Ġd e
i d
i l
e c
Ġ g
Ġdis eas
o l
Ġn e
v e
en t
en c
l as
e t
i al
i ti
Ġdiseas e
at h
Ġ 1
t h
e p
u m
u t
Ġ v
r a
os is
ar y
Ġde f
Ġh yp
g en
a m
yp e
Ġt ype
a tion
d er
ic i
Ġd ys
Ġc h
s i
ici enc
ul ar
i m
om a
el l
i g
u n
i as
Ġin f
Ġdef icienc
o d
Ġ an
in g
Ġ 2
t er
Ġc on
u c
r an
Ġa c
o t
u ro
c l
u d
ro ph
Ġdeficienc y
o us
i es
Ġ e
y m
or der
a g
ath y
Ġdis order
op las
i r
Ġ le
c h
iti s
e b
os om
ti n
Ġm y
Ġhyp er
Ġs p
os t
an c
Ġne uro
y l
ar d
em ia
Ġs t
Ġ w
an t
in e
a d
Ġ at
it y
it al
ac t
Ġ i
e ph
o b
Ġp ar
or m
oplas m
ar c
Ġinf ec
ys t
Ġn er
es s
Ġne oplasm
Ġ ep
om as
us c
Ġin cl
Ġ al
Ġa ut
eph al
ym ph
si ve
i p
er eb
Ġh em
Ġ k
Ġ ar
Ġinfec tion
u b
ud ed
Ġa d
i le
p las
Ġincl uded
Ġt h
Ġp r
Ġcon gen
ro n
Ġc ell
e al
v er
o id
am il
Ġl ymph
o ph
a tic
Ġf amil
roph y
Ġ 3
Ġfamil ial
r al
Ġdiseas es
p le
Ġp ro
a ti
ec t
Ġg l
as e
Ġp er
Ġr e
Ġ x
op athy
u k
at ed
Ġcongen ital
Ġner ve
ent al
o g
i b
r ic
oc y
is m
os es
osom al
Ġh er
Ġle uk
es sive
ac h
d es
u p
at e
en s
i f
enc ephal
Ġdys t
anc er
Ġa b
Ġc ancer
Ġc ereb
Ġ j
om y
plas ia
or y
' s
s y
Ġaut osomal
it ary
r e
an g
ur e
on s
Ġc om
t r
Ġ 4
i z
Ġm al
a p
Ġs e
n e
Ġt um
er al
Ġdisorder s
Ġh e
o v
t e
Ġ as
en d
Ġp h
Ġt ra
Ġsyndrom es
Ġr ec
ro s
Ġtum or
ti b
er m
y d
Ġt r
iti des
o x
Ġp ol
op ath
ti s
in k
ig n
r h
Ġtra um
a b
in al
Ġa m
q u
il l
Ġe x
Ġher ed
ink ed
Ġl inked
Ġneoplasm s
Ġhered itary
n ess
o gen
on d
o th
p athy
an d
Ġr et
Ġep ile
Ġepile p
ut e
ic al
m un
Ġm usc
a x
il ity
Ġ im
Ġ encephal
Ġc or
Ġm ul
arc in
Ġdys plasia
i on
Ġinfection s
Ġp ost
Ġp al
y c
es is
k in
ar i
m ent
s e
en al
j ur
Ġin jur
al l
Ġdyst rophy
Ġb l
Ġch rom
t al
Ġi i
o h
Ġ oc
on ic
Ġrec essive
Ġs ub
ra in
or rh
usc ep
Ġp a
as c
Ġch ron
Ġs uscep
om at
Ġac ute
Ġsuscep tib
ation s
Ġchron ic
m on
Ġsusceptib ility
ati ve
ur al
u e
a f
s on
Ġmul ti
der m
Ġn on
Ġpr im
ro c
Ġm et
Ġt ran
si on
it h
d uc
Ġ 5
in ant
en ing
ar t
Ġm ental
Ġar ter
Ġc arcin
Ġb r
Ġret ard
Ġb rain
osom e
o w
Ġcereb ral
Ġg en
Ġretard ation
Ġtraum atic
om inant
Ġchrom osome
yst em
Ġleuk emia
Ġd ominant
Ġp ul
Ġf ib
ost e
ran ial
g r
ag e
Ġin t
un c
Ġc ol
am m
ocy tic
Ġs h
cl er
Ġs ystem
Ġc ard
ell ar
tin g
Ġad en
an e
em ias
ac ial
tin al
Ġmulti ple
ro id
on e
Ġ op
Ġper i
Ġprim ary
o f
mon ary
Ġ q
Ġ 6
Ġneuro pathy
Ġ oste
te in
Ġl ip
k e
rom b
ocy t
oc h
Ġd ia
ti ve
ro p
Ġepilep sy
ur es
Ġmusc ular
ent ric
s t
Ġc yst
Ġ er
Ġs ens
Ġmy el
Ġm ening
e tic
Ġhem orrh
Ġde af
opath ic
Ġan g
o derm
y th
Ġ id
an n
l ic
er g
Ġr el
i v
Ġpul monary
ul l
i or
Ġhyper t
Ġat ax
Ġf r
e g
Ġ is
iti es
c ul
Ġm ic
ar yn
Ġs ch
as t
Ġf e
Ġrel ated
an ti
es t
l y
Ġdeaf ness
Ġ end
Ġth romb
Ġtran s
Ġc o
at al
gen er
g ia
u v
ti al
Ġlymph oma
act yl
Ġs c
Ġa g
s oc
Ġin duc
se ud
en ile
tion s
Ġinduc ed
a k
orm al
Ġp seud
Ġh ep
ot or
Ġsp as
on ia
ys is
Ġ o
gr essive
p er
Ġt o
ig h
at ory
os ph
entric ular
Ġs cler
a v
ob las
Ġse iz
th al
Ġr enal
Ġdef ect
Ġdia b
actyl y
Ġ ur
Ġac id
Ġt ub
Ġm on
om al
os s
Ġb en
i opathic
Ġp l
un g
ic h
Ġpa in
Ġatax ia
Ġim mun
aryn g
Ġmy oc
Ġben ign
e a
er at
Ġdeficienc ies
Ġas soc
opath ies
Ġab s
Ġhe ad
r i
f f
f t
n ormal
Ġde gener
Ġmal ign
Ġa p
Ġid iopathic
Ġ or
Ġsp inal
asc ular
i ated
o od
Ġat rophy
Ġab normal
Ġinjur y
en ti
Ġ ons
Ġons et
a y
er s
Ġc ent
ys m
p ath
Ġinf anti
Ġl i
Ġd erm
tr ac
Ġtumor s
ane ous
o tic
Ġ un
Ġp o
Ġinfanti le
Ġh yd
Ġpro gressive
g l
ang i
os a
Ġcom ple
Ġcarcin oma
ur ia
Ġj uv
or t
em ic
Ġassoc iated
Ġp os
Ġin s
is t
enc e
Ġner v
Ġcard i
Ġjuv enile
i an
Ġmalign ant
p r
op ro
Ġg ran
Ġcancer s
Ġ 7
Ġto oth
ic k
ter ior
ro d
roph ic
si es
oc al
c ess
Ġnerv ous
n al
Ġc le
at eral
Ġf acial
y t
er t
Ġs le
ne um
Ġm ac
ph a
le x
Ġin trac
Ġfe ver
y r
en ia
Ġ em
Ġc at
Ġ ect
il d
ro x
Ġep id
ogen ic
es ia
f er
Ġc l
ul t
ir us
ros is
f orm
ac ter
Ġd i
Ġp neum
em a
Ġinjur ies
us ion
ent er
Ġang i
Ġr es
oph ag
Ġ ob
Ġf orm
ir ed
Ġer yth
or tic
oc ereb
Ġsle ep
ro ti
Ġr h
Ġne ph
a il
Ġc a
os e
thal m
Ġcent ral
u al
Ġac qu
l amm
Ġop tic
y roid
Ġacqu ired
m s
Ġarter y
r ial
Ġan omal
Ġc r
ol ic
Ġpar tial
id ase
Ġhe art
ro gen
ut aneous
oph il
aryng eal
Ġn ec
us e
uc t
og ic
Ġc er
ia c
roph ies
Ġ 8
Ġ ul
ys tic
ias is
in emia
Ġc ar
Ġs ec
Ġre f
Ġspas tic
icienc y
im mun
Ġhemorrh ag
Ġs m
as ia
Ġintrac ranial
o le
iti v
ati tis
og l
igh t
Ġhyp oplas
b in
v el
Ġint ra
path ies
i x
Ġm ed
Ġin ter
Ġmy opathy
Ġad ult
Ġs in
unc tion
Ġgl yc
ill ary
Ġm uc
Ġinf lamm
Ġcom p
Ġaut o
iti ve
od yst
ang l
Ġd em
u g
Ġ es
in d
Ġst en
er cul
ph ys
Ġan emia
ric h
p t
Ġar th
Ġfr act
Ġne on
ra d
Ġch ild
Ġdiab et
Ġmyoc l
Ġgran ul
i os
v ul
Ġ ov
Ġmet ab
Ġl im
Ġmal form
Ġ ol
Ġc ranial
is ti
Ġb one
id osis
Ġcereb ellar
Ġc al
as al
Ġh a
am in
Ġneon atal
Ġd if
Ġf l
od y
iz ed
h er
ro w
Ġdiabet es
Ġpar al
immun e
ig ment
Ġcardi omy
un d
Ġtub ercul
h yd
Ġ 9
Ġv entricular
Ġs kin
Ġp ap
Ġm ari
Ġa ph
Ġsin us
Ġal pha
r itis
on t
es tinal
Ġad r
oblas tic
Ġhead ach
ocereb ellar
is on
ac k
Ġth yroid
Ġre tin
Ġpal sy
c al
em at
Ġde le
oc k
e f
i oma
Ġd ue
Ġs up
et a
Ġe ar
Ġw ith
opro tein
Ġres p
Ġd r
or ph
en ic
it us
Ġhyper s
Ġii i
Ġauto immune
n eal
sy ch
Ġmari e
Ġr ad
ost osis
if orm
roc ephal
a e
m ental
oderm al
y tic
tic ul
Ġgen eral
Ġl ung
Ġperi od
Ġdegener ation
vel op
ti des
on g
Ġ1 1
a uc
a ting
in t
Ġb il
Ġsp in
Ġsens ory
Ġn od
it u
Ġph osph
Ġdele tion
c oh
Ġleuk emias
Ġencephal opathy
Ġis ch
Ġp igment
Ġm otor
Ġde velop
Ġv es
Ġneuro pathies
Ġoc ul
is omy
Ġp sych
Ġv ascular
yn e
et al
tr uc
Ġmusc le
Ġcyst s
Ġcle ft
en sion
arc ot
Ġal coh
oph thalm
Ġlim b
s truc
ar g
ic ul
th y
Ġch arcot
Ġcor neal
Ġoc ular
Ġseiz ure
Ġpar a
yl oid
Ġtr isomy
ith el
i um
Ġg ast
Ġch or
Ġinf arc
Ġal l
w ar
rom at
eas t
Ġg angl
Ġhypoplas ia
y ph
Ġ ro
ol ysis
Ġre tinal
Ġcat ar
Ġv al
Ġe y
Ġpro l
Ġcardiomy opathy
Ġf o
Ġl oss
ox ic
Ġpo ison
odyst rophy
Ġs arc
Ġc ran
em or
Ġam yloid
Ġchild h
m an
n a
Ġdys f
Ġpro tein
Ġchildh ood
Ġlymph ocytic
Ġbr east
itiv ity
er ative
si ons
Ġan e
Ġpoison ing
on al
Ġcor d
Ġepid erm
Ġhem at
omy el
Ġhemorrh age
ur ysm
et h
im al
Ġbr ach
Ġcer v
Ġdif f
op l
ur g
Ġabnormal ities
Ġgeneral ized
Ġcatar act
anc e
omat ous
o ut
Ġm es
ul in
Ġneuro l
Ġk erat
omat osis
Ġli ver
e le
Ġ en
Ġb ull
las e
ut er
Ġk id
Ġcard iac
Ġ ich
or n
le ar
Ġul c
phys eal
r ine
u ff
Ġc d
ol ar
ne y
Ġcarcin omas
Ġich thy
oc oc
Ġes ophag
Ġf ail
Ġl ow
Ġepilep sies
Ġabs cess
Ġane urysm
Ġdiff use
l er
an th
Ġv er
Ġinflamm atory
Ġh isti
ol ism
Ġne ural
gen esis
Ġm el
Ġm ig
Ġb ody
Ġgl and
og ical
Ġencephal itis
Ġhep atic
anc y
Ġdem enti
i ons
Ġc utaneous
Ġp anc
ol es
kin son
Ġend oc
Ġscler osis
Ġseiz ures
Ġob struc
Ġsec ond
Ġp itu
Ġ1 3
Ġcon t
Ġex t
Ġint estinal
oderm a
Ġpitu itary
m d
in ary
ia tion
yp osis
Ġne ur
oplas tic
b ran
p ur
in s
as is
ph eral
ed ema
op ia
od ef
Ġpar kinson
Ġ ec
ti ous
Ġv en
Ġimmun odef
i omas
Ġs ep
Ġv it
Ġperi pheral
lic ation
Ġs ym
Ġm o
ol ytic
ant ar
plas ias
ron ch
Ġse x
ix ed
Ġall erg
i o
or age
Ġst orage
Ġcomple x
Ġm ar
Ġst at
ond yl
Ġkid ney
p s
Ġp el
os p
Ġh and
Ġdyst onia
Ġbl ind
ti v
on ad
Ġm ixed
Ġf ist
Ġsh ort
Ġhemorrhag ic
Ġwith out
Ġspin ocerebellar
Ġpara ple
Ġfist ul
g ias
Ġg al
Ġ1 0
yd actyly
Ġey e
Ġ enter
Ġdis tal
em ent
Ġf ol
ir d
Ġinfec tious
Ġpol yne
Ġmyocl onic
Ġparal ysis
Ġimmunodef iciency
o k
Ġan terior
Ġpr eg
Ġpos terior
y lase
Ġc ir
Ġm it
Ġv ari
oth el
Ġpreg n
p end
Ġb eta
ad der
Ġper son
Ġher n
roti d
Ġadr enal
Ġdevelop mental
os in
Ġg i
Ġhyp ot
Ġlymph omas
Ġas p
Ġpal m
Ġanomal ies
m a
is h
Ġin c
Ġ1 2
ra x
ell a
r y
er ly
on ias
Ġb ronch
Ġins uff
rox ysm
Ġform erly
Ġneurol ogic
h e
Ġr esis
Ġde hyd
oblas t
is s
Ġp up
ogen esis
ocyt op
Ġperson al
Ġresis t
c t
k er
Ġd ental
or e
ran s
fer ase
Ġd war
ar th
Ġpol y
ari an
Ġmon osom
Ġref lex
Ġdwar f
Ġ uter
it e
ati tides
o encephal
Ġdef orm
Ġhyp oth
ir al
Ġgl auc
Ġpa roxysm
Ġtran si
Ġfail ure
Ġ y
Ġ ophthalm
Ġm em
om er
och ond
Ġdefect s
Ġect odermal
Ġmonosom y
a it
i tic
op ic
Ġb acter
ens itivity
Ġtraum a
Ġov arian
arg e
romat osis
Ġdwarf ism
u tis
Ġd el
as s
Ġv is
Ġsm all
Ġves tib
Ġparaple gia
t ur
Ġd up
Ġh all
Ġf ocal
tic al
Ġhem angi
Ġse ver
ocyt osis
Ġheadach e
Ġalcoh ol
an s
Ġm r
om ic
le t
ard ial
Ġgl uc
Ġim p
Ġmet h
Ġglyc ogen
Ġdysf unction
Ġgal act
Ġpolyne uro
i i
Ġd f
it t
Ġde pr
Ġst r
rogen ase
Ġsten osis
Ġsecond ary
Ġparoxysm al
om el
it a
Ġv ag
Ġsystem ic
rocephal y
Ġdehyd rogenase
Ġsever e
a in
Ġsp ondyl
Ġmetab olic
Ġmalform ation
u x
Ġd uct
Ġm ell
em p
uc h
ir id
Ġtr emor
Ġli ke
Ġmac ular
Ġdementi a
n s
in osis
Ġh um
it ed
et er
ra tion
ias es
Ġfib ro
Ġha ir
Ġdr ug
Ġpregn ancy
Ġmell itus
b l
ic ular
om otor
Ġf etal
ra m
Ġur inary
Ġem b
l ip
Ġs im
Ġp ur
Ġv iral
Ġmyel oid
Ġp y
ys plasia
ol ogical
Ġv ar
s d
Ġ z
Ġm a
Ġf ron
Ġex per
Ġdiab etic
Ġinfarc tion
n er
Ġ tis
Ġf ac
ur r
im ental
Ġw e
if ic
Ġca rotid
Ġfo ot
Ġexper imental
Ġtis s
r en
Ġcon vul
Ġmal e
Ġcol or
ococ cal
Ġblind ness
Ġgi ant
i ary
n es
ar ing
yp ical
Ġcongen ita
Ġre ac
Ġcal c
Ġear ly
ithel ial
osin ophil
rans ferase
m ann
Ġ ox
ti l
Ġs er
Ġmy c
Ġw il
act or
Ġi v
Ġeryth ro
Ġcar b
Ġcerv ical
Ġmel an
i osis
Ġs w
Ġa ortic
il ar
Ġdys kin
Ġcom bin
Ġrec urr
Ġaden oma
Ġhyd rox
Ġcran i
Ġcombin ed
c op
Ġs al
Ġc ystic
Ġl arge
Ġde pend
eb ral
Ġph en
lic ular
Ġfract ures
Ġvari ant
a w
c r
ul f
Ġr em
oc arcin
Ġat ypical
encephal y
Ġfract ure
Ġpersonal ity
Ġtiss ue
Ġd ig
om inal
Ġj o
Ġhe aring
eg al
Ġco ron
Ġbull osa
Ġmeth yl
i er
i ed
os idase
Ġm er
Ġv asc
plas tic
Ġbl adder
Ġsub ac
Ġbil ateral
Ġvasc ul
i ve
as th
Ġin v
ve olar
gen ic
Ġat r
Ġpseud o
Ġor al
Ġepiderm olysis
Ġichthy osis
Ġh iv
op le
um b
Ġpro st
Ġhypert ension
Ġval ve
opl antar
Ġpalm oplantar
i k
n os
al am
ti tis
ro tic
on eal
at ase
or al
Ġl ac
Ġg ait
Ġas t
Ġsch iz
Ġpos itive
Ġpanc re
Ġendoc rine
Ġtransi ent
i tion
es sion
Ġp ath
os yl
os arc
Ġf actor
ol ated
Ġgl omer
roc yt
ke le
Ġis olated
Ġaph asia
Ġesophag eal
d ominal
t on
Ġb as
id s
Ġe osinophil
ect al
and ib
Ġperiod ic
Ġbacter ial
Ġdup lication
kele tal
an ic
Ġt rich
Ġsyn th
us ions
Ġl ate
ob ul
Ġpr emat
Ġtr act
Ġpal ate
Ġanomal y
Ġsubac ute
Ġ qu
Ġa x
ir atory
ob acter
Ġher p
omy c
i e
Ġc las
Ġl aryngeal
las t
ad en
Ġabs ence
row th
Ġresp iratory
omyel itis
t ransferase
Ġ ig
ro f
ro r
ro pathy
os ing
Ġn ons
yp t
tic ular
Ġne v
a ph
v ic
z ing
Ġb or
Ġl oc
Ġpr e
Ġim per
Ġpal sies
Ġhypert rophic
Ġthromb ocytop
Ġallerg ic
Ġpur pur
Ġimper f
y al
or s
om n
Ġt ach
Ġr ight
Ġch ond
Ġap rax
Ġhum an
Ġrecurr ent
Ġ ve
Ġd il
Ġne g
Ġhem olytic
Ġpain s
Ġglauc oma
Ġpremat ure
f ib
er n
Ġg ing
ol ip
Ġtraum as
Ġmyoc ardial
Ġtubercul osis
Ġuter ine
k erat
o ac
r itides
ro gl
as ias
on i
Ġin her
Ġl ateral
Ġr ed
Ġat rial
if erative
Ġcor tical
of acial
Ġderm atitis
Ġhemorrhag es
Ġmetab olism
b orn
m us
on us
Ġa ud
ys es
Ġg ra
ra g
Ġmy asth
Ġinsuff iciency
Ġhypoth alam
Ġglomer ul
o ur
Ġ ot
on omic
Ġm or
Ġh orm
em al
Ġb ar
Ġr up
oma tic
Ġan ti
athy roid
oph aryngeal
Ġtr ig
Ġderm at
Ġcomple ment
roti zing
Ġnec rotizing
Ġgast ro
Ġfol licular
Ġinher ited
b le
Ġb e
Ġb le
tin e
Ġpar ane
tr act
ros p
Ġclas s
Ġparane oplastic
c a
en b
es ias
id e
ol ogic
Ġpar as
Ġsim ple
Ġging iv
Ġ os
Ġc m
Ġt onic
Ġe le
Ġmy ot
Ġal veolar
Ġab dominal
ortic al
Ġcr ypt
ogl ob
emp oral
y el
Ġp at
Ġdis s
it ory
Ġg rowth
ip le
Ġmic rocephaly
Ġhep at
Ġulc er
Ġmig ra
Ġmr x
Ġpolyneuro pathy
d actyly
Ġd u
Ġc ox
ep t
Ġch ol
ach n
Ġdi ver
Ġnod ular
Ġjo int
e um
Ġs ulf
os cler
Ġm in
Ġa ids
em ann
Ġv on
Ġsp l
Ġneuro fib
Ġaut onomic
yc ard
Ġsarc oma
Ġpancre atic
andib ular
Ġimperf ect
h l
p ro
t l
Ġc ap
Ġt e
Ġh eter
Ġb ran
et ra
Ġv ert
Ġcon c
Ġle ft
ine ural
Ġsens or
Ġpneum onia
Ġrad iation
Ġfistul a
omel ic
Ġdiver ticul
b er
o und
Ġ tic
al d
in ating
on y
or d
ph osph
Ġn yst
Ġn asal
Ġsyn cop
Ġl o
Ġl ob
Ġ1 5
Ġv irus
Ġhyp og
Ġdys m
Ġac cess
ag mus
ver s
ne a
Ġmalform ations
oprotein emia
Ġmit ochond
Ġcoron ary
Ġaud itory
Ġhorm one
Ġbran ch
Ġnyst agmus
Ġaccess ory
Ġ uro
Ġd en
Ġc am
em in
Ġf anc
ec h
Ġhyper plasia
Ġat rophies
Ġgen etic
Ġmening itis
Ġag nos
Ġprol ap
Ġcd g
Ġvit amin
Ġimperfect a
ti a
in ation
Ġs ick
Ġp las
Ġp ick
os um
or ac
Ġa vul
Ġb ov
Ġw a
act ory
ver n
Ġre g
Ġas th
Ġgangl ios
Ġophthalm ople
Ġmem bran
Ġast rocyt
Ġtach ycard
Ġmitochond rial
Ġbov ine
Ġ ic
Ġp e
Ġm id
ation al
Ġ2 1
Ġac h
ot rop
Ġw h
Ġal bin
Ġaden omas
Ġco a
Ġpseud oh
Ġabnormal ity
Ġphosph ate
Ġven ous
Ġpup il
b ar
g er
ro v
os ter
ec tion
Ġg ro
Ġ1 4
ici ent
im er
Ġcon tract
Ġdyst rophies
Ġoste op
angi ect
opro l
Ġrh eum
orph yr
oles ter
Ġsym pt
irid ae
Ġschiz oph
Ġalbin ism
d e
t s
z o
Ġf asc
Ġch o
Ġle g
Ġarter ial
yth m
Ġsten oses
Ġhypers ensitivity
Ġloc us
Ġmigra ine
Ġc yt
at a
Ġm ast
om et
ph al
ec tive
Ġat t
ros es
ab le
Ġgen ital
Ġfl u
Ġretin itis
Ġdyskin esia
Ġdepend ent
Ġhypothalam ic
Ġrup t
b s
Ġc an
Ġp le
Ġ1 7
Ġle thal
Ġneuro nal
Ġthromb osis
Ġperiod on
Ġisch emia
Ġsensor ineural
n b
ro b
ar s
Ġt or
Ġn i
Ġn oc
op ec
Ġb asal
Ġl ang
ec k
Ġdef icient
ing s
Ġk et
Ġaden ocarcin
Ġfever s
Ġhall uc
Ġfibro us
Ġatr esia
Ġneg ative
a ir
ro ch
in a
on eph
es th
Ġa genesis
Ġb re
Ġl am
ac ch
Ġdys plasias
Ġph ot
Ġpol yposis
Ġencephal opathies
Ġca vern
Ġinter m
Ġmyocl onus
Ġol ig
Ġheadach es
Ġgast ric
Ġax onal
g ic
i physeal
p l
y g
Ġ ed
Ġs ph
Ġn ail
us s
Ġne u
Ġ2 2
Ġal opec
Ġpol yc
orrh ea
Ġpigment osa
oprol iferative
Ġalopec ia
p ort
Ġ od
Ġ edema
Ġs l
Ġa v
ul ation
Ġhyp ogl
ous tic
Ġe qu
Ġneuro genic
Ġbl ock
rad e
Ġisch emic
Ġparkinson ism
Ġdil ated
j unc
Ġ rod
Ġs keletal
em inal
ol d
Ġ1 8
ati d
Ġtra it
omat oses
Ġor g
rich osis
Ġsep tal
Ġresist ant
c i
m atic
u th
y ot
Ġd es
Ġp s
Ġm an
om p
Ġb ow
Ġg ird
od actyly
Ġcon e
Ġneuro n
Ġhep atitis
Ġpap ill
oblast oma
Ġcavern ous
Ġgird le
el d
Ġhyper lip
Ġpol ydactyly
Ġsub c
och rom
Ġend omet
Ġdegener ations
Ġcl onic
Ġmed ull
Ġcomp lic
Ġcolor ectal
c d
at ent
op ol
Ġr ep
ost oses
ver t
Ġleuk oencephal
Ġoc cl
amm ary
Ġacid uria
Ġect opic
Ġocul omotor
Ġheter ot
d ural
Ġd an
us h
Ġin born
Ġb ur
oc ele
Ġne ut
Ġch ole
Ġac oustic
roph thalm
ocy te
Ġex tr
Ġins ulin
Ġarth ro
Ġobstruc tion
Ġrem od
osarc oma
Ġpurpur a
achn oid
orac ic
Ġcho roid
junc tiv
h ep
o i
p os
w ay
Ġ ill
Ġs k
at er
Ġt el
Ġa plasia
em as
Ġl up
ent h
enc h
Ġan imal
Ġfib rom
Ġol f
Ġkerat oderma
Ġdel ay
Ġtrig eminal
ony ch
Ġarthro gr
s ti
z he
Ġh yal
it z
Ġg u
Ġv as
ra ph
ter nal
of f
Ġmic rophthalm
Ġimmun e
Ġderm atitides
Ġbil iary
Ġhern ia
Ġvestib ular
Ġsal iv
Ġbas ilar
Ġeosinophil ic
g in
ed i
Ġg m
Ġth umb
Ġre ticul
ism s
Ġarth ritis
Ġpel vic
Ġneu rom
oi etic
Ġlup us
a u
l os
v entricular
Ġ up
as es
Ġp en
ter n
yl transferase
Ġi b
ov entricular
Ġacid osis
Ġpl ag
Ġext ra
Ġcalc ific
Ġte eth
Ġconc us
Ġganglios idosis
Ġolf actory
Ġarthrogr yposis
l oc
p id
r enia
or p
Ġl ong
il ateral
Ġan k
Ġj aw
ov irus
qu am
Ġo ut
Ġchor ea
Ġabscess es
Ġdf nb
Ġnev us
Ġbor ne
Ġchond rod
Ġparas itic
Ġnoc tur
acch ar
Ġpolyc ystic
d och
f usion
s is
Ġ u
as h
Ġc ns
os itis
Ġt es
Ġh s
Ġb ul
ac c
ym e
ox ylase
Ġoste o
utis m
obul inemia
Ġdiss emin
Ġsk ull
Ġsaliv ary
s es
in o
Ġm ammary
Ġt re
Ġh un
Ġv ul
Ġdys ph
Ġdys genesis
ag l
Ġth ym
Ġleuk odystrophy
Ġcom mun
ocyt oses
Ġspas m
Ġun ilateral
Ġrh in
itiv ities
Ġdem yel
Ġadr en
Ġamyloid osis
Ġpoisoning s
Ġbrach ydactyly
Ġstat ure
kerat osis
Ġsimple x
hl ers
Ġni emann
opol ys
hep atic
Ġtel angiect
Ġ ent
Ġ ath
Ġ tib
en ess
Ġh ip
Ġa ur
Ġg est
od ys
Ġac et
Ġe hlers
Ġal zhe
Ġpr ess
Ġgl ut
Ġper s
Ġper it
rh ythm
Ġencephal omyelitis
Ġang le
Ġneural gia
Ġfron t
Ġmyc obacter
Ġfanc oni
Ġdan los
sti tial
l ing
n ing
p y
ep ithelial
ov ascular
Ġag e
Ġo rof
Ġtub ular
oss al
fer enti
Ġsec re
Ġstr ess
Ġalzhe imer
Ġpers ist
s ch
t y
Ġh tl
Ġa ir
us t
Ġf emal
il is
Ġ4 6
Ġex ternal
Ġsub dural
Ġarter i
Ġfib rosis
Ġtrans m
Ġscler osing
ea e
Ġneph ropathy
Ġpap illary
Ġdeform ity
Ġvascul itis
Ġthrombocytop enia
Ġneurofib romatosis
Ġcomplic ations
Ġpress ure
Ġfemal e
h a
m al
s k
in f
Ġt ox
oc ephal
Ġg onad
ra w
Ġcon duc
Ġdig ital
Ġherp es
Ġaprax ia
Ġhypog onad
Ġmicrophthalm ia
opolys acchar
Ġhtl v
f ic
h in
n ar
er c
en tial
Ġc re
Ġp lex
Ġm e
Ġm ov
om egal
Ġh igh
Ġdis c
Ġr ing
Ġg auc
uc lear
Ġat ri
Ġth oracic
Ġgl oss
Ġam yot
Ġlip odystrophy
och lear
aryn x
unction al
Ġmuc opolysacchar
Ġneur itis
Ġvestib ul
Ġerythro derm
c in
Ġ ess
ti g
as m
ar athyroid
es es
Ġp ag
Ġm c
Ġh ms
Ġsyn dactyly
Ġsyndrom ic
it er
Ġg sd
et s
et ric
Ġan a
Ġcon junctiv
Ġac tin
Ġsp ont
ate let
Ġam nes
Ġhypert en
Ġo ver
Ġpl atelet
Ġinter stitial
Ġparal yses
Ġtubercul oses
Ġlow er
Ġresist ance
Ġglomerul oneph
Ġcox a
Ġpersist ent
Ġmov ement
Ġgauc her
Ġmucopolysacchar idosis
r eas
v al
v is
Ġd ent
os amin
Ġt oxic
Ġdis k
op ias
Ġf eb
Ġch ain
Ġst e
Ġpro t
Ġam el
Ġbl ue
Ġbl ack
amm agl
Ġhyd atid
Ġalcoh olic
Ġbrach ial
Ġhisti ocytic
Ġmyasth enic
Ġophthalmople gia
Ġwh ite
Ġnoctur nal
Ġess ential
Ġhms n
Ġspont aneous
d en
s en
t a
Ġc il
is is
ic e
or ad
le b
Ġl es
oc utaneous
Ġhyp ox
Ġdys ostosis
Ġst ate
ip ar
Ġgl ob
ogen ous
Ġcor p
unc tions
Ġsc ot
Ġhemat oma
Ġfistul as
aph yl
Ġgingiv al
oscler osis
Ġpseudoh yp
quam ous
Ġosteo arth
Ġcommun ic
b ert
d raw
Ġ ir
es ophag
os us
Ġm ur
Ġn ight
Ġf ung
Ġl ocal
et ase
am o
ym al
Ġep is
Ġep ithel
Ġincl usion
Ġse qu
Ġtr ach
Ġpol yp
Ġepilep tic
Ġoc c
Ġmening ioma
Ġsch w
Ġcomple te
pr ession
Ġgranul oma
Ġcal cul
Ġaph asias
ont ocerebellar
Ġsup er
Ġwith draw
orph ic
Ġtremor s
enb urg
Ġtachycard ia
Ġgro up
Ġequ ine
vert ebral
Ġdissemin ated
Ġdemyel inating
Ġwithdraw al
f e
o ep
p el
Ġ ros
ar ia
Ġp orphyr
Ġm en
el es
Ġg o
Ġg all
Ġcereb rosp
ab ility
Ġbl ood
Ġcol l
Ġer ror
Ġrad ial
ele ct
Ġneural gias
Ġobstruc tive
Ġnons yn
Ġcerebrosp inal
ti tides
Ġs ial
as ive
Ġc ys
ar b
es tive
Ġp yr
Ġh ol
Ġ1 6
Ġv entric
od ic
Ġan d
Ġan emias
Ġe ff
Ġsp g
Ġsp ong
Ġneuro t
Ġep ithelial
Ġpul p
of usc
Ġlip ofusc
ocyt oma
rop oietic
Ġspas ms
Ġdegener ative
Ġepid ural
Ġcer oid
Ġmo uth
Ġenter opathy
Ġgluc ose
oglob in
Ġvert ebral
Ġod ont
Ġank yl
Ġvul v
c ent
l ine
r ac
r atent
ro g
Ġs eb
Ġp as
or ial
drom ic
Ġf el
Ġl iss
Ġde ath
ut z
Ġhyp op
Ġpar an
Ġpr es
Ġencephal itides
Ġmet a
Ġcol ob
Ġmening iomas
Ġend othel
Ġco ag
gl yc
Ġdi ar
Ġul nar
Ġgranul omatous
Ġbronch i
Ġinv ol
Ġcm t
ept or
Ġschizoph renia
Ġflu id
Ġup per
ratent orial
e x
f eld
p d
v ular
y ros
Ġm at
Ġt roph
Ġr ub
Ġr ick
Ġv ocal
si ble
Ġmy x
Ġw al
Ġw ol
Ġpol ym
Ġmening eal
Ġfr uct
Ġnec rosis
Ġcir rh
Ġvis c
Ġconvul sions
Ġphen yl
Ġble pha
etra ting
Ġplas ma
Ġreg ion
Ġchole doch
esophag eal
b ital
l ux
al ass
er ap
er yth
on drom
Ġc all
om en
rom al
el ing
Ġl ab
id a
ec tions
Ġch ang
ig m
uc cin
Ġle v
Ġar gin
Ġar rhythm
Ġad d
Ġad h
Ġth alass
Ġcom mon
Ġhe x
Ġrec eptor
Ġfib r
Ġatax ias
ri ate
Ġgran ular
Ġglyc osyl
row n
Ġphosph or
emor al
Ġulc ers
Ġaneurysm s
pur ative
Ġimp air
Ġemb olism
Ġemb ry
Ġhydrox ylase
Ġsulf atase
Ġendomet rial
Ġextr em
Ġerythroderm a
arathyroid ism
Ġcorp us
Ġnonsyn dromic
Ġimpair ment
a z
f or
on es
is ter
Ġt et
Ġh om
le bran
Ġdis loc
tion al
Ġl ich
Ġde ep
id er
Ġch olester
Ġan al
Ġ2 5
Ġle pro
Ġhyper cal
Ġw or
Ġw ound
Ġam b
Ġsh e
Ġabs ent
Ġeryth emat
Ġhypoplas tic
int estinal
Ġec z
Ġsex ual
Ġwil lebran
Ġcarb oxylase
Ġmelan oma
Ġchol est
Ġsick ness
Ġsubc ortical
ferenti ated
Ġwillebran d
b il
e o
g ue
k et
s h
ro l
Ġs yph
at or
os iform
Ġt roch
Ġh id
ph rag
Ġn ut
it o
it ation
Ġb ile
Ġl en
Ġl ys
Ġr est
Ġg amm
Ġdys enter
icienc ies
Ġle ber
Ġmy opathies
ard enburg
Ġst romal
Ġal d
Ġk o
Ġlymph oblastic
Ġx anth
Ġmet ach
unc t
Ġfr ied
Ġthromb oses
ophil ia
Ġnec k
Ġha em
Ġdevelop ment
Ġdysf unctions
Ġdf na
Ġsynth ase
Ġve in
Ġden tin
Ġagnos ia
Ġwa ardenburg
Ġastrocyt oma
Ġrupt ure
Ġhypogl ossal
Ġbow el
Ġu ve
Ġtib ial
Ġair way
Ġgonad al
Ġgloss opharyngeal
b al
l u
r ile
in ase
Ġs ud
Ġc og
Ġc and
Ġp or
Ġt w
Ġt ur
Ġh ir
ul monary
ac e
Ġmy opia
ine tic
Ġth ird
Ġas ym
ax ial
Ġchrom osomal
one uro
of ib
Ġlip oprotein
av irus
Ġpneum onias
Ġmuc olip
Ġcir cul
Ġasp erg
Ġma j
Ġdu od
Ġprolap se
Ġcontract ures
Ġchondrod ysplasia
mal onic
Ġfeb rile
Ġdiar rh
Ġglycosyl ation
a uro
b last
i ration
t ative
Ġ el
ti le
in ations
in emias
Ġs ter
Ġd na
os eph
Ġt yros
le y
op erative
Ġb ack
ur ias
am ine
od ig
Ġan t
Ġac anth
ot al
Ġle ad
Ġsp orad
Ġat elect
Ġx x
ach er
if est
Ġmyel ogenous
Ġmening oencephal
anti tative
Ġur eth
Ġpl ac
Ġol iv
Ġkerat osis
ococ c
Ġhypot richosis
oblast omas
Ġhemangi oma
Ġvag us
Ġreac tion
Ġprost ate
Ġqu antitative
Ġclass ic
Ġman ifest
Ġhypogonad ism
Ġpag et
Ġcall osum
Ġthalass emia
Ġtroch lear
Ġsporad ic
b erg
d m
k al
l s
u le
x imal
Ġ Ã
er y
on ent
Ġc utis
or g
Ġm ax
op ulmonary
Ġb if
il ities
um s
Ġv ii
od g
ran ul
Ġac c
Ġac ro
eb ic
Ġst aphyl
Ġw eb
Ġep iphyseal
Ġhem iple
oph osph
Ġpro ximal
Ġper for
Ġx y
ap ul
Ġang ina
omal ac
path etic
uct ase
Ġinflamm ation
Ġcomp onent
Ġbull ous
Ġichthy osiform
Ġstat es
tiv ity
Ġmit ral
Ġhern ias
omyc osis
omn ia
Ġmyot onic
Ġcam pt
Ġosteop o
Ġatt ack
Ġtor sion
Ġmedull ary
osamin idase
ammagl obulinemia
Ġepis odic
Ġlipofusc inosis
i omy
r in
os ens
Ġh p
Ġf us
Ġf ati
Ġf emoral
Ġr p
Ġr ig
Ġg as
Ġhyp o
od ysplasia
Ġhyper p
Ġhyper ostosis
Ġw ern
ect odermal
iz ation
Ġse g
end othel
Ġam n
Ġmul tic
Ġbrain st
Ġcol d
Ġop en
Ġperi ventricular
Ġer up
ios yn
war eness
Ġsarc omas
Ġcont usion
Ġmem ory
Ġvis ual
Ġfron tal
Ġfac ies
Ġsw ine
Ġcrani ofacial
Ġmer c
Ġsynth etase
Ġgastro intestinal
vers al
Ġadenocarcin oma
Ġacet yl
odg kin
Ġbrainst em
d le
i oid
m in
n ath
o ul
r as
en ous
Ġc ram
es e
Ġp t
Ġp em
Ġp ter
Ġp unct
os ch
Ġm ann
Ġm eg
rom andibular
ph ig
Ġin d
il i
Ġ2 3
Ġlymph oproliferative
oph ys
Ġper oneal
re ich
ros s
ab d
oh yph
Ġgen e
odyst rophies
Ġneur itides
Ġpup illary
Ġinv asive
Ġprost atic
Ġcrypt ogenic
Ġsyncop e
rov ascular
Ġolig od
Ġconcus sive
orp tion
Ġhyperten sive
Ġvisc eral
Ġweb er
Ġmerc ur
Ġpem phig
c s
h id
o endothel
Ġ us
al an
ro us
Ġp ach
Ġm d
Ġt end
Ġh m
rom atic
Ġa ff
ia tic
Ġb er
ys ter
oc on
oc eles
Ġg r
Ġg re
Ġv an
Ġinf ant
Ġcon d
ir ub
ost atic
Ġpar ag
ver sion
Ġlymph aden
ens itivities
Ġab use
Ġcom pression
Ġcol on
Ġdia phrag
Ġrh abd
Ġthyroid itis
Ġresp on
Ġhypers ensitivities
Ġcran iosyn
Ġcont usions
Ġsympt om
Ġfasc icul
edi ate
Ġtes ticular
Ġtelangiect asia
Ġtransm is
Ġcil iary
Ġfel ine
Ġcoag ulation
Ġwal ker
Ġcirrh osis
Ġcholest asis
Ġhir sch
i oses
i ari
k es
al ang
ti t
Ġs ol
on tia
ar achnoid
at on
os al
Ġm as
Ġt erat
Ġh ur
Ġa utism
op a
Ġf ing
Ġb rown
il le
las tic
th romb
Ġch l
Ġ2 4
ot t
Ġhem ian
Ġdyst rophic
Ġsub arachnoid
Ġcol onic
rop ath
Ġpl antar
Ġcle ar
Ġref lux
Ġintra hepatic
Ġmed ial
Ġver tig
Ġsep tic
Ġcir c
Ġvar ia
Ġox idase
Ġbe h
Ġasth ma
Ġplex us
Ġfung al
Ġand rogen
Ġcolob oma
Ġfruct ose
Ġlich en
Ġfried reich
Ġcand id
Ġrig id
Ġrespon sive
a qu
l es
on itis
Ġc md
om ach
Ġt ong
Ġt otal
le c
op er
Ġf at
Ġf ood
Ġb is
oc ys
Ġde c
id al
Ġg er
Ġv i
ra p
gen ital
Ġch iari
Ġ2 0
ot emporal
oplas ia
Ġneuro de
Ġst omach
Ġat rophic
Ġi ron
Ġhem oglobin
Ġpr ec
Ġdyst onias
Ġcereb ro
Ġcereb ell
ap p
Ġph ase
Ġam auro
Ġex c
se ous
all y
uv ate
Ġob es
Ġsm ith
Ġcont act
Ġvit re
Ġhypot ension
Ġwe ight
Ġreac tive
Ġele v
Ġhyperlip oproteinemia
Ġamyot rophic
Ġana plastic
Ġneurot oxic
Ġendothel ial
Ġerythemat osus
Ġmetach romatic
Ġstaphyl ococcal
ophosph at
Ġtransmis sible
e w
f an
m ia
m etric
o zo
Ġ tin
ti m
Ġs em
Ġd ip
Ġd ens
en z
is e
ic ke
Ġh odgkin
Ġn a
Ġb i
Ġb o
oc ular
Ġg rade
ol itis
um p
Ġhyper glyc
Ġst ro
Ġst ra
Ġi ia
Ġpar ap
Ġpar esis
Ġpro s
erm ann
Ġtr i
Ġsens itive
Ġtrans ection
Ġun ipar
Ġhyd rocephal
rod itis
Ġmed ias
rad icul
Ġfo ur
Ġsym pathetic
Ġpoly radicul
til ity
Ġspl enic
Ġavul sion
Ġmid dle
Ġrheum atic
Ġsympt omatic
Ġhalluc inations
esth esia
Ġpen etrating
Ġgest ational
Ġtox oplasm
Ġliss encephaly
Ġtroph oblastic
Ġcholester ol
odig ital
Ġwern icke
Ġbis phosph
Ġunipar ental
Ġhydrocephal us
a ut
e an
g a
i us
k s
l in
Ġs ac
Ġs ign
Ġs quamous
on ec
on tine
Ġc ock
Ġt ric
ia tive
op ontocerebellar
Ġf or
oc ochlear
un n
Ġle iomy
ost otic
ip ital
re if
Ġfib romatosis
Ġsh ock
Ġmultiple x
Ġmening ococcal
Ġsch ist
Ġacid emia
Ġor th
Ġro bin
Ġinsuff iciencies
Ġdeform ities
itt ent
Ġig m
Ġaprax ias
Ġred uctase
Ġcap illary
Ġdiverticul um
Ġavul sions
Ġent rap
Ġmycobacter ium
Ġvestibul ocochlear
Ġlys osomal
Ġsud den
Ġmucolip idosis
Ġmaj or
Ġoliv opontocerebellar
Ġcraniosyn ostosis
Ġentrap ment
a und
a yne
a wareness
m ur
s pr
Ġ ia
in ous
Ġc ross
Ġm osa
om ia
Ġt as
Ġt ac
rom a
Ġf rag
Ġr ib
ol er
Ġhyp ophosphat
Ġan tib
Ġneuro c
Ġlymph edema
oph or
ov enous
erm ia
ion e
Ġarter ios
Ġaden omatous
Ġtrans ections
Ġor bital
Ġun awareness
Ġins ensitivity
Ġem phys
yroid ism
Ġthyroid itides
Ġretin osch
Ġinfarc tions
Ġstat us
Ġvag inal
Ġconvul sion
Ġorg anic
Ġcalcific ation
Ġfront otemporal
Ġorof acial
Ġarteri ovenous
Ġatri oventricular
Ġmur mur
Ġporphyr ia
Ġhirsch spr
Ġcock ayne
Ġmosa ic
Ġhirschspr ung
b acher
e z
k inetic
o at
t ed
Ġ et
on ate
Ġp ine
at ures
os uccin
Ġm il
om on
Ġt er
Ġh am
ph en
Ġsyn ov
us pid
Ġl ing
Ġhyper ch
Ġhyper bil
Ġneuro ectodermal
Ġal b
Ġhem ophag
oid s
Ġx p
Ġab er
ill ar
Ġpost operative
Ġsens ation
erg ing
Ġpl aqu
ri tion
Ġpap ul
Ġhemat omas
Ġmes othel
tur b
Ġpolyneuro pathies
Ġdepr ession
Ġphen omen
Ġmethyl malonic
obul bar
Ġtic k
Ġsyncop es
Ġagnos ias
Ġmembran e
Ġhalluc ination
Ġleukoencephal opathy
Ġdelay ed
Ġsecre ting
erap y
eryth ropoietic
Ġneurode gener
Ġhyperbil irub
d s
k n
s ia
t ra
v irus
en tion
ic ard
Ġm ut
Ġh en
Ġh ab
Ġn k
Ġn o
Ġn as
Ġn ormal
Ġb art
Ġne oplasia
ut ter
ad r
Ġar r
Ġlymph oid
Ġ3 2
Ġab or
Ġj oseph
Ġint oler
Ġmening itides
Ġtrans port
Ġsc iatic
Ġag gressive
av ior
Ġap nea
Ġepid emic
enter ic
Ġinter vertebral
Ġcomp lication
Ġglycogen osis
Ġpy ogenic
omyc oses
Ġmyasth enia
Ġuro genital
Ġic tal
oster on
Ġinterm ediate
Ġav ian
Ġheterot opia
Ġadren oc
Ġath er
Ġglomeruloneph ritis
Ġmeta physeal
feld t
Ġrick ets
Ġasperg ill
Ġfati gue
Ġdiaphrag matic
Ġvertig o
Ġhemophag ocytic
a ur
c c
m er
y cl
Ġs il
Ġs omat
Ġc oma
is tic
ic it
at ment
Ġm ild
Ġm egal
om ening
Ġt emporal
Ġn arc
ia p
Ġdis omy
Ġdis turb
ed ing
Ġin st
op ros
Ġf atal
Ġb ab
Ġb last
ac eae
Ġr ect
ur ic
Ġne w
Ġne oplastic
Ġdef icit
Ġdys p
ell i
roph il
usc ular
Ġk er
Ġk le
Ġlymph atic
Ġj ak
Ġj aund
ab ilities
Ġam ino
Ġpost p
Ġarter itis
ting ton
Ġoste ogenesis
Ġthromb otic
Ġpseud ot
enti l
Ġov ary
Ġdementi as
Ġinc omp
Ġdepr essive
osarc omas
Ġmin imal
Ġastrocyt omas
otrop ic
Ġinterm ittent
onych ia
Ġtre atment
Ġcre utz
val vular
Ġamel ogenesis
Ġlocal ized
Ġocc ipital
Ġinvol v
Ġarrhythm ogenic
Ġureth ral
Ġmax illary
Ġparag angl
Ġtong ue
Ġtric uspid
Ġantib ody
Ġcreutz feldt
a h
d l
n old
al gia
Ġs enile
Ġs yr
Ġd reif
Ġc it
Ġa f
Ġn ose
us ter
it es
Ġf uc
Ġl ax
ac tin
id uria
iti n
am el
Ġhyper plasias
anc ies
Ġw ill
Ġw ater
ad ing
Ġpar athyroid
Ġar s
Ġar nold
ill er
yc an
Ġnon c
Ġq t
Ġfe atures
Ġcardi ovascular
Ġem ery
Ġneph ritis
eta physeal
Ġisch emias
Ġver bal
Ġhisti ocytosis
Ġpanc reas
Ġendoc ard
Ġpel iz
Ġuter us
Ġglauc omas
Ġhemangi omas
Ġgalact osidase
Ġspondyl oep
Ġhair y
Ġpath ological
Ġcomplement ation
Ġmrx s
Ġvert eb
phal ang
Ġorg an
Ġbul bar
Ġventric le
Ġcholedoch al
Ġadh es
Ġshe ath
Ġtur ner
Ġduod enal
Ġcampt odactyly
Ġoligod end
Ġus her
Ġparap ar
Ġtac tile
Ġdreif uss
a ud
d a
f ul
h yp
i ocephal
l ow
r ull
z bacher
Ġs urg
en atal
Ġc el
Ġm ps
Ġt rop
it eal
Ġin vers
Ġr i
oc l
ias t
Ġan ox
Ġle w
ub ert
Ġre ading
og y
Ġcereb rovascular
Ġsub cl
Ġcol i
Ġoste ochond
Ġoste onec
st mann
Ġsens itivity
Ġmic roc
Ġap p
Ġcl os
Ġangi o
Ġangi opathy
rogen ic
ug h
ae us
Ġocul ocutaneous
Ġpsych oses
opl iteal
ins ulin
Ġven er
Ġasp art
Ġbronch ial
Ġgalact ose
Ġdyskin esias
Ġmer zbacher
Ġlac tic
Ġherp etic
Ġclass ical
ald osteron
Ġdysm orph
Ġperiodon tal
Ġadenocarcin omas
Ġbre ak
Ġill ness
Ġplag iocephal
sk i
Ġconduc tion
Ġhol opros
Ġseb ace
Ġextrem ity
oul der
Ġaff ective
Ġger stmann
Ġobes ity
Ġneurotoxic ity
Ġpeliz aeus
c emia
Ġ onych
al c
er v
ro t
en n
Ġc ephal
Ġp p
Ġp ure
Ġp opliteal
Ġm ole
Ġh ar
us en
Ġf ore
Ġl yme
ac i
Ġg erm
ol i
et eral
Ġdys erythropoietic
ell ular
un t
Ġcon g
uc tal
Ġac rom
Ġsp ot
Ġsp erm
anc es
Ġst ri
Ġw ell
ad a
ver se
Ġgl ioma
Ġper ox
Ġx er
ib osyl
te x
Ġcyst aden
Ġhypert rophy
Ġsc a
ocereb ral
Ġhypers omn
Ġocul o
Ġepiderm olytic
Ġcataract s
Ġobstruc tions
ok al
Ġlob e
Ġbranch io
Ġuro l
Ġrupt ures
Ġhun tington
omegal y
Ġspong iform
igm oid
Ġfibr ill
Ġphosphor ibosyl
Ġcog n
Ġamauro sis
Ġham art
Ġarr est
Ġjak ob
e j
e u
f ol
r ate
s m
u es
y a
in uria
in osuccin
Ġd iast
os itides
Ġt ak
rom as
Ġf all
Ġl enti
ac tivity
id oses
Ġch r
Ġan hid
ot yp
ot oxic
Ġe v
Ġle ak
ch er
Ġhem i
Ġk yph
Ġth y
og ranul
ens tr
ov ag
ov iridae
end oc
Ġpol ys
Ġnon p
Ġsh ell
Ġsh ig
Ġsh oulder
Ġmic ro
Ġimmun oblastic
rod actyly
lex ia
bl adder
Ġwil ms
Ġthrombocytop enic
Ġmyot onia
Ġspl it
Ġosteop et
Ġcyt ochrom
Ġlang er
Ġlam bert
pos ition
Ġthym ic
Ġperit oneal
Ġamnes tic
Ġschw ann
Ġgall bladder
Ġerror s
Ġpas sive
Ġargin inosuccin
lu enz
Ġfat ty
Ġdens ity
roditis m
Ġling ual
Ġphenomen on
Ġcit rull
Ġvener eal
Ġsebace ous
ej un
Ġcytochrom e
g et
j er
l and
n itus
r ia
t d
y er
in n
at oid
Ġt ension
Ġt etra
ph er
yn dactyly
ul sive
Ġsyn ostosis
Ġf ir
Ġb and
Ġb und
oc yst
ep tic
Ġcon st
Ġmy ok
Ġst oma
ob ulin
Ġlymph angi
Ġtum our
end ym
Ġph aryngeal
oh um
Ġoc cul
Ġsub st
Ġcat at
ophil us
Ġref s
Ġintra uter
Ġintra epithelial
Ġarth ritides
rad en
Ġov ine
Ġdif ferentiated
Ġcardiomy opathies
Ġtubercul ous
Ġsup purative
Ġpigment ary
Ġpsych osis
Ġpsych omotor
Ġgangl ia
Ġcerv ix
Ġfail ures
Ġhydrox y
ik il
Ġve get
Ġgra vis
Ġprolap ses
Ġmembran ous
Ġple ural
Ġneut rophil
ench ymal
erc ise
Ġepithel ioid
Ġpyr uvate
Ġparan oid
Ġamn esia
Ġmercur y
Ġtin nitus
Ġdip l
Ġbisphosph onate
Ġorth ostatic
Ġter ror
Ġadrenoc ortical
Ġjaund ice
Ġinvolv ement
Ġaf ric
Ġoligodend rogl
Ġperox is
Ġosteopet rosis
Ġmyok ym
Ġsubst ance
Ġintrauter ine
Ġveget ative
d h
r et
v a
y x
Ġ otor
in th
Ġs n
Ġs ing
Ġp an
Ġp et
an i
at ric
Ġm is
Ġt ard
Ġt yph
Ġt emp
Ġn md
Ġdis soc
Ġin app
Ġb ro
Ġl g
Ġr ich
Ġg ang
Ġdys arth
Ġcon n
Ġac in
Ġac th
Ġe ating
Ġle vel
Ġhyper th
Ġsp le
ad el
Ġi ib
ereb ral
Ġar m
Ġar achnoid
ism us
ach ment
Ġab duc
Ġhe at
Ġam o
Ġam in
Ġfib ros
Ġop itz
rop riate
eg er
Ġfe et
Ġpain ful
gl ut
Ġmuc osal
Ġgranul omas
emat ous
Ġsup ra
Ġsup ratentorial
Ġgangl ion
Ġval g
Ġloss es
Ġinc on
Ġbronch opulmonary
ocytop enia
Ġhypoth yroidism
Ġvar ic
Ġnev i
Ġdiverticul a
Ġtachycard ias
Ġcontract ure
Ġperiodon titis
ars al
Ġdes m
Ġneut rop
Ġactin ic
Ġglob oid
Ġsequ ence
Ġcys tin
Ġphenyl ket
Ġadd ic
Ġhex osaminidase
Ġdisloc ation
Ġlepro sy
Ġsyph ilis
oneuro pathy
Ġdiarrh ea
Ġpt osis
Ġsymptom s
ropath ies
Ġbeh avior
Ġcandid iasis
Ġfour th
ione uro
Ġincomp et
Ġars enic
Ġcel iac
ohum eral
Ġafric an
Ġperoxis omal
Ġinapp ropriate
Ġphenylket on
h r
l o
m ond
n iti
r um
s s
v es
en ias
on an
Ġc ost
Ġc ycl
ar ic
Ġp ann
at s
at t
Ġm ach
Ġh o
Ġn an
Ġn emal
Ġin si
Ġf if
Ġf uch
Ġb ir
Ġl ine
th es
th esis
Ġch em
im ot
uc le
Ġac yl
Ġe aton
Ġneuro ax
Ġst age
Ġw all
ad o
Ġat opic
ymph ocytic
Ġpro p
Ġre versal
Ġret rac
Ġencephal omyel
Ġcor tex
oh yd
omat oid
af f
Ġprim itive
ow n
Ġcol itis
Ġag ammaglobulinemia
ak ia
av ed
Ġap ical
Ġap pend
Ġinter nal
Ġglyc oprotein
Ġretin opathy
Ġpigment ed
Ġen amel
Ġy o
Ġos si
Ġele ct
Ġach ond
Ġsl ow
Ġchoroid al
Ġib d
pid us
Ġout let
Ġhs an
Ġmovement s
Ġles ions
Ġcalcul i
Ġchang e
Ġcram p
ophys eal
Ġsol itary
Ġvaria ble
unn el
Ġtas te
Ġretinosch isis
Ġparapar esis
Ġtrop ical
Ġosteonec rosis
aldosteron ism
Ġcogn itive
Ġshig ella
Ġconst ric
Ġoccul t
niti ne
Ġnemal ine
Ġinsi pidus
Ġneuroax onal
a emia
a ine
c o
e ar
f ish
n eas
Ġ om
Ġs a
Ġs ag
Ġs ix
Ġc ur
an k
Ġt s
Ġt ons
us ive
it s
Ġin g
Ġf usion
Ġb ied
el f
oc lastic
Ġg or
ol l
ath et
Ġ1 9
am s
od yn
Ġac ne
Ġhyper keratosis
yl or
Ġi x
Ġi le
Ġep endym
Ġhem ic
Ġth erapy
Ġcell s
ect or
encephal ies
Ġj unctional
Ġpol ar
Ġpost axial
yc emia
oh n
oh isti
ith iasis
Ġlip id
ocyt omas
Ġmyel in
Ġmyel opathy
Ġag raph
Ġhep atitides
Ġscler oses
av iridae
Ġur id
Ġins omnia
Ġmac ul
Ġcl uster
Ġangi itis
Ġmed ian
Ġresp ons
Ġresp iration
Ġro ot
Ġcerv ic
Ġmes enteric
Ġconvul sive
Ġreac tions
Ġdepend ence
Ġdig estive
Ġpath ologic
Ġpurpur as
oglob ulin
Ġlob ar
Ġhypogl ycemia
Ġblock s
ci uria
Ġps or
fic ial
Ġmann osidase
Ġtend on
Ġhyperbilirub inemia
Ġshell fish
Ġbund le
Ġlg md
Ġgang ren
Ġpann icul
Ġbied l
b b
e ti
e il
p ed
u inal
u age
w a
Ġ on
Ġ ud
er ic
ro up
in ogen
Ġs ymph
Ġs igmoid
Ġd uch
en ne
as ting
Ġc op
es sions
Ġp ra
or ch
Ġh orn
Ġh ash
Ġh yster
Ġf re
tic k
Ġr ectal
oc ial
ec al
ec re
ol ase
ol yses
ep end
am p
Ġdys aut
im in
ell iform
ag i
Ġmy ositis
ost omy
Ġst em
Ġst ones
Ġw ald
ip oproteinemia
Ġhem is
ron g
Ġper iap
Ġx l
if acial
iz omelic
Ġse a
erm aph
Ġtr ue
Ġpol i
Ġex ercise
oh yp
Ġsub valvular
art z
of ol
Ġoste olysis
Ġmyel itis
Ġhypert richosis
Ġur eteral
Ġmac rocephaly
Ġmac rogl
Ġangi oma
Ġeryth ema
rogen esis
Ġcar nitine
Ġinflamm ations
Ġfl acc
Ġen z
Ġvascul itides
Ġlac er
Ġble eding
Ġpseudoh ermaph
Ġpupil s
Ġrheum atoid
Ġschizoph ren
Ġlang uage
enth al
Ġfibrom yal
Ġreticul oendothel
Ġdysph asia
Ġhypox ia
Ġosteoarth ritis
Ġodont ogenic
Ġgamm a
omalac ia
Ġseg mental
Ġstro ke
Ġhyperch olester
Ġintoler ance
Ġpseudot um
Ġanox ia
Ġdysmorph ism
Ġholopros encephaly
Ġfibrill ation
Ġrefs um
Ġaddic tion
Ġfif th
Ġgor lin
Ġduch enne
ecre tion
Ġperiap ical
Ġflacc id
k d
k ers
o u
o in
u ous
Ġ eth
Ġs and
Ġs of
Ġs itus
Ġs ider
Ġd uctal
Ġc af
Ġc bl
ar a
Ġp ontine
Ġm iller
Ġh h
Ġh el
Ġin h
Ġb ell
Ġl act
Ġr en
Ġde g
Ġde vic
Ġg yn
ol aryng
ol iosis
Ġv ol
Ġhyp ocal
Ġhyp okal
ell ow
ig in
Ġan us
Ġcon s
osom iasis
tin ence
Ġpar eses
Ġlymph ohisti
Ġmal aria
ap s
Ġas c
Ġpol yd
ab s
Ġam ebic
and y
Ġgen it
Ġid dm
Ġtrans form
Ġscler oderma
av an
gl uc
Ġem erging
Ġect rodactyly
iac eae
Ġves icular
romat oses
Ġmig ration
Ġallerg y
ish man
Ġy ellow
Ġdel ta
Ġvis ion
Ġeosinophil ia
Ġqu adr
Ġos seous
Ġreg urg
Ġsph er
Ġneuron opathic
Ġoccl usion
Ġhyal ohyph
Ġsecre tion
leb itis
Ġcalcul us
Ġlab or
eo athet
Ġcircul ation
Ġplac ental
Ġmanifest ations
osens itive
Ġerup tion
Ġrhabd omy
Ġarterios cler
Ġinst ability
Ġsurg ical
Ġabduc ens
Ġincompet ence
Ġmach ado
imot o
Ġretrac tion
Ġsix th
e ech
h m
i otic
l d
m e
al p
Ġs an
Ġd andy
Ġc p
Ġp il
os idosis
Ġm od
Ġm cop
Ġt unnel
Ġh u
Ġh amm
Ġn s
em b
Ġf unctional
Ġf inn
Ġb al
Ġb ard
Ġl arynx
Ġde jer
ec ific
ol ence
et y
ut ch
Ġch ondrom
ig o
ot ype
Ġle igh
Ġle ishman
Ġmy opathic
Ġsp eech
Ġneuro path
Ġneuro ses
ob struc
Ġk ap
Ġk ors
Ġk inase
Ġper c
Ġx q
Ġleuk ocyte
Ġex fol
Ġret rog
Ġsub m
art um
Ġdia mond
Ġthromb oph
Ġco al
ak ary
ak off
Ġpseud obulbar
Ġrh izomelic
Ġcar til
ole p
Ġcomp ulsive
rad ural
Ġchor eas
Ġchor eoathet
Ġgangl i
Ġprol actin
Ġulc erative
oles cent
Ġext radural
ins k
Ġallerg ies
Ġmar ch
Ġpersonal ities
Ġgalact os
ram idal
Ġatr esias
our inary
Ġdermat osis
Ġgastro enter
Ġdu ane
Ġplas m
Ġwa ke
Ġcan ine
Ġket oac
ush ing
Ġremod eling
Ġneurom uscular
Ġthym us
odys plastic
Ġorof aci
Ġgo iter
Ġdysenter y
Ġpor c
blast oma
Ġosteopo rosis
Ġpostp artum
Ġneutrop enia
Ġfuch s
Ġyo ung
Ġenz yme
Ġhypercholester ole
Ġsof t
Ġgenit ourinary
Ġfinn ish
Ġbard et
Ġdejer ine
Ġkors akoff
Ġorofaci odigital
d p
f m
g el
i tions
v i
Ġ unc
ro keratosis
Ġc s
Ġc oc
ar is
Ġp rom
ic a
or a
Ġm us
Ġm ass
om ple
Ġt ay
le ct
Ġf il
Ġf lex
el ings
ur s
id ism
id ual
ut rition
Ġv ess
am ide
Ġch ar
Ġinf est
Ġinf ratentorial
uro n
Ġhyper phen
yl alan
Ġw r
Ġw asting
Ġhem och
Ġk lip
Ġar v
Ġlymph ocyte
ocy th
Ġpal l
Ġmyel omon
Ġtrans fusion
av ian
Ġur ine
Ġpo rokeratosis
Ġpos ition
yr ia
Ġres orption
Ġres idual
Ġneph rotic
ole uk
pt omatic
isti an
Ġen zo
anth ine
Ġpel ger
ore tinal
Ġstr ept
uch i
Ġma ple
Ġser ous
Ġwil son
Ġsw e
Ġgra ft
enb erg
Ġcam p
Ġasth matic
Ġlam ellar
Ġed s
Ġbur k
Ġremod ell
Ġremod elings
Ġconjunctiv itis
Ġprot ozo
Ġhypox anthine
Ġscot omas
Ġschw artz
Ġsuper ficial
Ġmat ur
Ġblepha rosp
Ġhypercal cemia
Ġster oid
Ġatelect asis
Ġatelect ases
Ġperfor ation
Ġhur ler
Ġfing er
Ġpros thesis
Ġpine al
Ġneurodegener ative
Ġhen och
Ġno onan
Ġbart ter
Ġdysp rax
Ġsyr up
ycan opathy
Ġsubcl avian
Ġcong estive
Ġphosphoribosyl transferase
Ġchr istian
Ġanhid rotic
Ġneuropath ic
Ġvess el
Ġhyperphen ylalan
Ġklip pel
Ġmyelomon ocytic
Ġenzo otic
c rine
g nes
l oid
m en
m el
o romandibular
v n
Ġs j
Ġd o
is c
Ġp ud
Ġp ust
an ese
at osis
Ġm eck
om orphic
Ġa w
Ġn or
ia m
it ant
op enia
op sia
Ġf ul
Ġb order
Ġl ind
ac et
ac iduria
Ġr a
Ġg ust
Ġne ovascular
enc es
Ġv o
Ġhyp oma
Ġhyp ov
si as
ig u
ig an
Ġinf er
Ġhyper l
Ġhyper kal
Ġst able
Ġw art
Ġal tern
Ġhem ifacial
Ġk ra
Ġk all
Ġad olescent
oid al
ati sm
Ġgl om
if fer
re x
Ġph il
Ġim m
Ġmul tis
kin ase
Ġsh ar
Ġq ter
oderm ia
ior e
Ġto ur
Ġur tic
Ġtub e
Ġmon ocl
Ġpo or
Ġpneum ococcal
Ġpneum onitis
Ġangi omatosis
Ġneph rogenic
Ġcr y
Ġgranul omatosis
Ġhypers ecretion
Ġpsych otic
Ġchor iore
Ġey el
Ġneurol ogical
Ġec crine
Ġhypot onia
Ġvag in
Ġox id
til l
ier re
olip id
Ġmor qu
Ġmin or
Ġach al
otrop in
Ġcan avan
Ġnail s
Ġoccl usive
Ġthumb s
Ġbul b
Ġconjunctiv itides
Ġblack fan
Ġhydatid iform
Ġscot oma
Ġpseudohyp o
Ġcommunic able
Ġir is
Ġtrach eal
Ġepileptic us
Ġros enthal
Ġvulv ar
Ġbronchi ol
Ġembry onal
Ġecz ema
Ġmeningoencephal itis
Ġmultic ystic
Ġmedias tinal
Ġnew born
Ġfuc osidase
Ġendocard itis
phalang eal
Ġxer oderma
Ġsing le
Ġtemp oromandibular
Ġing uinal
Ġrespons e
Ġpoli omyelitis
Ġchoreoathet osis
Ġblepharosp asm
Ġmeck el
Ġhypoma gnes
Ġmonocl onal
a um
a gen
f d
g s
p al
s tein
y te
in c
Ġs ti
Ġs ite
Ġs tick
es ter
os keletal
Ġm ood
Ġm utism
Ġa h
Ġa z
le in
us al
ed ull
it ar
it tal
el ia
Ġl ens
Ġl ister
oc ranial
Ġg ef
Ġg old
Ġne ed
od e
Ġcon fusion
ran d
ran uclear
ot r
ud ative
Ġe bs
ch ond
Ġhyper insulin
Ġneuro epithelial
Ġal port
Ġk ne
Ġar ticul
Ġar ticular
Ġpr ed
Ġdyst rogl
Ġj ejun
Ġ4 2
ne v
tis m
Ġex ostoses
Ġex udative
and ular
orrh ag
Ġmulti f
roc ytic
Ġbr ux
Ġis let
Ġsc alp
Ġo roph
Ġo romandibular
Ġun d
Ġintrac erebral
Ġlung s
Ġpigment osum
ophthalm os
Ġprol ymphocytic
ins ic
Ġec hin
Ġsym metric
ok es
Ġpoly endoc
Ġdepr ess
omel ia
Ġpath way
Ġot orrhea
Ġdermat oses
Ġlang e
Ġbre ath
Ġphot osensitive
yg ium
Ġendomet ri
Ġrhin orrhea
Ġadren oleuk
Ġaur a
Ġglut en
inf lamm
Ġles ion
Ġcommunic ation
Ġpolyp s
Ġwol ff
Ġchang es
Ġamb ly
Ġbif id
Ġvii i
Ġfus ari
Ġpter ygium
Ġpach y
Ġfascicul ation
Ġdystrophic a
Ġwill i
Ġadhes ion
Ġinvers us
Ġclos ed
Ġfore ign
Ġsperm at
Ġoligodendrogl ioma
Ġmyokym ia
Ġdissoc iative
Ġsple en
Ġfibros ing
Ġencephalomyel itides
Ġachond rogenesis
Ġud p
Ġfibromyal gia
Ġretrog rade
Ġporc ine
Ġhemoch romatosis
Ġhypomagnes emia
edull ary
Ġgef s
a ert
b d
b ismus
c k
c apul
e qu
h s
i ogenic
l ess
o ol
p p
r imal
t rom
Ġ of
Ġ irid
er fusion
Ġs eas
Ġs omatic
on ogenesis
Ġc av
is es
Ġp ot
an der
or nea
Ġm u
Ġm andibular
om etaphyseal
Ġh dl
ph ia
Ġn uclear
Ġf ran
Ġb ird
Ġb ite
el y
Ġl y
ac illary
oc ellular
Ġde b
Ġde t
Ġde cr
id emia
Ġv in
Ġch est
Ġinf ancy
Ġinf luenz
od ontia
Ġan ter
Ġan irid
Ġle yd
Ġmy ofib
Ġhyper activity
Ġst one
Ġw est
Ġw ied
Ġep i
Ġep imer
Ġal s
Ġhem ophilia
Ġk n
ub ular
Ġad ip
Ġpro ger
Ġgl c
Ġper ic
Ġleuk opl
up purative
ens trom
Ġse lec
Ġph ys
Ġph aryng
Ġph ae
erm al
oth i
Ġret ro
Ġcor tic
Ġsub epend
Ġnon f
Ġfib roses
ull ous
Ġmic ros
Ġsch on
Ġpseud op
Ġpl an
Ġimmun oglobulin
Ġpo ikil
Ġcle aved
Ġem py
Ġdi hyd
ophil ic
ios capul
Ġnod e
Ġlimb s
icul o
Ġhemat ologic
Ġesophag us
Ġmar row
osp asm
Ġmr t
Ġfac ioscapul
Ġpalmoplantar is
Ġnons uppurative
Ġglomerul osclerosis
Ġcan al
Ġpapill oma
Ġrep erfusion
Ġplag ue
Ġtes tis
sk y
fic ation
Ġglomeruloneph ritides
Ġglob al
Ġeff usion
Ġhypop arathyroidism
Ġparan asal
Ġtet ras
Ġdisloc ations
Ġlepro sies
Ġhypercal ciuria
Ġwor ker
Ġhid raden
Ġtw in
Ġplac ent
Ġmanifest ation
Ġattack s
Ġgas tr
Ġhyperp arathyroidism
Ġmeg akary
Ġmd d
Ġhm n
Ġgre at
Ġrigid ity
Ġstra bismus
Ġemphys ema
Ġaspergill osis
Ġker atitis
itin g
Ġspondyloep iphyseal
Ġtyph us
adel phia
Ġamo ebic
Ġdesm oplastic
Ġbir th
Ġline ar
Ġhemic ran
orch idism
Ġdysaut on
Ġwald enstrom
Ġpseudohermaph roditism
Ġgyn ec
abs orption
Ġvo ice
Ġphil adelphia
Ġmorqu io
Ġdepress ed
Ġdecr eas
Ġanirid ia
Ġwied emann
Ġepimer ase
Ġselec tive
Ġsubepend ymal
Ġfacioscapul ohumeral
e h
f s
g d
l i
m m
q t
r id
z en
Ġ use
ti er
Ġs i
Ġs ur
en h
as ilar
Ġc ro
Ġp ylor
an al
Ġm yp
Ġm enstr
Ġt a
Ġh i
Ġh l
Ġh osp
Ġn ph
Ġn inth
ul osis
ul itis
Ġf ur
Ġf et
Ġb ot
Ġb og
Ġl af
Ġl ight
Ġl atent
oc olitis
id ine
Ġg il
et z
um mer
Ġv w
Ġhyp n
am yd
ation ary
Ġdys plastic
Ġdys lexia
im osis
un ar
Ġ2 8
ran t
ir in
Ġle m
Ġsp i
Ġsp ine
Ġneuro hyp
Ġst urg
Ġst asis
Ġst okes
Ġst ationary
Ġi h
Ġal ex
Ġaut s
oph aryng
Ġpro te
og roup
ric ult
up ational
if ferentiated
Ġj am
Ġmusc ul
ion ic
Ġnon ket
Ġlip omatosis
oderm as
Ġid e
Ġrel aps
Ġthromb ocyth
Ġsc ar
Ġsc id
Ġag ricult
Ġassoc iation
Ġderm al
Ġhyd rop
Ġcle id
Ġcl ub
Ġarth ropathy
Ġgranul ocytic
Ġgranul osa
Ġsup ranuclear
Ġver r
Ġext ram
Ġvit elliform
Ġenter opathies
Ġfol d
ok erat
Ġpregn ancies
Ġasp iration
Ġasp irin
Ġinc reas
Ġtransi tional
Ġgluc osidase
itt ed
Ġz oster
Ġser ogroup
Ġcarb ohyd
Ġpseudo obstruc
umb il
Ġlac unar
Ġpath wa
Ġpat ella
Ġhepat o
Ġmast ocytosis
Ġatt ention
esth esias
Ġed emas
ci ous
Ġpen is
amo eb
Ġocc upational
Ġpres enile
Ġlev in
Ġecz ematous
Ġald olase
Ġasym ptomatic
omalac ias
rin opathy
nath ia
Ġpemphig oid
Ġlymphaden itis
Ġchl amyd
Ġhyperglyc inemia
Ġsynov ial
Ġather oscler
Ġsil ver
entil ation
Ġri eger
Ġangio edema
Ġlenti g
Ġcitrull inemia
Ġfir st
Ġotor hin
Ġincon tinence
Ġhash imoto
Ġregurg itation
Ġburk itt
Ġful m
Ġborder line
Ġlind au
Ġkall mann
Ġachal asia
Ġlister ia
Ġdystrogl ycanopathy
Ġmultif ocal
Ġechin ococc
Ġseas onal
Ġdet achment
Ġpoikil oderma
Ġdecreas ed
Ġhosp ital
Ġbog aert
Ġsturg e
Ġnonket otic
Ġrelaps ing
Ġagricult ural
Ġcarbohyd rate
Ġpathwa ys
c ro
d d
i ety
l arg
n i
n utrition
o z
s yn
s essive
u j
u z
x iety
y ositis
y amo
in z
in oses
Ġs ert
Ġd yt
Ġd sd
as ms
on itides
Ġc as
Ġp ub
Ġp ox
Ġp ort
Ġp fe
an tic
at us
or um
Ġm s
Ġt al
Ġh or
Ġn f
Ġn ig
ia e
Ġsyn ostoses
Ġin tr
Ġb ec
Ġb our
el or
Ġl ute
ac yt
oc ul
oc rine
ur n
Ġg e
Ġg h
Ġg ol
Ġg igan
Ġv ip
Ġv og
Ġv acc
ra tions
Ġhyp osp
Ġan xiety
Ġac rocephal
ud inal
ous e
Ġle pt
Ġst eal
Ġw arb
Ġpar am
Ġk ik
Ġth om
Ġth iam
ron mental
Ġ3 1
Ġpro duc
Ġpro cess
Ġgl iomas
Ġper thes
Ġleuk odystrophies
encephal ic
Ġmal absorption
Ġmul ler
derm atitis
Ġprim ord
Ġsh ap
Ġaden omatosis
Ġaden omatoid
Ġop ac
st etric
Ġmyel ocytic
Ġhypert rophies
Ġhypert elor
Ġend emic
Ġtrans ferase
Ġtrans verse
Ġsc apul
osph ate
Ġmon il
Ġpl us
Ġob sessive
Ġob stetric
roti a
Ġneph ron
Ġca us
Ġfl av
Ġretin oblastoma
ong ed
Ġpsych ogenic
etal ipoproteinemia
Ġprol onged
Ġepiderm al
Ġhemat ological
Ġen vi
Ġen larg
Ġneur ile
Ġmo yamo
Ġinc omple
Ġma ha
Ġfac e
Ġser um
Ġerythro kerat
Ġmelan ocytic
Ġmelan otic
Ġsal mon
Ġlac rimal
Ġtrich othi
Ġig a
Ġig e
Ġgastro esophageal
iple gia
phosph atase
Ġlo u
Ġsick le
Ġleg s
Ġple omorphic
Ġneuron opathy
Ġhyal ine
Ġtransm itted
Ġconduc tive
Ġamnes ias
Ġcoll agen
Ġankyl osing
Ġblepha roph
Ġembolism s
Ġhom ocys
Ġhaem ophilus
Ġasym metric
Ġcircul ating
Ġbif ida
ums cr
Ġacc id
Ġhemiple gia
Ġperfor ations
osens ory
Ġcond ition
Ġcirc umscr
Ġelev ated
Ġtri phalangeal
Ġsac ral
Ġsign s
Ġhypophosphat emic
Ġplaqu e
Ġplaqu es
Ġabor tion
Ġparagangl iomas
Ġlax a
Ġplagiocephal y
Ġhamart oma
otyp ic
Ġnmd ar
Ġpsor iasis
Ġpra der
Ġschizophren ias
Ġgust atory
Ġglom us
Ġmultis ystem
orrhag ic
Ġleyd ig
Ġpharyng o
Ġphae ohyph
Ġpylor ic
Ġbot ul
Ġverr uc
Ġsert oli
Ġbec ker
Ġthiam ine
Ġproduc ing
Ġprimord ial
Ġenvi ronmental
Ġmoyamo ya
Ġincomple te
Ġmaha im
Ġhomocys tin
a id
h ans
l am
n d
n ith
o al
o en
o kinase
r actory
u od
z d
Ġ oth
Ġ romb
in h
Ġs yst
Ġs ay
Ġs tim
Ġd er
Ġp enile
Ġp eptic
an ine
at tic
at um
os quamous
or enal
Ġm oles
Ġt ap
Ġh ist
ul a
Ġdis t
us ual
em an
em per
Ġf unction
Ġb d
Ġb un
Ġb ern
Ġl and
Ġl attic
ac tion
oc ard
oc ortic
oc ystic
Ġde v
il tra
Ġg ram
ent ation
Ġhyp oxic
Ġdys g
Ġch eil
un istic
Ġ2 6
Ġac yltransferase
Ġe b
ir ect
ch ole
Ġhyper g
Ġhyper al
yl l
Ġw at
Ġw ord
ant om
ad ias
Ġat onic
Ġpar k
omas tia
ip p
ip olar
Ġk in
Ġk el
Ġar achn
ub le
Ġad ams
Ġth an
Ġth re
Ġth ermal
oph th
Ġ3 0
Ġx ii
ens or
iz ing
Ġmal nutrition
Ġph ob
Ġph antom
Ġim age
Ġmet at
Ġcarcin oid
Ġbr un
Ġop port
of asc
Ġthromb ophilia
Ġsc oliosis
Ġo titis
Ġto es
igh th
av y
Ġor igin
Ġor nith
Ġun i
Ġun na
Ġun kn
Ġun usual
gl andular
rod ysplasia
Ġneph ropathies
ophil a
Ġul na
Ġref ractory
Ġsm o
Ġes otrop
amin ase
igment ation
oprotein emias
iform is
Ġspin a
ophthalm ia
Ġchor e
Ġmes omelic
Ġec h
Ġven o
osp asms
Ġinc is
ore tin
Ġpoly glandular
Ġhall ux
Ġgalact osyl
Ġdepr iv
Ġmyc oplasm
Ġcarb amo
Ġcrani opharyng
Ġphen otype
Ġjo ubert
Ġpre axial
Ġmor v
Ġbar re
Ġcrypt orchidism
Ġcap s
Ġbranch ial
Ġophthalmople gias
Ġfasc i
Ġcyt omegal
Ġmast ocytoses
rob last
Ġsph en
Ġrep eti
Ġneurom a
Ġaur icular
Ġperit onitis
Ġir r
Ġtrach e
Ġsuper ior
Ġpolym orphic
Ġadd ison
Ġsyph il
Ġdysenter ies
Ġtw elf
Ġant enatal
org anic
Ġhp c
Ġmultic entric
Ġpunct ata
Ġcond itions
opa usal
thromb in
oper oneal
ocys tis
Ġexc itation
Ġvitre ous
Ġvitre oretin
Ġstra uss
Ġmedias tin
oat rial
Ġmesothel ioma
tra um
Ġabor tions
Ġdisturb ance
Ġlew y
Ġhypersomn olence
Ġmicro angi
Ġlanger hans
Ġstoma titis
Ġneutrophil ic
Ġhyperth ermia
Ġsag ittal
oll is
Ġurid yl
Ġpannicul itis
Ġhyster ical
ofol licular
Ġsider oblastic
insk i
Ġhyperphenylalan inemia
Ġpseudohypo aldosteronism
Ġsti ff
Ġkne e
Ġjejun al
Ġtetras omy
Ġplacent a
Ġdysauton omia
Ġhydrop s
Ġcleid ocranial
Ġpseudoobstruc tion
umbil ical
Ġpfe iffer
Ġbour nev
Ġhypertelor ism
Ġblepharoph imosis
Ġhomocystin uria
oal veolar
Ġoth er
Ġsyst olic
Ġlattic e
Ġopport unistic
Ġunkn own
Ġtwelf th
c m
d o
f man
f low
r ias
r atory
r ight
v ascular
w e
x y
y ing
Ġ arc
Ġ ili
ti an
in ical
in elli
Ġd a
Ġd am
en a
as tic
Ġc ow
ar ter
ar se
Ġp anic
Ġp ontocerebellar
at ophor
os i
Ġm ad
Ġm ody
Ġm andib
Ġm ater
Ġt enth
Ġsyn ostotic
Ġdis pl
Ġdis ability
it ch
op al
Ġf a
Ġf oss
Ġb od
Ġb roc
Ġb bs
Ġb ites
Ġl aryng
Ġl qt
Ġde x
Ġde pos
id ed
Ġg am
et e
Ġdef ective
Ġhyp odontia
Ġdys raph
ell osis
un it
od ular
Ġan th
Ġan der
Ġan esthesia
Ġ2 7
ran ean
Ġac rof
uro p
Ġe j
Ġe ighth
ag inous
Ġdisorder ed
ost asis
ard inelli
Ġw ag
Ġi is
Ġal ve
Ġk ear
ub er
Ġlymph angiect
Ġlymph ocytopenia
Ġpro gr
ib ed
ib ri
ap illary
Ġse ip
Ġhe avy
ov a
Ġam eric
ax y
Ġcor nea
yc er
Ġsub unit
Ġpa rotid
Ġnon pro
roc alc
Ġmet ast
art ment
Ġfib roc
Ġcol ic
Ġaden omatoses
Ġmyel oproliferative
erg ic
Ġis omer
Ġmic rom
Ġmic rod
Ġmic rog
Ġmic rotia
ak ening
Ġo i
Ġmon oneuropathy
Ġimmun o
Ġcardi o
Ġdi genic
Ġeryth ropoietic
Ġmed iter
Ġsin oatrial
Ġmuc ocutaneous
Ġmuc inous
Ġcomp artment
phys es
Ġves ic
Ġro t
Ġval vular
Ġprol iferative
Ġfo ve
Ġaneurysm al
Ġhand s
Ġparaple gias
Ġenter itis
Ġpolyne ur
Ġpalm ito
ore an
Ġvar us
Ġox y
Ġmethyl glut
Ġmethyl cro
Ġpancre atitis
oac ylase
Ġred uc
Ġbar ret
Ġpat ter
Ġlo op
Ġmid line
Ġsubc utaneous
Ġrep air
Ġoccl usions
Ġconcus sion
Ġhip pel
Ġsequ ard
Ġporphyr ias
Ġphenyl alan
Ġwound s
Ġtyros inemia
Ġseg ment
Ġber ardinelli
Ġfing ers
Ġelev enth
Ġtoxoplasm osis
Ġmil k
icard i
Ġnas opharyngeal
Ġnarc olep
Ġbab inski
Ġspot s
Ġargininosuccin ic
Ġconn ective
Ġphenylketon uria
Ġossi fication
Ġhorn er
Ġpseudotum or
Ġinh al
Ġhypokal emic
Ġleishman iasis
uron ate
Ġmatur ity
Ġsj og
Ġdo uble
Ġaw akening
Ġpolyendoc rinopathy
Ġadrenoleuk odystrophy
Ġpachy onychia
Ġly ase
Ġhi atal
Ġlaf ora
Ġincreas ed
Ġgigan tism
Ġvog t
Ġhyposp adias
Ġwarb urg
Ġkik uchi
Ġmuller ian
Ġerythrokerat odermia
Ġsalmon ella
Ġcircumscr ibed
Ġromb erg
Ġstim ul
Ġbern ard
Ġthan atophor
Ġuni versal
Ġbournev ille
Ġdispl ac
Ġfoss a
rocalc inosis
Ġmediter ranean
Ġmethylcro ton
Ġphenylalan ine
Ġthanatophor ic
c er
e y
h orm
i genic
k y
k en
l igo
m as
m onic
o a
o as
p ut
r s
r iasis
s er
y an
Ġ ell
Ġ og
Ġ ush
Ġ ench
er it
in oma
in emic
Ġs at
Ġs lip
Ġs till
Ġs ummer
Ġd imin
Ġc ast
Ġc ri
ar ning
an z
at ure
os seous
or ide
Ġm g
Ġm pt
Ġm olar
Ġm anic
om b
Ġt en
Ġt ortic
Ġt arsal
Ġa i
le uk
Ġn ar
Ġn orm
ul ent
Ġdis cr
em ens
yp an
Ġf h
Ġf er
Ġf ar
Ġf rom
Ġf ow
Ġb eck
el i
el s
Ġl gl
Ġr ath
Ġde ple
Ġg yr
Ġg out
Ġg az
ol a
ol ymph
ent s
et erm
iti ligo
ep s
Ġv itiligo
Ġhyp oc
un e
ing ement
Ġcon trac
Ġcon version
Ġac tiv
cl es
Ġle arning
eb erg
Ġhyper ostoses
Ġsp ind
yl ation
Ġst ric
Ġst rain
Ġst rong
ob ility
yst rophy
Ġk l
Ġar g
Ġar ch
ub ercul
Ġpr enatal
ver sions
Ġ3 6
Ġ3 7
ect omy
Ġper ine
Ġher ma
ne ys
te ur
end al
Ġph ak
Ġtr ypan
Ġex cess
Ġex ostosis
ogen ital
Ġret rop
Ġpost chole
Ġpost traum
oh l
Ġdominant ly
Ġoste odysplastic
Ġlip oid
Ġer os
iv irus
ast ric
Ġco ugh
av icular
Ġmon ocular
ri x
Ġmalign ancy
gl ot
ert rophic
Ġmac ro
Ġect opia
acter istic
Ġangi omatoses
Ġcar pal
Ġauto inflamm
ind ing
Ġfl ank
Ġsinus itis
Ġdr y
Ġnod ule
itu itar
Ġinfarc t
Ġkid neys
Ġhisti ocyte
Ġhisti ocytoses
Ġmig rain
Ġmar fan
Ġpel vis
osp ermia
ish ed
Ġophthalm opathy
Ġimp ingement
Ġdepr essions
Ġvag ina
Ġhum eral
Ġvar a
Ġcalc inosis
Ġmyc otic
ople gic
ton asal
Ġdil at
Ġgingiv itis
Ġlo e
Ġhypog ammaglobulinemia
Ġdysm orphic
Ġpe tit
Ġfasc icular
Ġphot o
Ġsph ing
Ġleukoencephal itis
Ġchole c
Ġdysph asias
Ġglut aric
Ġpseudohyp ertrophic
arb oxylase
Ġventric ul
Ġankyl osis
Ġpas teur
Ġrest less
Ġuve itis
Ġmeningoencephal itides
Ġcram ps
Ġpemphig us
Ġemphys emas
Ġmesothel iomas
Ġparagangl ioma
Ġurol ogical
Ġfall ot
Ġhemi at
Ġtumour s
Ġterror s
Ġpet rous
Ġtard ive
Ġbro ad
Ġsa int
Ġtons illar
odyn ia
Ġsymph ysis
Ġhemis pher
Ġhypercholesterole mia
Ġchar acteristic
Ġpud endal
Ġeyel id
Ġstick ler
Ġund ifferentiated
Ġvin cent
Ġmenstr u
Ġotorhin olaryng
Ġacrocephal os
Ġscapul operoneal
Ġornith ine
Ġsyphil itic
Ġameric an
Ġpatter son
Ġsjog ren
Ġslip ped
Ġdimin ished
Ġmpt p
Ġtortic ollis
Ġdeple tion
Ġstric t
Ġherma ph
Ġposttraum atic
ituitar ism
a j
b or
b um
b ullous
c n
c id
e k
e ochrom
g e
h off
i ological
i eld
k el
l ant
p en
r illar
s ens
t z
t um
v id
w s
y b
y e
Ġ ti
Ġ eas
Ġ il
al ac
Ġd ay
Ġc ic
Ġc ms
Ġc ochlear
ar in
is ian
Ġp ector
Ġp ierre
Ġm ag
Ġm end
Ġt erm
Ġt oni
Ġh yg
Ġh igm
Ġh utch
Ġa kinetic
Ġn uch
ia tions
Ġdis tr
Ġdis abilities
us ch
it ers
op oietic
Ġf ish
Ġf iss
Ġb ix
el ic
ac r
ac u
oc i
id erm
et ts
um m
Ġv erm
Ġv acu
Ġdys syn
Ġdys horm
im a
od al
od ent
Ġcon tin
Ġac tivity
ot ransferase
roph ia
ir ium
Ġmy algia
Ġhyper m
Ġsp ect
Ġw s
Ġw er
ad h
Ġk al
Ġar e
ile y
Ġth i
oid es
Ġgl i
Ġper in
Ġcereb ros
Ġj ap
Ġj ack
omy x
ory lase
re f
re tin
Ġmal t
Ġph on
Ġph eochrom
ros arc
Ġpost c
kin esia
orrh eas
Ġnon bullous
duc tal
Ġarter itides
Ġgen icul
Ġpul monic
Ġint es
Ġcol lec
rop od
Ġmyel opathies
Ġmic ron
Ġsch e
Ġtrans fer
Ġsc zd
ak ness
Ġimmun ologic
Ġap neas
Ġhyd ro
Ġsle b
Ġneph rosis
Ġneph ritides
Ġnec ro
Ġnec rob
Ġcar ney
Ġintra ventricular
Ġintra ductal
ack er
Ġretin opathies
Ġdr usen
Ġnod oventricular
Ġro land
Ġsarc oid
Ġhisti ocytoma
Ġmig ratory
Ġgland ular
arth ritis
Ġdeform ans
Ġdel irium
itt le
omel an
Ġfac io
Ġwe akness
Ġhydrox yster
ocarcin oma
Ġmor g
Ġdermat omy
Ġpat tern
Ġdiss ection
Ġhepat ocellular
Ġsulf ate
rov irus
orphyr inogen
Ġleg g
Ġleg ion
Ġperiodon titides
esth etic
Ġbre ech
Ġolig oph
Ġequ in
Ġheterot opias
Ġfibrom as
Ġgu anine
Ġactin omyc
Ġhyperten sions
Ġwol f
Ġxanth ogranul
Ġdentin ogenesis
Ġuve al
ĠÃ ¶
Ġhemiple gic
Ġhypo al
Ġmeg ac
Ġterat oma
Ġexc essive
tim e
Ġsem antic
Ġna j
Ġmurmur s
Ġmosaic ism
Ġalb right
Ġsomat osensory
omening eal
Ġkle ine
ubert y
Ġapp ar
Ġillness es
Ġplagiocephal ies
Ġacrom egal
ovag inal
Ġpolys yndactyly
Ġdipl opia
Ġdipl opias
Ġcystin osis
Ġependym oma
Ġagraph ia
Ġgangren e
Ġreticuloendothel iosis
Ġsand hoff
Ġcaf fe
Ġcons cious
Ġlymphohisti ocytosis
Ġthromboph lebitis
Ġgalactos emia
Ġposition al
Ġswe at
Ġcamp omelic
Ġpust ular
Ġurtic aria
Ġaz orean
Ġof c
Ġdeb re
Ġmyofib rillar
Ġschon lein
Ġtrichothi odystrophy
Ġlou is
Ġcheil itis
Ġhyperal g
Ġcarbamo yl
Ġmorv an
Ġbod ies
Ġacrof acial
Ġfibroc ystic
Ġpalmito yltransferase
Ġbarret t
Ġuniversal is
Ġmethylcroton yl
erit oneal
Ġspind le
Ġretrop eritoneal
Ġmigrain es
Ġterm inal
Ġnuch al
Ġbix ler
Ġcerebros ide
Ġgenicul ate
Ġcollec ting
Ġhydroxyster oid
a tin
a tine
b at
g al
h i
i etal
k ing
l itz
o j
o ve
p tic
p yr
r ing
u y
u er
u tion
Ġ '
Ġ umbilical
er ent
Ġs r
Ġs ant
Ġs ach
Ġs ore
Ġs uccin
Ġd b
Ġd ur
Ġc b
Ġc ob
Ġc of
ar k
Ġp c
Ġp d
Ġp ig
Ġp ity
os amine
or id
or ax
Ġm l
Ġm ang
Ġm ink
Ġt yp
Ġh al
Ġh ib
Ġh ort
ph ilis
Ġa or
le ptic
yn s
ul i
ul es
us es
op s
op ar
op os
op enic
Ġf is
Ġf le
Ġb s
Ġb uc
Ġb all
Ġb rad
Ġb io
Ġb usch
ys p
Ġl a
Ġl h
ac ill
oc a
oc ost
Ġg el
Ġg ard
Ġg ood
Ġhyp omyel
Ġdys cal
Ġch il
im etaphyseal
ell oses
od ium
Ġan is
Ġan os
Ġcon ver
ran odal
Ġac ad
ot roph
ag es
ag nos
Ġsp ecific
Ġneuro tic
Ġneuro sy
Ġneuro blastoma
Ġneuro leptic
Ġst re
Ġw et
Ġw ool
ad ass
Ġpar enchymal
Ġpar ietal
Ġep stein
Ġal kal
ip roc
Ġk enn
Ġad duc
Ġad verse
Ġpr eling
ron ous
Ġpro g
Ġper man
Ġper icard
og raph
og astric
Ġher litz
Ġleuk ocyt
if er
Ġj adass
Ġcom bat
te g
Ġph arynx
Ġrec iproc
ab a
ab dominal
Ġex trac
Ġsub glot
Ġnon l
Ġbr uc
ow sky
Ġgen u
Ġfib ers
Ġdia physeal
Ġer b
Ġtrans c
ak ias
Ġscler edema
Ġmon ocytic
Ġmalign ancies
ay er
Ġpo uch
Ġhyd roc
yr in
fer r
Ġangi itides
Ġspastic ity
Ġmed ia
Ġes ter
Ġsten osing
Ġarth ropod
Ġlim ited
hyd rotic
Ġprotein osis
Ġprotein uria
Ġbrach ym
Ġmes odermal
Ġext ensor
Ġext ranodal
Ġmo tility
Ġophthalm opathies
tur ed
Ġfetal is
Ġpy ramidal
Ġwe ill
nes ic
Ġser opos
Ġcrani ocerebral
Ġcoron al
Ġax en
Ġneg lect
Ġot o
Ġbar e
Ġrup tured
Ġtrig ger
Ġcm h
ept ual
Ġneurofib romatoses
ord ination
Ġdysm nesic
Ġrheum atism
rob asilar
Ġket otic
Ġsph inc
Ġtrait s
Ġman son
vert ed
Ġplag ues
Ġhun ter
Ġrhin itis
Ġmycobacter ial
inf arc
ocephal y
Ġamyot rophy
Ġdent oalveolar
Ġosteoarth ropathy
Ġepithel ioma
erap eu
Ġamb igu
Ġsickness es
Ġnut rition
Ġduod en
ococc us
Ġacetyl gal
Ġpunct ate
Ġmercur ial
Ġber ry
Ġlymphaden opathy
Ġprec urs
Ġstro kes
Ġschist osomiasis
Ġfrag ile
Ġneurodegener ation
Ġdisturb ances
Ġverteb robasilar
Ġmicroc ornea
Ġschwann oma
Ġargininosuccin ate
Ġdysarth ria
Ġacin ar
Ġnan ism
Ġlacer ation
Ġtransform ation
Ġkap osi
Ġperc eptual
Ġgangli ogl
Ġgastroenter itis
Ġmus cles
Ġprotozo al
Ġdysprax ia
Ġhypov entilation
Ġaltern ari
Ġoxid ative
Ġneed les
Ġconfusion al
Ġbreath ing
ck eberg
Ġepi physes
Ġperic ardial
Ġempy ema
Ġgynec omastia
Ġneurohyp ophyseal
Ġjam pel
Ġlept omeningeal
Ġshap ed
Ġcaus ed
ocortic oid
Ġarachn odactyly
Ġgalactosyl cer
Ġmediastin um
Ġmater nal
Ġnonpro gressive
Ġmethylglut ac
Ġeas tern
Ġdistr ess
Ġdyshorm onogenesis
Ġspect rum
Ġcaffe y
Ġbio tin
Ġdyscal cul
Ġconver g
Ġneurosy philis
Ġwool ly
Ġpreling ual
Ġleukocyt oclastic
Ġjadass ohn
Ġsubglot tic
Ġsphinc ter
erapeu tic
Ġacetylgal act
Ġprecurs or
a ple
a ortic
b i
c f
d on
h n
k an
m r
n g
o e
o ast
r d
u en
u ally
w er
w ith
z low
Ġ ure
er a
er ated
er nal
in as
in son
Ġs en
Ġs ad
Ġd s
Ġd ari
Ġc yc
Ġc ild
Ġc ushing
es ani
Ġp n
Ġp es
Ġp ont
Ġp ilar
Ġp uberty
at ch
os uria
or neal
or bital
om o
Ġt m
Ġt ar
Ġt ym
Ġt one
Ġh ard
ph leb
Ġa a
Ġa ort
Ġa icardi
le man
Ġn ag
op ian
Ġf em
Ġf um
Ġf sh
Ġb f
Ġb ones
Ġl er
Ġl ar
Ġl umb
Ġl aur
oc ar
oc cl
ur ation
ep tion
ep tive
Ġv el
ary l
am idase
Ġch yl
Ġch arge
im otor
ell er
un ay
Ġan n
Ġan oxic
Ġan ophthalmia
Ġac al
Ġac ral
Ġac rop
Ġe g
ag on
ch ol
osom iases
Ġmy ofasc
Ġhyper am
Ġhyper py
Ġhyper uric
Ġneuro sis
Ġst omat
Ġw ar
ob ar
Ġep ic
Ġincl usions
Ġal tit
oph arynx
oph alang
Ġ3 3
ati al
if t
Ġj ohn
Ġ4 3
iz ations
opath ia
Ġex ocrine
Ġim bal
Ġpost ural
Ġii ia
Ġsub aortic
Ġpa uc
omat a
derm atitides
Ġarter ies
Ġfib ular
unc al
Ġlip idosis
Ġmening ocele
Ġhypert onia
Ġhypert onias
Ġmic rocephal
Ġsch eu
Ġtrans loc
Ġtrans position
ak er
Ġto e
Ġur emic
ri er
gl u
Ġmac ros
Ġpneum ocystis
Ġeryth rocyt
Ġrh ythm
Ġca rol
Ġref rac
Ġmuc osa
Ġcomp ound
Ġdif ferenti
Ġfl o
hyd e
Ġpap ular
Ġaph th
Ġsinus itides
Ġhypers omnia
Ġnod ules
Ġphosph orylase
Ġchor i
Ġver tical
Ġendoc ardial
Ġcont agi
utis ms
omic ron
Ġspondyl o
Ġwe iss
ific ation
Ġblindness es
Ġser ocon
Ġerythro blast
Ġlate x
Ġtach yp
Ġglomerul opathy
Ġele ph
Ġspl en
Ġden gue
de hyde
phal ocele
Ġflu ent
ci uric
omp action
Ġhyperlip idemia
Ġheterot axy
Ġhyal inosis
Ġgu ill
Ġextra hepatic
Ġjaw s
Ġout flow
odys genesis
ha us
Ġgo iters
Ġsial aden
Ġcys tine
Ġvulv a
Ġmat ter
Ġrick etts
Ġmyx oid
Ġregion al
Ġfibr illary
Ġphosphor ylation
rol ithiasis
Ġhid rotic
Ġko zlow
org e
Ġhemiple gias
Ġerup tions
Ġmann osidosis
ocon junctiv
Ġhemoglobin uria
Ġcerebell um
Ġbi phen
Ġneuroc utaneous
Ġarterios us
omon as
Ġaber rations
Ġhab it
Ġnas opharynx
Ġrect um
Ġker atitides
Ġnonc ompaction
Ġspondyloep imetaphyseal
Ġaspart ate
Ġfall opian
Ġkyph osis
Ġthy rot
Ġschwann omas
Ġstoma titides
Ġdysarth rias
Ġprop ionic
Ġagraph ias
Ġlacer ations
Ġhyalohyph omycosis
Ġhyalohyph omycoses
Ġhu et
Ġchondrom alac
Ġsubm andibular
Ġmarch esani
Ġremodell ing
acet oac
Ġneovascular ization
Ġtour et
Ġchoriore tinal
Ġebs tein
Ġhemicran ia
Ġalex ia
Ġlentig inosis
acyt oid
Ġgol tz
Ġbotul ism
Ġhyperg onad
Ġwat son
Ġdepriv ation
Ġmandib ul
ibri o
Ġinhal ation
yan agi
Ġnar row
Ġfow l
Ġbeck with
Ġphoto all
Ġhutch inson
Ġdyssyn erg
Ġperin atal
Ġmicron ucle
Ġroland ic
Ġoligoph renia
Ġsach s
Ġpity riasis
Ġbusch ke
Ġgard ner
Ġperman ent
Ġaxen feld
Ġmethylglutac onic
Ġcyc le
Ġtym p
Ġhyperpy rex
Ġscheu ermann
Ġrefrac tive
Ġdifferenti ation
Ġkozlow ski
Ġbiphen otypic
b c
b ing
b ts
e ker
f b
f act
f old
g es
g rowth
h ed
h art
h ouse
k l
k ling
m ias
m edullary
n eph
o ot
o yl
o ron
o emb
q tl
r enic
t o
v iridae
x ual
ti d
in omas
in ate
Ġs itu
Ġs ella
Ġs ound
Ġd m
Ġd on
Ġd ic
Ġd or
Ġd iplegia
en ner
en etrating
Ġc ant
es c
es si
an ical
at r
os c
Ġm i
Ġm ech
Ġm ga
Ġm utisms
om e
om ies
om andibular
om iting
Ġt est
Ġh t
Ġa qu
Ġa per
Ġa rous
ia ms
em erging
op sias
op agnos
op yrin
Ġf emin
Ġb ed
Ġb it
Ġb acillary
Ġl ig
Ġl ca
ac ea
Ġr ud
Ġr ay
id ing
Ġg an
Ġg un
ol itides
ol ogy
Ġne iss
um ulation
Ġv acter
Ġv entil
Ġv omiting
ell aceae
ig ral
ig ler
un ited
od es
od uod
Ġan ton
ter in
uc ent
Ġac he
ot ence
ot ubular
Ġe w
Ġe is
Ġe ig
Ġe ie
ym ening
ag ia
ir e
Ġle p
Ġle uc
eb ius
Ġmy ositides
Ġhyper c
Ġhyper ox
Ġhyper immun
Ġhyper thy
ost riate
ard iogenic
Ġw in
ad ian
Ġi ic
Ġpar ac
Ġhem ophilus
Ġk i
Ġth in
Ġth ost
ver rich
Ġlymph ogranul
oph ob
oph yt
Ġpro c
Ġper n
Ġre ye
Ġre emerging
Ġleuk okerat
ach e
if e
Ġj er
Ġj unction
Ġj bts
ap tic
Ġrec kling
ros idase
ox yl
Ġret t
Ġpost phleb
Ġbl enn
Ġnon insulin
Ġbr ug
Ġfib roid
Ġop ca
Ġperi oral
of ac
Ġlip oproteinemia
och ondrom
lic h
Ġatax ic
Ġfr yns
Ġsch inz
Ġur ach
Ġur eter
Ġtub al
Ġpl at
Ġimmun ological
Ġun verrich
Ġpo ol
pr s
Ġem pt
Ġpneum ocon
Ġpneum onitides
Ġangi ofollicular
ocereb rosidase
Ġsleep er
Ġca ud
Ġcr igler
Ġsec ret
ogl ut
vel y
Ġintra vascular
Ġfl at
Ġretin a
Ġdele tions
Ġear s
ticul ostriate
Ġocul ocereb
Ġsarc ogl
Ġbrach y
Ġkerat oconjunctiv
Ġen gel
Ġesophag itis
Ġneural gic
Ġmo ebius
Ġsex ually
ps ia
Ġvari eg
Ġimp lant
Ġimp otence
Ġdf n
Ġvar as
Ġfac i
Ġcalc ium
Ġox al
cr acker
ocarcin omas
Ġvascul opathy
ik ov
obacter iaceae
Ġimperf or
omn ias
rogl ossal
Ġbe at
Ġbe ats
Ġos ler
Ġcrypt ococc
Ġpat ent
Ġchol ang
Ġlo ose
Ġasth mas
Ġmembran oproliferative
Ġmid b
oster one
orphyr ia
Ġphot otoxic
Ġsl iding
Ġps ors
Ġbur n
Ġbur ning
Ġneut ral
Ġcalcific ations
Ġhun t
Ġdysph onia
Ġent amoeb
Ġglut am
ha usen
Ġhypogonad otropic
Ġplex iform
Ġconjunctiv al
Ġover growth
Ġdent ate
Ġste at
ammagl obulin
Ġros acea
Ġhol m
Ġbronchi ect
Ġtroph oblast
Ġmyx oma
Ġwol man
Ġpolym ic
Ġembry opathy
Ġnut cracker
Ġlen ticulostriate
Ġko j
oneuro pathies
Ġel ast
Ġacc umulation
Ġamn iotic
Ġpach ymening
Ġfascicul ations
alang ism
Ġmas sive
Ġdec arboxylase
Ġcerebell o
ew ski
Ġbo eck
Ġpros opagnos
Ġtoxoplasm a
Ġtoxoplasm oses
Ġentrapment s
Ġfrag ility
Ġneuroc ardiogenic
Ġsynov itis
Ġaber ration
Ġmut ation
utter ing
Ġaspergill oses
Ġmegal oblastic
Ġfuc osidosis
Ġwill iams
Ġendocard itides
unt ary
Ġurol ogic
Ġev ent
Ġthy roglossal
Ġnonp enetrating
Ġmis fold
Ġacin ic
Ġvalg us
Ġile al
Ġon ly
Ġcop per
Ġeth yl
Ġdeg os
Ġquadr iple
Ġspher ocytosis
Ġrhabdomy osarcoma
Ġcartil age
Ġcs nb
Ġcoc aine
Ġinfest ation
Ġinfest ations
Ġarv c
Ġarv d
Ġinfer tility
Ġhyperl ucent
Ġkra bb
Ġshar ed
Ġcry opyrin
Ġah us
Ġarticul ation
Ġbrux ism
Ġambly opia
Ġproger ia
Ġmegakary ocytic
Ġsi emens
Ġsur fact
Ġlight ning
Ġgil bert
Ġvw d
Ġmuscul oskeletal
Ġfold ing
Ġatheroscler otic
oz yg
Ġpub is
Ġintr insic
Ġnephron ophth
Ġenlarg ed
Ġphaeohyph omycosis
lam psia
inh ib
Ġsay re
Ġsmo oth
Ġincis or
Ġrepeti tive
Ġstrauss ler
Ġuridyl yltransferase
Ġdam age
Ġdepos its
Ġkear ns
Ġfove al
Ġnarcolep sy
Ġdisplac ement
Ġench ondrom
Ġcast leman
Ġrath ke
Ġphak omatosis
Ġpostchole doch
Ġdilat ation
Ġhemispher e
Ġmenstru ation
Ġacrocephalos yndactyly
Ġcontin uous
Ġjap anese
Ġtyp es
Ġhort on
Ġure a
Ġdari er
Ġfem ur
Ġlar va
Ġacal cul
Ġhyperam mon
Ġjohn son
Ġmicrocephal ic
Ġcontagi ous
Ġeleph anti
Ġhypergonad otropic
Ġmech anical
Ġaqu ed
Ġarous al
Ġneiss er
Ġvacter l
Ġeie e
Ġhyperthy rox
Ġpostphleb itic
Ġbrug ada
Ġschinz el
Ġunverrich t
Ġempt y
Ġpneumocon iosis
Ġsecret ory
Ġmisfold ing
Ġsurfact ant
Ġnephronophth isis
a gener
b ow
b ilis
c b
c q
c ith
c tive
d actyl
e osinophil
f l
f el
j d
j ar
k h
k mann
n ier
p eral
p ecific
r t
r el
s ed
t b
t osis
w ick
Ġ oh
Ġ roc
Ġ igh
al amin
ro te
in eral
Ġs et
Ġs ug
Ġs tern
Ġs ector
Ġs ided
Ġd av
Ġd opa
Ġd hm
as si
as tr
on tic
Ġc t
Ġc ath
Ġc omas
Ġc lic
ar e
ar m
ar ticular
is ia
es omelic
es igenic
Ġp f
Ġp of
Ġp ott
or i
or es
Ġm im
Ġm ir
Ġm ant
Ġm gr
Ġm orph
Ġm arg
Ġm td
om ias
Ġt dp
Ġh ap
Ġa k
Ġa u
le d
yn ch
Ġn ic
Ġn ond
Ġdis tin
us si
ed ion
ed emas
Ġin version
Ġf rax
Ġb m
Ġb p
Ġb est
Ġb att
Ġb ipolar
ac tive
Ġr ag
Ġr uss
Ġr iley
Ġde bran
id i
id es
id emias
enc y
ath isia
th e
th er
ut t
Ġv ill
ary ls
Ġhyp oh
Ġhyp omat
Ġch ann
im idine
ell w
Ġinf iltra
od is
od ontic
Ġan tis
Ġac rod
ud e
ym ic
ag ille
Ġle cith
eb iasis
Ġmy h
Ġhyper pro
Ġhyper kinetic
Ġhyper eosinophil
Ġneuro sens
yl in
yl osis
ard t
ard ia
Ġst u
Ġst art
Ġst uttering
Ġw is
Ġw orm
Ġpar v
oplasm acytoid
ess or
Ġal per
Ġal agille
ip t
ip ple
Ġk r
Ġk ary
Ġk ell
Ġk art
Ġk line
Ġar ef
ub o
Ġad j
Ġad ie
Ġth alam
Ġpr em
Ġpr ion
Ġcell ular
Ġlymph oplasmacytoid
Ġ3 5
Ġ3 8
Ġpro f
ect s
ric ans
Ġdyst onic
tr en
Ġ4 7
iz z
ap id
Ġph alang
Ġpol io
qu in
Ġex st
and owsky
Ġencephal omy
Ġencephal ocele
Ġoc h
Ġsub t
Ġ5 1
Ġbr ill
Ġgen ito
Ġfib er
Ġint oxic
Ġsh y
Ġaden ohyp
Ġoste ochondrom
Ġlip ase
Ġlip oat
Ġsens ations
Ġsens itivities
Ġmyel oma
Ġang ioneuro
Ġid i
Ġid uronate
Ġfr eck
Ġmic rovascular
Ġfe il
Ġsc r
Ġag angl
Ġag ranul
Ġpseud ogl
Ġmyoc ard
ea ting
ri tic
pr int
ick ness
Ġintrac ellular
Ġcl o
form is
Ġdi ath
Ġdi eker
Ġres orp
Ġneph rolithiasis
Ġcr yst
Ġcr cs
Ġnec roses
Ġmed iated
ind ness
rad i
Ġlim it
Ġparal ytic
und us
Ġrad icul
Ġrad io
Ġrad icular
Ġrad ius
Ġspin obulbar
Ġpara inf
Ġinfarc ts
Ġro us
Ġro und
Ġcran ium
Ġamyloid oses
Ġane up
eth yl
anth us
anth oma
Ġhisti ocytomas
Ġmel kers
Ġmig rans
ins tein
Ġfol lic
Ġhern iation
Ġgi edion
Ġhypot en
Ġpoly chond
ans ky
Ġgluc ocerebrosidase
Ġmeth em
Ġspondyl ometaphyseal
bl indness
Ġsim p
Ġz one
Ġz yg
Ġz ellw
Ġma rote
Ġfron tonasal
Ġcolor blindness
Ġmelan omas
ulf atase
Ġglomer ular
Ġbas ophilic
ror enal
Ġnons pecific
Ġmor b
Ġbar r
Ġdermat ofib
Ġfollicular is
Ġhepat ocerebral
Ġlob ular
Ġcho anal
phal ip
Ġket osis
Ġpolyc yth
yot onia
Ġdes min
Ġpapill omatosis
ochrom ic
Ġmedull oblastoma
Ġleukoencephal opathies
Ġextr as
Ġill usion
Ġill usions
Ġfibrom a
Ġneurom as
Ġank le
Ġtre e
Ġath et
Ġtib ia
Ġgest osis
odys plasias
Ġacet yltransferase
Ġarteri opathy
Ġtoxic ity
Ġdisk s
Ġprot ection
leb itides
Ġpseudohyp op
Ġmur ine
Ġseb orrh
Ġpres entation
Ġbronchi olitis
Ġrub ber
Ġhex ose
Ġimpairment s
Ġtet an
Ġwor kers
eo esophageal
Ġlen tis
Ġrest ric
Ġgamm ap
Ġxanth omatosis
Ġpor tal
Ġel bow
Ġtyros inase
Ġtyros inemias
Ġant ley
Ġacanth osis
ĠÃ ©
ĠÃ «
Ġmax ill
min th
Ġgre en
aton igral
Ġterat oid
ille d
ropath ic
Ġvaria bilis
Ġcandid iases
Ġprec oci
Ġpolyradicul oneuropathy
Ġsac ro
Ġfor es
Ġleiomy omatosis
Ġaber rant
Ġsyr ing
Ġlax ity
Ġlew andowsky
Ġosteochond rosis
Ġmicroc ystic
Ġclos ure
Ġaspart oacylase
Ġbreak age
Ġacrom esomelic
Ġstri atonigral
Ġcatat onia
Ġnmd a
Ġcystin uria
Ġcost a
Ġchem ical
Ġappend ic
odyn ias
Ġsymph alangism
Ġreticuloendothel ioses
Ġhel minth
Ġren otubular
Ġdeg rad
Ġvol kmann
Ġcons ump
Ġlymphohisti ocytoses
Ġtransform ations
gluc ose
Ġexfol iation
Ġprom in
Ġremodell ings
Ġinfer ior
Ġvagin itis
aum ann
Ġhyperinsulin ism
Ġpred is
Ġspermat ogenic
Ġudp glucose
Ġpot assi
Ġphys iological
Ġdihyd rop
Ġmdd g
Ġcro uz
Ġthrombocyth emia
Ġnig ricans
Ġvacc inal
Ġopac ities
ipp o
Ġmycoplasm a
opal at
Ġdex t
Ġander sen
Ġej m
Ġmicrog nathia
Ġcontrac tion
Ġtrypan osomiasis
Ġmacro thromb
Ġhermaph roditism
Ġjack son
Ġpheochrom ocytoma
Ġnaj jar
Ġconscious ness
uer peral
Ġdb a
Ġmang anese
Ġhib ern
Ġtm j
Ġann ular
Ġmyofasc ial
Ġaphth ous
Ġphotoall ergic
Ġhyperpyrex ia
oemb olism
Ġdor fman
Ġaper t
Ġurach al
Ġimperfor ate
Ġethyl malonic
Ġhyperthyrox inemia
fel ter
Ġdhm n
Ġmant le
Ġruss ell
aryls ulfatase
Ġhypomat uration
Ġchann el
Ġlecith in
Ġhyperpro l
Ġneurosens ory
Ġkart agener
Ġkline felter
Ġthalam ic
Ġadenohyp ophyseal
Ġangioneuro tic
Ġresorp tions
Ġparainf luenz
Ġmelkers son
Ġprecoci ous
Ġpotassi um
Ġcrouz on
a i
a ux
b urg
b lastic
d i
d n
f oot
g f
g ed
i q
i ella
i atric
j unction
k le
l en
l ory
l ycer
n ick
o is
o ke
o immune
o tine
p or
p orphyrinogen
r ach
r up
t le
u an
u el
u tional
v as
v anc
v asive
w orm
w ang
w art
x ia
Ġ ow
Ġ ull
Ġ est
Ġ arylsulfatase
ti i
ti form
ti gin
ro plasia
Ġs omn
Ġs elf
Ġs ocial
Ġd h
Ġd ol
Ġd im
Ġd ow
Ġd own
en si
en orrhea
en men
on ne
Ġc yp
Ġc ub
Ġc atal
Ġc ecal
ar ias
is ata
Ġp k
Ġp in
Ġp ir
Ġp ch
Ġp ied
Ġp edi
Ġp ili
ic ogenic
ic ore
at z
os ine
os ensitivity
or hin
Ġm p
Ġm t
Ġm eas
Ġm ec
Ġh ost
Ġh ak
ph et
le pha
le quin
yn aud
Ġn os
ia d
ul ous
ul oses
ul bar
us or
em bran
Ġin de
Ġf al
Ġf ra
Ġf ab
Ġf av
Ġf ilar
Ġb u
Ġb in
Ġb ing
Ġb ins
el lect
el erated
Ġl ait
Ġl ars
Ġl ynch
ac s
Ġr at
Ġr am
Ġr uv
Ġr ta
ur a
ur is
Ġde tr
id ia
id ox
ol yposis
Ġne ar
ent ral
ath ion
ep iphyseal
ut ane
Ġv a
Ġv ib
am ent
am berg
Ġdys ostoses
Ġdys keratosis
Ġdys ref
Ġch oles
im mel
Ġan tic
Ġan et
Ġan encephaly
Ġan hydrotic
Ġan hed
Ġ2 9
ter inary
Ġcon j
Ġcon tig
Ġe urop
eb i
osom es
tin es
Ġhyper gl
ost om
Ġst riate
Ġw he
Ġw ohl
ine a
ob ular
ob ronch
Ġpar at
Ġinfec tive
yst rophic
Ġep ul
Ġal i
ereb rate
Ġar b
Ġad am
Ġth ph
Ġth orac
Ġpr ur
Ġpr eterm
Ġpr une
ver sible
amil ial
oph akia
Ġfamil y
Ġ3 4
ral ogy
Ġpro ct
Ġx i
og oni
Ġleuk o
Ġj eg
re g
ang iopathic
ons tit
Ġ4 5
Ġmal lory
ap ular
ne tii
te at
Ġas d
Ġph ag
Ġph lebitis
Ġrec all
Ġrec onstit
Ġtr ip
Ġtr ench
Ġtr ena
Ġtr iad
ab olic
Ġam phet
qu e
Ġex anth
Ġex pos
Ġhered it
oth erapy
Ġepilep tiform
ion osis
Ġpost encephal
Ġsub d
af d
roc yte
Ġbr ca
Ġbr enner
Ġfib ula
Ġint ellect
Ġaden ovirus
ane urysm
Ġoste oid
Ġoste omyelitis
Ġoste olyses
Ġlip omatoses
Ġlip osarcoma
Ġang inas
Ġis a
Ġsch m
Ġsch aumann
Ġend odontic
Ġthromb openic
Ġtrans por
Ġsc ald
Ġag ain
Ġur b
Ġtub er
Ġmon ochrom
oss ia
ich sen
Ġap ple
Ġap ros
Ġap olip
Ġor b
ay as
Ġcent rocytic
Ġpos tin
pr t
Ġgran d
lex ias
yr inth
Ġect asia
Ġepid id
Ġcl n
Ġcl ock
Ġcl aw
Ġsm a
ogl obulinemia
Ġmuc ous
Ġcomp ens
Ġes thes
vul sive
Ġfl utter
Ġpigment ation
Ġpara esophageal
romat opsia
Ġro th
Ġcatar rh
Ġval ga
Ġhemat opoietic
Ġesophag itides
Ġlow ry
Ġver lo
Ġver tigin
Ġpanc yt
Ġven ez
Ġimmunodef iciencies
Ġsep sis
Ġmo tion
Ġmar in
osp oron
Ġgi er
Ġhypot onic
Ġdup uy
Ġgluc oseph
Ġgluc ocorticoid
ain ed
Ġspondyl ocost
Ġemb olic
Ġpy el
Ġpy rex
Ġerythro blastic
Ġcarb on
Ġsw eating
aw a
Ġdig it
Ġmer r
asth enia
Ġschiz oid
Ġtrich osporon
Ġpre infarc
Ġve terinary
Ġgra ves
Ġanti thrombin
oglob inemia
yel itis
Ġhepat oma
Ġcox iella
Ġchol angi
Ġchol era
Ġte ebi
Ġconc entric
Ġpneumonia e
Ġdiverticul osis
Ġtic s
phosph ate
Ġdysm yel
Ġuro porphyrinogen
Ġfanc ier
Ġganglios ide
Ġophthalmople gic
Ġpe el
Ġpe utz
Ġmast ocytoma
Ġphot osensitivity
Ġdes quam
omp ens
Ġpapill omas
Ġbur netii
Ġextr insic
Ġfibrom yositis
Ġhs n
Ġhs cr
Ġfront o
ling ual
Ġcre atine
omegal ies
Ġover use
Ġover lo
Ġamel ia
Ġfung us
Ġtrach eoesophageal
oep ithel
Ġpyr idox
Ġeff ort
Ġeff usions
Ġspong e
Ġliss encephalies
Ġhypop ituitarism
Ġcoag ul
Ġinvol utional
Ġarrhythm ia
Ġtet ralogy
Ġko yanagi
Ġhaem orrhagic
Ġasperg er
blast omas
Ġster ility
Ġureth ra
Ġacc elerated
Ġacro dermatitis
Ġosteopo roses
rin ogen
Ġhp e
Ġpunct ure
Ġoligod ontia
Ġpach yg
Ġaff erent
Ġrhabd oid
Ġfascicul oventricular
Ġfood bor
Ġdec erebrate
Ġna eg
Ġschist osomal
Ġhypophosphat emia
Ġretinosch ises
Ġalb ers
Ġpapul osquamous
Ġmut ant
Ġhab ermann
Ġbart on
adr enal
Ġintoler ances
Ġather osclerosis
Ġinst abilities
Ġkle in
Ġwater house
Ġverteb ro
Ġinvers a
Ġsubcl inical
Ġaspart yl
alc aba
Ġhar ada
Ġcystaden oma
Ġhypersomn ias
Ġoculo aur
ovag in
Ġpolys er
Ġnonp olyposis
Ġtetra ple
obulin emic
Ġcatat onic
Ġotor enal
Ġtard a
Ġamin otransferase
Ġvalg as
ioneuro blastoma
Ġchem otherapy
aff in
Ġappend age
Ġom phalocele
Ġsag uen
Ġtons il
Ġpannicul itides
Ġmacrogl obulinemia
Ġpseudotum ors
Ġcaf e
Ġbell y
Ġasc ites
Ġpolyd ip
Ġarterioscler otic
Ġpil ocytic
Ġexfol iative
Ġthromboph lebitides
Ġcartil aginous
Ġgastroenter itides
Ġplasm odium
Ġmus icogenic
Ġmass eter
Ġflex ib
Ġpall id
Ġstrept ococcus
Ġprotozo an
Ġdysprax ias
Ġra ynaud
Ġhyperl ys
Ġhyperkal emic
Ġwart s
Ġtour aine
Ġchoriore tin
Ġbronchiol o
Ġhyperinsulin emic
Ġbrux isms
Ġoroph aryngeal
Ġsymmetric al
Ġambly opias
Ġirid ogoni
Ġplan us
Ġgastr itis
Ġlem li
Ġspi roch
Ġextram edullary
Ġfulm inant
Ġfulm inating
Ġhor se
Ġvip oma
Ġneurile m
Ġpharyngo esophageal
Ġtap et
Ġdist emper
Ġdysg raph
Ġthre e
Ġbrun s
Ġech o
Ġsphen oid
Ġirr itant
Ġtrache obronch
Ġvitreoretin opathy
Ġili ops
Ġwag r
Ġsat urn
Ġactiv ator
Ġeros ion
Ġautoinflamm atory
Ġcic atric
Ġpector is
Ġhyg roma
Ġmalt ase
rosarc oma
Ġintes tines
Ġacromegal y
oj ejun
Ġfis her
ysp ondyl
Ġchil aid
Ġanos mia
Ġstre ak
Ġadduc ted
Ġpericard itis
teg ration
Ġreciproc al
Ġambigu us
Ġfum aryl
Ġlaur ence
Ġerythrocyt osis
Ġguill ain
acetoac etase
Ġtouret te
Ġsitu ational
Ġbit emporal
Ġventil ator
Ġeis enmen
Ġhyperox al
Ġplat yspondyl
Ġmidb rain
Ġbronchiect asis
Ġkrabb e
ozyg ous
Ġhyperammon emia
Ġsug ar
Ġmtd ps
Ġrag ged
Ġdebran cher
Ġantis ocial
Ġmyh re
Ġhypereosinophil ic
Ġkell y
Ġlipoat rophic
Ġagangl ionosis
Ġintracellular e
Ġmarote aux
Ġpolycyth emia
Ġextras yst
Ġseborrh e
illed ema
Ġsacro ili
Ġfores tier
Ġpromin ent
Ġmacrothromb ocytopenia
Ġull rich
Ġest rogen
Ġpir iformis
Ġpedi atric
lepha ron
embran ous
Ġinde x
Ġbins wang
Ġruv alcaba
Ġdetr usor
Ġcholes teat
Ġcontig uous
Ġeurop ean
Ġhypergl obulinemic
Ġreconstit ution
Ġtrena unay
Ġamphet amine
Ġintellect ual
Ġtranspor ter
Ġscald ed
Ġagain st
Ġapolip oprotein
Ġvertigin ous
Ġspondylocost al
Ġpreinfarc tion
Ġoverlo ad
Ġfoodbor ne
Ġsaguen ay
Ġiliops oas
Ġfumaryl acetoacetase
a ired
b e
b ut
b org
c ar
c ular
d ino
e us
f il
f ting
g h
g ers
g aris
h an
i qu
m o
m ic
m et
n p
o on
o roid
t ac
u it
u ese
u tier
u eller
v ens
v enth
x x
z a
Ġ 0
Ġ itch
al es
al ign
al gias
ro ugh
in i
Ġs us
Ġs ed
Ġs ting
Ġd end
Ġd ural
Ġd rop
Ġd ors
Ġd yx
Ġd irect
en i
en osis
en ostomy
on yl
on tal
on vulsive
Ġc f
Ġc od
Ġc ps
Ġc igu
ar ch
is sion
Ġp i
Ġp ic
Ġp om
Ġp ec
Ġp ep
Ġp dh
ic ation
an o
an ur
os ider
or tion
or etic
or he
Ġm adel
Ġm obility
Ġm ng
Ġm afd
om eta
om phal
Ġt n
Ġt ob
Ġt og
Ġt ab
Ġh b
Ġh ant
Ġh og
le od
Ġn em
Ġn id
Ġn ucle
Ġn adh
ia b
Ġdis m
ed o
it or
it ting
it amin
Ġin ner
Ġin organic
op ard
Ġf ec
Ġf uk
Ġf undus
Ġb c
Ġb es
Ġb ra
Ġb ase
el sen
el berg
ys ip
Ġl ad
Ġl ub
Ġl ock
Ġl dl
ac ob
Ġr ic
Ġr eb
Ġr end
Ġr ams
Ġde aminase
il der
ol on
ol aryngeal
Ġhyp t
am a
am e
Ġch ag
ig er
Ġinf und
Ġan ib
Ġan aphyl
Ġan onychia
Ġcon radi
ran encephaly
ot es
ud ness
ud ley
Ġe k
Ġe ph
ag ni
Ġle opard
Ġhyper emia
Ġhyper phosph
Ġsp ik
Ġsp arse
ost oma
Ġneuro endoc
Ġneuro dermatitis
Ġneuro dermatitides
yl omicron
Ġw el
Ġw bs
ad s
Ġat tr
ob lepharon
yst ectomy
Ġal acr
Ġhem ostatic
Ġk au
Ġad ne
ron uclear
Ġlymph oretic
Ġre ent
Ġre ticular
ib itor
Ġleuk emic
if orn
if ying
Ġab uses
Ġj erv
Ġj acob
re y
re tinal
Ġ4 8
Ġse venth
ov es
Ġas eptic
Ġph ac
Ġph yt
Ġph yll
erm an
Ġtr iple
tis ing
Ġex er
Ġex otrop
Ġex omphal
oth orax
Ġret ention
Ġim mer
Ġencephal oceles
Ġpost v
Ġpal at
yc ephal
ment ary
Ġbl ister
Ġchrom osomes
oh em
Ġsub lux
Ġpa v
Ġnon t
Ġnon organic
Ġ5 0
Ġ5 3
Ġbr ittle
Ġfib romatoses
oste olysis
Ġcol us
Ġsh print
Ġaden osine
Ġoste odystrophy
Ġoste osclerosis
Ġlip oma
Ġlip odystrophies
och oroid
rop ic
Ġcyst athion
Ġer ysip
Ġmyel odysplastic
Ġang el
lic es
Ġfr ench
Ġmic rop
Ġsch ueller
est one
Ġend olymph
Ġthromb oembolism
Ġtrans aminase
Ġco ordination
Ġo ro
Ġtub ul
Ġmon one
Ġhead ed
ri e
ay an
Ġcent r
Ġcent ronuclear
Ġderm oid
Ġins ect
ert rophy
Ġcat aple
Ġpneum ocephal
Ġangi omas
Ġneph rocalcinosis
Ġanomal ous
Ġcr iss
Ġcr isis
uct ural
ug uese
ind ler
rad ren
vul us
Ġcal v
Ġcal iforn
Ġaph onia
orph ous
Ġperiod ont
Ġphosph atase
Ġpsych os
Ġcleft s
yph en
Ġro l
Ġro bert
Ġey es
Ġmes oblastic
Ġkerat oses
Ġen ur
uff y
Ġichthy oses
Ġmel nick
Ġmo on
osp inal
Ġshort ness
Ġenter ocolitis
he im
arth ritides
Ġhemangi omatosis
ans en
Ġimp aired
Ġstr uctural
Ġduct us
bl estone
Ġz en
nes ium
Ġcalc ifying
Ġmyc oses
Ġhydrox yphen
Ġcrani omandibular
Ġsal dino
Ġrem itting
ier e
ier i
Ġmer osin
Ġtrich o
Ġtrich orhin
Ġsynth esis
Ġnons pher
Ġve ins
Ġaud iogenic
Ġhypothalam us
Ġhepat orenal
Ġmigra tions
Ġlo udness
Ġach romatopsia
rov iridae
Ġatt achment
Ġni elsen
Ġbow en
Ġmedull oblastomas
Ġleukoencephal itides
Ġbur ns
ater a
Ġgu inea
Ġvas ospasm
Ġvas ospasms
Ġvas oplegic
Ġmicrophthalm os
Ġneurom yelitis
Ġextra py
Ġchondrod ystrophy
acc o
Ġvul garis
Ġdysph agia
Ġage us
Ġgonad otropin
Ġme ig
Ġme val
Ġdisc s
Ġerythroderm as
Ġamnes ic
Ġste ely
Ġste vens
Ġprot op
Ġcil ia
Ġscot t
Ġosteoarth ropathies
Ġepithel ium
Ġpolyp oses
Ġgo utier
Ġcoll oid
Ġcoll ins
Ġspg f
Ġodont oma
Ġankyl oblepharon
rog yria
Ġrub ra
Ġlev y
Ġargin ase
Ġshe ep
Ġhid radren
Ġald rich
lu ent
Ġcog an
Ġasym met
Ġmucolip idoses
Ġfati g
Ġind irect
Ġpemphig oids
oendothel ioma
Ġhm gic
Ġgr isc
Ġsol id
Ġterat omas
Ġhur st
Ġhemian opia
Ġhemian opias
Ġhemian opsia
Ġhemian opsias
ozo a
enz yme
Ġhodgkin s
roditis ms
Ġcross ed
Ġhyperch ylomicron
Ġnonc onvulsive
Ġadhes ions
Ġhar lequin
Ġwell s
Ġcystaden omas
Ġdiast olic
Ġtak ayas
Ġleak age
Ġkyph oses
Ġkyph osc
enstr ual
Ġmicro angiopathic
Ġcitrull inemias
obulin aemia
Ġcatat onias
Ġoligodendrogl iomas
Ġmyokym ias
Ġrich ieri
Ġhyperth yroidism
Ġsupra valvular
Ġelect ro
Ġconstric tion
Ġependym omas
Ġmacul opathy
Ġcop rop
ofol lic
Ġmacrogl obulinaemia
Ġinh ibitor
Ġvol vulus
Ġarterioscler osis
Ġsan fil
Ġmod if
Ġmcop s
Ġhamm ond
Ġbal tic
Ġtay bi
vn ikov
Ġnor th
Ġaltern ating
Ġpoor ly
Ġvagin itides
Ġbulb ospinal
Ġbronchiol itides
Ġoroph arynx
Ġendometri um
Ġfusari osis
Ġfusari oses
equ al
Ġcav us
Ġhdl cq
Ġinfluenz a
Ġproger oid
Ġleukopl akia
Ġnonf amilial
Ġnonf luent
Ġprote us
Ġthrombocyth emias
Ġclub foot
Ġechinococc osis
Ġport uguese
Ġtal ip
Ġthom sen
Ġprocess ing
Ġmonil iasis
Ġneurile mm
Ġverruc ous
Ġkel oidal
Ġmetat arsal
Ġesotrop ia
Ġesotrop ias
Ġcraniopharyng ioma
Ġcraniopharyng iomas
Ġfasci itis
roblast oma
Ġmicroangi opathy
Ġmicroangi opathies
Ġcow den
Ġmicrod ontia
Ġstimul ating
Ġell ipt
Ġcri tical
Ġkl ump
Ġstrict ure
aj o
Ġti etz
Ġmag nesium
Ġnecro tising
Ġmorg agni
Ġdermatomy ositis
Ġequin us
Ġappar ent
pyr uvate
Ġcob blestone
Ġgood man
Ġconverg ence
agon oma
ophalang eal
Ġcarol i
Ġchondromalac ia
Ġmethylglutaconic aciduria
Ġtymp anic
Ġtest es
Ġfemin ization
Ġlig ament
oduod enostomy
Ġew ing
Ġreckling hausen
Ġcholang itis
ammaglobulin emias
inhib ition
Ġigh d
ineral ization
Ġclic k
Ġmarg inal
Ġnic otine
Ġbm iq
Ġhypoh id
Ġoch ron
Ġintoxic ation
Ġscr atch
Ġcryst all
Ġrous sy
Ġaneup loid
Ġhypoten sions
Ġzellw eger
Ġpseudohypop arathyroidism
Ġrestric tive
Ġconsump tion
Ġdihydrop yr
uel an
Ġow ren
Ġdow ling
Ġhak im
Ġarb ovirus
Ġexpos ure
Ġheredit aria
Ġschm id
Ġtuber ous
Ġpancyt openia
Ġvenez uelan
Ġpyridox ine
Ġpachyg yria
Ġnaeg eli
Ġiridogoni odysgenesis
ojejun ostomy
align ment
Ġcigu atera
Ġmadel ung
Ġtob acco
Ġrend u
Ġrams ay
Ġchag as
Ġinfund ib
Ġhyperphosph at
Ġneuroendoc rine
Ġadne x
Ġjerv ell
Ġphyll odes
Ġexotrop ia
Ġexomphal os
Ġimmer sion
Ġshprint zen
Ġerysip el
Ġendolymph atic
Ġpneumocephal us
Ġcaliforn ia
Ġtrichorhin ophalangeal
Ġnonspher ocytic
Ġextrapy ramidal
Ġgoutier es
Ġgrisc elli
d ig
e uk
f ec
f unction
f usions
f ord
g o
g ot
g da
i h
i ent
i ver
k us
k it
l an
l onus
n o
n y
n ik
n aviridae
o immun
p ase
p rop
p ontine
r es
r ell
r ion
s c
s p
s ug
u ent
v r
y os
z y
z ation
z iger
Ġ rom
Ġ enc
Ġ ub
al i
ti um
er ary
er kal
ro y
ro om
ro tal
in ar
in ia
Ġs d
Ġs o
Ġs ut
Ġs na
Ġs ores
Ġd d
en ed
en ohumeral
as mus
on im
on ym
on ium
on izing
Ġc ac
Ġc um
Ġc oh
Ġc ann
Ġc pt
Ġc acch
ar n
ar us
ar et
ar ate
ar rhythm
es co
Ġp ock
Ġp itt
Ġp its
Ġp kd
Ġp uerperal
ic z
ic us
at ose
os yn
os oma
os edi
or ia
or ed
Ġm h
Ġm v
Ġm ol
Ġm un
Ġm iosis
Ġm cd
Ġm ush
Ġm ks
Ġm umm
om ial
om otic
om embranous
Ġt od
Ġt rous
Ġt amp
Ġt emper
Ġh op
Ġh eal
Ġh ay
Ġh yt
Ġh off
Ġa at
Ġa zo
le aved
Ġn r
Ġn av
Ġn emat
Ġn aff
ia ting
Ġsyn ch
Ġdis prop
ed y
it as
Ġin iti
Ġin ad
Ġin tract
Ġin equal
op tic
op ur
op apular
Ġf m
Ġf ox
Ġb ud
Ġb ang
Ġb ert
Ġb az
ys plasias
ys titis
Ġl c
Ġl u
Ġl is
Ġl um
Ġl ysis
Ġl amin
Ġl und
Ġl aw
Ġl ayer
ac tic
ac il
Ġr cd
Ġr ash
Ġr apid
oc omial
ur nal
ur ida
Ġde w
id urias
il ic
ec ial
Ġg on
Ġg nath
Ġg raden
ol der
ol ateral
ve x
ent ulous
et ti
et ast
th le
um erary
ut am
ut sug
Ġv itus
Ġhyp om
Ġhyp ob
Ġhyp opharyngeal
am y
am ush
Ġch ds
Ġch udley
im ination
ell ing
Ġan ast
Ġan ore
Ġan ca
Ġcon vex
Ġe a
Ġe hr
ym a
ir rh
Ġmy ofacial
Ġhyper v
Ġsp r
Ġsp ider
Ġst ab
Ġst ability
Ġst abilities
Ġw t
Ġw ea
Ġw ood
ad al
Ġat el
Ġat od
Ġat fb
Ġi onizing
ob ius
Ġpar is
Ġpar tum
oplasm ic
Ġinfec ted
Ġep m
Ġal ter
Ġal euk
Ġhem ipar
Ġhem osider
Ġar en
Ġar md
Ġad vanc
plas m
Ġth ec
Ġth erapeutic
ron t
Ġlymph otropic
Ġlymph omatoid
oph an
Ġ3 9
Ġpro thrombin
Ġpro wer
Ġgl m
Ġgl enohumeral
Ġper ia
Ġper im
Ġper ineural
Ġper vasive
Ġre versible
og rade
og nath
Ġher man
Ġleuk omalacia
Ġleuk omalacias
ach ond
ens tein
Ġdyst rophia
Ġj oh
Ġj anz
Ġcom atose
Ġ4 4
Ġ4 9
Ġse z
Ġas rt
tib ial
ink ing
Ġam put
Ġam enorrhea
ogen etic
oth oracic
oth ymic
ax is
ax ia
Ġpost men
Ġpal ms
kin s
se g
se au
Ġbl unt
oh isian
Ġoc a
omat ernal
Ġ5 9
ening eal
Ġbr gda
Ġgen omic
Ġgen ome
gr uent
Ġop a
Ġop soc
och le
st able
Ġmyel ofib
Ġmening omyel
iv al
Ġfr as
Ġfr ider
Ġis oimmun
Ġsch ilder
Ġthromb asthenia
Ġtrans fusions
Ġco arse
Ġco enzyme
Ġsc rotal
Ġsc irrh
Ġag g
Ġag m
ak a
Ġpseud oc
Ġscler osus
ich ia
Ġassoc iative
Ġcent er
Ġun stable
Ġpo int
Ġnerv osa
Ġgran ule
lex ic
Ġcat tle
Ġcl l
Ġdi ph
Ġdi etz
Ġdi urnal
Ġob l
Ġob li
Ġeryth rocyte
ose xual
Ġcr ushing
ophil ias
Ġhypoplas ias
Ġintra abdominal
Ġmuc oep
Ġauto kinetic
Ġes cher
Ġdiabet e
Ġov al
Ġmalform ed
Ġcal ici
amin a
Ġtubercul oid
Ġpap illedema
Ġsup pr
Ġsup ern
Ġspin o
Ġnod al
Ġphosph olipid
Ġves ical
Ġocul opharyngeal
Ġpsych osexual
etal es
Ġchor io
romat ous
Ġro kit
Ġprol ifer
Ġprotein s
Ġepiderm oid
Ġmes enter
Ġmes enchymal
Ġlow e
Ġver nal
Ġhisti d
Ġ13 5
Ġext ensi
Ġsep to
Ġmar tin
Ġmar kes
Ġgal en
Ġhern iated
Ġpalm aris
Ġinc o
Ġbronch ogenic
Ġpoly ostotic
Ġy in
ait ser
Ġhall ermann
Ġgalact orrhea
Ġspondyl osis
bl att
icular is
Ġsim ian
Ġpy elect
Ġpy kn
Ġz on
Ġox yph
Ġcrani ometaphyseal
ulf ov
Ġprost atitis
Ġbas ement
Ġtrich in
Ġtrich omonas
Ġqu erv
obacter ial
ypt ophan
Ġthrombocytop enias
Ġot osclerosis
Ġot olaryng
Ġmor ax
Ġbar aitser
Ġanti phosph
Ġble ed
Ġgingiv itides
Ġcm m
Ġmyot ubular
Ġpat ellar
Ġdiss ec
Ġsulf atid
Ġdysm et
Ġbranch ed
Ġden tine
ech iae
Ġprolap sed
Ġmid f
Ġach es
Ġgro ove
Ġcyt ogenetic
phal ipoproteinemia
Ġgenital ia
rob ial
ars k
ars eness
Ġket oglut
pl enia
Ġed entulous
Ġav ascular
Ġrod ent
Ġdes ulfov
Ġpapill itis
Ġvas a
Ġreticul um
Ġextra ocular
Ġextra pontine
Ġout put
ash i
Ġtre acher
Ġrhin itides
Ġath le
Ġaur iculo
Ġgest ural
Ġmycobacter iosis
ust ment
Ġherpes virus
erc ular
Ġatri ohisian
asm idia
arathyroid isms
Ġpag ets
Ġmc c
Ġmc kus
Ġana gen
Ġover active
Ġste in
Ġpseudohyp erkal
Ġsequ est
Ġpolyp loid
Ġsial ic
Ġeff ects
Ġankyl oses
Ġmeta plasia
Ġcolob omatous
glyc inuria
Ġinvol untary
Ġrub instein
Ġpolym yositis
Ġcirrh oses
Ġvisc er
Ġlab hart
Ġadh d
Ġembry o
Ġextrem ely
Ġhom onym
Ġanal ges
Ġecz emas
Ġlen z
Ġlen ticular
Ġald osterone
Ġpor encephaly
Ġel astic
Ġant ral
Ġacanth ocytosis
Ġoliv o
Ġosteopo ikil
Ġacetyl gluc
Ġgr inding
Ġparag onim
Ġchl oride
Ġplantar is
Ġseptic emia
Ġcirc adian
Ġobes ities
Ġweight s
Ġtin ea
Ġpolyradicul opathy
Ġpolyradicul opathies
Ġfor amina
Ġschist osoma
Ġorth omyx
Ġmut ase
Ġsil o
Ġsomat otropin
Ġnarc otic
Ġbab es
Ġnonc leaved
Ġsurg ery
ocl avicular
Ġapp ear
Ġonych odystrophy
Ġonych odysplasia
Ġmole cular
Ġstri ata
Ġdiast asis
Ġtak o
Ġlenti gin
Ġlymphangi oma
Ġpet ers
Ġbro ken
Ġrich ard
Ġsple ens
glut aric
Ġsupra ventricular
Ġganglion ic
Ġvaric ose
Ġphenylketon urias
Ġcycl othymic
Ġho arseness
Ġnan ophthalmos
Ġelect ric
Ġconstric tive
Ġcur sive
Ġts ubo
Ġts utsug
Ġmacul opapular
Ġon c
Ġfre y
Ġschizophren iform
Ġeth m
Ġhh t
Ġhel ic
Ġhypocal ciuric
Ġhypokal emia
Ġasc ar
emb erm
Ġleishman iases
Ġhypercholesterole mias
Ġunc ompens
Ġcoc cid
Ġpust ulosis
Ġhyperkal emia
Ġbulb o
Ġneed le
Ġarticul atory
Ġendometri oid
Ġanter ograde
Ġadip ic
Ġleukopl akias
Ġphys ical
Ġretro verted
iculo vertebral
Ġhidraden itis
Ġmegakary oblastic
Ġhemicran ias
Ġta ylor
Ġfur row
Ġfet omaternal
Ġlem ierre
Ġprote ostasis
Ġide omotor
Ġide ational
Ġextram ammary
Ġchlamyd ophila
Ġatheroscler oses
Ġechinococc oses
Ġcas pase
Ġthom son
Ġaccid ental
Ġmultisystem ic
Ġkin esthetic
Ġthre at
Ġxii i
Ġchore atic
Ġcytomegal ic
Ġcytomegal ovirus
Ġbroc a
Ġalve olitis
Ġisomer ism
Ġmicrom elic
Ġmicrom etast
Ġstimul us
Ġten osyn
Ġfer tility
Ġgyr ate
Ġgaz e
Ġgaz ali
Ġloe ys
Ġloe ff
Ġcholec ystitis
Ġpasteur ella
Ġotorhinolaryng ological
Ġotorhinolaryng ologic
bum inemia
pen ning
Ġmend el
Ġfiss ure
iderm oid
Ġverm icularis
Ġare olar
Ġgli oblastoma
Ġsche ie
Ġnecrob iotic
Ġsarcoid osis
Ġhyperalg esia
Ġmethylcrotonyl glycinuria
Ġdur ing
Ġcof actor
Ġaor titis
Ġfle a
Ġalkal osis
Ġkenn edy
ograph ic
Ġmanson i
Ġmercurial ism
Ġacetylgalact osaminidase
Ġpont o
Ġeg g
Ġstomat ognath
Ġaltit udinal
Ġimbal ance
Ġflo or
Ġtachyp nea
Ġsialaden itis
Ġthyrot oxic
Ġmandibul ofacial
Ġdyssynerg ia
Ġmicronucle i
Ġcant rell
Ġlep romatous
oxyl ate
Ġcaud al
Ġsarcogl ycan
Ġholm es
rel iosis
Ġbp es
Ġstu art
Ġaref lexic
Ġadj ustment
Ġprem enstrual
Ġfreck le
Ġmaxill ofacial
Ġhelminth iasis
Ġpredis position
Ġdext roc
Ġmeas les
Ġnos ocomial
Ġfal se
Ġfab ry
Ġbin asal
Ġvib ration
Ġwhe at
Ġthorac o
Ġpostencephal itic
Ġisa acs
Ġpostin fec
Ġverlo es
Ġmarin esco
Ġgier ke
Ġdupuy tren
Ġpyel oneph
Ġpyrex ial
rinogen emia
Ġcicatric ial
Ġchilaid iti
Ġeisenmen ger
Ġhyperoxal uria
Ġseborrhe ic
Ġbinswang er
Ġdend ritic
Ġpic orn
Ġhant avirus
Ġdism emberm
Ġfec d
Ġreb ound
Ġwel ander
Ġexer tional
Ġcataple xy
Ġkyphosc oliosis
Ġsanfil ippo
Ġmodif ier
Ġtalip es
Ġklump ke
Ġdihydropyr imidine
Ġadnex al
yos hi
Ġsna ke
osedi phosphatase
Ġmush room
Ġtrous seau
Ġtamp onad
Ġtemper ature
Ġazo ospermia
Ġnav ajo
Ġnaff ziger
Ġdisprop ortion
Ġintract able
Ġbert rand
Ġlamin ar
Ġlund borg
amush i
Ġanast omotic
Ġehr lich
Ġwea ver
Ġadvanc ed
Ġpostmen opausal
Ġopsoc lonus
Ġfrider ichsen
Ġscirrh ous
Ġobli que
Ġmucoep idermoid
Ġescher ichia
Ġsupern umerary
Ġrokit ansky
Ġextensi vely
Ġantiphosph olipid
Ġketoglut arate
Ġmckus ick
Ġpseudohyperkal emia
Ġhomonym ous
Ġanalges ic
Ġacetylgluc osamine
Ġappear ance
Ġtsutsug amushi
Ġtenosyn ov
Ġstomatognath ic
Ġpostinfec tious
b ur
b ite
b eh
d r
d in
e v
e on
e orge
f av
g m
g n
h of
h ers
i eth
k ott
l l
l ak
l enia
n us
o tia
o tile
p k
p ox
r is
r elia
s n
s z
s ack
t ation
t omia
u ated
u ill
v s
w ater
x osidase
y le
y ric
y han
Ġ time
er up
ro duc
Ġs ic
Ġs un
Ġs uc
Ġs ap
Ġs yd
Ġs ry
Ġs ister
Ġs oul
Ġd ub
en e
en ou
en uated
as emia
Ġc c
Ġc n
Ġc en
Ġc ad
Ġc ush
Ġc off
Ġc roup
Ġc vid
is tr
es mann
Ġp ed
Ġp ent
Ġp ental
Ġp cc
Ġp bc
Ġp uffy
Ġp utam
an ol
an tin
at oses
at abolic
os ity
Ġm m
Ġm os
Ġm ies
Ġm ea
Ġm ert
Ġm cal
Ġm iss
Ġm ik
Ġm hs
Ġt on
Ġt dh
Ġh ies
Ġh sd
Ġh utter
Ġh isian
Ġh prt
ph yx
Ġa gen
Ġa ural
Ġa romat
Ġa plastic
Ġa wareness
Ġa yer
le af
Ġn ile
Ġn yc
Ġn atal
Ġn ckeberg
Ġn yhan
ia fav
ul oplasm
ul itides
ul man
us is
ed er
ed ia
ed don
it able
it udinal
op o
op y
op py
op enias
op terin
yp ass
Ġf ig
Ġf olic
Ġf hl
Ġf ord
Ġf air
Ġf itz
Ġf ecal
Ġf uj
Ġb h
Ġb ic
Ġb ann
Ġb ony
Ġb aker
Ġb ypass
el on
el ast
el me
Ġl m
Ġl ut
Ġl ok
Ġl ux
Ġl osing
Ġl utz
Ġl vn
ac ral
Ġr ls
Ġr ussi
Ġr asmus
oc onus
oc apillary
Ġde cal
Ġde position
Ġde glu
il ian
Ġg em
Ġg ass
Ġg utt
ol us
ol op
ol mia
ep iderm
um eni
Ġv ers
ra e
Ġhyp ochromic
am i
am ylase
Ġdys th
Ġdys ch
Ġdys chond
Ġdys seg
Ġch er
Ġch ot
si le
im ia
im ent
oma virus
ell ig
un ning
ing er
Ġcon us
Ġcon otr
uc ous
Ġac s
Ġac tion
Ġac amp
roph ag
Ġe ec
Ġe uth
ym ethyl
Ġmy opias
Ġmy omelan
Ġhyper and
Ġhyper plastic
Ġhyper kerat
Ġhyper esthesia
Ġhyper aldosteronism
Ġhyper esthesias
Ġsp ur
ost rong
Ġneuro beh
yl v
Ġst eph
Ġst ap
Ġw ard
Ġw ine
Ġw iss
Ġw ester
Ġw ander
Ġw ieth
ob ut
Ġpar ad
ymph oblastic
ip a
ip pl
Ġhem imotor
Ġk as
Ġk ink
Ġk och
Ġk uster
Ġpr ing
ron eph
Ġcell ulitis
ver leaf
Ġpro per
ati s
Ġgl anz
Ġre gr
uk i
uk enberg
og n
Ġleuk osis
Ġleuk oses
ens is
encephal itis
Ġj ew
re h
ang ial
Ġcom pr
iz ontal
Ġmal occl
ap se
ne uro
Ġhe ub
Ġas h
Ġas phyx
Ġph a
Ġph p
yd actyl
Ġtr yptophan
ox y
ox anthoma
ab as
ab is
ill es
Ġret rob
mun d
Ġcor e
Ġmul tin
ion yl
Ġpal atal
yc e
Ġii ic
oh ep
omat osa
Ġnon inf
Ġnon epiderm
Ġmet al
ow itz
Ġcol itides
Ġsh fm
Ġsh ield
Ġsh oke
Ġaden yl
Ġop erative
Ġop tb
Ġop ales
Ġperi os
Ġoste oma
Ġoste omas
Ġoste osarcoma
Ġoste oclastic
Ġlip omas
Ġlip osarcomas
ke w
ke y
rop ion
st orp
Ġcyst oid
Ġsens iti
Ġmyel omas
Ġmyel opathic
Ġmyel oblastic
Ġmyel odysplasia
Ġmyel omening
Ġmening oceles
Ġid enti
erg er
Ġis land
Ġsch oen
Ġsch amberg
ly te
Ġthromb us
uv ic
Ġpseud oxanthoma
Ġo at
Ġscler ae
Ġscler ocystic
Ġacid oses
Ġmon oblastic
Ġmon oplegic
Ġmon ckeberg
Ġap op
ers tein
Ġun ipolar
Ġpo roma
Ġhyd ranencephaly
Ġhyd roneph
angi ocapillary
Ġ7 9
Ġcle fting
ert on
yr yl
rox y
Ġcl a
Ġcl in
Ġcl inical
Ġangi osarcoma
Ġangi okerat
Ġneph ros
Ġnec rol
Ġcer ule
Ġcer amide
Ġcar ies
Ġsec kel
Ġsm ed
ogl ycer
Ġintra osseous
Ġinter se
Ġchild ren
Ġgranul omatosa
ios keletal
Ġov otes
Ġol l
Ġha e
Ġfl oppy
Ġ9 1
Ġretin oblastomas
Ġsup pression
Ġdr inking
iform e
itu ation
Ġpsych iatric
Ġlimb ic
thy retin
Ġall odynia
Ġall oimmune
Ġval ley
Ġbrach ydactyl
Ġmes ial
Ġmes angial
Ġmes angiocapillary
Ġkerat oconus
ele tion
Ġver y
Ġpanc oast
Ġneur inoma
Ġparkinson ian
Ġec lampsia
Ġsep tum
Ġenter itides
Ġfol ling
ok ed
Ġasp lenia
he xosidase
Ġdehyd roch
Ġpoly omavirus
Ġreflex es
Ġdeform ing
Ġy ang
Ġbacter emia
Ġhemangi oper
Ġgluc osamin
Ġimp act
Ġspondyl itis
Ġduct ular
Ġemb olus
Ġpur ulent
til aginous
Ġrecurr ence
Ġrecurr ences
Ġhydrox ymethyl
Ġcystic erc
Ġdig eorge
Ġmethyl mal
Ġmer kel
Ġpseudo achond
Ġprost atitides
Ġherp eti
Ġbor relia
Ġloc omo
Ġgra vid
Ġot sc
Ġhorm onogenesis
Ġtrig on
Ġmyot onias
Ġcrypt ophthalmos
yel ocytic
Ġpat ell
Ġcox pd
Ġcox sack
Ġjoint s
Ġmin eral
ber y
ech t
Ġcdg i
Ġplas min
Ġgro enou
olester ol
Ġcyt os
Ġatt enuated
Ġple urop
rob i
oneph osphate
Ġlam bd
pl t
Ġav ium
Ġpapill itides
Ġhyperlip emia
Ġhyperlip idemias
Ġsubc orneal
Ġcomplic es
Ġrep roduc
Ġvas ogenic
Ġvas ovag
Ġhernia tions
edi ens
Ġreticul osis
Ġreticul oses
Ġup sh
Ġconcus sions
Ġlong itudinal
Ġnoctur nus
Ġdissemin ata
Ġhun ermann
Ġtelangiect asias
Ġaur ic
Ġperit onitides
Ġtox emia
Ġme ier
Ġme ara
Ġme esmann
Ġatri o
Ġvestibul opathy
Ġmc ph
iter ans
Ġover activity
Ġste atosis
Ġcommunic ating
Ġros ai
Ġmen iere
Ġcoll i
arb amylase
Ġand rade
Ġneurot rophic
Ġodont omas
Ġfel ty
Ġhypop igmentation
Ġendothel ioma
Ġmat ern
Ġrub ella
Ġmyx omatous
Ġblepha rop
Ġembry onic
Ġlich the
Ġamb ulation
Ġlys ine
Ġgamm opathy
Ġdysenter iae
Ġmetach ronous
Ġuve itides
Ġtw ins
Ġtur c
Ġlipoprotein emias
Ġtyros ine
Ġacanth oma
Ġacro osteolysis
Ġxy y
Ġhyperp igmentation
ophys ial
oendothel iomas
Ġgr uber
Ġdiaphrag m
Ġmas titis
Ġhur thle
Ġhemian opic
Ġseptic aemia
Ġlichen oides
Ġsem d
Ġbi phosphate
Ġtri hexosidase
Ġleiomy oma
Ġschist osomiases
Ġneuroc yt
Ġhab ituation
avior al
Ġblast omycosis
Ġdeficit s
phalang y
Ġorgan izing
Ġri ver
Ġosteochond roses
Ġosteochond rodysplasia
Ġholopros encephalies
Ġcephal gia
Ġcystaden ocarcinoma
Ġcystaden ocarcinomas
okal emic
Ġarrest s
Ġanhid rosis
otyp es
Ġhemi hyp
Ġpolys plenia
Ġtetra hyd
Ġfir e
ocyst e
Ġhydroxy glutaric
Ġsn eddon
Ġamin oac
Ġvalg um
Ġvaric ella
Ġvaric elliform
hr ig
Ġcycl ic
Ġline age
Ġwall enberg
Ġprop ionyl
Ġom odysplasia
Ġurid yltransferase
Ġhemis p
Ġmacrogl ossia
ou zy
Ġhh f
Ġhypocal cemia
Ġhypocal ciuria
Ġquadr iplegia
Ġarterioscler oses
Ġcp eo
Ġmod els
Ġns rd
Ġsubm ucous
insk y
Ġmarch iafav
Ġketoac idosis
Ġunc inate
Ġprom yelocytic
Ġflex or
uron idase
Ġwr iting
Ġpall ister
Ġmatur ation
Ġpud lak
Ġimm ediate
Ġimm otile
Ġgold blatt
Ġgefs p
Ġmu til
Ġfran c
Ġfran k
Ġinfluenz ae
Ġempy emas
Ġgynec ologic
Ġcro hn
Ġspi elme
Ġmuscul orum
Ġdetachment s
Ġdsd s
Ġhor izontal
Ġge ographic
Ġge hrig
Ġenlarg ement
Ġphaeohyph omycoses
Ġhist ological
Ġbd plt
Ġbun ion
Ġland ouzy
Ġdev iation
iltra ting
Ġphob ia
Ġcaps ular
roblast omas
Ġirr itable
Ġgam storp
Ġalve olitides
Ġlymphangiect asia
Ġprogr essi
Ġmetast asis
Ġcolic s
Ġpolyneur itic
Ġreduc tion
Ġnorm okalemic
Ġfrom mel
Ġmarfan oid
Ġsphing omyel
Ġventricul omegaly
Ġhemiat rophy
Ġstrict ures
bum inemic
Ġlegion na
Ġxanthogranul omatous
Ġmegac olon
Ġpig eon
uli ar
Ġla ron
Ġhypomyel inating
Ġnonl ymphocytic
Ġnonl ymphoblastic
Ġtransc arbamylase
Ġhydroc eles
Ġbrachym es
Ġseropos itivity
Ġgangliogl ioma
Ġgangliogl iomas
Ġalternari osis
Ġalternari oses
Ġgalactosylcer amide
Ġgalactosylcer amidase
Ġdyscalcul ia
Ġdyscalcul ias
Ġsen ior
Ġhard ing
Ġaort a
chol ine
Ġepic anthus
Ġpauc i
Ġserocon version
Ġsplen omegaly
haus er
Ġmi yoshi
Ġhyperc atabolic
Ġhyperimmun oglobulinemia
Ġwin ter
Ġlymphogranul oma
Ġoculocereb rorenal
Ġbrachy olmia
Ġkeratoconjunctiv itis
Ġengel mann
Ġpolymic rogyria
Ġkoj ew
Ġprosopagnos ia
Ġquadriple gic
Ġelephanti asis
Ġaqued uctal
Ġak athisia
Ġnond is
Ġdistin ctive
Ġfrax e
Ġinfiltra tive
Ġstart le
Ġwis kott
Ġparv ovirus
Ġalper s
Ġkr ukenberg
Ġkary otype
Ġexst rophy
Ġagranul ocytosis
Ġclo verleaf
Ġmethem oglobinemia
Ġsimp lices
Ġathet oid
Ġelbow s
Ġhibern ation
Ġparainfluenz a
uan a
Ġsomn olence
Ġcub ital
Ġmec onium
Ġfra umeni
Ġbing e
Ġurb ach
Ġesthes ioneuroblastoma
Ġroth mund
Ġdesquam ative
Ġaspartyl gluc
Ġoculoaur iculovertebral
iqu itin
Ġdors al
Ġpec uliar
Ġalacr ima
Ġpav or
Ġpsychos ocial
Ġenur esis
Ġzen ker
Ġasymmet ry
Ġfatig able
Ġhyperchylomicron emia
Ġtakayas u
Ġelectro lyte
Ġellipt ocytosis
Ġhypohid rotic
Ġochron osis
Ġcrystall ine
Ġub iquitin
Ġso uth
Ġcoh en
Ġcann abis
arn yx
ored uctase
Ġmv cd
Ġsynch ronous
Ġlum py
Ġgraden igo
Ġhypob etalipoproteinemia
Ġanore xia
Ġspr ue
Ġhemosider osis
Ġsez ary
Ġobl iterans
Ġsuppr essor
Ġmesenter itis
Ġmarkes bery
Ġzon ular
Ġquerv ain
Ġelastic um
Ġosteopoikil osis
Ġrichard son
Ġdextroc ardia
Ġsyd enh
Ġsoul ier
Ġcush ion
Ġcoff in
Ġpental ogy
Ġmies cher
Ġhutter ite
Ġaromat ase
Ġford yce
Ġbann ayan
Ġlok en
Ġlvn c
Ġrussi an
Ġrasmus sen
Ġdeglu ti
Ġdysseg mental
Ġchot zen
Ġconotr uncal
Ġacamp omelic
Ġeuth yroid
Ġmyomelan ocytic
Ġneurobeh avioral
Ġstap es
Ġwander ing
Ġwieth e
Ġkink y
Ġproper din
Ġglanz mann
Ġregr ession
Ġretrob ulbar
Ġnoninf iltrating
Ġnonepiderm olytic
Ġshield s
Ġshoke ir
Ġopales cent
Ġidenti ty
Ġschoen lein
Ġcerule an
Ġovotes ticular
Ġdehydroch olesterol
Ġhemangioper ic
Ġglucosamin ide
Ġmethylmal onyl
Ġherpeti formis
Ġlocomo tion
Ġcoxsack ie
Ġreproduc tive
Ġvasovag al
Ġupsh aw
Ġlichthe im
Ġmarchiafav a
Ġspielme yer
a ins
b u
b ia
c ard
c ad
c opic
c itation
d yn
d em
d ing
e i
f ly
f ront
g th
h al
h em
h am
h iasis
h isti
h orn
i ef
j ective
l age
l och
l ers
m or
m etal
n ant
n atal
n ogenic
n uclear
n elia
o ro
o ix
o epithelial
o osseous
p c
p an
p ol
p et
p ric
p re
r uct
s in
s uit
t ter
t mann
u ys
u osity
u erstein
v t
v oix
w or
w ill
y ers
z ilian
Ġ uv
Ġ east
Ġ ito
al yc
al buminemic
ti de
er in
ro plastic
in opathy
Ġs s
Ġs ul
Ġs th
Ġs cl
Ġs ir
Ġs ak
Ġs uff
Ġs oles
Ġs ott
Ġs onne
Ġd g
Ġd os
Ġd ac
Ġd uc
Ġd ot
Ġd anc
Ġd ail
Ġd iple
Ġd erc
Ġd utch
en olep
on ema
on idal
on odular
Ġc i
Ġc row
Ġc bs
Ġc ada
Ġc gd
Ġc prs
Ġc jd
Ġc ylin
ar ation
ar pal
es us
es aur
Ġp m
Ġp v
Ġp end
Ġp ill
Ġp ow
ic idal
an ia
an ut
an ter
at om
at ter
os ep
os igmoid
or ary
or eg
or ectal
Ġm md
Ġm fm
om m
om ous
Ġt c
Ġt em
Ġt ular
Ġt angi
Ġt ort
Ġt ail
Ġt ors
Ġt au
Ġt sh
Ġt ylosis
Ġh ym
Ġh ag
Ġh one
Ġh fe
Ġh yb
Ġh istr
rom ial
Ġa is
Ġa it
Ġa utis
Ġa fib
Ġa arsk
le voix
Ġn ys
Ġn bl
Ġn ominal
Ġn ova
ul oma
ul ant
ul se
ul ative
ul inemia
ul ating
ul enburg
ul icz
Ġsyn dactyl
Ġsyn echiae
Ġsyn pol
Ġdis tic
it ol
it ating
op d
op r
op ontine
yp sin
Ġf g
Ġf ors
Ġf tl
Ġf cd
Ġf lec
Ġf alc
Ġf td
Ġf gs
Ġb ass
Ġb ald
Ġb cc
Ġb inding
Ġb acill
el and
Ġl og
Ġl ign
Ġl av
Ġl ler
Ġl az
Ġl ittle
Ġl prs
ac yl
ac tiv
ac arpal
Ġr it
Ġr na
oc in
oc las
oc ran
oc erc
oc ornea
ur en
ur itis
ur ity
ur ati
il obar
ec tin
Ġg c
Ġg s
Ġg ond
Ġg ord
ol or
ol ent
ol ith
ol pyruvate
ol uys
ve front
enc ycl
las h
et t
ath er
th erapeutic
th rough
um inating
Ġv l
Ġv am
Ġv ir
Ġhyp ochond
Ġhyp esthesia
Ġhyp omelan
am en
ici ous
Ġdys lip
Ġdys cr
Ġdys inhibition
Ġdys albuminemic
Ġch ias
Ġch and
Ġch urg
im m
im ean
ig ar
ig lycer
un ken
od ia
od ental
od ont
Ġan omic
Ġan arch
Ġan lage
Ġan atom
Ġan orectal
Ġcon tr
Ġac roc
Ġac tive
Ġac atal
Ġac rosp
cl p
ous ton
Ġe ulenburg
ym y
ym pathetic
ag nant
ir ection
Ġle tal
ch rom
ch ocerc
eb l
eb iases
tin in
tin ism
Ġhyper ins
Ġhyper neph
Ġsp urs
Ġsp ecial
Ġst ases
Ġst agnant
Ġw ing
Ġw ides
ine au
ad i
Ġat kin
Ġat rich
Ġi e
Ġi p
Ġi id
Ġi od
ob ullous
ob asilar
ob acill
ob alamin
Ġpar son
Ġpar ry
arc e
Ġal ps
Ġal arm
ip ec
Ġhem e
Ġhem im
Ġhem eral
Ġhem olysis
Ġk u
Ġk ing
Ġk ug
Ġk inetic
Ġar sen
Ġad a
Ġth c
Ġth ro
Ġth ick
Ġth esaur
Ġpr ep
Ġpr inz
ron e
eal ed
oid uronate
Ġlymph omatous
Ġlymph osarcoma
Ġlymph osarcomas
Ġlymph ofollicular
Ġpro tr
ati vis
Ġgl ue
Ġper ip
Ġre le
Ġre iter
Ġher oin
ach es
up ing
if f
Ġdyst opic
Ġab d
Ġcereb rum
Ġj ones
re w
tr ypsin
Ġ4 1
ov arus
Ġph encycl
Ġrec eptive
Ġrec ogn
ros e
ros te
yd ii
Ġtr ep
Ġtr uncal
ox ical
ox ide
Ġpol and
tis h
ink el
ab ach
Ġam c
Ġam ish
qu ito
qu ois
ill a
ill s
ill ing
Ġex it
ogen es
Ġret roc
Ġret rof
Ġret ained
Ġencephal ofacial
Ġcor nelia
ion al
Ġpost ex
Ġpost natal
yc omb
all ow
Ġbl o
Ġbl ow
Ġii is
Ġsub s
Ġsub lingual
Ġpa roti
omat ose
Ġnon ne
Ġnon thromb
Ġnon medullary
Ġnon neph
Ġnon therapeutic
Ġmet acarpal
Ġ5 5
Ġcarcin omatosis
Ġbr ief
Ġgen otoxic
Ġpul sion
oste osis
oste ogenesis
Ġint ention
Ġsh w
Ġsh uff
Ġsh ift
Ġaden oid
Ġop d
Ġperi aneurysm
of etal
of emoral
of ruct
Ġoste itis
st rom
erg y
iv ided
Ġmic h
Ġmic rosp
Ġsch indler
Ġsch ulman
Ġsch illing
Ġfe uerstein
Ġfe tish
anti d
ly tic
Ġend ophthalm
Ġend ogenous
Ġtrans ves
Ġtrans neuro
Ġco q
Ġco in
Ġco arc
Ġco up
Ġag a
Ġag s
Ġag nathia
Ġag glu
Ġag nogenic
Ġpseud omembranous
Ġscler odactyly
Ġscler odermas
Ġacid emias
Ġacid urias
Ġmon on
Ġmon ostotic
Ġmon oxide
Ġpl s
Ġpl umb
ea u
Ġabs tinence
ff ner
Ġap ocrine
enti a
ers inia
Ġcent rot
Ġderm opathy
Ġpo romas
Ġhyd rocephaly
Ġhyd rotic
Ġpos itivity
Ġins omnias
Ġcardi ogenic
Ġmac rocytic
lex y
Ġcat ech
Ġect asias
Ġcl aud
Ġdi phosphatase
Ġpneum onic
Ġpneum ocyst
Ġpneum ophila
Ġangi opathies
Ġangi ogenesis
Ġeryth r
Ġeryth emas
ortic ate
Ġsleep ing
Ġrh esus
Ġneph roses
Ġoptic a
Ġcr ib
Ġcr est
Ġcr ack
Ġcr imean
Ġheart s
Ġcar p
ole y
ole iomy
Ġintra dural
Ġintra operative
Ġintra medullary
Ġmed ication
Ġinter dig
Ġglyc er
Ġglyc ine
Ġcomp reh
ug ate
Ġneon ator
rad iation
Ġgranul omous
Ġol iver
Ġol sz
Ġcal ve
Ġtubercul in
Ġpap a
Ġaph onias
Ġdr unken
Ġgeneral isata
Ġbil irub
Ġnod osum
Ġphosph atid
Ġphosph oen
Ġphosph ofruct
Ġves icul
Ġpsych ological
Ġpsych ophys
Ġro gers
Ġcran io
man i
Ġbrach yte
Ġmes omelia
Ġesophag o
Ġneur inomas
Ġec a
Ġsep aration
Ġmo unt
Ġmo ya
Ġcomplex es
Ġmar burg
Ġmar mor
osp ir
osp orid
Ġfol ate
Ġvari x
Ġvari ola
Ġasp g
roxysm al
he ad
Ġpup pet
arth rosis
Ġpoly arter
Ġpoly arthritis
Ġtransi tion
Ġy ersinia
Ġophthalm ia
Ġbacter icidal
Ġimp ulsive
Ġimp ulse
Ġhum er
Ġfibro elast
Ġfibro histi
Ġfibro ather
bl ing
Ġpur suit
Ġdiabetic orum
ner i
Ġwe ar
Ġwe il
Ġwe ars
ific ations
Ġfoot wart
Ġtiss ues
Ġox oprol
Ġmyc osis
Ġerythro hepatic
Ġcarb am
Ġsw iss
Ġsw allow
Ġvariant s
Ġdig its
Ġcoron avirus
Ġmethyl transferase
Ġsubac romial
Ġinv ag
Ġpseudo ex
Ġast atic
Ġschiz otyp
Ġfactor s
Ġeosinophil ias
Ġpremat urity
Ġqu ad
Ġax ial
Ġloc oreg
Ġpre ec
Ġpre ex
Ġpre tibial
Ġchond ro
Ġchond rocalcinosis
Ġneg ativis
olip omas
Ġgra ef
Ġhypothalam o
our eteral
Ġanti trypsin
Ġsulf oiduronate
oscler oses
Ġcap ital
Ġconc ealed
Ġsensor imotor
Ġsyncop al
Ġlo uping
Ġhypog ammaglobulinemias
Ġcdg ii
Ġwa vefront
Ġganglios idoses
Ġmembran es
Ġic eland
Ġpe ep
Ġpe eling
Ġpe anut
Ġpe arce
ger igar
oster oid
Ġgro und
Ġcontract ural
Ġcyt otoxic
Ġple uris
Ġtor ti
Ġtor re
Ġphot opa
Ġed m
Ġed md
Ġdes bu
Ġpapill on
Ġrep lication
Ġheterot opic
Ġill uminating
Ġhyal oid
Ġgu am
Ġreticul oid
Ġpen a
acchar ide
Ġtre ated
Ġcommun ity
Ġspasm odic
Ġrhin otr
Ġdemyel ination
Ġtelangiect atic
Ġfront obasilar
ty oca
Ġconduc ting
Ġmc ard
Ġmc leod
Ġana plasm
Ġactin obacill
Ġdent ator
Ġdent atus
Ġste ele
orad icul
Ġles ch
ipar um
Ġcommunic ative
Ġir radiation
Ġsuper inf
Ġmen kes
Ġcoll apse
Ġsial uria
Ġcys titis
Ġcys titides
Ġspong i
Ġspong y
Ġlipofusc in
oglobin uria
Ġvulv ovaginal
Ġpres b
Ġpres erv
Ġcmt x
Ġpolym y
Ġlab yrinth
Ġargin ino
Ġarrhythm ias
Ġphosphor us
Ġhom g
Ġhom ozygous
Ġcholester yl
Ġwor k
bil ane
Ġlen gth
Ġko zhe
Ġuve opa
Ġsud ek
Ġmaj ewski
Ġdiarrh etic
Ġster ile
Ġxx y
Ġpaget oid
ĠÃ ¼
Ġichthyosiform e
Ġichthyosiform es
Ġcampt omelic
Ġfus ed
Ġfus ospir
nath ism
Ġind epend
Ġind olent
Ġhm g
Ġinfant s
Ġlymphaden itides
Ġmas och
Ġvertig os
Ġandrogen etic
Ġtong ues
oper i
Ġdec orticate
Ġprec alyc
Ġcerebro ocul
Ġcerebell oretinal
Ġvitre oretinal
Ġbo ydii
Ġhyperglyc emic
Ġhyperglyc inemias
Ġtri at
Ġfour nier
Ġpolyradicul oneuropathies
Ġrobin son
Ġhypophosphat asia
Ġet f
Ġpine ocytoma
Ġmil roy
Ġling u
Ġpapul osis
Ġno ise
Ġmegal encephaly
omening itis
Ġbab y
Ġpostp rand
Ġpseudot ubercul
Ġincomp ati
Ġverteb rogenic
Ġorgan oid
Ġparapar eses
Ġosteochond ritis
Ġangio edemas
Ġbreak s
Ġbreak through
erv ical
Ġfore head
Ġgerm in
Ġstri atal
Ġfibrill ations
Ġhamart omas
Ġhamart omatous
fol iation
Ġchr ist
Ġev r
ocyst oma
Ġhydroxy but
Ġmis car
Ġtemp orary
Ġamo ebiasis
Ġamin oacylase
Ġincon tin
Ġvaric es
Ġho ard
Ġelect ron
Ġconstric tions
Ġmyelin oclastic
Ġmyelin oclas
Ġcervic o
Ġpsor iatic
Ġon chocerc
Ġdysaut onomic
imin atory
ohyp ogastric
Ġeth anol
Ġdevic e
aps ulating
Ġpolyd ystrophic
Ġregurg itant
Ġpil onidal
Ġhamm er
Ġbal antid
Ġperc eption
Ġcoal wor
Ġplasm acyt
Ġketoac iduria
Ġflex neri
Ġchar levoix
Ġwr ist
Ġstrept ococcal
Ġstrept oz
Ġswe et
Ġsteroid ogenesis
Ġnor rie
Ġhypov ole
Ġshar p
Ġurtic arias
Ġoxid oreductase
Ġgold berg
inflamm atory
equ ate
Ġanter olateral
Ġanter osep
Ġcortic otropin
Ġmicros copic
Ġschon berg
Ġdihyd roxy
Ġcanal icular
Ġpapilloma virus
Ġhidraden itides
Ġmdd ga
Ġnph p
Ġhypn ic
Ġhypn ogenic
Ġneurohyp ophysial
Ġih ps
dd r
Ġms ud
Ġlute oma
Ġparam yotonia
Ġprocess es
Ġmonil iases
Ġaccid ent
Ġbotul isms
Ġverruc iformis
Ġbun y
ocard iac
Ġdev iations
Ġkin esigenic
Ġphob ic
Ġsmo ke
Ġincis ors
Ġrepeti tion
Ġvitreoretin ochoroid
Ġili ohypogastric
Ġdysraph ism
Ġanth rax
Ġlymphangiect asis
Ġisomer isms
Ġvesic oureteral
Ġreduc ed
Ġog uchi
Ġmolar s
Ġdiscr ete
Ġdiscr iminatory
Ġgyr ata
Ġstrong yl
Ġstrong yle
ubercul ous
Ġperine ur
Ġautoinflamm ation
Ġsaint on
Ġdiminished s
Ġil io
Ġhyperm obility
Ġwer dn
Ġgli oblastomas
Ġpostc omatose
Ġhydro lase
Ġnecro lytic
Ġmorg ell
Ġdermatomy ositides
Ġlegion ella
Ġequin ovarus
Ġappar atus
Ġhyperalg esias
Ġsr xy
Ġsant os
Ġcof s
Ġbuc cal
Ġball oon
Ġbrad y
Ġgel ineau
Ġhypomyel ination
Ġkenn y
Ġextrac erebral
Ġhydroc ele
ferr itin
Ġbrachym orph
Ġseropos itivities
Ġacetylgalact osamine
oast rocyt
Ġler i
Ġlumb ar
Ġvel opharyngeal
Ġhyperuric emia
Ġhyperuric emic
Ġepic ondyl
Ġtransloc ation
Ġmacros omia
Ġserocon versions
Ġerythroblast osis
tid ase
Ġdic tyoca
Ġrud iment
Ġki enb
Ġpern icious
Ġleukokerat osis
Ġleukokerat oses
Ġblenn orrhagic
ofac ioskeletal
Ġcryptococc osis
Ġcryptococc oses
Ġsteat ocystoma
Ġpachymening itis
Ġpachymening itides
Ġdisplacement s
Ġset ting
Ġdav is
Ġcath eter
Ġmim s
Ġmorph ine
Ġbatt en
Ġvill onodular
Ġacrod ys
Ġsubt otal
Ġidi ocy
Ġmyocard ium
Ġdiath esis
Ġfollic ulitis
Ġpolychond ritis
Ġzyg omatic
phalip oproteinemias
Ġgammap athy
Ġappendic eal
Ġdegrad ation
Ġmddg b
opalat odigital
Ġhyperprol inemia
Ġdol ich
Ġpin pric
Ġlars en
Ġva ult
Ġantic ip
Ġconj ugate
Ġwohl will
Ġali en
Ġadam antin
Ġjeg hers
reg ate
Ġphag ocyte
Ġsubd ivided
Ġendodontic ally
Ġglucoseph osphate
Ġmerr itt
oepithel ioma
Ġcoagul ations
Ġtapet oretinal
Ġsaturn ism
Ġplatyspondyl ic
Ġsting s
anur us
Ġmng ie
Ġnid dm
Ġbra zilian
Ġric ci
Ġanaphyl actic
Ġkau fman
Ġphac omatosis
ycephal y
Ġnont uberculous
Ġcystathion ine
Ġrol ling
Ġstevens on
Ġprotop orphyria
Ġinfundib ular
Ġrom ano
Ġenc apsulating
Ġsut ural
Ġcum ulative
Ġcacch i
Ġhoff man
Ġnr clp
Ġiniti ation
Ġinad equate
Ġbud gerigar
Ġconvex ity
Ġhyperv entilation
Ġatel osteogenesis
Ġaleuk emic
Ġthec a
Ġfras er
Ġagg regate
Ġpoint es
Ġdiph ther
Ġoxyph ilic
Ġbleed ings
Ġparagonim us
Ġascar id
Ġcoccid ioid
Ġloeff ler
Ġsic ca
Ġsap osin
Ġmos quito
Ġmik ulicz
Ġayer za
Ġfuj imoto
Ġdysch romatosis
Ġhyperand rogen
ylv ian
Ġsteph anurus
Ġwiss ler
Ġwester mani
Ġparad oxical
Ġkas abach
Ġpring le
Ġjew ish
Ġmaloccl usion
Ġheub ner
Ġadenyl osuccin
Ġapop lexy
Ġhydroneph rosis
oglycer ate
Ġhydroxymethyl bilane
Ġcysticerc osis
Ġtrigon ocephaly
Ġgroenou w
Ġpleurop neum
Ġauric le
Ġmatern ally
Ġblepharop tosis
Ġprogressi va
Ġsphingomyel inase
Ġsydenh am
pre ad
Ġsth ag
Ġsak ati
Ġsott as
Ġsonne i
Ġdac ry
Ġdanc ing
Ġdail y
Ġcylin drom
anter ic
Ġtangi er
Ġtort uosity
Ġtors ad
Ġhym enolep
Ġhone ycomb
Ġhyb rid
Ġhistr ionic
Ġautis tic
Ġaarsk og
Ġnbl st
Ġsynpol ydactyly
Ġdistic hiasis
Ġfalc iparum
Ġlign ac
Ġgond ii
Ġgord on
oluys ian
Ġvam as
Ġchias matic
Ġanarch ic
Ġanatom ical
Ġacrosp i
irection al
Ġhyperins ulinemia
Ġwides pread
Ġatrich ia
Ġparson age
Ġkug elberg
Ġarsen ical
Ġthesaur ism
Ġprinz metal
Ġphencycl idine
Ġrecogn ition
Ġretroc ochlear
Ġretrof lex
Ġnonneph ropathic
Ġgenotoxic ant
Ġshuff ling
Ġperianeurysm al
Ġtransneuro nal
Ġagglu tinin
Ġplumb ism
Ġcentrot emporal
Ġcatech ol
Ġinterdig itating
Ġcompreh ension
Ġneonator um
Ġolsz ewski
Ġdrunken ness
Ġphosphoen olpyruvate
Ġphosphofruct okinase
Ġvesicul obullous
Ġbrachyte le
Ġfibrohisti ocytic
Ġswallow ing
Ġpseudoex foliation
Ġschizotyp al
Ġlocoreg ional
Ġpreex citation
Ġnegativis tic
Ġiceland ic
Ġphotopa roxysmal
Ġdesbu quois
Ġrhinotr ache
Ġdentator ub
Ġindepend ent
Ġprecalyc eal
Ġpostprand ial
Ġmiscar ria
Ġanterosep tal
Ġvitreoretinochoroid opathy
Ġwerdn ig
Ġdictyoca ul
Ġpinpric k
a es
a un
b h
b m
b p
b om
b ility
b est
b ank
c ation
c eral
c eption
c ification
d x
d an
d et
e ol
e ogenic
e vnikov
f ying
f arin
h k
h odgkin
i ro
i ph
i el
i ologic
j oen
k c
k os
k ed
k am
l obular
l hof
n ios
n cr
o ect
o aff
p m
p o
p x
p ar
p ing
p ect
p ast
p igin
r us
s ang
t amy
u osp
u ori
u edo
v p
v en
v ie
v eness
y ron
z ol
Ġ ut
al e
ti es
er uloplasm
ro intestinal
in ii
in ester
in tegration
Ġs oc
Ġs ne
Ġs ly
Ġs ack
Ġs ock
Ġs til
Ġs emin
Ġd c
Ġd unc
Ġd actyl
Ġd ance
Ġd rag
en is
en oses
en opausal
en ey
as p
on in
on emias
on omo
Ġc ph
Ġc ed
Ġc ot
Ġc ca
Ġc fe
Ġc pd
ar te
ar son
ar ticul
ar ino
is ch
es tion
es ch
es tern
Ġp ac
Ġp ell
Ġp ant
Ġp ect
Ġp gl
Ġp pr
Ġp omp
Ġp fm
Ġp vn
Ġp ads
ic es
ic emia
an otic
at ous
os h
os as
os itol
or b
or iasis
or ific
Ġm arc
Ġm ay
Ġm ele
Ġm osch
Ġm ioses
Ġm ott
Ġm ayer
Ġm opd
Ġm ymy
Ġt b
Ġt op
Ġt auro
Ġh c
Ġh g
Ġh n
Ġh r
Ġh an
Ġh eb
Ġh yst
Ġh bl
Ġh eck
Ġh pl
rom y
Ġa er
Ġa ase
Ġa plasias
Ġa kinesia
Ġn h
Ġn at
Ġn ance
Ġn avicular
Ġn ipple
Ġn bia
Ġsyn aptic
Ġdis ori
Ġdis junction
Ġdis integration
us ea
ed ural
ed ow
em er
it one
Ġin verted
Ġin tegration
op e
op el
op ituitarism
op eau
Ġf c
Ġf ro
Ġf in
Ġf ine
Ġf ormal
Ġf hm
Ġb a
Ġb os
Ġb urg
Ġb ech
el ess
el ock
el algia
Ġl ud
Ġl ag
Ġl ib
Ġl ass
Ġl ife
Ġl ncr
ac unc
Ġr t
Ġr ac
Ġr id
Ġr um
Ġr ms
Ġr are
Ġr unning
oc o
oc oni
oc omelia
oc olitides
oc ervical
Ġde p
id g
il ogy
il obular
il itas
il joen
ec o
Ġg ar
Ġg ay
Ġg pd
Ġg unn
Ġg bb
ol ithiasis
ol ences
Ġne th
ent eral
ent ration
et ch
et ting
ial is
ial dehyde
ath ies
ut on
Ġv s
Ġv iv
Ġv ibrio
Ġv kh
Ġv iljoen
Ġhyp opro
Ġhyp our
Ġhyp oproteinemia
Ġhyp esthesias
Ġch a
Ġch e
Ġch at
Ġch am
si er
ular e
ell o
od actyl
od isc
ter stitial
ter ew
uc kle
Ġac eta
ot onia
ot rich
ot ass
ot arsal
ud wick
roph osphate
Ġe u
Ġe ag
Ġle ud
ch a
ch ester
eb e
eb aut
Ġmy d
Ġhyper tr
Ġhyper hid
Ġhyper ref
Ġhyper function
Ġhyper ferritin
Ġsp ax
Ġsp ren
Ġsp ace
Ġsp ring
Ġsp atial
ost ri
ost rid
Ġneuro p
Ġneuro vis
Ġneuro bor
Ġneuro blastomas
yl er
yl ic
Ġst up
Ġst arg
Ġst raw
Ġst reif
Ġw estern
ad ip
Ġat roph
ob rach
Ġpar ina
Ġpar esthesia
Ġpar esthesias
Ġpar enteral
Ġal g
Ġal k
Ġal ar
Ġal ph
Ġal obar
Ġal strom
Ġk b
Ġk t
Ġk ar
Ġk ur
Ġk ab
Ġk ann
Ġk uss
Ġk lu
Ġk fs
Ġk ohl
Ġk immel
Ġk olop
Ġar cl
Ġar hin
ub erg
Ġad ysplasia
Ġth omas
Ġpr l
ron tonasal
ron ectin
ver ulent
Ġlymph ocytosis
oph yma
ple d
ple mentary
Ġgl ial
Ġgl iosis
Ġper st
Ġre if
Ġcongenital ly
ib le
ib acillary
ib rey
Ġleuk aemia
Ġleuk openia
Ġleuk ostasis
up r
ens en
if ting
Ġdyst asia
Ġab ri
Ġab rup
Ġj c
Ġj ug
Ġj ux
Ġj ean
Ġj orge
Ġj ansen
Ġj uberg
Ġj ensen
ons cious
Ġcom m
Ġcom itant
Ġse eman
Ġhe el
ov al
Ġas a
Ġas best
Ġph ocomelia
Ġrec r
Ġtumor al
Ġtumor igenic
erm ias
erm elon
Ġtr unc
Ġtr ilogy
ab ular
Ġam ebiasis
Ġex pan
Ġex sang
and ez
Ġret e
Ġret urn
Ġim d
Ġencephal itic
Ġencephal omalacia
Ġencephal omalacias
Ġcor ne
Ġmul ibrey
Ġpost m
kin esias
kin esigenic
all id
Ġbl v
Ġchrom ophob
Ġchrom affin
Ġii ib
oh r
Ġsub normal
Ġsub fer
Ġmulti min
Ġnon obstruc
Ġnon chrom
Ġnon hodgkin
Ġnon kinesigenic
Ġprim um
Ġmet opic
Ġarter io
Ġcarcin omatoses
Ġbr uton
Ġpul verulent
Ġfib ronectin
Ġcol um
Ġsh eld
Ġaden ine
Ġaden omy
Ġop pen
Ġperi orific
of rontonasal
Ġoste ocar
Ġoste opathia
Ġoste ophyt
ocyt oid
Ġdia per
rop in
Ġer ections
Ġsens e
Ġmyel odis
Ġmening o
Ġid uronidase
lic ations
ior enal
Ġsch immel
ast rointestinal
Ġend omy
Ġend odermal
Ġtrans thyretin
Ġco at
Ġsc n
Ġsc ax
Ġsc aph
Ġsc do
Ġsc kl
Ġag ing
Ġag yria
Ġo vern
Ġscler a
Ġscler oat
av uori
Ġur ic
Ġur acil
Ġtub ercular
Ġmon g
Ġmon oneuropathies
Ġmon key
Ġpl ant
Ġimmun oproliferative
ri tional
ay ama
Ġli eo
Ġderm oids
Ġun der
Ġun erup
gl iel
Ġjuv en
Ġpos itivities
pr ech
rod yses
Ġect ropion
Ġcl ls
Ġcl ostrid
ult y
Ġdi encephalic
Ġpneum oconi
Ġangi omy
Ġangi omatous
Ġform imin
Ġeryth rophag
Ġeryth rodyses
Ġneph roma
Ġneph ropathic
Ġoptic al
Ġcr itch
Ġnec rotic
Ġ8 1
Ġ8 4
Ġul eryth
Ġcar ey
Ġcar inii
Ġintra m
Ġintra v
Ġmed ium
Ġmuc inosis
Ġmuc ha
Ġarth romy
Ġcal f
amin idase
Ġfl dem
her ed
igment ed
Ġaph akia
Ġsinus es
Ġthyroid al
Ġsup plementary
Ġdr ess
Ġdr ash
Ġdr acunc
Ġdr ifting
Ġhypers tim
Ġnod es
Ġnod ofasc
Ġves iculo
Ġocul odent
Ġpara ph
Ġval pro
Ġsarc omatous
na i
Ġhemat ocele
Ġhemat oceles
Ġhemat opo
eth re
Ġkerat oac
Ġkerat odermas
Ġen g
Ġen ergy
Ġcd ls
Ġhisti ocytoid
Ġmel ker
Ġmel orhe
Ġcont re
Ġcont rol
Ġneur itic
Ġneur ally
Ġneur aminidase
ins ser
Ġec ch
Ġec cent
Ġec onomo
Ġven a
Ġmo ore
Ġmar k
Ġmar ble
Ġmar sh
Ġmar ks
osp len
Ġenter ic
ok inetic
Ġhern andez
ma ul
Ġbronch ospasm
ocytop enias
arth ropathy
arth roses
iral es
Ġvis uosp
Ġdup re
Ġhall opeau
Ġhemangi oblastoma
Ġhemangi oendothelioma
Ġmr d
Ġgluc osaminidase
Ġgluc agonoma
Ġglycogen oses
Ġgalact okinase
Ġstr ump
Ġstr etch
Ġstr udwick
Ġspondyl ometa
Ġfibro epithelial
Ġhair s
ram nios
Ġpy oderma
Ġz onan
Ġz insser
Ġwe yers
til lo
Ġser pigin
Ġiv a
Ġerythro leuk
Ġcarb oxy
Ġmelan osis
Ġsw yer
Ġrem ission
ocarcin osarcoma
Ġpseudo inflammatory
Ġgait s
Ġschiz oaff
Ġbas edow
Ġtract s
Ġax on
Ġig d
Ġbor j
Ġbor det
Ġpre v
Ġdil ation
Ġging f
olip idosis
oac ral
oac tive
oac oustic
Ġcortical is
Ġgra ham
Ġot c
Ġot opalatodigital
Ġmor sier
Ġbe emer
Ġble b
Ġparas omnia
Ġparas omnias
Ġos ter
Ġos tium
Ġpat ernal
Ġhepat omas
Ġhepat osplen
Ġulcer ans
Ġdu hr
oscler otic
Ġmin er
Ġmin icore
Ġneurofib roma
Ġneurofib romas
Ġcap itis
Ġconc entration
ber ry
Ġlob stein
Ġcam urati
Ġic e
Ġic p
Ġic ter
Ġpe e
Ġpe oa
Ġpe arson
Ġach m
Ġwh yte
ythm ic
Ġcyt opathy
Ġcan ker
Ġple uro
Ġket o
Ġbre eder
Ġlam b
Ġphot ophob
Ġsl o
Ġsl it
Ġsl sn
Ġav oid
Ġparkinsonism s
Ġps aum
Ġps uedo
Ġbow ing
Ġcomplic ated
pos itions
Ġfibrom uscular
sti el
Ġhyal inoses
Ġgu adal
Ġgu gliel
Ġreticul ate
Ġib m
orp tive
Ġchondrod ysplasias
Ġbul imia
acc ular
Ġthym ine
Ġtelangiect asis
Ġath abas
Ġaur icul
Ġgest ation
odys plas
Ġtox emias
Ġcre tinism
Ġme atal
Ġgloss itis
Ġvestibul opathies
Ġamel oblastic
Ġhydatid osis
Ġhydatid oses
Ġhypox ias
Ġcorp se
Ġosteoarth ritides
Ġros enberg
Ġmen et
Ġmen opausal
Ġsial urias
Ġneurot ox
Ġdeath s
Ġpres yn
Ġmeta plasias
Ġendothel iomas
Ġcmt d
Ġpolym orphous
Ġcholedoch ostomy
Ġcholedoch oduodenostomy
Ġcholedoch ojejunostomy
Ġlev ine
Ġfibr inogen
Ġextrem e
Ġextrem ities
az i
Ġwor inger
Ġshe eh
Ġerythemat o
sh ot
Ġnut ritional
Ġrest enosis
Ġgamm opathies
Ġxanth oma
Ġxanth omatous
Ġxanth omatoses
Ġhaem ophilia
Ġdiarrh eogenic
Ġacanth omas
apul o
Ġhypo kinesia
Ġhypo adrenal
Ġhyperp ipec
Ġmultic ore
Ġerup tive
Ġmeg a
Ġind iffer
hid rotic
Ġus ual
Ġgr ebe
alang y
Ġterat ocarcinosarcoma
thromb inemia
Ġchl o
Ġcirc um
oper icard
oper itone
Ġvi ib
Ġcerebro retinal
Ġcerebell opar
app ing
Ġamauro tic
Ġsem ilobar
Ġsem ialdehyde
Ġdip etal
Ġna usea
Ġbi ological
Ġbi phosphatase
Ġbo uill
ump ing
Ġbisphosph atase
Ġfor amen
Ġfor elock
Ġleiomy omas
Ġleiomy osarcoma
Ġleiomy osarcomas
Ġshock s
Ġrobin ow
Ġtas ting
Ġfrag ment
Ġmil ker
Ġpapul ous
Ġpapul oses
Ġphenomen ons
Ġhyperbilirub inemias
Ġsil ic
Ġsomat otroph
Ġmegal ocornea
Ġnarc osis
Ġrect us
Ġrect ocolitis
Ġrect osigmoid
Ġkle ffner
Ġjaund ices
Ġpostp oli
Ġwater y
Ġverteb rae
hyp opituitarism
Ġanox ias
Ġlew is
Ġosteonec roses
aldosteron isms
Ġonych olysis
Ġcephal gias
Ġcephal othoracic
Ġpp a
Ġpp n
Ġhypersomn olences
Ġurol ithiasis
Ġdiast rophic
Ġtak ah
Ġthy ro
Ġband s
Ġlymphangi omas
Ġhydroxy acyl
Ġpan hypopituitarism
Ġmis alignment
Ġtyph oid
Ġganglion itis
Ġdesm oid
ioneuro blastomas
Ġphenylketon uric
Ġho ok
ucle osis
Ġossi fying
Ġachond roplasia
Ġconstric ted
Ġsa ethre
Ġing rown
Ġile itis
Ġmyelin olysis
Ġrespons es
Ġgangren es
Ġpra ev
Ġhyster ia
Ġfre e
Ġfibromyal gias
oin terstitial
Ġsider ius
Ġcbl a
Ġcbl b
Ġlact ation
Ġlact ate
Ġlact ose
Ġren o
Ġpolyd actyl
Ġspher ophakia
Ġrhabdomy omas
Ġrhabdomy osarcomas
Ġmcop cb
Ġhamm an
Ġns aid
Ġbal o
Ġbal kan
Ġcoal ition
Ġgangli ocytoma
Ġgalactos amine
Ġketoac idoses
omple ment
Ġpall idal
Ġvessel s
Ġaw adi
acet onephosphate
Ġcry ing
Ġbulb oca
Ġpseudohypo aldosteronisms
Ġgold enh
otr ach
Ġpred iab
Ġbreath ings
Ġadrenoleuk odystrophies
Ġpachy derm
Ġspermat ozoa
Ġcav a
Ġcav ity
Ġinfluenz as
Ġwest phal
Ġkn uckle
Ġadip ose
Ġcortic ostri
Ġpseudop seud
Ġpseudop sych
Ġgastr in
rid ic
enh all
Ġhl a
Ġnph s
Ġfur unc
Ġfet us
Ġfet ofetal
Ġgil ford
Ġjam es
Ġhepato erythropoietic
uj i
Ġcas tillo
Ġlute omas
Ġvacc in
Ġcaus algia
Ġaccid ents
Ġland au
ocard ia
Ġeb v
Ġwat ermelon
Ġkel oids
Ġphob ias
Ġmetat ropic
Ġveno occl
Ġdepriv ations
Ġaddison ian
Ġdepos it
Ġdysraph isms
Ġwag ner
Ġkear n
Ġprogr ession
Ġmetast atic
Ġmetast ases
Ġmicrod eletion
Ġoxy gen
Ġsegment ation
Ġnarcolep tic
Ġawakening s
Ġdisplac ed
Ġsat ur
Ġmg ors
eps in
Ġhypoc upr
Ġhypoc omplement
Ġcontrac tions
Ġperine ph
Ġtrypan osomiases
Ġcholec ystectomy
Ġventricul omegalies
Ġhemiat rophies
Ġhermaph roditisms
aj ara
Ġday time
Ġpector i
Ġmend enhall
Ġvacu olar
Ġwer lhof
Ġare ata
Ġthi ebaut
omyx oma
Ġphon ation
rosarc omas
Ġintes tine
Ġactinomyc es
Ġhypoal phalipoproteinemia
Ġhypoal buminemia
Ġhypoal phalipoproteinemias
Ġacromegal oid
Ġsant avuori
Ġsuccin yl
Ġsuccin ase
Ġcob alamin
Ġaor titides
Ġbuc y
Ġgood past
Ġanis omet
Ġbruc ellosis
Ġbruc elloses
Ġduoden um
Ġneedles tick
Ġconverg ent
Ġsad dan
Ġds ap
Ġpilar is
Ġtar u
Ġaort opulmonary
Ġnag er
Ġler ich
Ġchyl ous
Ġacrop apulo
Ġwar farin
Ġaltit ude
Ġpauc ibacillary
Ġflo ating
Ġchori ocarcinoma
Ġtachyp neas
Ġsialaden itides
Ġricketts ial
Ġthyrot ropin
Ġmandibul oacral
Ġdyssynerg ias
Ġmicronucle us
Ġsound s
Ġdon nai
Ġht x
Ġhyperimmun oglobulin
Ġwin chester
Ġlymphogranul omas
Ġproc edural
Ġkeratoconjunctiv itides
Ġdfn x
Ġentamoeb iasis
Ġentamoeb iases
Ġglutam ate
Ġkoj evnikov
Ġprosopagnos ias
Ġevent ration
Ġquadriple gias
Ġacalcul ia
Ġelephanti ases
Ġaqued uct
Ġct pp
Ġcath epsin
Ġpf h
Ġmir ror
Ġmir izz
ylin ositol
Ġphalang es
Ġencephalomy opathic
Ġdiath eses
Ġpolychond ritides
Ġmorb id
Ġdermatofib rosarcoma
phalip oprotein
Ġgammap athies
Ġappendic itis
Ġmddg c
Ġhyperprol actin
Ġcyp rus
Ġpk u
Ġpied ra
Ġpied ras
Ġfav re
Ġdysref lexia
Ġdysref lexias
Ġanet oderma
Ġanet odermas
Ġanhed onia
Ġanhed onias
ostom iasis
ostom iases
Ġepul is
Ġepul ides
Ġproct ocolitis
Ġapros encephaly
Ġorb ito
Ġepidid ym
Ġepidid ymal
Ġflutter s
Ġcatarrh s
Ġtrichosporon osis
Ġtrichosporon oses
Ġdysmyel inating
ovagin itis
ovagin itides
Ġpolyser ositis
Ġpolyser ositides
Ġtetraple gia
Ġtetraple gias
Ġpolydip sia
Ġpolydip sias
Ġpallid oluysian
Ġhyperlys inemia
Ġhyperlys inemias
Ġchorioretin opathy
Ġneurilem oma
Ġneurilem omas
Ġdistemper s
Ġdysgraph ia
Ġdysgraph ias
Ġstreak s
Ġextrasyst ole
Ġextrasyst oles
Ġsacroili itis
Ġsacroili itides
Ġcholesteat oma
Ġcholesteat omas
Ġpom t
Ġtog aviridae
Ġbes nier
Ġlub s
Ġlock ed
Ġek bom
Ġspik es
Ġreent rant
Ġjacob sen
Ġphyt anic
Ġpostv iral
Ġsublux ation
Ġangel man
Ġmicrop enis
Ġtubul ointerstitial
Ġrobert son
Ġhydroxyphen yl
Ġmeig e
Ġmeval onate
Ġhidradren oma
Ġcoprop orphyria
aret rovirus
arrhythm ia
Ġhop f
Ġinequal ity
Ġlu ft
Ġhypom ineralization
Ġherman sky
Ġmyelofib rosis
Ġprolifer ation
Ġdissec ting
Ġsulfatid osis
Ġmidf ace
Ġlentigin es
Ġhelic obacter
Ġthoraco abdominal
Ġpyeloneph ritis
Ġtenosynov itis
bur y
Ġsuc rose
Ġcen ani
Ġputam inal
Ġnyc t
Ġfair bank
Ġlux ation
Ġvers us
Ġhyperkerat oses
Ġcompr essions
Ġmultin odular
Ġsensiti zation
Ġnephros o
Ġinterse x
Ġoll ier
Ġimpact ed
Ġpseudoachond roplastic
Ġcytos olic
Ġhemihyp ertrophy
Ġaminoac iduria
Ġnondis junction
Ġsir en
Ġdg i
Ġderc um
Ġcada ver
Ġtem tamy
Ġhag eman
Ġait d
Ġftl d
Ġrit ter
odia physeal
Ġacatal asemia
Ġhemeral opia
Ġthro at
Ġrele ase
Ġtrep on
Ġblo om
Ġmonon ucleosis
Ġcarp enter
Ġmount ain
Ġmarmor ata
Ġcarbam yl
Ġpreec lampsia
Ġchondro ectodermal
Ġgraef e
Ġtelangiectatic a
Ġmcard le
Ġpreserv ed
Ġhydroxybut yric
Ġcoalwor ker
Ġplasmacyt oma
Ġmorgell ons
Ġbrachymorph ia
Ġrudiment ary
Ġacrodys genital
Ġhyperandrogen ism
Ġadenylosuccin ate
Ġdentatorub ral
zol amide
inester ase
Ġstil ls
Ġdrag er
Ġcph d
Ġcfe om
articul ation
Ġpect us
Ġpvn h
Ġmarc us
Ġmele da
Ġmott led
Ġhyst rix
Ġhpl h
Ġdisori entation
opel vic
Ġbech terew
Ġgbb b
Ġhypour icemia
Ġaceta zolamide
Ġeag le
Ġhyperferritin emia
Ġspren gel
Ġneurovis ceral
Ġstarg ardt
Ġstraw berry
Ġstreif f
Ġparina ud
Ġkuss maul
Ġklu ver
Ġkimmel stiel
Ġkolop p
Ġperst ans
Ġreif enstein
Ġabri kos
Ġjug ulare
Ġseeman ova
Ġtrunc us
Ġexsang u
Ġchromophob e
Ġsubfer tility
Ġmultimin icore
Ġnonobstruc tive
Ġnonchrom affin
Ġsheld on
Ġoppen heim
Ġperiorific ial
Ġosteocar tilaginous
Ġmyelodis plastic
Ġschimmel penning
Ġovern utrition
Ġlieo u
Ġunerup ted
prech aun
Ġclostrid ium
Ġpneumoconi oses
Ġerythrophag ocytic
Ġerythrodyses th
Ġcritch ley
Ġhyperstim ulation
Ġnodofasc icular
Ġmelker son
Ġeccent ro
Ġvisuosp atial
Ġstrump ell
Ġspondylometa epiphyseal
Ġzonan a
Ġcarboxy kinase
Ġschizoaff ective
Ġbordet ella
Ġhepatosplen omegaly
Ġpsaum e
Ġguadal ajara
Ġathabas kan
opericard ium
Ġcerebellopar enchymal
Ġbouill aud
Ġpostpoli omyelitis
Ġgoldenh ar
Ġcorticostri atal
Ġvenooccl usive
1 0
7 8
a ys
a ve
a am
a rop
a etales
b ed
b ec
b etalipoproteinemia
c end
c ross
c ipital
c anthus
c ystectomy
c obalamin
d heim
e zing
e otypic
f j
f art
f ull
f ld
f ield
g c
g em
g ve
g art
g av
g nos
g astr
g astrointestinal
h h
h ar
h om
h ole
h ara
h older
h ythmic
i ate
i rosis
i omatous
i ophor
j a
j b
j s
j me
j uana
k a
l ot
l ism
l ov
l av
l oride
m t
m ers
m ium
m aker
n oc
n ers
o y
o oste
o ea
o til
o aden
o ese
o ocular
o ude
p ose
p ps
p otarsal
r p
r ect
r ase
r iform
r atase
r essor
s f
s ter
s man
s gs
t p
t es
t omy
t end
t ophyma
t aretrovirus
u ve
u ate
v d
v ital
v re
v ival
w h
w al
w ig
w he
y on
y der
y ogenic
y oxylate
z e
z ell
z we
Ġ orm
Ġ oph
Ġ ond
Ġ oss
Ġ ita
Ġ omen
al coh
al ima
ti mal
ti ficial
er e
er i
er er
er ophor
ro lase
in er
in der
in till
in odent
in vas
Ġs g
Ġs ab
Ġs pha
Ġs aph
Ġs acch
Ġs ternal
Ġs unct
Ġs ump
Ġs iam
Ġs odium
Ġs kew
Ġd k
Ġd p
Ġd ed
Ġd og
Ġd enti
Ġd row
Ġd md
Ġd yg
Ġd rown
Ġd unn
Ġd ark
Ġd umping
en ozoa
as itic
on ch
on asal
on nev
on ception
Ġc ec
Ġc ing
Ġc cl
Ġc ros
Ġc est
Ġc gl
Ġc ement
Ġc urr
Ġc cm
Ġc ochle
ar ial
ar ies
ar act
is ic
is th
is ural
is son
is ella
is ylvian
es on
es ian
es othel
es idi
es ickness
es etting
Ġp b
Ġp ing
Ġp ong
Ġp ct
Ġp ca
Ġp igm
Ġp isc
Ġp rone
ic eptive
ic ulty
an eal
an ized
an opia
an arin
at as
at rophic
at aceae
at rogenic
at aract
os ud
os ening
os ystem
os ite
os ive
os ecretion
os acral
os ympathetic
or th
or ine
or sion
or pha
or sions
or ipa
Ġm n
Ġm ard
Ġm orn
Ġm ili
Ġm obius
Ġm ohr
om an
om ed
om st
om orpha
Ġt d
Ġt u
Ġt us
Ġt ol
Ġt all
Ġt ele
Ġt ypical
Ġt cs
Ġt enn
Ġt ensor
Ġh d
Ġh ic
Ġh ed
Ġh oc
Ġh ig
Ġh ot
Ġh ole
Ġh oles
Ġh itt
Ġh ors
Ġh our
Ġh ld
Ġh ysp
Ġh cf
Ġh gf
Ġh np
Ġh ansen
Ġh atter
rom eric
rom elic
ph an
ph ot
ph ysis
ph omotor
ph renic
Ġa o
Ġa ure
Ġa version
yn eb
yn ostotic
yn dactyl
yn esian
Ġn c
Ġn p
Ġn it
Ġn ad
Ġn ov
Ġn agl
Ġn cf
Ġn dn
Ġn ame
Ġn esidi
ia tiv
ia phrag
ul o
ul am
ul ate
ul tr
ul osa
ul nar
ul ator
ul avirus
Ġsyn s
Ġsyn tac
Ġdis ch
Ġdis per
Ġdis use
Ġdis org
Ġdis rup
Ġdis accharide
Ġdis articulation
us tr
us sion
ed enic
ed ish
em s
em oid
em bacher
it te
it rous
Ġin oc
Ġin ert
Ġin att
Ġin ocul
Ġin versions
Ġin activ
Ġin noc
Ġin timal
op ach
op apillary
op tosis
op allid
Ġf k
Ġf oc
Ġf im
Ġf ill
Ġf emor
Ġf ixed
Ġf ram
Ġf rob
Ġf az
Ġf iller
Ġf unnel
Ġf gd
Ġf nd
Ġf ield
Ġf oci
Ġf sgs
Ġb el
Ġb ol
Ġb anc
Ġb ign
Ġb oth
Ġb ick
Ġb out
Ġb arth
Ġb fic
Ġb utter
Ġb jer
Ġb onnev
el in
el atase
ys tis
Ġl r
Ġl op
Ġl ond
Ġl iv
Ġl ice
Ġl ds
Ġl ah
Ġl ouse
ac y
ac er
ac ytic
ac opl
ac eum
ac inar
Ġr s
Ġr y
Ġr ach
Ġr ab
Ġr aph
Ġr sh
Ġr cc
Ġr cm
Ġr ippl
oc ity
oc ont
oc ardial
oc ortical
oc co
oc arboxylase
oc orneal
oc utane
oc ochle
oc tophyma
ur ed
ur ing
ur iasis
ur iases
ur ata
Ġde ut
id ian
id ae
id irectional
il ia
il ibri
il vie
Ġg d
Ġg g
Ġg las
Ġg ob
Ġg arc
Ġg ron
Ġg arg
Ġg ulf
Ġg bd
Ġg gf
Ġg jb
ol k
ol ys
ol og
ol ate
ol ian
ol pos
Ġne oin
ent ea
et ens
et rop
et obacter
et off
et ozo
et oj
iti da
iti formis
ath oracic
th s
th ec
th etic
th arg
ep ing
ep ressor
um in
um ph
um atoid
um arin
ut a
ut ed
Ġv ur
Ġv ig
Ġv entral
Ġv idian
ra ft
ra tia
Ġhyp ohyd
Ġhyp ophyseal
Ġhyp oproteinemias
Ġhyp osecretion
gen is
gen mann
am pt
am ura
der h
der cl
der ate
der son
der gem
Ġdys soc
Ġdys kinetic
Ġdys equ
Ġdys hydrotic
Ġdys hidrotic
Ġch anc
Ġch ik
Ġch ester
Ġch ng
Ġch edia
Ġch oked
Ġch anarin
si ella
si fication
si mm
im an
im ke
im ally
im itar
ell ino
ig eminal
ig raft
un uch
un ya
un dercl
od end
od isomy
od epressor
Ġan c
Ġan s
Ġan te
Ġan ank
Ġan ophthalmos
Ġan ni
ing uinal
Ġcon struc
Ġcon gruent
uc agonoma
ran c
Ġac a
Ġac n
Ġac rodysplasia
Ġac rorenal
ot omy
ot ox
ot retin
ot onin
uro tomy
roph aryngeal
ous tical
Ġe unuch
ym ptomatic
ag a
ag h
ag ogic
ag ittal
ir cul
ir ick
ir urida
ir hythmic
Ġle an
Ġle fe
Ġle tter
Ġle prechaun
Ġle tharg
ch ior
ch off
ch alima
itis h
eb ald
eb etalipoproteinemia
Ġmy ers
Ġmy oblastoma
Ġmy oblastomas
Ġmy oepithelial
Ġmy oglobinuria
Ġhyper ac
Ġhyper re
Ġhyper opia
Ġhyper esthetic
Ġsp rain
Ġsp ort
Ġsp ott
Ġsp atz
Ġsp irurida
ost eal
ost atin
ost enosis
Ġneuro genesis
Ġneuro hepatic
Ġneuro enteric
Ġneuro gastrointestinal
Ġneuro thec
yl obacter
ard iosis
Ġst ar
Ġst un
Ġst orm
Ġst atic
Ġst ain
Ġst ump
Ġst rand
Ġst gd
Ġst occo
Ġw itt
Ġw axy
Ġw oude
ant ral
ad t
ad ia
ad ren
ad naviridae
Ġat d
ital ized
Ġi ra
Ġi ud
Ġi ps
Ġi bs
Ġi atrogenic
eph renic
ob ia
ob ilities
ob loch
Ġpar tur
oplasm osis
ess in
Ġep ire
Ġal eu
Ġal me
Ġal dehyde
Ġal tid
Ġal phalipoprotein
Ġaut osome
Ġaut olysis
Ġaut olyses
ip avirus
ip ient
ip lash
Ġk e
Ġk os
Ġk im
Ġk ob
Ġk orn
Ġk ash
Ġk leb
Ġk inn
Ġk ey
Ġk aes
Ġar h
Ġar ias
Ġar tificial
ub al
ub itus
plas ma
Ġth ri
Ġth rob
Ġth omp
Ġth eil
Ġth ickness
Ġth undercl
Ġpr iap
Ġpr ene
ron odular
Ġcell ulitides
oid osis
oid ea
oid aceae
Ġlymph ocytoses
Ġlymph ofollic
Ġgl yoxylate
Ġper ich
Ġper operative
Ġper isylvian
Ġper igraft
Ġre is
Ġre ich
Ġre ovirus
Ġre oviridae
Ġre inh
Ġre ferr
Ġx m
Ġx u
Ġx yl
ib rion
Ġher s
Ġleuk onychia
Ġleuk emoid
des cend
ens ory
encephal ia
ancer ous
Ġab ras
Ġab etalipoproteinemia
Ġcereb ri
Ġcereb rov
Ġj ail
Ġj arg
omy otonia
re a
ang inal
ons illar
Ġcom min
iz e
Ġmal let
Ġmal united
Ġmal arias
Ġmal alignment
Ġmal acopl
Ġmal dergem
ap t
ap omp
ne val
ne kam
Ġas l
Ġas s
Ġas choff
Ġph th
Ġph leb
Ġph asmidia
Ġph arnyx
Ġtra bec
ros thetic
tib acillary
erm itte
Ġtr it
Ġtr emat
Ġtr ps
Ġtr ismus
Ġtr ifacial
Ġtr emens
ox idase
Ġpol len
Ġpol ynesian
tis ms
ink er
ab h
ab i
ab yrinth
Ġam y
Ġam eg
qu ency
ill ivirus
Ġex ag
Ġex ophthalm
Ġex pl
ogen eses
oth rix
Ġret rol
Ġret rot
Ġret rovirus
Ġret roviridae
Ġret ropharyngeal
ical ly
Ġcor i
Ġcor tis
Ġcor rect
Ġcor yneb
Ġmul tibacillary
Ġpost per
Ġpost dural
Ġpost syn
Ġpost gastr
Ġpost anginal
Ġpal atin
yc osis
yc oses
kin esis
ari oidea
ment s
se y
all ic
all osal
Ġbl omst
Ġii id
Ġsub wa
Ġsub chond
Ġsub jective
Ġsub phrenic
Ġpa rov
Ġsusceptib ilities
son ia
Ġmulti infarc
derm al
Ġnon immune
Ġnon arter
Ġnon leuk
Ġnon go
Ġnon odont
Ġnon vital
Ġnon alcoh
Ġnon phot
Ġprim e
Ġprim ate
roc arcin
roc ecal
Ġmet allic
ith er
Ġ5 2
Ġ5 4
Ġ5 8
Ġarter ivirus
Ġcarcin omatous
Ġbr idg
Ġbr itish
Ġretard ations
Ġpul pl
oste ohyp
gr ediens
amm omatous
Ġsh ow
Ġsh ope
Ġsh fld
Ġcard iorenal
Ġaden osis
Ġaden osarcoma
Ġaden ophor
Ġaden oviridae
Ġaden osquamous
Ġaden ocystic
one i
Ġop iate
Ġperi ocular
Ġperi anal
Ġperi orbital
of er
of lav
Ġ6 0
Ġ6 3
Ġ6 8
Ġoste ogenic
Ġoste odysplasia
Ġoste omalacia
Ġoste odysgenesis
Ġoste odysplas
Ġlip s
Ġlip idoses
ke full
ocyt es
ocyt ogenes
Ġdia gnos
st ro
st on
st rong
Ġcyst osarcoma
Ġer got
Ġer dheim
Ġsens es
Ġmyel osis
Ġmyel oses
Ġmyel ophth
Ġmyel odysplasias
Ġmyel oradicul
Ġmening othel
oderm at
yth ms
ann ing
erg ill
iv iridae
iv ibrio
Ġhypert onic
Ġhypert yros
Ġfr en
eg ler
Ġis omal
Ġis ochrom
Ġis oval
Ġis otretin
Ġmic tur
Ġmic rogl
Ġmic robial
Ġsch ool
Ġsch ny
Ġsch erer
Ġsch imke
ast rophic
Ġfe eding
Ġend osteal
Ġtrans grediens
Ġco le
Ġco ats
Ġco umarin
atal es
Ġsc rof
Ġsc rew
Ġsc intill
Ġsc imitar
Ġsc anning
Ġag gr
ak ic
Ġpseud opol
Ġpseud oneuro
Ġpseud ocyst
Ġpseud omonas
Ġpseud orhe
Ġpseud omyxoma
Ġhep adnaviridae
otor enal
otor hin
Ġo k
Ġo rotic
Ġo otorhin
Ġto rovirus
osph atase
av age
av atum
Ġrenal e
Ġur ination
Ġur ge
Ġacid opathy
Ġacid opathies
Ġacid ophil
Ġacid ophilic
Ġtub ule
Ġmon ophosph
Ġmon omorphic
Ġmon teg
Ġmon ocytogenes
Ġpl ummer
ung ual
ung unya
ri oc
Ġap e
Ġap ic
Ġap kd
Ġor phan
Ġcent romeric
Ġcent rocecal
Ġinfanti lism
Ġun int
Ġun ex
Ġun united
Ġun descend
Ġpo ultr
Ġpo rocarcin
Ġhyd e
gl enozoa
angi omas
ort ed
ort em
ist ocytic
Ġcardi ovirus
Ġcardi odys
Ġ7 2
Ġ7 7
ick es
rod uod
ert oe
Ġmac k
Ġmac rop
Ġmac ronodular
yr ias
Ġem ission
Ġcat astrophic
Ġect opar
Ġcl ouston
acter ium
acter aceae
Ġdi h
Ġdi octophyma
Ġpneum ovirus
Ġpneum ogastric
usion al
Ġangi oid
Ġangi oblastic
Ġangi ospasm
Ġangi ospasms
Ġres ting
ophag aceae
Ġob tur
Ġeryth rom
ortic otropic
Ġrh us
Ġrh ythms
Ġneph roid
Ġneph romas
Ġca isson
Ġcentral opathic
Ġcr s
Ġcr ural
Ġcr ush
Ġcr utch
Ġcr ises
Ġheart be
uct u
Ġcer amidase
iac eus
iac inar
Ġ8 2
Ġ8 8
Ġcar rion
Ġcar neval
Ġsec ern
Ġref etoff
immun oblastic
Ġsm dp
Ġsm older
ole mia
Ġintra orbital
Ġintra articular
Ġintra par
Ġintra dermal
Ġinter val
Ġinter nuclear
Ġsin cipital
Ġmuc opur
Ġcomp osite
odyst rophic
Ġdem ineralization
Ġarth us
Ġgranul omatoses
Ġov aries
Ġha w
Ġha iley
amin ergic
Ġfl ushing
Ġfl orid
Ġfl uctu
Ġtubercul oids
Ġ9 5
Ġpap p
Ġmari juana
Ġaph rophil
Ġaph asmidia
Ġthyroid s
Ġretin ocochle
Ġsup ine
Ġsup ras
Ġrad i
Ġrad iating
velop mental
int s
Ġbil ophila
Ġspin ning
Ġspin ulosa
Ġnod ose
Ġnod ding
Ġphosph oglycerate
Ġocul osympathetic
Ġpsych opathic
Ġpsych obacter
Ġpsych oac
Ġpsych osensory
etal ip
Ġgast roduod
Ġgangl ias
Ġgangl ions
yph oid
Ġro yer
Ġro chalima
Ġprol idase
Ġhemat uria
omyel ia
omyel ias
Ġdiff iculty
opl ida
Ġmes omyc
Ġmes encephalic
Ġmes ulam
Ġneurol abyrinth
Ġen fl
Ġen ven
Ġen oplida
Ġcd a
Ġcd h
Ġcd an
Ġesophag opharyngeal
Ġesophag otrach
Ġver sive
Ġver tex
Ġmel as
Ġmel chior
Ġgland s
Ġneur enteric
Ġec th
Ġec yt
Ġmo derate
io vertebral
Ġmar antic
osp ondyl
Ġhand ic
Ġhand maker
tiv irus
Ġgal ns
Ġenter ovirus
Ġenter obacteriaceae
Ġenter obius
Ġenter obacterial
Ġfol iaceus
ok ing
Ġmit e
Ġvari ety
Ġhypot ony
Ġpalm o
ish ing
Ġinc ipient
Ġ12 10
Ġinsuff icient
iss urotomy
rans ferr
Ġpoly angi
Ġdeform ed
Ġdeform ational
Ġhypoth ermia
Ġy osh
Ġy olk
omer ic
ait o
Ġbacter oides
Ġbacter oidaceae
Ġdel ays
Ġdel taretrovirus
Ġdel usional
ass an
Ġdup lications
Ġhall erv
Ġhemangi o
Ġhemangi oblastic
Ġhemangi oblastomas
let on
Ġmeth acr
ain ing
Ġspondyl arthritis
Ġduct s
bl ad
Ġemb oli
Ġsim mond
Ġpur pose
Ġpy orrhea
Ġz inc
Ġma genis
Ġwe gener
ren oocular
Ġcalc iph
Ġcalc aneal
Ġser ratia
Ġser otonin
Ġiv y
Ġmelan chol
Ġsw amp
Ġsw elling
Ġsw edish
Ġaortic opulmonary
Ġcrani ocervical
Ġsal aam
cr eta
Ġrem ittent
Ġcoron aviridae
Ġmer etoj
Ġvascul opathies
Ġinv as
Ġpseudo aneurysm
ople gia
Ġast rocytic
Ġast roviridae
Ġpath ology
Ġbas ophil
Ġbas osquamous
Ġtrich ofollic
Ġtrich ostrong
Ġqu ery
Ġqu inc
obacter ium
ie w
Ġclas sification
Ġig g
rof tian
rof olate
Ġbor reliosis
Ġloc omotor
Ġchond roid
Ġchond rosarcoma
kerat otic
Ġgra y
Ġgra phomotor
Ġot a
Ġot ological
Ġot ologic
Ġmor tis
Ġanti orth
Ġtrig lycer
Ġbe ard
Ġbe uren
rosp inodent
Ġparas ite
Ġparas agittal
Ġgingiv ostoma
Ġele ctive
Ġele mentary
Ġcrypt ococcal
Ġhepat opulmonary
Ġhepat ofac
Ġdu arte
Ġchol ine
Ġmin ors
Ġmin imally
Ġaids s
Ġcap rine
Ġte ar
Ġheter ochromic
etra hyd
Ġdiverticul ums
ord en
Ġlo osening
Ġlob o
Ġlob ster
vers ary
Ġbranch er
Ġcam r
Ġcdg s
Ġavul avirus
Ġwa genmann
Ġwh ipple
Ġwh iplash
ger ous
Ġosteop enia
Ġschizoph renic
zo on
Ġcyt ophagaceae
Ġmast ocytomas
Ġflu o
Ġflu oride
Ġcan adian
Ġple ocon
rob lastic
ars us
Ġtor sions
Ġni jme
Ġnoc ardia
Ġnoc iceptive
Ġnoc ardiosis
Ġket oses
roch anteric
roch elatase
Ġlam eness
Ġphot ocont
Ġolig odactyly
Ġolig oastrocyt
Ġed ematous
Ġsl i
Ġav sd
Ġav ellino
Ġequ ina
junc tions
uth er
Ġps oas
Ġps ammomatous
Ġman z
Ġbow man
Ġpapill a
Ġpapill omatous
Ġhyperlip oproteinemias
Ġmedull aris
Ġoccl uded
Ġoccl usal
Ġbur uli
Ġchoroid er
Ġsk ills
Ġgu ion
Ġgu yon
Ġvas omotor
Ġvas opr
Ġvas odepressor
Ġsaliv osud
Ġneurom yotonia
au er
Ġextra vas
Ġextra adrenal
Ġu adt
ash es
Ġhs u
acc inal
Ġosteo articular
Ġrhin orrheas
Ġadren ogenital
opolys yndactyly
Ġtelangiect ases
Ġperit onsillar
Ġperit onei
Ġfront ocortical
Ġpersist ence
Ġair flow
Ġarteri ohep
Ġherpes viridae
fic ans
Ġcre eping
Ġplex opathy
Ġdisc oid
Ġdisc olor
Ġamyot rophies
Ġover j
Ġdent e
Ġdent ure
Ġtoxic o
Ġtoxic odend
Ġste wart
Ġprot uber
Ġprot oplasmic
Ġamel anotic
Ġblack water
den um
Ġcil iophor
Ġglob ulin
Ġlocal ization
Ġtrach ea
Ġsuper invas
Ġros eol
Ġgo at
Ġgall st
Ġsial ometa
arb oxyl
Ġpyr uvic
Ġhol ocarboxylase
Ġventric ulitis
Ġeff erent
Ġseb aceum
Ġpas sey
Ġpres ymptomatic
Ġbronchi olar
Ġrub ral
Ġrub ivirus
Ġrub ulavirus
Ġmyx opapillary
Ġwal king
Ġfruct osuria
Ġfruct osediphosphatase
Ġphenyl pyr
eryth roblastic
Ġlab rea
Ġlev ocardia
Ġargin ine
Ġthalass emias
Ġhex osediphosphatase
Ġtet rach
Ġhom olog
Ġ25 6
Ġhypercal ciuric
Ġwor th
Ġwor ld
Ġcholest atic
rol actin
Ġxanth omas
Ġhaem angi
Ġhaem olytic
Ġdentin s
Ġbowel s
Ġuve omening
Ġcog whe
Ġcand f
ofib romas
Ġcircul atory
Ġel imination
Ġster ol
Ġster eotypic
Ġant et
Ġacanth olytic
Ġacanth amoeb
Ġxx xx
Ġmeningoencephal itic
berg er
ranul ocytic
Ġacro keratosis
Ġacro dermatitides
Ġacro renoocular
Ġstaphyl ococcus
Ġosteopo rotic
Ġhp abh
Ġfus iform
Ġfus obacteriaceae
Ġfus obacterium
Ġhyperp arathyroidisms
Ġwern ickes
Ġpt c
Ġpt oses
Ġind ian
Ġind eterm
Ġind ustr
Ġmd c
Ġmd r
Ġtend ons
Ġgre y
Ġgre ither
Ġvan ishing
Ġinfant um
Ġcond ens
Ġlymphaden opathies
Ġrhabd oviridae
Ġrhabd itida
Ġmas on
Ġmas ked
Ġchl orine
Ġseptic emic
Ġcirc ovirus
Ġcirc oviridae
Ġbeh c
Ġlichen oid
Ġlichen iform
Ġrigid ities
Ġtotal is
ocys titis
Ġdec ubitus
Ġvi ia
Ġneurode velopmental
Ġprec onception
Ġprec ancerous
Ġcerebro tend
Ġcerebro atrophic
Ġamauro ses
Ġexc avatum
ew orm
ozo ospermia
Ġsem irhythmic
Ġbi etti
Ġparap s
onec tin
Ġleiomy omata
Ġcross united
Ġtas er
Ġtac i
Ġrib oflav
Ġneuroc ircul
Ġet l
Ġpine oblastoma
Ġmil iary
Ġsynov itides
Ġpapul osa
Ġmesothel ial
Ġhyperbilirub inemic
kn ife
Ġmut ations
Ġhen ipavirus
Ġhen nekam
Ġhab itus
Ġsciatic a
Ġadrenoc orticotropic
Ġnarc oses
Ġdisturb ed
Ġbab esia
Ġblast ocystis
Ġrect ovaginal
Ġdysp nea
Ġamino adip
entil ations
Ġinvolv ing
ah r
Ġadhes ive
Ġsheath s
aud itory
Ġri eg
Ġmicroc oria
Ġangio osteohyp
Ġangio immunoblastic
Ġbreak ages
Ġpp cd
Ġfore arm
Ġcong o
Ġsperm atic
Ġstri opallid
Ġbranchio otic
Ġbranchio ocul
Ġbranchio otorenal
Ġcogn ition
Ġdiast ases
Ġlenti virus
otoxic osis
Ġleak s
Ġleak ages
Ġsplit ting
Ġtetra pl
pher ophakia
Ġfir esetting
Ġlymphangi omy
Ġlymphangi oleiomy
Ġrefs ums
yx oviridae
Ġsn ow
Ġsn apping
Ġsn yder
Ġpan leuk
Ġpan lobular
Ġpan acinar
Ġdissoc iation
Ġacin etobacter
Ġarm strong
Ġarachnoid itis
Ġsupra umbilical
Ġsupra orbital
Ġganglion itides
Ġincon gruent
Ġneutrop enic
Ġbehavior s
ioneuro card
Ġincompet ent
Ġcost al
Ġcost oclavicular
Ġcycl itis
Ġbir naviridae
Ġprop rioc
Ġencephalomyel opathy
Ġappend ix
Ġappend icular
Ġossi ficans
Ġelect roc
co is
Ġcur v
Ġts c
Ġacne iform
Ġix a
Ġile us
Ġile um
Ġhemic ord
Ġmacul a
Ġmacul opathies
Ġcervic ogenic
Ġcervic ofacial
Ġcervic obrach
Ġgangren ous
Ġgangren osum
Ġud d
Ġfre quency
Ġhemis ensory
Ġpseudohermaph roditisms
Ġflaccid ity
oin ed
Ġsand row
Ġcbl d
Ġhel ena
Ġlact otroph
Ġren ocardiac
Ġvol untary
Ġasc orb
Ġpolyd ystrophy
Ġlabor atory
Ġcp x
Ġpil omat
Ġmod el
Ġhamm ertoe
Ġchondrom eta
Ġperc ussion
Ġexfol iativ
Ġsubm esothel
akary ocytic
Ġgangli ocytic
Ġplasm acytic
Ġunc onscious
Ġfil amin
Ġfil oviridae
Ġfil iforme
Ġfil arioidea
Ġwr iter
Ġcamp ylobacter
Ġburk holder
Ġschwartz man
acet abular
Ġneovascular izations
Ġhyperkal emias
Ġimm itis
Ġimm ature
Ġmultis ynostotic
Ġshar ps
Ġeyel ashes
Ġbronchiol oalveolar
Ġsti p
ode v
Ġkne es
Ġpred ominant
Ġjejun um
Ġund ulant
Ġwolff ian
Ġbifid um
Ġbifid obacterial
Ġfusari um
Ġirid ocorneal
Ġfran cois
Ġly ell
Ġvin son
Ġkn obloch
Ġadip onectin
Ġleukopl akic
Ġretro version
Ġretro versions
Ġcortic otroph
Ġmicros pherophakia
Ġpseudop yogenic
Ġplan ocellular
Ġhidraden oma
Ġbirth s
Ġsi we
Ġsur do
Ġsur vival
Ġmenstr ual
Ġta enia
Ġhl h
Ġnph l
Ġfur cation
Ġhypn agogic
Ġhypn apomp
Ġalex ander
Ġide okinetic
Ġscar let
Ġclub bed
Ġfold ed
Ġchlamyd ia
Ġchlamyd ial
Ġchlamyd iaceae
Ġsilver man
Ġlentig o
Ġotorhin olaryngeal
Ġpub ic
Ġpox virus
Ġpox viridae
Ġport osystem
Ġnig rospinodent
Ġintr athoracic
Ġlute um
Ġgh ost
Ġgol abi
Ġlept osp
Ġparam eningeal
Ġparam yxoviridae
Ġopac ity
Ġmonil ial
Ġobstetric al
Ġflav oprotein
Ġflav ivirus
Ġflav obacteriaceae
Ġflav iviridae
Ġtrichothi odystrophies
lam ellar
Ġtap eworm
Ġhist amine
Ġdist orted
ocard i
ocortic ism
Ġdev italized
Ġkin inogen
Ġbrun zell
Ġchore ic
Ġchore iform
Ġech ovirus
Ġgalactosyl transferase
Ġmycoplasm atales
Ġcaps ule
Ġfasci ol
Ġsphen oidal
Ġsphen opal
Ġtrache omalacia
Ġarc uate
Ġmandib le
Ġdex tr
Ġanth ony
Ġanth rac
Ġander son
Ġej ection
uber tal
Ġcardio vertebral
Ġcardio auditory
Ġvesic ovaginal
Ġrot or
Ġrot avirus
Ġpolyneur itiformis
Ġoxy uris
Ġoxy urida
icardi otomy
Ġinhal ant
Ġell is
Ġog ilvie
Ġench ond
Ġmg ca
Ġai roc
Ġnorm an
Ġdiscr imination
Ġfer rochelatase
Ġfar ber
Ġrath kes
Ġgout y
Ġkl ats
Ġarg yll
Ġperine al
Ġphak omatoses
Ġpostchole cystectomy
Ġeros ive
Ġdilat ations
Ġsphing olipid
Ġsphing olipidosis
Ġventricul itides
Ġpasteur ellaceae
Ġhemispher es
Ġmenstru ations
Ġacrocephalos yndactyl
yb denum
Ġil iac
Ġmag got
Ġfiss ured
Ġverm is
Ġvacu oles
odent ate
Ġwer ner
Ġjack knife
Ġphon ological
Ġphon ology
Ġpheochrom ocytomas
Ġpostc omm
Ġpostc ataract
Ġsche inker
Ġnecrob iosis
Ġweakness es
Ġactinomyc ete
Ġactinomyc etales
Ġwolf ram
Ġxanthogranul oma
Ġxanthogranul omas
Ġmegac ystis
atin ous
Ġcb x
Ġhal o
Ġbrad ycard
Ġlh ermitte
ocost oclavicular
Ġgel atinous
Ġchil bl
Ġanos mic
Ġacad emic
Ġprog on
Ġprog ranulocytic
Ġpericard itides
ograph ical
Ġreciproc ating
Ġextrac utaneous
Ġtransc ortical
Ġneglect s
Ġneglect ed
Ġbiotin idase
aple gic
Ġds ma
Ġpes tivirus
Ġtar lov
Ġaa a
Ġfsh d
Ġbf is
Ġlumb osacral
ocar potarsal
Ġacrop igmentation
Ġstomat ocytosis
ophalang y
Ġimbal ances
Ġtransloc ations
Ġmacros tomia
Ġchori omeningitis
Ġricketts ia
Ġricketts iaceae
Ġhabit ual
Ġchondromalac ias
Ġnarrow ing
oyl ism
Ġdic arboxyl
Ġgun shot
Ġache i
Ġleuc ocyth
Ġparac ecal
Ġparac entral
Ġjer k
Ġjer ash
Ġcaud a
Ġsarcogl ycanopathy
Ġvarieg ate
Ġfaci ocutane
Ġoxal osis
Ġpolymic robial
Ġpostcholedoch ostomy
Ġpostcholedoch oduodenostomy
Ġpostcholedoch ojejunostomy
Ġurea plasma
Ġacalcul ous
Ġneisser ia
Ġneisser ial
Ġneisser iaceae
Ġoh do
Ġroc k
Ġstern ocostoclavicular
Ġmim ae
Ġhap py
Ġdistin ct
Ġfrax a
Ġbatt le
Ġvill ous
odis omies
Ġstart s
Ġparv oviridae
Ġkary otypes
Ġprof ound
Ġphalang eal
Ġpolio encephalitis
Ġexst rophies
Ġencephalomy opathy
Ġ51 78
Ġidi oventricular
Ġpseudogl ioma
Ġpseudogl ucagonoma
Ġclo ud
Ġradio ulnar
Ġfollic le
Ġmethem oglobin
Ġsimp son
Ġmorb illivirus
Ġtetan y
Ġdegrad ations
Ġparainfluenz ae
Ġdim orphous
onne use
Ġcatal ase
Ġcatal eptic
Ġmt bs
Ġfilar ial
Ġbu erger
Ġlars son
Ġrat bite
Ġram b
Ġconj oined
Ġwohl fart
Ġparat ubal
Ġparat yphoid
Ġali ivibrio
Ġleuko erythroblastic
Ġjeg her
reg ulation
Ġphag edenic
Ġtrip loid
Ġexanth ema
Ġexanth ematous
Ġsubd iaphrag
Ġmonochrom atism
Ġmonochrom acy
Ġcompens ated
Ġcompens ative
Ġglucoseph osphatase
Ġdigit ate
Ġdysmyel opoietic
oepithel iomas
Ġbarton ella
Ġbarton ellaceae
Ġflexib acteraceae
Ġspiroch ete
Ġspiroch aetales
Ġsaturn ine
Ġplatyspondyl y
tac ortical
Ġitch s
Ġsus ac
Ġsus pect
Ġpi ebald
Ġpep tide
Ġpdh c
Ġtn dm
Ġtog avirus
Ġtab es
Ġhb oc
Ġbes no
Ġattr ib
Ġattr ition
Ġlymphoretic ulosis
Ġlymphoretic uloses
Ġreent ry
Ġreticular is
Ġpostv accinal
Ġpalat o
ohem eral
Ġsublux ations
Ġoro antral
Ġtubul opathy
Ġmonone uritis
Ġmonone gav
Ġcentr ilobular
Ġcentr iacinar
Ġcriss cross
Ġrobert s
Ġhydroxyphen ol
Ġageus ic
Ġmeval onic
Ġhidradren omas
Ġcoprop orphyrinogen
Ġtietz e
Ġtympanic um
Ġschmid t
Ġerysipel othrix
nik ow
Ġcac d
Ġpock et
Ġpock ets
Ġmol ybdenum
Ġmumm ification
Ġmumm ifications
Ġtod d
Ġheal ing
Ġnemat ode
Ġnemat omorpha
opur ine
Ġbaz in
Ġlc cs
Ġlaw ler
Ġlaw sonia
Ġgnath ostoma
Ġstab bing
Ġalter ed
Ġalter ations
Ġhemipar aplegic
Ġaren avirus
Ġaren aviridae
Ġperia or
Ġperim eningeal
Ġperim enopausal
Ġjoh ne
Ġamput ation
Ġamput ations
Ġisoimmun ization
Ġisoimmun izations
Ġcalici virus
Ġcalici viridae
Ġsepto optic
Ġinco ordination
Ġpyelect asis
Ġpyelect ases
Ġpykn o
Ġotolaryng ological
Ġotolaryng ologic
Ġmorax ella
Ġmorax ellaceae
Ġdesulfov ibrio
Ġdesulfov ibrion
Ġathle tic
Ġathle te
Ġsequest ration
Ġsequest rations
Ġlenticular is
Ġorthomyx ovirus
Ġorthomyx oviridae
Ġethm oid
Ġethm oidal
Ġuncompens ated
Ġuncompens ative
Ġfurrow ed
Ġthreat ening
Ġthreat ened
Ġmendel son
Ġmendel ian
Ġpicorn avirus
Ġpicorn aviridae
Ġdismemberm ent
Ġdismemberm ents
Ġtamponad e
Ġtamponad es
Ġdub in
Ġcad mium
Ġmert ens
Ġmcal ister
Ġmiss ed
Ġton eless
Ġhies s
Ġagen eses
Ġfig urata
Ġfitz simm
Ġlut embacher
Ġdecal cification
Ġgem istocytic
Ġgutt ural
Ġdysth yroid
Ġdyschond roste
Ġcher ry
ellig ible
atis ms
Ġash erman
Ġasphyx iating
Ġperios titis
Ġmyelomening ocele
Ġcla usen
Ġclin odactyly
Ġangiokerat oma
Ġnecrol ysis
Ġgravid ar
Ġmineral ocorticoid
Ġplasmin ogen
robi opterin
Ġlambd oid
Ġturc ica
Ġriver a
Ġtetrahyd robiopterin
Ġhemisp inal
Ġmutil ation
Ġfranc isella
Ġlegionna ire
Ġbrachymes ophalangy
Ġkojew nikow
Ġaspartylgluc osaminidase
Ġdegluti tional
Ġhemangioperic ytic
Ġcoxsackie virus
Ġscl eral
Ġsuff er
Ġduc los
Ġdiple gic
Ġpend ular
Ġpow assan
Ġtular ensis
Ġtail or
Ġafib rinogenemia
Ġbass en
Ġbald ness
Ġbacill aceae
Ġlaz y
ocran ios
Ġgc cd
Ġhypomelan osis
Ġcontr eco
Ġacroc allosal
Ġhyperneph roid
Ġperip rosthetic
Ġpostex ercise
Ġsubs ternal
Ġnonthromb openic
Ġmicrosp ora
Ġtransves tic
Ġcoarc tation
Ġclaud e
Ġerythr emic
Ġcrib riform
Ġcrack ed
Ġbilirub in
Ġphosphatid ylinositol
Ġpsychophys iological
Ġpolyarter itis
Ġhumer o
Ġfibroelast osis
Ġfibroather omatous
Ġquad rant
Ġanaplasm ataceae
Ġactinobacill us
Ġpresb yc
Ġkozhe vnikov
Ġuveopa rotid
Ġfusospir illary
Ġcerebroocul ofacioskeletal
Ġtriat rial
Ġlingu ofacial
Ġpseudotubercul osis
Ġgermin oblastic
Ġincontin entia
Ġmyelinoclas is
Ġstreptoz ocin
Ġhypovole mic
Ġdihydroxy acetonephosphate
Ġstrongyl ida
Ġperineur ial
Ġilio inguinal
Ġballoon ing
Ġdolich oect
Ġadamantin ous
Ġascarid ida
Ġcoccidioid es
Ġhymenolep is
Ġcatechol aminergic
Ġbrachytele phalangy
Ġdictyocaul us
Ġut p
eruloplasm inemia
Ġsoc iopathic
Ġdunc an
Ġpell ag
Ġpomp e
Ġtop ographical
Ġhn fj
Ġhan hart
Ġheb ephrenic
Ġnat ural
Ġfro eh
Ġfin eman
Ġlud wig
Ġlass a
Ġdep th
Ġgay et
Ġneth erton
Ġviv ax
Ġhypopro thrombinemia
Ġcham ber
Ġeu glenozoa
Ġleud et
Ġhypertr iglycer
Ġneurobor reliosis
Ġalph avirus
Ġkt cn
Ġkab uki
Ġjux tacortical
Ġcomm isural
Ġexpan sile
Ġpostm ortem
Ġendomy ocardial
Ġscleroat onic
Ġmong olian
Ġintram uscular
Ġintrav enous
Ġdress ing
Ġhematopo etic
Ġmelorhe ostosis
Ġecch ym
Ġserpigin osum
Ġerythroleuk emia
Ġborj eson
Ġduhr ing
Ġpleuro dyn
Ġphotophob ia
Ġavoid ant
Ġgugliel mo
Ġmenet rier
Ġneurotox in
Ġsheeh an
Ġhypoadrenal ism
Ġhyperpipec olic
Ġindiffer ence
Ġcircum anal
operitone um
Ġdipetal onema
Ġppn ad
Ġtakah ara
Ġthyro lingual
Ġhook worm
Ġprediab etic
Ġpseudopsych opathic
Ġhypocomplement emic
Ġgoodpast ure
Ġanisomet ropic
Ġtaru i
Ġlerich e
Ġmirizz i
Ġnyct ohemeral
Ġsiren omelia
Ġtrepon emal
Ġexsangu inating
hom ocyste
zwe ig
Ġorm ond
Ġond ine
Ġoss icular
Ġita i
erophor us
Ġspha erophorus
Ġsaph o
Ġsacch arop
Ġsiam ese
Ġded ifferentiated
Ġdenti gerous
Ġdrow ning
Ġdyg gve
Ġdrown ings
Ġdunn igan
Ġdark ness
Ġcing ulate
Ġcest ode
Ġcurr arino
Ġpong idae
Ġpigm enti
Ġpisc irick
oripa rous
Ġmard en
Ġmorn ing
Ġmili aria
Ġtus sive
Ġtele canthus
Ġtenn is
Ġhoc m
Ġhig ashi
Ġhitt ner
Ġhors esickness
Ġaure us
Ġnit rogen
Ġnagl u
Ġndn c
Ġsyntac tical
Ġdisorg anized
Ġinoc ulation
Ġinocul ative
Ġinnoc ent
Ġfoc ally
Ġfill ers
Ġfemor acetabular
Ġfram b
Ġfrob oese
Ġfaz io
Ġbanc roftian
Ġbign ami
Ġbick el
Ġbout onneuse
Ġbutter fly
Ġbjer rum
Ġbonnev ie
Ġlond e
Ġraph e
Ġrippl ing
Ġdeut an
ilibri um
Ġgob let
Ġgarc ia
Ġgron blad
Ġgarg oylism
etozo ea
Ġvig il
ampt odactyly
Ġdyssoc ial
Ġdysequ ilibrium
Ġchik ungunya
Ġchedia k
Ġanank astic
Ġanni versary
Ġconstruc tional
Ġlefe vre
Ġletter er
Ġsport s
Ġspott ed
Ġstrand berg
adren ocorticism
Ġpartur ient
Ġepire tinal
Ġaleu tian
Ġalme ida
Ġaltid udinal
Ġkorn zweig
Ġkleb siella
Ġkinn ier
Ġkey hole
Ġkaes er
Ġthri ve
Ġthrob bing
Ġthomp son
Ġtheil er
Ġthundercl ap
Ġprene oplastic
Ġperich ond
Ġreinh ardt
Ġreferr ed
Ġabras ion
Ġcerebrov entricular
Ġjarg on
Ġcommin uted
Ġtrabec ular
Ġtremat ode
Ġameg akaryocytic
Ġexophthalm ic
Ġexpl osive
Ġretrol ental
Ġcorrect ed
Ġcoryneb acterium
Ġpostper icardiotomy
Ġpostsyn aptic
Ġpostgastr ectomy
Ġblomst rand
Ġsubwa kefull
Ġsubchond ral
Ġparov arian
Ġmultiinfarc t
Ġnonleuk emic
Ġnongo itrous
Ġnonodont ogenic
Ġnonalcoh olic
Ġnonphot osensitive
Ġpulpl ess
Ġadenophor ea
Ġosteodysplas ty
Ġmyelophth isic
Ġmeningothel iomatous
Ġisomal t
Ġisotretin oin
Ġmictur ition
Ġmicrogl andular
Ġschny der
Ġscintill ating
Ġpseudopol y
Ġpseudoneuro tic
Ġpseudorhe umatoid
Ġootorhin olaryngeal
Ġmonophosph ate
Ġunint elligible
Ġundescend ed
Ġpoultr y
Ġectopar asitic
Ġobtur ator
Ġcarneval e
Ġsecern entea
Ġsmolder ing
Ġintrapar enchymal
Ġmucopur ulent
Ġaphrophil us
Ġretinocochle ocerebral
Ġsupras ellar
Ġpsychoac oustical
Ġgastroduod enal
Ġrochalima ea
Ġmesomyc etozoea
Ġenven om
Ġesophagotrach eal
ransferr inemia
Ġyosh ida
Ġhallerv orden
Ġpurpose ful
Ġcalciph yl
Ġmeretoj a
Ġtrichofollic uloma
Ġantiorth ostatic
Ġtriglycer ide
Ġhepatofac ioneurocard
Ġpleocon ial
Ġnijme gen
Ġphotocont act
Ġvasopr essin
Ġsalivosud oriparous
Ġextravas ation
Ġarteriohep atic
Ġtoxicodend ron
Ġprotuber ans
Ġciliophor a
Ġroseol ovirus
Ġtetrach loride
Ġuveomening oencephal
Ġcogwhe el
Ġacanthamoeb a
Ġindeterm inate
Ġindustr ial
Ġcerebrotend inous
Ġriboflav in
Ġneurocircul atory
Ġaminoadip ic
Ġangioosteohyp ertrophy
Ġstriopallid odentate
Ġbranchioocul ofacial
Ġcervicobrach ial
Ġascorb ic
Ġexfoliativ a
Ġsubmesothel ial
Ġburkholder ia
Ġbifidobacterial es
Ġhypnapomp ic
Ġportosystem ic
Ġnigrospinodent atal
Ġsphenopal atine
Ġpostcomm issurotomy
Ġdicarboxyl ic
Ġfaciocutane oskeletal
Ġsubdiaphrag matic
Ġbesno iti
Ġmononegav irales
Ġdesulfovibrion aceae
Ġtoneless ness
Ġfitzsimm ons
Ġdyschondroste osis
Ġcontreco up
Ġsubwakefull ness
Ġhepatofacioneurocard iovertebral
a ke
a qtl
a illa
b r
b es
b ers
b ites
d t
d al
d or
d ay
e une
f h
f in
f mann
f unctions
g esia
g ues
g dh
h d
h f
h or
h ip
h mann
h ier
h isc
i od
i ers
i robi
j ew
k op
l a
l ar
l or
l itis
l ane
l anti
l iferative
l oids
m n
m x
m olar
n h
n u
n ia
n ut
n ian
n osin
n atum
n ikov
o ver
o angi
o uch
o eck
o onych
o vertebral
o axial
o amel
o tian
o tidase
p e
p f
p w
p oc
p ine
p asm
r c
r l
r ed
r ig
r ated
r ens
r ist
r iac
r ison
s idi
s ubo
t c
t n
t or
t ag
t ration
t uss
u a
u ec
u ib
u hara
v us
v ine
v ans
v itamin
w inkel
x e
x s
x ialis
y as
y ch
y gia
z s
z in
z el
z berger
Ġ it
Ġ ard
Ġ tia
al ia
al ytic
ti o
ti ma
er as
er ens
er plasia
er ian
er tia
er ha
ro et
ro ot
ro tein
ro ff
ro line
in v
in cl
in ess
in osa
in izing
Ġs f
Ġs on
Ġs id
Ġs ot
Ġs ard
Ġs ine
Ġs ib
Ġs qu
Ġs war
Ġs aw
Ġs ds
Ġs ites
Ġs ss
Ġs qt
Ġs umm
Ġs ize
Ġs iew
Ġd al
Ġd in
Ġd op
Ġd ial
Ġd oh
Ġd est
Ġd ual
Ġd ust
Ġd ances
Ġd td
Ġd urs
Ġd gs
Ġd izz
en ate
en orrheas
as ic
as omy
on ys
on ial
on ig
on atr
on osteosis
Ġc z
Ġc id
Ġc im
Ġc ch
Ġc ach
Ġc up
Ġc ft
Ġc ble
Ġc erton
ar an
ar iasis
ar apid
ar alytic
is ons
is cher
is thesis
is omies
is wick
is obut
es z
es he
Ġp ph
Ġp it
Ġp and
Ġp yc
Ġp ass
Ġp ns
Ġp rag
Ġp ts
Ġp cd
Ġp fic
Ġp ck
Ġp ddr
Ġp xe
ic as
ic an
an osis
an son
an ish
at o
at ur
at ts
at rix
os o
os er
os ide
os mia
os idoses
os mias
os accular
os molar
or en
or ation
or tin
or iases
or ie
Ġm b
Ġm las
Ġm cl
Ġm ous
Ġm ib
Ġm ap
Ġm ill
Ġm age
Ġm ft
Ġm ain
Ġm bs
Ġm pd
Ġm ouse
Ġm mr
om ac
om ut
om phalocele
Ġt g
Ġt k
Ġt t
Ġt ro
Ġt ow
Ġt ast
Ġt pt
Ġt aw
Ġt aur
Ġt td
Ġh f
Ġh ell
Ġh ch
Ġh ok
Ġh ts
Ġh ga
Ġh ugh
Ġh utt
Ġh echt
rom elia
Ġa us
Ġa un
Ġa ip
Ġa uj
Ġa oa
le thal
le ft
le do
yn ess
yn ah
Ġn oma
Ġn af
Ġn he
Ġn sd
Ġn bs
Ġn berg
Ġn no
Ġn aito
ul as
ul op
ul omas
Ġdis inhibition
Ġdis function
Ġdis functions
us a
us er
us te
us se
ed al
ed el
ed ule
em ark
it um
it ri
it ay
it elberg
it amura
Ġin te
Ġin ertia
op t
op ing
op neum
Ġf f
Ġf ch
Ġf og
Ġf ap
Ġf ix
Ġf ind
Ġf ont
Ġf oster
Ġf pl
Ġf pd
Ġf cc
Ġf asting
Ġf cm
Ġf ame
Ġf sp
Ġf oley
Ġf bh
Ġb b
Ġb t
Ġb am
Ġb ag
Ġb ub
Ġb eal
Ġb erg
Ġb rod
Ġb orn
Ġb uch
Ġb rov
Ġb de
Ġb alan
Ġb da
Ġb bb
Ġb aum
Ġb esc
Ġb amberg
Ġb adal
Ġb erger
el a
el sch
Ġl f
Ġl id
Ġl ann
Ġl pl
Ġl cd
Ġl ithiasis
Ġl fs
Ġl iab
tic is
tic ks
ac ca
ac idemia
ac idurias
Ġr b
Ġr md
Ġr imm
Ġr usse
oc arb
oc cid
oc oria
ur itides
ur icular
ur acil
Ġde terior
Ġde hisc
id us
il es
il onychia
il aga
il hier
il tration
ec ed
ec ox
Ġg a
Ġg p
Ġg y
Ġg us
Ġg ig
Ġg ag
Ġg ub
Ġg ib
Ġg ian
Ġg ele
Ġg rac
Ġg aba
Ġg illes
Ġg bm
ol m
ol in
ol en
ol act
ol ling
Ġne oplas
et oma
et omas
ep ithel
ep endym
ep tidase
ep elin
um a
um ps
ut es
Ġv c
Ġv m
Ġv ies
Ġv oh
Ġv sd
Ġv ater
Ġv aqu
Ġv lin
Ġv cf
Ġv ddr
Ġv kc
ra v
Ġdef erens
Ġhyp s
Ġhyp ogenesis
Ġhyp ogenital
Ġhyp onatr
gen tin
gen eses
am n
am ate
Ġdys emb
Ġdys lexias
Ġdys betalipoproteinemia
Ġdys regulation
Ġch h
Ġch ed
Ġch ap
Ġch amp
Ġch eney
Ġch itay
si an
si gh
si veness
im e
im id
im oses
ell iasis
ell iases
ig uous
un is
un ier
un ts
Ġinf iltration
od a
od ect
od ion
Ġan i
Ġan o
Ġan ad
Ġan hyd
Ġan omia
Ġan odontia
Ġan ogenital
ing old
uc ci
Ġac g
Ġac las
Ġac rocephaly
Ġac nes
Ġac athisia
ot ti
ot el
ot subo
uro sis
ies t
ies er
Ġe um
ir es
Ġle iner
Ġle hmann
ch ez
ch horn
ch rist
eb s
eb row
eb ja
Ġmy osis
Ġmy oses
Ġmy iasis
Ġhyper n
Ġhyper emias
Ġhyper orn
Ġhyper ex
Ġhyper mel
Ġhyper kinesia
Ġhyper homocyste
Ġhyper osmolar
Ġsp d
Ġsp o
Ġsp eck
Ġsp da
Ġsp elling
Ġsp pk
Ġneuro retin
Ġneuro epithel
yl ia
yl iasis
Ġst l
Ġst um
Ġst ove
Ġw d
Ġw id
Ġw ms
Ġw ie
Ġw omen
Ġw fs
Ġw pw
ant omastia
Ġat p
Ġat lant
Ġat rophia
Ġi in
Ġi ow
ob il
Ġpar s
Ġpar ak
Ġpar tington
arc oma
arc erated
Ġep ig
Ġal ves
Ġal gs
Ġal anine
Ġhem ophilias
Ġk h
Ġk ent
Ġk ir
Ġk yr
Ġk aw
Ġk iller
Ġk indler
Ġk pps
Ġk yas
Ġk onig
Ġk itamura
Ġk ieser
Ġar rh
Ġar ak
Ġar ts
Ġar hr
Ġar gentin
ub ism
Ġad ap
Ġad natum
plas min
Ġth ann
Ġth md
Ġth orax
Ġth ai
Ġpr ea
Ġpr itz
Ġcongen itas
ver nos
oid ism
Ġlymph ocytopenias
Ġlymph ocytes
ple xia
Ġpro b
Ġpro pt
ati te
ati va
ect rodactyly
Ġgl ioses
Ġper tuss
Ġper sian
Ġx k
Ġx s
ib erg
ib ayama
ib eri
ach man
ach lan
up tmann
up edal
if ied
if unctional
encephal itides
Ġdyst roph
Ġdyst asias
Ġab l
Ġab cd
Ġab idi
Ġab derh
Ġcereb rom
Ġj eb
Ġj ob
Ġj unctions
Ġj ansky
Ġj atz
Ġj eune
re in
ang le
tr arapid
Ġmal her
ap ton
Ġse e
Ġse itelberg
Ġtum idus
ov itamin
end ing
Ġph le
Ġtumor i
erm algia
Ġtr im
Ġtr isomies
Ġtr ifunctional
Ġpol l
ab e
Ġam l
Ġam yl
Ġam mon
Ġam yg
Ġam az
Ġam ebiases
Ġex ogenous
Ġhered oat
ogen osis
oth enate
Ġepilep sia
Ġim in
Ġcor ino
Ġcor neas
yc ogenosis
ari um
Ġbl och
Ġbl au
tal ity
Ġii e
onic a
Ġsub ungual
Ġsub ependym
Ġpa i
Ġmulti form
Ġmulti dr
derm ot
Ġnon ocular
Ġnon aut
Ġnon aka
Ġprim us
Ġtran ebja
ith inemia
Ġcarcin osarcoma
Ġcarcin oids
Ġbr v
Ġretard ed
ow ski
Ġgen ios
Ġpul s
gr in
Ġint ellig
Ġsh ashi
Ġsh sf
Ġsh ibayama
cler otic
Ġaden itis
Ġaden opathy
Ġaden itides
Ġaden opathies
Ġaden osyl
Ġop enb
Ġop ioid
Ġop ercular
Ġperi vascular
of orm
of aci
Ġq azi
Ġ6 7
Ġoste osarcomas
ke ys
ocyt opathy
och eil
rop ody
st s
st ad
Ġcyst oides
Ġer ection
Ġmyel os
Ġmening es
Ġmening ovascular
opathic a
oderm ic
lic a
iv ian
iv ocerebellar
Ġfr ias
Ġfr ts
Ġfr da
Ġfr uste
Ġfr acca
eg o
Ġis s
Ġmic rov
Ġsch ol
Ġsch roet
Ġsch edule
Ġfe om
Ġfe vr
Ġfe ingold
est on
Ġthromb ocytosis
Ġco ast
Ġco unt
Ġco oley
Ġco unts
uv ant
Ġsc ars
Ġsc otia
Ġsc otian
Ġag u
Ġag onad
ak i
ak eb
Ġpseud od
Ġpseud osclerosis
Ġpseud omyotonia
Ġpseud ovitamin
Ġo a
Ġo av
Ġo rotid
Ġo titides
Ġo esophageal
Ġo ophor
Ġo yanagi
Ġto ledo
Ġscler itis
Ġscler itides
av son
Ġacid s
ea ux
ri um
Ġap s
Ġap mr
ers ch
Ġderm opathies
Ġun inhib
gl eston
angi oma
angi omatous
ist ling
Ġcardi opathy
Ġcardi ocranial
rod ystrophy
rod ysplasias
Ġcle avage
Ġmac leod
Ġmac dermot
Ġem esis
Ġem erg
Ġem erin
Ġcat s
Ġcat cn
Ġect romelia
fer i
Ġcl ark
Ġdi ego
Ġpneum atosis
Ġpneum othorax
Ġangi ostrong
Ġangi olipomas
Ġform e
Ġform s
Ġform ation
Ġeryth ermal
Ġeryth ermalgia
Ġca yler
Ġacqu is
Ġoptic as
Ġoptic oacoustic
Ġcr d
Ġcr st
Ġcr uve
Ġpartial is
Ġul trarapid
Ġcar ring
Ġcar rier
immun ity
Ġsm d
Ġsm ell
Ġsm ax
Ġsm oking
ogl yc
vel d
Ġintra ocular
Ġinter na
Ġinter phalangeal
Ġadult orum
Ġsin onasal
Ġglyc inuria
Ġglyc osuria
Ġmuc ositis
Ġmuc ositides
Ġmuc inoses
Ġmuc kle
Ġauto immunity
Ġes tren
rich oses
Ġarth ritic
ios clerotic
Ġlim itation
Ġcal orie
Ġha ar
Ġha im
Ġha emat
Ġha user
Ġha uptmann
Ġfl ow
und a
Ġtubercul oma
Ġtubercul omas
hyd ria
hyd ramnios
Ġaph akias
ock i
Ġsup pur
Ġear ed
Ġdr ift
sych iatric
Ġspin opontine
Ġnod osa
Ġnod ulosis
Ġocul opalat
Ġocul ocranios
Ġpsych ic
Ġlimb ed
icul ties
Ġpara hem
Ġpara omphalocele
Ġchor d
Ġall odynias
Ġgangl ione
yph alangy
Ġey ebrow
Ġprotein oses
Ġprotein opathies
Ġbreast s
Ġcord x
Ġcord is
Ġbrach mann
Ġbrach ycephaly
Ġbrach yphalangy
Ġdiff iculties
Ġmes ench
Ġkerat ocyst
Ġkerat odermia
Ġbull osas
orn er
uff ard
uff iciency
Ġcd l
Ġcd cd
Ġcd px
Ġlow n
anth ocytosis
Ġver a
Ġver ner
Ġver ticis
Ġmig ran
Ġendoc rinopathy
Ġintestinal is
ins ufficiency
Ġec g
Ġsep iap
Ġsym mers
Ġmo ynah
Ġmo ersch
Ġmar ker
Ġmar tine
Ġmar sidi
Ġhemorrhagic a
Ġ10 0
Ġenter ically
Ġenter opathica
Ġmit otic
Ġadrenal itis
Ġadrenal itides
Ġhypot onias
Ġinc arcerated
Ġbronch itis
Ġbronch ospasms
he iro
oblast osis
Ġpup ill
Ġpoly hydramnios
Ġmonosom ies
oencephal opathy
Ġhypoth ermias
Ġparoxysm s
Ġophthalm ias
Ġophthalm opar
Ġhemangi omatous
Ġhemangi oendotheliomas
omic romelic
Ġgluc osuria
Ġimp lanti
Ġdysfunction al
Ġstr ebl
Ġstr uma
Ġspondyl ol
Ġspondyl arthritides
Ġspondyl othoracic
Ġspondyl operi
Ġspondyl ocarpotarsal
Ġfibro aden
Ġfibro lamellar
bl ue
bl ings
Ġsim osa
Ġpur ine
Ġpy rophosphate
Ġz ie
Ġz imm
Ġz olling
Ġma ia
Ġma int
Ġcolor ado
Ġcalc inoses
Ġox ycephaly
Ġiv b
Ġiv emark
Ġmelan olys
Ġcrani odigital
Ġdepend ency
Ġphen otypes
Ġjo ag
Ġmethyl acetoac
Ġmethyl oxidase
Ġpseudo angiomatous
ople gias
ik rein
Ġast ley
Ġperiodic a
Ġtrich omegaly
Ġtrich ophyt
Ġtrich odental
Ġtrich oepithelioma
Ġtrich odisc
omyc in
ie z
Ġclas p
Ġig an
Ġchond rosarcomas
olip oma
oac et
Ġmetabolism s
Ġglomerul ocystic
Ġmor el
Ġmor ris
Ġmor rison
Ġmor tality
Ġbar b
Ġbar sy
Ġbar ber
Ġdermat o
Ġbe are
ca i
Ġparas it
Ġgingiv a
Ġgingiv o
Ġcm o
Ġpat ton
Ġdiss ections
Ġhepat oblastoma
Ġulcer ation
Ġulcer ating
Ġchol eras
Ġmin us
pro tein
Ġcap lan
Ġheter ozygous
Ġheter odisomy
Ġdiverticul itis
ald en
ord inations
Ġuro pathy
Ġden ys
Ġden ny
Ġden gues
Ġfanc d
Ġpick s
Ġreg ulator
Ġasth enia
Ġasth enias
Ġpe yron
Ġach illes
Ġach ylia
Ġwh istling
ger ated
oster olemia
Ġgro oves
Ġrheum atisms
Ġfasc itis
Ġfasc itides
Ġcyt oplasmic
Ġple onosteosis
Ġperiodon tium
Ġtor g
Ġtor ranc
Ġket on
Ġket ron
Ġket osteroid
Ġlam y
pl ained
Ġed a
Ġneu hauser
Ġod di
Ġsl en
Ġrod rig
Ġ18 0
Ġorg asm
uth auer
Ġdes atur
Ġps np
Ġbow ed
Ġpapill omatoses
Ġdan ks
Ġchole l
hep ator
Ġarthrogr yp
Ġgu erin
Ġvas oactive
Ġcalcific ans
loc ated
Ġchondrod ystrophic
Ġu hl
Ġu aqtl
Ġthym oma
Ġrhin encephalic
Ġent angle
Ġhip poc
odys ostosis
Ġacet on
Ġglut amine
rhythm ic
Ġmycobacter ioses
sk a
Ġtox opach
Ġcre e
Ġcre veld
Ġme hm
Ġatri um
Ġatri ums
Ġvestibul itis
cin y
Ġpag on
Ġmc f
Ġmc kd
Ġactin omycosis
Ġactin omycoses
Ġdent es
Ġprot an
Ġprot ective
Ġir vine
Ġmur k
Ġnight time
Ġlocal isata
Ġepis ode
Ġepithel iomas
Ġpolyp osus
Ġpolyp osi
Ġcoll es
Ġcoll odion
Ġsial idase
Ġsial idosis
Ġsial olith
Ġpyr imidine
Ġvulv ae
Ġvulv odynia
Ġvulv odynias
Ġhypop igmented
Ġmeta physes
pd c
Ġmat n
Ġmyx omas
Ġmyx edema
Ġwol tmann
eryth ro
Ġlab and
Ġlev ator
Ġlev enthal
Ġadd isons
Ġadh al
for th
Ġtet hered
Ġanal gesia
Ġamb ras
Ġamb iguous
Ġcholest ases
bil i
bil ities
Ġrest enoses
Ġrest oration
Ġald ren
Ġald osteron
Ġko ilonychia
Ġxanth ine
Ġtur keys
Ġhir chhorn
ace k
ofib roma
Ġdiarrh eas
Ġdiarrh eal
Ġel fin
Ġback ache
Ġback aches
odig it
odig estive
Ġacanth ocytoses
Ġacanth ocheil
Ġxx x
Ġmeningoencephal ocele
Ġbif unctional
Ġacro located
Ġmyotonic a
Ġcampt omicromelic
Ġhypo aldosteronism
Ġhypo adrenocorticism
Ġhyperp otass
Ġacetyl glut
Ġacetyl choline
min ans
nath isms
Ġpt os
Ġpter ygia
Ġpunct atas
Ġmann osidoses
ophys ic
Ġtend in
Ġber yll
Ġber iberi
Ġgr d
Ġgr n
Ġcond yl
Ġcraniosyn ostoses
Ġhirsch horn
Ġmas a
Ġdystrophic as
Ġvaria bili
Ġbeh mel
Ġfriedreich s
Ġger oderma
Ġvi is
Ġprec ocity
Ġcerebro oste
Ġcerebro hepator
Ġcerebell opontine
Ġelev ation
Ġna unay
Ġna irobi
Ġbi elsch
Ġbo erha
Ġhyperglyc emia
Ġhyperglyc emias
Ġiia e
Ġtri ang
Ġpolyradicul itis
Ġpolyradicul itides
Ġrheumatic a
Ġbisphosph ate
Ġtric eps
Ġfor est
Ġfor bes
aund ler
Ġfrag ilis
Ġfrag ilitas
Ġhypophosphat emias
Ġantib iotic
ophor ia
Ġunawareness es
ted ness
Ġet fb
Ġpine oblastomas
Ġalb a
Ġalb umin
Ġxp ter
Ġpapul es
Ġpapul oves
Ġhen derson
Ġarr ilaga
Ġsomat omed
Ġsomat ostatin
Ġmegal ocytic
Ġmegal encephalic
Ġfatal s
Ġblast oma
Ġblast omycoses
Ġblast ocyst
Ġnew c
Ġdysp neas
Ġkle ebl
Ġjak sch
Ġcit rin
Ġlax ova
amel ia
Ġorgan omegaly
ocl onus
Ġmicroc ytic
Ġdysmorph odystrophies
Ġcephal algia
Ġcephal algias
Ġpp b
Ġpp k
Ġpp ks
Ġhar rod
Ġgerm an
oli otic
Ġcong ophilic
Ġacrom ic
sm ark
Ġdiast ema
Ġtak ats
Ġtak otsubo
Ġev il
Ġev ents
ogranul omatosis
Ġnonp apillary
Ġnonp uerperal
Ġschwann omatosis
Ġtetra amelia
Ġbund les
Ġlymphangi oendothelioma
Ġlymphangi oendotheliomas
Ġhydroxy isobut
Ġsing leton
Ġpan encephalitis
Ġpan encephalitides
Ġmis sile
Ġtard bp
Ġtyph litis
Ġbro oke
Ġrich ner
Ġamo ebiases
Ġamin obut
Ġaddic tions
lo insufficiency
Ġcost en
Ġcycl ohyd
Ġmach acek
Ġnan ophthalmia
Ġchem ke
Ġchem odect
imot os
Ġwall erian
Ġretrac tile
Ġencephalomyel opathies
Ġom sk
Ġcur th
Ġcur ling
Ġjunctional is
Ġurid ine
Ġmacul es
Ġcervic itis
Ġcervic itides
Ġcop d
Ġpra ecox
Ġhyster ias
Ġfre ire
Ġfre iberg
amp al
Ġwald mann
Ġwald enstr
Ġxl a
Ġxl p
Ġxl t
artz man
ou in
Ġcbl c
Ġcbl f
Ġhh c
Ġlact ase
Ġren penning
Ġdeg root
Ġdevic s
Ġgyn and
Ġhypocal c
igin osa
Ġasc ending
abs orptive
Ġquadr upedal
Ġspher oid
me ier
Ġsan chez
Ġcp vt
Ġpil z
Ġmcop ct
Ġchondrom atosis
Ġchondrom atoses
Ġkap osis
Ġkap osiform
Ġgalactos emias
Ġketoac idurias
Ġcs nu
Ġfil ippo
Ġcamp ailla
Ġhyperphenylalan inemias
Ġsj s
Ġdo yne
Ġful minans
Ġgust avson
Ġhypov entilations
Ġkra jew
Ġkra epelin
Ġkra urosis
Ġeyel ids
Ġachal asias
Ġinguinal e
Ġah c
Ġaz ar
Ġoroph arnyx
Ġpolyendoc rine
Ġspermat ogenesis
ool ivocerebellar
Ġpot ocki
Ġmu ir
Ġepi phys
Ġepi physis
Ġkn ock
Ġkn ife
Ġkn iest
Ġcortic osterone
Ġmicros omia
Ġmicros tomia
Ġplan a
Ġplan itis
Ġcanal e
Ġtetras omies
Ġhidraden omas
Ġgastr itides
Ġdysauton omias
Ġwaldenstrom s
Ġta ussi
Ġlaf er
Ġgil christ
Ġspi egler
Ġih ss
Ġalex ias
Ġauts x
Ġincreas e
Ġsilver mann
Ġlentig os
Ġburkitt s
Ġechinococc is
Ġtal us
Ġlute inizing
ocul orenal
Ġvip omas
Ġacrocephal opolysyndactyly
Ġshap e
Ġflav im
Ġcollagen ous
Ġder iv
Ġbd b
Ġbun ions
Ġland ry
Ġeb ola
Ġkel oid
Ġarachn idism
Ġmetat arsus
Ġbrun ner
Ġmycoplasm al
Ġcarbamo yltransferase
Ġmorv ans
Ġfasci itides
Ġmediastin itis
Ġarc s
Ġarc us
Ġda roff
Ġdam eshe
Ġmad d
Ġfa a
Ġbroc k
Ġbroc ks
Ġgam bling
Ġgam blings
Ġanth onys
Ġlymphangiect ases
Ġprogr ediens
Ġnonpro liferative
Ġisomer ase
Ġmicrog astr
Ġimmuno osseous
Ġvesic o
Ġrot es
Ġpolyneur itis
Ġpolyneur itides
Ġloop ed
Ġrepair s
Ġsequard s
Ġell ison
omb es
Ġai h
Ġfar mer
Ġfow ler
Ġactiv ation
Ġactiv ated
Ġstrain s
Ġosteodysplastic a
Ġlipoid ica
Ġmacro orchidism
Ġcholec yst
Ġpasteur ellosis
Ġrestless ness
Ġfallot s
Ġvincent s
Ġti p
Ġcic atrix
Ġhyg romas
Ġfiss ures
Ġvacu ol
Ġcontin ua
Ġkal a
Ġkal ischer
Ġthi opurine
Ġsche uthauer
Ġhydro a
Ġsarcoid oses
Ġdelirium s
Ġmegac onial
Ġnaj ar
uy ama
Ġsr ps
Ġsr xx
Ġcb as
Ġpd b
Ġmang e
Ġmink owski
Ġhal al
Ġhal tia
Ġfle gel
Ġbs cl
Ġbuc kl
Ġbrad bury
Ġgel astic
Ġanis ospondyl
Ġanis ocoria
Ġstre eter
Ġalkal i
Ġalkal oses
Ġprog nathism
Ġextrac ranial
Ġbruc k
Ġduoden o
Ġduoden itis
don tism
Ġsad ism
Ġsad isms
Ġpn ca
Ġpont oolivocerebellar
Ġnag a
Ġnag uib
Ġbf n
Ġlaur in
Ġvel o
Ġchyl omicron
Ġeg gleston
Ġtransloc ase
Ġchori ocarcinomas
Ġspondylo arthropathy
Ġerythroblast openia
Ġguill aine
haus ens
Ġtouret tes
Ġebstein s
Ġnarrow ings
Ġcant u
esc ens
essi vely
Ġmi etens
Ġtest otoxicosis
Ġfemin izations
Ġbed ouin
Ġgan ong
oduod enal
Ġew ings
Ġlep tin
Ġpern iosis
Ġpern ioses
Ġreckling hausens
Ġfibroid s
Ġbrachy ectrodactyly
Ġengel br
Ġvarieg ated
Ġvarieg ata
Ġoxal ate
Ġoxal uria
Ġcholang itides
Ġglutam yltransferase
Ġsteat ohep
Ġelast osis
Ġcerebello oculorenal
Ġcsnb ad
Ġenchondrom a
Ġenchondrom as
Ġenchondrom atosis
Ġacalcul ias
fl ake
Ġdav id
Ġpf aundler
Ġhap ple
Ġhap loinsufficiency
Ġacrod yn
Ġaref lexia
Ġadj uvant
Ġ38 8
Ġprof unda
Ġosteochondrom a
Ġosteochondrom atosis
Ġosteochondrom atoses
Ġfreck les
Ġagranul ocytoses
Ġpseudogl ycogenosis
Ġradicul opathy
Ġradicul opathies
Ġround worm
Ġdermatofib rosis
Ġtetan ies
Ġsyring oma
Ġsyring omas
Ġhelminth iases
Ġdext ro
burg er
Ġdim itri
Ġpin heiro
atz nik
Ġmt c
Ġfilar iasis
Ġfilar iases
Ġprur itus
Ġprur iginosa
Ġ45 0
Ġtrip lication
Ġurb an
Ġorb it
Ġesthes ioneuroblastomas
Ġmerr f
Ġchorioretin opathies
Ġtapet ochoroid
Ġtracheobronch omegaly
Ġtracheobronch omegalies
Ġcps q
Ġpom gn
Ġtab atznik
Ġnucle otidase
Ġfuk ase
Ġfuk uhara
Ġfuk uyama
Ġbc g
Ġbra uer
Ġlub insky
Ġkau fmann
Ġblister s
Ġblister ing
ohem orrhagic
Ġthromboembolism s
Ġperiodont opathia
Ġrol land
Ġageus ia
Ġneurilemm oma
Ġneurilemm omas
Ġaneuploid y
Ġinfundib ul
Ġhyperphosphat emia
Ġerysipel as
Ġsd ty
arrhythm ias
Ġmol lica
Ġmcd r
Ġhop kins
Ġinequal ities
Ġfm fd
Ġrcd p
Ġdew ind
Ġgon ococcal
Ġwood s
Ġhemipar esis
Ġperia xialis
Ġmyelofib roses
Ġmeningomyel ocele
Ġmeningomyel oceles
Ġpseudoc amptodactyly
Ġpseudoc left
Ġprolifer ations
Ġhistid ine
Ġmartin elli
Ġinco ordinations
Ġtrichin ellosis
Ġtrichin elloses
Ġdissec ans
Ġsulfatid oses
Ġdysmet ria
Ġdysmet rias
Ġmidf acial
Ġmcc une
Ġviscer um
Ġviscer ums
Ġbabes iosis
Ġbabes ioses
Ġlentigin oses
Ġonc ocytoma
Ġadipic aciduria
Ġmicrometast asis
Ġmicrometast ases
Ġsarcoglycan opathies
Ġpyeloneph ritides
Ġtenosynov itides
Ġpent asomy
Ġmm vp
Ġmert en
Ġmcal pine
Ġagen esia
Ġbic eps
Ġlm ph
Ġdecal vans
Ġgass er
Ġdysth ymic
Ġcher ubism
ippl es
Ġperios titides
kew itz
Ġmyelomening oceles
Ġclin ic
Ġangiokerat omas
Ġnecrol yses
Ġpatell ae
Ġpatell ofemoral
Ġlambd oidal
Ġneurocyt oma
Ġneurocyt omas
Ġhemisp atial
Ġfranc esch
Ġgehrig s
Ġlegionna ires
Ġbrachymes omelia
Ġkojew nikov
Ġdegluti tion
Ġhemangioperic yt
Ġsul ph
Ġsul zberger
Ġci ip
Ġfors ter
Ġfors sman
Ġflec ks
Ġvl cad
Ġvir il
Ġhypochond riac
Ġdyscr asia
Ġdyscr asias
Ġletal i
Ġletal is
Ġhemim elia
Ġthick ened
Ġprep aralytic
Ġprotr usion
Ġparoti tis
Ġparoti tides
Ġshw achman
Ġshw artzman
Ġmich eli
Ġfetish ism
Ġfetish isms
Ġendophthalm itis
Ġendophthalm itides
osporid iosis
osporid ioses
Ġfootwart s
Ġoxoprol inase
Ġinvag inations
Ġpleuris y
Ġpleuris ies
Ġsuperinf ection
Ġsuperinf ections
Ġspongi oblastoma
Ġspongi oblastomas
Ġpolymy ositides
Ġpolymy oclonus
Ġmasoch ism
Ġmasoch isms
Ġetf a
Ġetf dh
Ġincompati bility
Ġincompati bilities
Ġchrist mas
Ġhoard ing
Ġhoard ings
Ġonchocerc iasis
Ġonchocerc iases
Ġbuny avirus
Ġbuny aviridae
Ġepicondyl itis
Ġepicondyl itides
Ġkienb ock
Ġkienb oeck
Ġdiphther ia
Ġdiphther ias
Ġpleuropneum onia
Ġpleuropneum onias
Ġdacry ocystitis
Ġcylindrom as
Ġtorsad e
Ġtorsad es
Ġacrospi roma
Ġacrospi romas
Ġthesaurism osis
Ġthesaurism oses
Ġdrunkenness es
Ġrhinotrache itis
Ġrhinotrache itides
Ġmiscarria ge
Ġmiscarria ges
Ġsack s
Ġsock et
Ġsemin oma
Ġdactyl olysis
Ġpant othenate
Ġtauro dontism
Ġhg prt
Ġhr pt
Ġhbl r
Ġaer odigestive
Ġfc as
Ġformal dehyde
Ġburg dor
Ġlib man
Ġrac ouch
Ġrid den
Ġrum ination
oco ele
Ġcha uffard
Ġche yne
cha edel
Ġhyperhid rosis
Ġhyperref lexia
Ġneurop sychiatric
Ġstup or
Ġatroph oderma
Ġparenteral ly
Ġkur u
Ġkann er
Ġkohl meier
Ġasbest os
Ġrecr uit
Ġsubnormal ity
Ġscaph ocephaly
Ġuracil uria
Ġjuven iles
Ġformimin otransferase
Ġuleryth ema
Ġarthromy odysplasia
Ġdracunc ul
Ġoculodent oosseous
Ġvalpro ic
Ġmarsh all
Ġprev ia
Ġoster tag
Ġicter ohemorrhagic
Ġgestation is
Ġpresyn aptic
Ġfragment ation
Ġpraev ia
Ġbulboca vernos
Ġpachyderm operi
Ġpseudopseud o
Ġvaccin iforme
Ġaddisonian ism
Ġsatur ine
Ġhypocupr emia
Ġperineph rium
Ġpfh b
Ġepididym is
Ġhydroxyphenyl pyruvate
Ġabrikos ov
Ġerythrodysesth esia
gart en
Ġoph ry
Ġomen n
Ġsg bs
Ġdmd a
Ġcec um
Ġcros ti
Ġcochle osaccular
Ġhnp cc
Ġnp ca
Ġnesidi oblastosis
Ġdisper sion
Ġdisrup tive
Ġbol ivian
Ġliv edo
Ġrab son
Ġneoin tima
Ġhypohyd ridic
Ġanc yl
Ġacn inv
Ġsprain s
Ġwitt wer
Ġkos aka
Ġkash in
Ġpriap ism
Ġreich el
Ġmalacopl akia
Ġtrit an
Ġexag gerated
Ġnonarter iosclerotic
Ġisochrom osome
Ġisoval eric
Ġmonteg gia
Ġunex plained
Ġcardiodys rhythmic
Ġmack lin
Ġerythrom elalgia
Ġhaw kins
Ġfluctu ation
Ġecth yma
Ġsimmond s
Ġmelanchol ia
Ġquinc ke
Ġbeard ed
etrahyd rofolate
Ġcamr q
Ġmanz ke
Ġchoroider emia
Ġgallst ones
Ġhaemangi oblastoma
Ġbehc et
Ġparaps oriasis
Ġtetrapl oid
Ġsnow flake
Ġleptosp irosis
Ġklats kin
Ġbradycard ia
Ġchilbl ain
Ġachei ropody
Ġcloud man
Ġgravidar um
Ġquadrant an
Ġpresbyc usis
Ġpellag ra
Ġfroeh lich
Ġhypertriglycer idemia
Ġsaccharop ine
Ġframb esia
Ġisomalt ase
Ġcalciphyl axis
dal o
Ġson oda
Ġsot os
Ġswar m
Ġsiew ert
Ġdop amine
Ġdest ombes
Ġcup ped
Ġcerton ciny
Ġprag matic
atts chaedel
Ġmlas a
Ġmib elli
Ġmill ard
Ġmage e
omut ase
Ġtast es
Ġtaw il
Ġhok pp
Ġauj esz
Ġnaf ld
Ġnhe j
Ġinte grin
Ġfch l
Ġfix ation
Ġfind ings
Ġfcm te
Ġbam forth
Ġbeal s
Ġbuch em
Ġbrov ca
Ġbaum garten
Ġbamberg er
Ġlann ois
Ġliab ility
Ġrimm ed
Ġdeterior ation
Ġdehisc ence
Ġgig antomastia
Ġgub lar
Ġgian otti
Ġgele ophysic
Ġgrac ile
Ġneoplas ias
Ġvies eaux
Ġvoh winkel
Ġvaqu ez
Ġvlin cl
Ġvkc fd
Ġhypogenital ism
Ġdysemb ry
Ġchamp ion
Ġchitay at
sigh tedness
Ġanad ysplasia
Ġhyperorn ithinemia
Ġspeck led
Ġwie acker
Ġiow a
Ġparak erat
Ġkyas anur
Ġkonig smark
Ġarak awa
Ġargentin ian
Ġadap tation
Ġthann hauser
Ġprea uricular
Ġpritz ker
Ġabderh alden
Ġjatz kewitz
Ġmalher be
Ġammon ia
Ġamyg dalo
Ġamaz on
Ġheredoat axia
Ġmultiform e
Ġmultidr ug
Ġnonaut oimmune
Ġtranebja erg
Ġgenios pasm
Ġintellig ence
Ġopenb ite
Ġfracca ro
Ġschroet ter
Ġagonad ism
Ġorotid ylic
Ġuninhib ited
Ġangiostrong yliasis
Ġerythermal gias
Ġcruve ilhier
Ġcarring ton
Ġoculocranios omatic
Ġganglione u
Ġmesench ym
Ġsepiap terin
Ġmoynah an
Ġmartine z
Ġspondyloperi pheral
Ġzolling er
Ġmelanolys osomal
Ġtrichodisc omas
Ġtorranc e
Ġorgasm ic
Ġdesatur ase
Ġhippoc ampal
Ġmehm o
Ġaldosteron ism
Ġacetylglut amate
Ġcerebrohepator enal
Ġbielsch owsky
Ġpapuloves icular
Ġsomatomed in
Ġkleebl attschaedel
Ġtakats uki
Ġcyclohyd rolase
Ġkrajew ska
Ġtaussi g
Ġdameshe k
Ġmicrogastr ia
Ġbuckl ers
Ġanisospondyl ic
Ġengelbr eth
Ġroundworm s
Ġtapetochoroid al
Ġpomgn t
Ġhypochondriac al
Ġburgdor feri
Ġracouch ot
Ġbulbocavernos us
' d
a al
a ron
a emias
b a
b y
b an
b ation
b ch
b ronch
b ott
b aum
b urn
b ulbar
c y
c z
c ephal
c up
c ax
c kd
c ifer
c obar
c owitz
d c
d ens
d ontia
d irectional
e at
e ac
e aring
e zo
e tig
e ks
e eding
e oretinal
e ola
f c
f n
f r
f ur
f ous
f acial
f nd
g ent
g am
g re
g eral
g erm
g ow
g ood
g ian
h o
h t
h en
h ib
h ry
h izomelic
h ardt
h uana
h olm
i et
i itis
i ant
i ental
i oste
i omatosis
i vers
i olitis
i aris
i rations
i rovirus
i hi
i ology
i ene
i ello
j i
j orn
j hn
j eac
k m
k ist
k ie
k awa
k owitz
l ob
l son
l ns
l sd
l ister
l amp
l atter
l agh
l achlan
m ch
m all
m ci
m mal
m atism
m ckd
n k
n up
n ox
n ow
n ke
n eberg
o ia
o el
o ias
o ag
o ros
o qu
o tility
o ugh
o amide
o rough
o oping
p a
p g
p u
p in
p as
p on
p ch
p etic
p est
p ain
p ebral
p kd
p lices
p ecial
q i
r f
r m
r ies
r eal
r ism
r illary
r eta
r iases
r mann
r insky
r ebetalipoproteinemia
s a
s l
s r
s ons
s te
s ma
s utism
s ickness
s uring
t g
t ar
t ys
t ub
t ations
t man
t anic
t agl
t aphyl
t ely
t omias
t ensi
t rochanteric
u rom
u ple
u tions
u emp
u fous
v m
w c
w k
w ell
w ard
w cr
w itz
w ash
w ean
x u
x ill
y w
y drom
y opathy
y tia
y uan
z t
z er
z ations
z ay
z oster
z ani
z gre
Ġ athy
Ġ enti
Ġ omp
Ġ eld
Ġ enth
Ġ tig
Ġ tim
Ġ umbil
Ġ umph
al a
al s
al en
al ias
al ach
al gic
al cin
al az
al sia
ti p
ti ary
ti fer
ti tious
ti ts
ti zation
er is
er ia
er tion
er tal
er one
er ling
er ichsen
er ford
er res
ro plasias
ro traum
ro plasm
in ed
in ig
in ative
in ca
in dromic
in vasive
Ġs es
Ġs or
Ġs ia
Ġs el
Ġs ve
Ġs am
Ġs oma
Ġs ost
Ġs anc
Ġs ox
Ġs af
Ġs amm
Ġs ke
Ġs und
Ġs sd
Ġs ids
Ġs ors
Ġs acc
Ġs ah
Ġs enn
Ġs ipple
Ġs ylvian
Ġs accular
Ġs uther
Ġs ticks
Ġd l
Ġd ar
Ġd id
Ġd ib
Ġd ian
Ġd ms
Ġd und
Ġd our
Ġd enb
Ġd pd
Ġd sh
Ġd sm
Ġd oll
Ġd dp
Ġd uffy
en et
en um
en der
en sive
en ke
en tions
en ite
en fl
en go
en loch
as d
as ed
as il
as se
as tian
as aki
as burger
on z
on ver
on orch
on avicular
on astr
on iere
on olact
Ġc x
Ġc is
Ġc es
Ġc ep
Ġc ary
Ġc ory
Ġc ab
Ġc asc
Ġc roc
Ġc oste
Ġc och
Ġc entric
Ġc st
Ġc cal
Ġc na
Ġc anth
Ġc iss
Ġc ct
Ġc ass
Ġc ocarcin
Ġc ie
Ġc tl
Ġc ts
Ġc ta
Ġc kn
Ġc fd
Ġc yan
Ġc umm
Ġc utane
Ġc inca
ar ita
ar iases
ar ren
ar axis
ar tilaginous
ar lane
is per
is sions
es tin
es lagh
Ġp us
Ġp od
Ġp cl
Ġp ib
Ġp ink
Ġp ax
Ġp asc
Ġp unc
Ġp orph
Ġp int
Ġp ps
Ġp ie
Ġp tl
Ġp de
Ġp ash
Ġp ta
Ġp pd
Ġp cs
Ġp ga
Ġp ds
Ġp da
Ġp co
Ġp ica
Ġp fd
Ġp uj
Ġp kan
Ġp ths
Ġp umph
ic olor
an es
an ch
an oses
an ug
an esth
an oyl
at en
at es
at ell
at ellar
at ally
at aci
at ayama
os inemia
os sias
os cro
os ilic
os accharide
or am
or ase
or tive
or st
or ff
or ian
or aph
or ums
or ini
or hydria
or hizomelic
Ġm k
Ġm th
Ġm itis
Ġm ism
Ġm erm
Ġm ab
Ġm oth
Ġm and
Ġm ow
Ġm amm
Ġm st
Ġm oss
Ġm ts
Ġm ci
Ġm yster
Ġm va
Ġm aff
Ġm fs
Ġm mm
Ġm obilities
om es
om us
om id
om ens
om ian
om etra
om pression
om ez
om itant
om ophth
om ania
Ġt y
Ġt am
Ġt romb
Ġt ung
Ġt angl
Ġt ga
Ġt oler
Ġt cc
Ġt co
Ġt pm
Ġh j
Ġh os
Ġh ob
Ġh re
Ġh art
Ġh yph
Ġh ps
Ġh ca
Ġh ord
Ġh arb
Ġh cc
Ġh we
Ġh dr
Ġh ouston
Ġh asp
Ġh ydrom
rom uc
ph y
ph ar
ph thalm
ph orase
Ġa as
Ġa ar
Ġa ic
Ġa os
Ġa om
Ġa em
Ġa tic
Ġa id
Ġa im
Ġa esth
Ġa romatic
Ġa ugh
le k
le an
yn g
yn old
yn ski
yn uren
Ġn g
Ġn n
Ġn el
Ġn ot
Ġn ax
Ġn iv
Ġn ull
Ġn ak
Ġn ms
Ġn ae
Ġn ps
Ġn iss
Ġn ii
Ġn cr
Ġn ie
Ġn td
Ġn ipples
Ġn lsd
ia doch
ul atory
ul atus
ul onolact
Ġsyn otia
Ġsyn kinesis
Ġsyn cy
Ġsyn gam
Ġdis app
Ġdis omies
Ġdis junctions
Ġdis germ
drom e
drom al
us k
us ia
us ias
us ens
us uscep
us ka
ed ias
ed yl
ed emat
em ase
em eral
em ond
em esis
em enti
em matic
em enite
it el
it osis
it re
it ance
it ement
it ans
it rull
Ġin i
Ġin ability
op ari
op ust
op apul
op oul
op alp
op atellar
yp tian
Ġf n
Ġf t
Ġf as
Ġf ph
Ġf ed
Ġf it
Ġf ad
Ġf ros
Ġf oth
Ġf amm
Ġf lamm
Ġf ug
Ġf ong
Ġf unctions
Ġf ah
Ġf ss
Ġf its
Ġf inding
Ġf ih
Ġf ipa
Ġf echt
Ġf lash
Ġf inkel
Ġf unis
Ġf jhn
Ġf estin
Ġb ys
Ġb ent
Ġb et
Ġb ut
Ġb ob
Ġb ron
Ġb ric
Ġb oh
Ġb af
Ġb of
Ġb anti
Ġb av
Ġb eth
Ġb cr
Ġb dm
Ġb iosyn
Ġb ott
Ġb pp
Ġb uz
Ġb yler
Ġb idirectional
Ġb iman
Ġb jorn
el le
el od
el ip
el ap
el eni
Ġl al
Ġl os
Ġl om
Ġl uc
Ġl ap
Ġl amm
Ġl ack
Ġl itt
Ġl obul
Ġl ord
Ġl cs
Ġl uj
Ġl rs
Ġl inder
Ġl anug
tic us
ac rimal
ac anthocytosis
ac ulatus
Ġr an
Ġr ut
Ġr ate
Ġr iz
Ġr iv
Ġr sd
Ġr ds
Ġr unt
Ġr dp
Ġr ift
Ġr uther
Ġr sts
Ġr mch
Ġr rm
Ġr ufous
oc orm
oc ondyl
oc last
oc orac
oc ecal
oc ara
oc itrull
ur v
ur amin
ur ings
ur amine
ur rier
ur uta
ur ston
Ġde ter
Ġde cl
Ġde uter
Ġde bar
id y
id in
id ity
id emic
id ose
id uct
id ars
il ymph
il sky
ec an
ec rosis
ec roses
ec eptor
ec tile
Ġg k
Ġg ut
Ġg up
Ġg ros
Ġg ab
Ġg ual
Ġg iac
Ġg ans
Ġg ain
Ġg reas
Ġg ross
Ġg aci
Ġg oll
Ġg els
Ġg umm
Ġg ains
Ġg tp
Ġg fnd
Ġg omez
Ġg ulonolact
Ġg itel
Ġg urrier
ol an
ol osis
ol uric
ol inesterase
ol alia
ol acrimal
Ġne um
Ġne gr
Ġne ug
Ġne tter
ent up
ent aff
ent amoeb
ent ooste
enc ies
las emia
et roc
et to
ial s
iti d
iti de
ath an
ath ione
th orax
ep ine
ep ens
ep sis
um ar
um off
um ada
um pled
ut ra
ut sch
ut orian
Ġv d
Ġv f
Ġv z
Ġv md
Ġv hl
Ġv ector
Ġv orner
Ġv bch
ra f
ra ve
ra eli
Ġdef iant
Ġhyp of
Ġhyp oderm
Ġhyp lip
Ġhyp olip
Ġhyp oac
Ġhyp omen
Ġhyp osal
Ġhyp onychia
Ġhyp oactive
Ġhyp ogeneses
Ġhyp oren
gen der
gen ase
gen etic
gen hal
am ic
am ia
am orph
am eth
am ents
am ensis
der vanc
Ġdys l
Ġdys n
Ġdys s
Ġdys gl
Ġdys rhythm
Ġdys esthesia
Ġdys encephalia
Ġdys keratotic
Ġdys geneses
Ġdys cephal
Ġch n
Ġch s
Ġch ick
Ġch itt
Ġch aud
Ġch avan
Ġch alaz
Ġch utorian
im ers
im pl
im mer
oma xill
ell ine
ig ital
ig ne
un k
un iss
un cles
od or
od oth
od ops
Ġan h
Ġan on
Ġan op
Ġan ep
Ġan ch
Ġan encephal
Ġan ov
Ġan derm
Ġan och
Ġan encephalies
Ġan omias
Ġan otia
ter na
ter idine
Ġcon f
Ġcon ns
Ġcon val
ran i
ran ia
ran encephalies
Ġac y
Ġac ros
Ġac hl
Ġac ule
Ġac rp
Ġac uta
Ġac creta
Ġac eruloplasminemia
ot o
ot ting
ot rophic
ot ubercul
ot ocin
ot omus
ud esc
roph age
roph obia
ous us
ous se
ous tian
ies is
Ġe e
Ġe an
Ġe ard
Ġe ich
Ġe kd
Ġe bd
Ġe hs
Ġe oca
Ġe oe
Ġe aten
ym as
ym ann
ym aker
ym atous
order line
ag ul
ag onia
ag ios
ag eria
athy rism
oplas tin
ir re
Ġle d
Ġle e
Ġle bers
ch en
ch ing
ch isis
ch ises
ch hausen
eb le
eb ec
eb rae
eb ased
tin en
tin um
Ġmy osclerosis
Ġmy algias
Ġmy otil
Ġmy odystrophic
Ġmy oencephalopathy
Ġmy algic
Ġhyper b
Ġhyper pr
Ġhyper arg
Ġhyper fib
Ġhyper ech
Ġhyper co
Ġhyper ek
Ġhyper phalangy
Ġhyper kinesias
Ġhyper zin
Ġsp um
Ġsp arg
Ġsp aring
Ġsp itz
Ġsp okes
Ġsp ahr
Ġsp anish
Ġsp onastr
ost enoses
anc ed
Ġneuro s
Ġneuro sch
Ġneuro vascular
Ġneuro ser
Ġneuro the
Ġneuro dyn
Ġneuro asp
Ġneuro anesth
Ġneuro acanthocytosis
Ġneuro genetic
yl id
yl ate
yl choline
ard on
ard iac
Ġst ut
Ġst yloid
Ġst unn
Ġst oll
Ġst unning
Ġst ains
Ġw m
Ġw erm
Ġw ins
Ġw arth
Ġw ts
Ġw ss
Ġw yb
Ġw adia
ant ap
ant oni
ad d
ad e
ad y
ad ed
ad ione
ad uod
Ġat c
Ġat ony
Ġat ransferrinemia
ital ism
act oid
act ati
Ġi j
Ġi k
Ġi o
Ġi q
Ġi im
Ġi ig
Ġi ran
Ġi if
Ġi pd
ob ias
ob oth
ob art
ob ezo
ob iology
Ġpar t
Ġpar age
Ġpar etic
Ġpar ts
Ġpar atr
arc omas
yst rophies
yst ole
yst oles
yst rophia
ess er
Ġep d
Ġep p
Ġep il
Ġep pk
Ġep erythro
Ġal ad
Ġal og
Ġaut ophag
ip pos
Ġhem ib
Ġhem idia
Ġhem opt
Ġhem pas
Ġk am
Ġk ym
Ġk end
Ġk oh
Ġk ras
Ġk cs
Ġk ah
Ġk ats
Ġk uz
Ġk orean
Ġk enner
Ġk wash
Ġk atayama
Ġk umar
Ġk ousse
Ġk antap
Ġar ima
Ġar hi
Ġar roy
Ġar wh
Ġar edyl
ub ak
Ġad yn
Ġad cad
Ġad mckd
Ġad iadoch
ile d
ile th
Ġth e
Ġth urston
Ġpr ick
Ġpr ele
Ġpr ps
Ġpr ata
Ġpr iet
ron emias
ron ych
ver gel
oid oses
Ġlymph ang
Ġlymph omat
Ġlymph ocele
Ġlymph openia
oph onic
oph ytia
ral gia
ral gias
ral tar
Ġpro tract
Ġpro drome
ati an
ati le
ati de
ati ves
ati vus
Ġgl ab
Ġgl ios
Ġgl ossal
Ġper m
Ġper he
Ġper odactyly
Ġper sis
Ġper ei
Ġper creta
Ġper oniere
Ġper ilymph
Ġre ar
Ġre ed
Ġre av
Ġre eling
Ġre ves
Ġre absorption
Ġre ynold
Ġre ardon
Ġx o
Ġx r
Ġx v
Ġx iv
Ġx ls
uk es
uk yuan
Ġcongenital e
Ġcongenital es
og ly
og onad
og ora
ib aud
ib omian
ric eps
ocy cl
ism ann
Ġher sh
Ġher tz
Ġher rmann
Ġleuk oma
Ġleuk oderma
ach am
ach isch
ens ity
ens ae
if man
Ġdyst oc
Ġdyst opia
Ġdyst rans
Ġab b
Ġab asia
Ġcereb ritis
Ġcereb ritides
Ġcereb romal
Ġj a
Ġj p
Ġj al
Ġj ar
Ġj et
Ġj ag
Ġj ae
Ġj ps
Ġj ank
Ġj abs
Ġj me
Ġj equ
Ġj lns
Ġj actati
omy opathy
omy osin
sy ring
re ting
re otic
re versible
Ġcom mo
tr ens
tr emmatic
Ġ4 0
iz ian
Ġmal s
Ġmal onic
Ġmal ak
Ġmal ta
Ġmal position
Ġmal pu
ap at
ap it
ap ill
ap ore
ap illar
ap illedema
ap nia
Ġse eding
ne uramin
Ġhe id
Ġhe ifer
Ġhe erford
Ġhe ymann
ov ic
ov iral
te us
Ġas ial
end o
end orff
Ġph o
Ġph ox
Ġph yc
Ġph ases
Ġph hi
Ġph ymatous
Ġrec ti
Ġrec ession
Ġrec essions
Ġrec omb
Ġrec essively
ros aden
ros tagl
Ġtr ii
Ġtr unk
ox an
ox anth
ox oplasmosis
Ġpol g
ab ies
Ġam d
Ġam eb
Ġam st
Ġam cb
Ġam etrop
qu at
qu ement
qu ez
ill in
ill us
ill arg
ill ie
Ġex pr
Ġex pression
Ġex haus
Ġex acer
Ġex odev
Ġex hib
Ġex terna
Ġhered opathia
ogen it
oth romb
and in
ax ias
ax ies
Ġim pr
Ġim pression
Ġencephal on
Ġencephal ito
Ġcor s
Ġcor rid
ion itis
ion ine
ion itides
ion asal
Ġpost thromb
Ġpost uring
Ġpost absorptive
Ġpost wean
Ġpost zoster
Ġpost urings
Ġpal pebral
Ġpal indromic
Ġpal agonia
yc opros
kin eses
se xual
all at
Ġbl s
Ġbl izz
Ġchrom oblast
Ġchrom atid
tal opia
tal sis
Ġii h
Ġii j
oh ue
Ġoc rl
onic um
Ġsub endothel
orrh oea
Ġpa h
Ġpa rod
Ġpa use
Ġpa uses
Ġpa ulo
Ġpa kist
Ġpa ronych
asc in
Ġchron obiology
ue z
af fer
Ġmulti directional
Ġmulti plices
Ġnon kerat
Ġnon reas
Ġnon erup
Ġnon nuclear
Ġnon hered
roc yst
roc utaneous
roc orneal
roc oel
roc alcin
roc onver
Ġmet agon
Ġmet amorph
ith iases
Ġ5 6
Ġ5 7
inant s
art s
Ġbr u
Ġbr es
Ġbr ks
Ġbr iqu
Ġbr ubak
ow ay
Ġfib re
oste ochond
oste olyses
gr as
Ġint uss
Ġint ranuclear
Ġint ususcep
Ġcol av
Ġcol ick
Ġcol oves
Ġsh in
Ġsh ak
Ġsh fd
Ġsh ipp
cler osis
Ġaden oses
Ġaden olymph
Ġop s
Ġop pos
Ġop ta
Ġop position
Ġop isth
Ġperi hep
Ġperi impl
Ġq rs
Ġ6 2
Ġ6 5
Ġ6 6
Ġoste itides
Ġoste ogl
Ġoste oplastic
Ġoste olytic
Ġoste orad
Ġoste odystrophies
Ġoste osclerotic
Ġoste oclast
Ġlip omyel
Ġlip ochond
Ġlip oyl
Ġlip omembranous
Ġlip osclerotic
Ġlip odermat
Ġlip ogranulomatosis
ke e
och ez
och olinesterase
Ġdia phys
Ġdia gn
Ġdia phorase
rop ar
rop ia
rop ical
rop ions
rop terin
Ġcyst olith
Ġer uct
Ġer go
Ġer ectile
Ġmyel itides
Ġmyel oencephal
Ġmening omyelitis
Ġmening ofacial
Ġmening ococc
Ġmening oradicul
Ġdeaf fer
Ġang eles
Ġang uill
oderm atitis
oderm atitides
lic ated
iv ation
iv eness
ull er
ior k
ior achisch
eg m
eg re
eg ers
Ġis osp
Ġis sd
Ġis odisomies
Ġis raeli
Ġmic rogen
Ġmic rol
Ġmic rolithiasis
Ġmic pch
Ġsch n
Ġsch ut
Ġsch latter
Ġsch epens
ast le
Ġfe er
Ġend e
Ġend ole
Ġend osal
Ġend otoxic
Ġend arter
Ġend otox
Ġthromb ophilic
Ġthromb ocytopathy
Ġthromb oplastin
Ġtrans positions
Ġtrans gender
Ġtrans sexual
Ġco e
Ġco en
Ġco inf
gener ative
uv ica
uv rier
uv oyl
Ġsc d
Ġsc ra
Ġsc iss
Ġsc rot
Ġsc alen
Ġsc urv
Ġag at
Ġag itation
Ġag oraph
ak is
ak ut
Ġpseud or
Ġpseud odyst
Ġpseud olymph
Ġpseud oscleroses
Ġpseud ocholinesterase
Ġhep arin
Ġhep atis
Ġo esophag
Ġo rot
Ġo zen
Ġo kl
Ġo romuc
per son
Ġto uch
Ġscler oma
Ġscler omas
Ġscler otic
Ġscler osteosis
Ġur ia
Ġur ioste
Ġmon k
Ġmon o
Ġmon osome
Ġmon omelic
Ġmon opar
Ġmon oplegia
Ġmon ocarb
Ġmon iez
Ġmon ileth
omal y
Ġben acer
Ġpl a
Ġpl sd
Ġimmun ity
Ġimmun ore
Ġimmun oneuro
Ġassoc iations
Ġabs ences
Ġabs orptive
ri atum
ft c
ft ed
Ġdegener ativus
Ġap c
Ġap o
Ġap oc
Ġap ud
Ġap ld
Ġap oe
Ġap eced
Ġap atite
Ġor is
Ġor ch
Ġor iental
Ġspinal is
Ġcent ro
Ġderm ochond
otic a
Ġun ion
Ġun res
Ġun idirectional
Ġun ste
Ġpo ads
Ġpo ems
Ġhyd m
Ġhyd r
Ġhyd raden
Ġhyd ratase
Ġcomple tely
Ġpos ther
Ġins ertion
Ġnerv us
Ġnerv osas
Ġcardi oencephal
Ġcardi opulmonary
Ġcardi oskeletal
opro teus
Ġ7 0
Ġ7 1
Ġ7 3
Ġ7 4
Ġ7 6
Ġ7 8
Ġtooth less
rod ism
rod entooste
rod igital
rod ystrophies
yt oin
ert ain
Ġmac rodactyly
Ġmac rogyria
Ġmac rophag
Ġmac lachlan
Ġmac rophage
Ġintrac ardiac
yr ing
yr ate
yr uvate
Ġem d
Ġem ac
Ġem eses
Ġcat c
Ġcat el
ild ing
rox ycopros
Ġcl oac
Ġcl onorch
Ġcl arren
Ġcl otting
Ġdi eter
Ġdi rof
Ġdi oxy
Ġdi entamoeb
Ġpneum opericardium
Ġangi ogranul
Ġangi ohem
Ġangi oleiomy
Ġangi ofibromas
Ġob ese
Ġob jective
Ġob rinsky
Ġform ed
Ġeryth roid
Ġsleep wal
Ġrh uc
Ġrh onch
Ġrh odops
Ġneph roblast
ail s
Ġca e
Ġca q
yroid isms
Ġcr ps
Ġcr esc
Ġcr iswick
Ġcr umpled
Ġheart worm
Ġheart water
Ġnec ator
Ġcer ea
Ġcer uloplasm
Ġ8 3
Ġ8 5
Ġ8 7
Ġ8 9
ystic erc
Ġcar lson
Ġsec und
Ġref low
Ġref eeding
immun oglobulinemia
Ġsm oulder
Ġsm ear
Ġsm mci
ogl ossia
Ġinter leuk
Ġinter trochanteric
Ġadult s
Ġsin opulmonary
Ġglyc inemia
Ġglyc inemias
Ġglyc eric
Ġmuc orm
Ġmuc oepithelial
odyst rophia
Ġes odev
Ġes cobar
Ġes pecial
Ġsten ose
Ġarth roch
Ġarth ropathies
Ġarth rodentooste
Ġgranul ocytopenia
Ġov oid
Ġov ari
Ġov iduct
Ġlim itus
Ġlim iting
Ġol d
Ġcranial is
Ġcerebellar is
Ġcal ves
Ġcal pain
Ġha as
Ġha an
Ġha ws
Ġha jd
Ġha ymaker
amin uria
Ġfl ail
Ġfl ait
Ġfl au
Ġcardiomy opathic
hyd ranencephaly
hyd roxycopros
Ġ9 3
Ġ9 4
Ġ9 6
Ġmari huana
Ġaph alang
Ġaph alangy
Ġsinus oidal
ack ova
cal cifer
emat osa
oprotein emic
Ġresp irovirus
Ġdr yness
Ġdr usens
sych otic
ae ophor
Ġgeneral is
ong ue
Ġbil har
Ġocul ofacial
Ġocul ocerebral
Ġocul opal
Ġocul omaxill
ophthalm ias
arg es
icul ofrontonasal
Ġcharcot s
Ġpara arter
Ġpara quat
yloid iasis
yloid iases
Ġgast ros
Ġgast aut
Ġgast ropar
Ġchor ist
Ġall an
Ġall oxan
Ġgangl ioneuroblastoma
yph odysplasia
Ġro yal
Ġro ts
Ġro zd
Ġro ifman
Ġval ine
Ġval ves
Ġprol ine
Ġfo ix
Ġsarc ocyst
Ġsarc optic
Ġcran ios
Ġcran iorachisch
Ġamyloid otic
Ġprotein opathy
Ġcord s
Ġepiderm itis
Ġepiderm ophyt
Ġhemat ochez
omyel itides
eth adione
Ġbrach ycephal
Ġdiff usa
Ġmes oneph
Ġneurol ymph
ele tions
Ġen gl
Ġen olase
Ġbull ae
Ġcd b
Ġcd r
Ġcd t
Ġcd pd
Ġesophag ogastric
anth em
anth omas
Ġver as
Ġmel ioid
Ġhepatic a
Ġcont ents
Ġcont agios
Ġext rophy
Ġext rophies
Ġext ensive
md s
Ġneur asth
ins el
ins ons
Ġec d
Ġven ogenic
Ġsep ses
Ġvit elline
Ġmo esch
Ġmo unier
olytic a
Ġmar les
Ġmar ek
Ġpel iosis
Ġpel vi
osp ong
osp araxis
Ġshort ening
Ġfistul ae
Ġenter op
Ġenter ob
Ġenter ocutaneous
Ġenter otox
Ġfol ie
ok i
ok oro
Ġvari ol
Ġhern don
Ġgi ard
Ġhypot ransferrinemia
Ġasp icular
Ġasp irations
Ġpalm ar
Ġinc reta
Ġbronch opneum
Ġdehyd ratase
Ġdehyd rated
iss istic
ocytop enic
Ġresist ances
Ġpoly arth
Ġpoly glut
Ġuter i
Ġy emenite
Ġophthalm ic
Ġmem ber
omer ang
Ġbacter i
Ġbacter emic
Ġdwarfism s
Ġhemangi osarcoma
Ġhemangi omata
Ġsever ity
Ġmr kh
omic rotia
Ġgluc osyl
Ġimp ort
Ġimp action
Ġimp etig
Ġmeth ionine
Ġgalact ocoele
itt ac
itt ant
Ġstr id
Ġstr iae
Ġstr iations
Ġstr uemp
Ġstr asburger
Ġvag inosis
Ġspondyl ar
Ġspondyl odysplasia
Ġspondyl odis
Ġspondyl odisc
ux etic
uch is
Ġfibro plasia
Ġfibro plasias
Ġfibro odont
bl a
Ġfetal i
Ġpy rom
Ġpy le
Ġpy oh
Ġvar iation
Ġz eta
Ġz lot
Ġz erres
Ġz uska
Ġz immer
Ġma a
Ġma ine
Ġma ke
Ġdiabetic orums
Ġfac es
Ġfac titious
Ġwe ary
Ġwe instein
Ġwe ismann
ific ance
ren ias
Ġcalc ane
Ġox oglut
Ġser ies
Ġser ositis
Ġser kal
Ġser osal
Ġser pen
Ġwil m
Ġwil kinson
Ġwil kie
Ġwil dervanc
Ġiv s
Ġcarb ox
Ġcarb onic
Ġcarb oxylate
Ġmelan oamel
Ġsw ift
Ġsw ami
Ġhydrox ylation
Ġcrani ofrontonasal
Ġcrani odiaphyseal
Ġcrani ostenosis
Ġsal t
Ġsal em
Ġsal eh
Ġsal ih
Ġsal ping
Ġcystic a
Ġdepend ences
Ġphen otypic
cr d
cr atch
Ġrem issions
Ġmethyl t
Ġmethyl but
Ġmethyl cobalamin
Ġmethyl enet
ier es
ier res
Ġmer kle
Ġvascul ogenic
Ġvascul ature
Ġvascul itide
asth enias
Ġpseudo ophthalm
Ġpseudo aph
Ġpseudo arthrosis
Ġprost ration
ik en
ik ar
ik ow
ik off
Ġlac az
Ġlac tifer
Ġast asia
Ġast rogl
Ġschiz encephaly
rocyt osis
Ġbas aran
Ġtrich ocephal
Ġtrich obezo
Ġtrich ophytia
Ġqu iver
Ġqu estion
Ġqu ivers
Ġqu ebec
Ġherp ang
Ġclas ped
aden ed
aden oma
aden omas
Ġig f
Ġig ad
Ġnons emin
Ġnons mall
Ġnons taphyl
Ġnev o
Ġnev oxanth
vic ollis
Ġbor k
Ġbor rone
Ġpre hyp
Ġpre invasive
Ġpurpur ic
yal gia
Ġtach y
Ġchond ritis
Ġchond ritides
Ġchond roste
ern ails
Ġinher itance
Ġlateral ity
Ġgra ying
Ġgra witz
Ġmyasth enias
our i
Ġot ocephaly
Ġot ospong
Ġbar el
Ġbar ak
Ġbar row
Ġbar rier
Ġbar abas
Ġanti di
Ġanti plasmin
athyroid al
Ġdermat opol
Ġdermat ophyt
Ġdermat osparaxis
Ġbe j
Ġbe zo
Ġbe ukes
Ġble phar
Ġparas ympathetic
Ġparas tremmatic
Ġos good
Ġcm l
Ġcm tr
Ġcm ta
Ġcm pd
Ġcrypt omicrotia
Ġpat el
Ġpat au
Ġhepat olen
Ġulcer ogenic
Ġulcer onec
Ġdu h
Ġdiver gent
Ġsulf ite
Ġsulf hem
Ġsulf atide
Ġmin ers
Ġspl anch
Ġneurofib rillary
Ġimperfect as
tl es
Ġcap os
Ġcap gras
Ġte ars
Ġte utsch
Ġheter ozyg
Ġheter odisomies
Ġdiverticul as
Ġlo a
Ġhypog alac
Ġhypog eus
Ġdysm otil
Ġdysm otility
Ġmitochond ria
Ġuro facial
Ġden tic
Ġcam era
Ġfanc iers
Ġplas tic
Ġpick wick
Ġavul sed
vern ousus
Ġreg ions
Ġasth en
Ġganglios idose
Ġic r
Ġic ca
Ġpe x
Ġpe tits
Ġach ard
Ġach oluric
Ġwh ooping
Ġwh isper
oster olosis
Ġgro ver
angiect atic
orphyr ias
Ġleg al
Ġmast oid
Ġmast opathy
omet ras
Ġflu ency
Ġflu oro
Ġlethal ity
ars acral
Ġtor us
Ġtor cid
Ġtor ulop
Ġtor iello
opec tin
eck y
Ġket othi
Ġhalluc inosis
air e
roch eil
ina emia
oneph rosis
Ġbre vicollis
Ġlam bl
Ġcavern itis
Ġcavern itides
Ġinterm edia
Ġinterm edias
Ġinterm ittant
Ġolig omen
Ġolig ospermia
Ġolig ozoospermia
pl ing
Ġed ss
uss els
Ġod d
Ġod g
Ġod or
Ġod ed
Ġod od
Ġod dd
Ġod ontal
Ġod pf
Ġsl s
Ġsl ack
Ġav itamin
Ġequ ival
Ġblock age
Ġblock ages
yot onica
Ġdes truc
Ġps at
Ġps hk
Ġps ittac
omp licated
Ġneuron itis
Ġneuron itides
Ġneuron opathies
Ġmedull omy
Ġrep ens
Ġrep eat
vert ebrae
Ġheterot axies
Ġdan ish
Ġbur s
Ġinsulin oma
Ġchoroid itis
Ġtel omeric
Ġlup ski
Ġfibrom y
Ġfibrom yx
Ġolf action
Ġgu ibaud
raph ic
Ġreticul ata
Ġreticul ohisti
Ġreticul olymph
Ġneurom yopathy
au f
Ġib ids
Ġib gc
Ġank yrin
Ġchondrod ystrophia
Ġnoctur na
Ġtes chen
Ġhs p
Ġhs as
Ġbul n
Ġdissemin atum
Ġtre hal
Ġdysph asic
Ġcommun is
Ġrhin oscler
Ġdemyel inative
Ġadren omyel
Ġent ry
Ġent omophth
Ġath elia
Ġtib io
Ġtib iae
Ġaur as
odys ostoses
Ġacet oacet
Ġpress ures
Ġglut eal
Ġglut athione
Ġfront ometaphyseal
Ġfront opari
py rophosphate
sch ild
sch utter
Ġarteri ol
Ġarteri ogenic
Ġarteri oles
Ġtox asc
Ġtox ocar
Ġtox ocara
ocephal ies
Ġgonad oblastoma
Ġconduc t
Ġhypogonad isms
Ġme h
Ġme iosis
Ġme yer
Ġme ibomian
Ġme acham
Ġring ing
Ġgloss opy
Ġvestibul itides
asm as
Ġmc m
Ġmc pher
Ġmc fd
ets u
Ġana uxetic
Ġover d
Ġover l
Ġplatelet s
Ġglomeruloneph ropathy
Ġdent o
Ġdent s
osamin uria
osamin urias
Ġtoxic osis
Ġtoxic oses
Ġtoxic ities
Ġste aton
Ġamel oblastoma
Ġosteoarth rosis
Ġir reversible
Ġmur phy
Ġfung emia
Ġepis p
Ġepis cler
Ġepis odes
Ġsequ ences
Ġsuper normal
Ġsuper activity
Ġwithdrawal s
fe et
Ġmen ger
Ġmen opa
Ġmen zel
Ġmen inig
Ġmen ieres
Ġgall oway
Ġnonsyn ostotic
Ġnonsyn dromal
Ġsial idoses
Ġsial olithiasis
Ġsial oaden
arb ane
arb onate
Ġpyr roline
Ġpyr imid
Ġpyr uvoyl
Ġhol lister
Ġhol zgre
Ġand roblastoma
Ġeff ect
Ġlipofusc inoses
Ġodont otrich
Ġankyl oglossia
rac anthoma
rog raphic
Ġseb orrhea
Ġseb astian
Ġfel tys
Ġhypop nea
Ġhypop neas
Ġhypop otass
Ġhypop rebetalipoproteinemia
Ġhypop eris
Ġhypop roconver
Ġcolob omas
glyc erone
Ġcmt b
ex is
Ġmat ure
Ġrick et
Ġmyx omatosis
Ġmyx omatoses
Ġmyx edemat
Ġpolym yalgia
Ġfruct okinase
ondrom atosis
Ġlab ial
Ġlev ior
Ġhom ocar
Ġhom ocyste
Ġhom ocitrull
Ġanal buminemia
Ġerythemat osis
Ġerythemat otel
Ġwillebrand s
Ġsyph ili
Ġtroch anteric
Ġhid rosaden
Ġhid rocyst
Ġhid racanthoma
phrag m
Ġlen nox
Ġlen egre
Ġald s
Ġko eh
Ġfried man
Ġfried erichsen
Ġhaem oglobinuria
Ġhaem onch
Ġhaem obart
Ġtibial is
Ġcog ans
Ġtw o
Ġtur ners
Ġtur ban
Ġhir sutism
ofib rinogenemia
Ġasperg ers
Ġmaj ors
Ġdiarrh oea
Ġel att
Ġel aeophor
Ġtyros inosis
Ġant ons
Ġant opol
Ġacanth olysis
Ġxx xy
Ġmeningoencephal oceles
ĠÃ §
org ement
Ġbif ocal
Ġacc utane
Ġacro keratotic
Ġacro osteolyses
Ġepiphyseal is
Ġperfor ated
Ġperfor ans
Ġcomponent s
Ġcampt ocorm
rin opathies
rin olysis
Ġhp v
Ġhp ns
Ġrig or
Ġhypo kinesias
Ġhyperp igmented
Ġhyperp rostagl
Ġseg awa
Ġcold s
Ġfrontal is
Ġacetyl neuramin
Ġmeg aduod
Ġmeg arbane
Ġind ig
Ġind uration
reich er
Ġgene e
cs oy
Ġus age
Ġtend ovaginitis
Ġtend ovaginitides
Ġhm ps
Ġber k
Ġber ti
Ġgr dx
Ġgre ig
Ġgre enberg
Ġvan hor
Ġtransmis sion
Ġsol berg
Ġmas tal
Ġmas titides
Ġhur lers
Ġfing ernails
Ġchl orac
Ġchl orid
Ġcirc ump
Ġbeh r
Ġbeh nke
Ġandrogen s
Ġrigid us
Ġdec ay
Ġdec ompens
Ġdec ompression
Ġstomach s
Ġatrophic us
Ġatrophic ans
Ġcerebro ocular
Ġcerebro arter
Ġcerebell otr
app ed
Ġexc itement
Ġexc reting
Ġelev en
Ġsem ela
Ġdip ylid
Ġna umoff
Ġbi emond
Ġbo y
Ġbo omerang
Ġhyperglyc inuria
Ġstra ight
Ġparap rotein
Ġtri phalang
Ġtri hydroxycopros
Ġfour ni
Ġpolyradicul one
Ġsac rum
Ġsign et
Ġsign ificance
Ġfrag oso
Ġrib s
Ġrib bing
Ġneuroc ysticerc
ophor ias
Ġemphys ematous
ez e
ez as
Ġet m
Ġter rey
Ġter tiary
Ġham el
Ġalb escens
Ġalb opapul
Ġxp b
Ġxp f
Ġxp g
Ġaber feld
Ġpapul opust
kn echt
Ġhen neberg
Ġhab ronemias
Ġnas opharyng
Ġnas olacrimal
Ġather oembolism
Ġaspergill us
Ġaspergill ose
aur icul
Ġsil engo
Ġsomat oform
Ġmegal odactyly
Ġmegal odactyl
omening itides
omening ocele
Ġnarc issistic
Ġblast s
Ġblast omas
Ġrect ocolitides
Ġdysp ep
Ġdysp alsia
Ġpseudot oxoplasmosis
ah oma
dl r
Ġaf d
Ġlax ities
ycan opathies
Ġnonc omitant
Ġmrxs c
phalang ism
Ġorgan omegalies
Ġcel si
Ġtrop omyosin
Ġinvers as
iast rophic
Ġosteochond rodysplasias
Ġmicroc olon
Ġapp eti
Ġapp alach
Ġvener eum
Ġdysmorph odystrophy
Ġillness e
Ġsebace us
Ġonych o
Ġonych olyses
Ġonych odysplasias
Ġonych otrich
rot en
Ġcephal opelvic
Ġhar per
Ġhar ley
Ġhar ris
Ġhar elip
Ġgerm inal
oli ovirus
Ġcong estion
Ġacrom elalgia
Ġstri ated
Ġstri atum
Ġwell ness
Ġperox idase
Ġxer ost
Ġxer ocytosis
Ġphosphoribosyl pyrophosphate
Ġdiast emat
Ġev an
Ġev oked
Ġhemi vertebrae
Ġthy roc
Ġnonp sychotic
Ġnonp oliovirus
Ġshig a
Ġschwann omatoses
yer aal
Ġconst ant
Ġlymphangi osarcoma
Ġoccul ta
Ġhydroxy ethyl
Ġhydroxy vitamin
Ġsn or
Ġsn iff
Ġsn akeb
Ġsing apore
Ġpan ophthalm
Ġpan bronch
Ġpet ros
Ġpet echiae
Ġmis per
Ġdissoc iated
Ġdissoc iations
Ġbro adened
Ġhyperth ermias
Ġarm field
Ġarachnoid al
Ġabduc tion
Ġheat stro
Ġamin opterin
Ġfibros a
Ġfibros arcoma
Ġsupra glot
Ġsupra bulbar
Ġdesm oids
Ġcystin osin
Ġcost ello
Ġcost overtebral
Ġcost ocorac
Ġcycl itides
Ġcycl osp
aric aciduria
att le
Ġho zay
Ġho yeraal
Ġnan bh
Ġbir k
Ġbir t
Ġchem ot
Ġenamel s
Ġossi um
Ġelect rographic
co ugh
Ġom ental
Ġom ani
Ġsa o
Ġsa al
Ġcur se
Ġcur ly
Ġcur ry
Ġts uji
Ġts uruta
Ġtons ill
athet osis
Ġix b
Ġix c
Ġix d
Ġile ocecal
Ġependym oastrocyt
Ġhemic ranial
Ġmyelin olyses
Ġcervic es
oglobulin emias
Ġhorn ers
Ġhash ish
Ġhash imotos
Ġhash aron
Ġfre eman
Ġxl g
Ġxl is
Ġxl mr
ohyp op
Ġenz ym
Ġpseudohermaph rodism
ou f
Ġsand ifer
Ġsand fly
Ġsider osis
Ġcbl g
Ġcbl h
Ġhh h
Ġlact ofer
Ġren ovascular
Ġgyn atr
olaryng opelvic
Ġmigration al
Ġquadr ipar
Ġquadr uple
Ġspher ocytic
Ġspher ocytoses
Ġspher oids
Ġrhabdomy olysis
Ġcp p
Ġmod eling
Ġretrog nathism
Ġcartil ages
Ġchoreoathet oses
Ġgangli ocytomas
Ġprolactin oma
Ġplasm acytoid
Ġketoac id
Ġunc omb
Ġunc omplicated
Ġcs f
Ġcoc a
Ġprom m
Ġwr ight
oleuk odystrophy
Ġstrept omycin
Ġswe eney
Ġcamp omelia
Ġasthmatic us
Ġfinger print
Ġfinger tip
Ġbartter s
Ġchristian son
Ġanhidrotic s
vn ikow
Ġnor bury
Ġlind emann
Ġra eder
Ġra illie
Ġvo ye
Ġwart enh
Ġkall ikrein
Ġglom angiomas
Ġphil ipp
Ġurtic arial
Ġvagin oses
Ġoxid ation
Ġmorqu ios
stein er
Ġah umada
ode generative
otr iglycer
Ġarticul ations
Ġdystrogl ycanopathies
orrhag ica
Ġund eterm
Ġsymmetric a
Ġpolyendoc rinopathies
Ġendometri osis
Ġwolff s
Ġbifid ums
Ġof uji
Ġirid ocycl
Ġpot ter
Ġpot ts
Ġpot ential
Ġmu eller
Ġmu hh
Ġmu enke
Ġhdl c
Ġdeb ris
Ġchest s
Ġleyd en
Ġadip qtl
Ġperic oron
Ġperic entral
Ġperic ementi
Ġphys iologic
Ġphae ochrom
Ġcortic osteroid
Ġnonf unctional
Ġmicros omal
Ġmicros atell
Ġpseudop uber
Ġpseudop uberty
Ġpseudop apilledema
Ġdihyd rate
Ġcanal icul
Ġplacent as
rid ge
Ġta en
Ġhl p
Ġhl hs
Ġvw f
Ġvw m
Ġvw s
Ġlem ierres
Ġscar ring
Ġscid x
Ġclub bing
Ġextram embranous
Ġpseudoobstruc tions
Ġbogaert s
ni ecky
Ġcas person
Ġpub ertal
Ġms eleni
Ġtal fan
Ġtal king
Ġnig er
Ġnig ra
Ġge genhal
Ġgh osal
Ġgol berg
Ġgigan tisms
Ġvacc ination
Ġparam et
Ġparam yotonica
Ġkik uchis
Ġthom sens
Ġshap iro
Ġopac ification
Ġopac ifications
Ġscapul a
Ġcollagen opathy
Ġtap vr
Ġhist olytica
Ġdist ensae
Ġfunction ing
Ġland steiner
ocystic a
Ġdysg erm
Ġdysg nathia
Ġdysg eus
Ġeb r
Ġeb vs
chole calcifer
Ġhyperg ammaglobulin
Ġhyperal phalipoproteinemia
yll oboth
Ġchore oac
Ġech ogenic
Ġcaps ulitis
Ġcaps ulitides
Ġfasci olop
Ġcytomegal oviral
Ġhpc x
Ġvitreoretin opathies
Ġstiff man
we en
we ight
Ġarc c
Ġda i
Ġdam ages
Ġcow dens
Ġmad ura
Ġmad urom
Ġmad okoro
Ġmater ials
Ġfa int
Ġfa ints
Ġbroc q
Ġlaryng opharyngeal
Ġlaryng ospasm
Ġgam t
Ġdysraph ia
Ġdysraph ias
Ġdysraph icus
Ġacrof ront
Ġej a
Ġwag ro
Ġalve ol
Ġprogr essions
Ġfibroc artilaginous
Ġmicrod eletions
Ġrot ary
Ġrot ational
Ġfove a
Ġfove omac
Ġpalmito yl
Ġmethylglut aryl
Ġreduc ing
Ġreduc tions
Ġbarret ts
Ġmethylcroton oyl
cer amide
Ġog s
Ġmg c
Ġten sions
Ġten ovaginitis
Ġten ovaginitides
Ġten ascin
Ġnorm ophosphat
Ġnorm otriglycer
Ġfh ha
Ġfh cb
Ġfer rocalcinosis
Ġfar abe
Ġgyr atum
Ġhypoc atal
Ġhypoc eruloplasminemia
Ġstrong ylosis
Ġarg onz
Ġarg entaff
Ġeros ions
Ġimpingement s
Ġhemiat axia
Ġhemiat axias
Ġcic atr
Ġhyg iene
Ġhutch insons
etts iaceae
Ġverm a
Ġvacu o
Ġdyssyn ostosis
Ġhyperm et
Ġhyperm obilities
Ġkal oustian
Ġthi el
Ġthi emann
Ġthi olase
Ġperin uclear
Ġjap onicum
Ġphon ophob
Ġmicron odular
Ġtransfer rin
Ġhydro lethal
Ġhydro thorax
Ġhydro syring
Ġnecrob acill
Ġroland s
Ġpattern ed
Ġoligoph renias
Ġcarbamoyl phosphate
Ġsant orini
Ġsuccin ic
Ġsuccin ate
Ġdur ability
Ġdur abilities
Ġcb t
Ġpc p
Ġpc os
Ġpd c
Ġpig s
Ġtyp us
Ġhort ons
Ġfis cher
Ġball s
Ġlh on
Ġanis ak
Ġacad ian
Ġwet ting
Ġadduc ter
Ġadduc tor
ograph ism
Ġtransc obalamin
Ġester ase
Ġester ification
Ġmanson ella
Ġambigu ity
Ġambigu ities
Ġduoden ogastric
Ġmercurial isms
Ġpn kd
Ġpn po
Ġpes te
Ġpont obulbar
Ġfsh md
Ġbf ns
Ġlumb arsacral
Ġvel ocardi
Ġchyl othorax
Ġchyl opericardium
Ġann ul
Ġacrop ect
Ġeg yptian
chol inesterase
Ġmyofasc iitis
Ġmacros omias
Ġerythrocyt es
Ġrhythm ic
Ġcarol is
Ġcarol ina
Ġaphth ae
Ġspondylo ench
Ġspondylo arthritis
Ġspondylo arthritides
Ġerythroblast oses
Ġsplen ogonad
Ġtymp ani
Ġhyperpyrex ias
Ġscheuermann s
Ġdm gdh
Ġdon ath
Ġdon ohue
Ġdic rocoel
essi veness
Ġht c
Ġbed s
Ġbit ter
Ġgun ther
Ġventil atory
Ġeis enberg
Ġleuc ine
Ġleuc omalacia
Ġleuc omalacias
Ġhyperc ement
Ġparac occid
Ġjer ks
Ġjer king
Ġblenn orrhea
Ġblenn orrheas
Ġblenn orrhagica
ofac ionasal
Ġplat yb
oglut amic
Ġoculocereb rodystrophy
Ġvarieg ates
Ġfaci ogenital
Ġoxal urias
Ġmidb orderline
Ġentamoeb a
Ġglutam ic
Ġglutam yl
Ġovergrowth s
Ġsteat oses
Ġbronchiect ases
Ġwolman s
Ġelast oma
Ġelast oses
Ġelast oidosis
Ġelast oidoses
Ġboeck s
Ġkrabb es
Ġgilbert s
Ġcastleman s
Ġhyperammon emias
Ġarousal s
Ġroc ker
ineral izations
Ġclic king
Ġmorph ological
Ġmarg arita
led ge
Ġnond eletion
Ġbm nd
Ġhypoh apt
Ġinfiltra ting
Ġinfiltra tions
Ġacrod ental
Ġstu ve
Ġkr ebs
Ġprof undus
Ġencephalomy opathies
Ġoch oa
Ġsubt ype
Ġsubt rochanteric
Ġintoxic ations
Ġosteochondrom as
Ġscr ub
Ġmyocard i
Ġmyocard itis
Ġparalytic a
Ġradicul itis
Ġradicul omegaly
Ġcranium s
Ġhypoten sive
Ġzyg odactyly
Ġzellw egers
Ġmorb us
Ġathet otic
Ġpseudohypop arathyroidisms
Ġrestric ted
Ġgreen field
Ġconsump tions
Ġpredis positions
Ġdihydrop teridine
Ġjackson ian
Ġhibern ian
Ġapert ure
Ġchannel opathy
Ġkartagener s
Ġsomn olescent
Ġdh h
Ġdh pr
Ġdh apat
Ġdol ens
Ġdol oros
Ġcub iti
Ġcatal ep
Ġmp n
Ġmeas le
Ġmec p
Ġbu phthalm
Ġbu ilding
Ġbin der
Ġram er
Ġram os
Ġnear sightedness
Ġva insel
Ġvib ratory
Ġantic us
Ġantic oag
Ġwhe ezing
Ġparat ubercul
Ġthorac olaryngopelvic
Ġprur itic
Ġproct ocolitides
Ġleuko edema
Ġleuko ara
Ġleuko edemas
Ġpostencephal itis
Ġmonochrom atic
Ġapros odic
Ġorb eli
Ġpostin tub
Ġcompens atory
Ġroth schild
Ġverlo ove
Ġmarin um
Ġgier kes
Ġdupuy trens
Ġcholangi itis
Ġcholangi itides
Ġcholangi ocarcinoma
Ġcoagul opathy
Ġcoagul opathies
Ġaspartyl glyc
Ġoculoaur iculofrontonasal
Ġflexib ility
Ġflexib ilities
Ġflexib ilitas
Ġpallid o
Ġpallid opy
Ġspiroch etal
Ġcicatric es
Ġchilaid itis
Ġeisenmen gers
Ġhyperoxal urias
Ġsugar man
Ġseborrhe ica
Ġbinswang ers
car nitine
gh izian
mo ad
Ġsed t
Ġdors olateral
Ġpi roplasm
Ġpep ck
Ġtn x
Ġtab etic
Ġhb v
Ġhog g
Ġnem o
Ġnucle i
Ġnucle oside
Ġlad da
Ġldl cq
Ġric card
Ġanaphyl actoid
Ġek v
Ġeph emeral
Ġspik y
Ġspik ing
Ġalacr imia
Ġphac omatoses
Ġphyt osterolemia
Ġphyt anoyl
Ġpalat es
Ġpalat opharyngeal
Ġpav one
Ġnont ropical
Ġcystathion ase
Ġmicrop rolactin
Ġoro ya
Ġheaded ness
Ġcalv arial
Ġperiodont osis
Ġperiodont opathies
Ġpsychos omatic
Ġzen kers
Ġtricho till
Ġageus ias
Ġmeig s
Ġprotop orphyrias
Ġspgf y
Ġasymmet ries
Ġfatig ues
Ġhyperchylomicron emias
Ġtakayas us
Ġelectro retinal
Ġnorth ern
Ġkeloidal is
Ġellipt ocytoses
Ġhypohid rosis
Ġmadelung s
Ġhyperphosphat emic
sp ondyl
Ġsut ton
Ġcacch ione
Ġmh p
Ġmh w
Ġmun cha
Ġmun chhausen
Ġheal ed
Ġheal th
Ġhay ward
Ġhoff mann
Ġiniti ating
Ġfm f
Ġfox c
Ġbud d
Ġbang ing
Ġbaz ex
Ġlc at
Ġlu is
Ġlis x
Ġlis ch
Ġlayer ed
Ġrash es
Ġgnath odiaphyseal
Ġhypom ineralizations
Ġwood house
Ġherman ski
Ġjoh anson
Ġmeningomyel itides
Ġfras ier
Ġagg rav
Ġagm x
Ġdiph ylloboth
Ġoval e
Ġoval ocytosis
Ġoval ocytoses
Ġchorio amn
Ġchorio athetosis
Ġhistid ase
Ġhistid inuria
Ġpykn olep
Ġoxyph ilia
Ġdysmet abolic
Ġoutput s
Ġstein ert
Ġsomatotropin oma
Ġpeters en
Ġhoarseness es
Ġhelic es
Ġmicrometast ase
Ġloeff lers
gm asia
Ġsun stro
Ġdub e
Ġcn c
Ġcn m
Ġcad asil
Ġped icul
Ġpent tinen
Ġputam en
Ġmiss ouri
Ġton oki
Ġhsd b
Ġnyc talopia
Ġfig lu
Ġfitz geral
Ġbic uspid
Ġbic arbonate
Ġlm na
Ġlut on
Ġlux ations
Ġgem ss
Ġgutt ata
Ġvers icolor
Ġhyperkerat otic
Ġkoch s
Ġkoch er
Ġcompr essive
Ġasphyx ia
Ġsensiti zations
uvic as
Ġcla ust
Ġclinical ly
Ġinterse xual
Ġoll endorff
thyretin emic
Ġbrachydactyl ous
Ġpseudoachond roplasia
Ġcytos ol
Ġturc icas
Ġhemihyp erplasia
Ġaminoac idurias
Ġmutil ating
Ġfrank lin
Ġpauci articular
Ġnondis junctions
Ġdorsal is
Ġuv m
Ġuv ula
Ġscl c
Ġsuff oc
Ġduc k
Ġdiple gias
Ġcrow ding
Ġpm se
Ġpv op
Ġpend red
Ġpow ell
Ġmmd s
Ġtail ors
Ġtau opathy
Ġafib rinogen
Ġsyndactyl ic
Ġflec k
Ġbacill us
Ġlog agnos
Ġlaz arus
activ ities
ocran i
ett si
Ġvl dlr
Ġdyslip oproteinemic
Ġchand ler
Ġcontr ast
Ġiod ide
Ġiod amoeb
Ġhemim egal
Ġku fs
Ġku hn
Ġthc yt
Ġthick ening
Ġprep ubertal
Ġprotr usions
Ġperip apillary
Ġabd omen
Ġabd omens
Ġabd allat
Ġamc x
Ġpostex anthem
Ġsubs epsis
Ġnonthromb ocytopenic
Ġmetacarpal s
Ġmich els
Ġmicrosp orid
Ġcoarc tations
Ġpls a
Ġclaud ication
Ġpneumocyst s
Ġglycer ol
Ġglycer ate
Ġglycer onephosphate
Ġphosphatid ylcholine
Ġpsychophys iologic
Ġcranio ectodermal
Ġaspg x
Ġpolyarter itides
Ġfibroelast oses
Ġoxoprol inuria
Ġinvag ination
Ġquad riceps
Ġground nut
Ġhyaloid eoretinal
Ġpresb y
Ġlabyrinth ine
Ġkozhe vnikow
Ġuveopa roti
Ġfusospir ill
Ġhmg cl
Ġcerebroocul orenal
Ġtriat riatum
Ġlingu a
Ġpseudotubercul oses
Ġincontin ences
Ġmyelinoclas es
Ġbalantid iasis
Ġbalantid ium
Ġstreptoz otocin
Ġstrongyl oses
Ġilio tibial
Ġbrady arrhythmia
Ġblennorrhagic as
Ġblennorrhagic um
Ġblennorrhagic ums
Ġdolich ol
Ġanticip ation
Ġanticip ations
Ġanticip atory
Ġdacry oaden
Ġcylindrom atosis
Ġretroflex ed
Ġretroflex ion
Ġretroflex ions
ping iosis
yron ine
Ġsne ezing
Ġsne eze
Ġsock ets
Ġdactyl olyses
onemias is
Ġcot e
Ġpac man
Ġmay ou
Ġmosch cowitz
Ġmosch kowitz
Ġtauro dontia
Ġhc v
Ġformal in
Ġba rotraum
Ġba illarg
Ġrt ps
Ġrac emase
Ġrum inants
Ġgar land
Ġhyperhid roses
Ġhyperref lexias
Ġneurop apill
Ġstup ors
Ġatroph odermia
Ġalg odystrophic
Ġalk yl
Ġalk apton
Ġkar ak
Ġkur cz
Ġkohl schutter
Ġarhin ia
Ġarhin encephaly
Ġabrup tion
Ġabrup tions
Ġrecr udesc
Ġcorne ae
Ġcorne oretinal
Ġnonhodgkin s
Ġcolum n
Ġcolum ella
Ġosteophyt osis
Ġosteophyt oses
Ġuracil urias
Ġjuven ilis
Ġangiomy olipomas
Ġformimin oglutamic
Ġuleryth ematosa
Ġarthromy odysplasias
Ġoculodent odigital
Ġvalpro ate
Ġkeratoac anthoma
Ġkeratoac anthomas
Ġeng man
Ġeng orgement
Ġprev ias
Ġoster reicher
Ġicter us
Ġauricul otemporal
Ġauricul ocondyl
Ġgestation i
Ġpresyn cop
Ġmega epiphyseal
Ġfragment ations
Ġsilic otubercul
Ġpraev ias
Ġbulboca vernousus
Ġpachyderm at
Ġpseudopseud ohypop
Ġsatur day
Ġhypocupr emias
Ġhyperprolactin emia
Ġhyperprolactin aemia
Ġabrikos off
Ġerythrodysesth esias
Ġeccentro osteochond
inder pest
Ġsab inas
isth eses
Ġping uec
Ġping elap
Ġtu fting
Ġtu fted
Ġtol osa
Ġhic cup
Ġhic cough
Ġhcf p
Ġao ii
Ġnc ie
Ġnov ikoff
Ġdisch arge
Ġdisch arges
Ġinatt ention
Ġinatt entions
Ġinactiv ation
Ġinactiv ator
Ġfk rp
Ġfk tn
Ġbel gian
Ġboth nian
Ġlr at
Ġlop ez
Ġry ukyuan
Ġrach isch
Ġglas sy
Ġglas gow
Ġchanc roid
Ġante version
Ġante versions
Ġeunuch oidism
Ġlean ness
Ġleprechaun ism
Ġletharg ic
Ġhyperre activity
Ġhyperre activities
Ġneurothec e
Ġstar v
Ġira k
Ġira qi
Ġips ilateral
Ġkim ura
Ġkob erling
Ġlymphofollic ulosis
Ġlymphofollic uloses
Ġxyl ul
Ġphth isis
Ġphth ises
Ġphleb otomus
Ġphleb othromb
Ġamy oplasia
Ġretrot orsion
Ġretrot orsions
Ġcortis ol
Ġcortis one
Ġpalatin i
Ġpalatin us
Ġbridg ing
Ġbridg ings
Ġdiagnos ed
Ġdiagnos tic
Ġmyeloradicul opathy
Ġmyeloradicul opathies
Ġhypertonic ity
Ġhypertonic ities
Ġhypertyros inemia
Ġhypertyros inemias
Ġfren ula
Ġscrof ul
Ġaggr ecan
Ġaggr essiveness
Ġpseudocyst s
Ġok ihi
Ġapic itis
Ġapic itides
Ġporocarcin oma
Ġporocarcin omas
Ġmacrop rolactin
Ġheartbe at
Ġheartbe ats
Ġpapp ataci
etalip oproteinemias
Ġneurolabyrinth itis
Ġneurolabyrinth itides
Ġhandic ap
Ġhandic apped
Ġpolyangi itis
Ġpolyangi itides
Ġmethacr ylic
Ġmethacr ylate
Ġinvas ion
Ġinvas iveness
Ġgingivostoma titis
Ġgingivostoma titides
Ġloosening s
zoon osis
zoon oses
Ġfluo rosis
Ġfluo roses
Ġlameness es
Ġoligoastrocyt oma
Ġoligoastrocyt omas
Ġdiscolor ation
Ġdiscolor ations
Ġoverj et
Ġoverj ets
Ġsuperinvas ion
Ġsuperinvas ions
Ġsialometa plasia
Ġsialometa plasias
Ġsebaceum s
Ġphenylpyr uvica
Ġphenylpyr uvicas
Ġhomolog ous
Ġantet orsion
Ġantet orsions
Ġxxxx x
Ġcondens ation
Ġcondens ans
Ġpanleuk openia
Ġpanleuk openias
Ġproprioc eption
Ġproprioc eptive
Ġelectroc ution
Ġelectroc utions
Ġcurv atures
Ġcurv ature
Ġpilomat ric
Ġpilomat rix
Ġchondrometa plasia
Ġchondrometa plasias
Ġstip pled
Ġstip pling
Ġsurvival s
Ġnphl op
Ġalexander s
Ġfasciol oid
Ġdextr inosis
Ġdextr inoses
Ġanthrac osilic
Ġenchond rosis
Ġenchond roses
Ġairoc ele
Ġairoc eles
Ġacrocephalosyndactyl ies
Ġprogon oma
Ġprogon omas
Ġramb am
Ġattrib ute
Ġattrib utes
Ġperiaor titis
Ġperiaor titides
Ġsuffer ing
Ġsuffer ings
Ġdolichoect asia
Ġdolichoect asias
Ġecchym otic
Ġpleurodyn ia
Ġpleurodyn ias
Ġpiscirick ettsiaceae
Ġpiscirick ettsi
Ġhorsesickness es
Ġperichond ritis
Ġperichond ritides
Ġpseudopoly arthritis
Ġpseudopoly arthritides
Ġenvenom ation
Ġenvenom ations
Ġuveomeningoencephal itic
Ġdicarboxylic amin
la ender
nosin ase
Ġit m
Ġard s
incl usion
Ġsumm itt
Ġdin csoy
Ġdial yses
Ġdoh i
Ġdtd p
Ġdizz iness
Ġcz p
Ġcid p
Ġcim t
Ġcch s
Ġpyc n
Ġpass arge
Ġpcd h
Ġmain zer
Ġtg ct
Ġtk cr
Ġtt pp
Ġtro yer
Ġtow nes
Ġtaur inuria
Ġhell p
Ġhts s
Ġhugh es
Ġhutt enloch
Ġaus tin
Ġaip l
Ġfont aine
Ġfpl d
Ġbt ps
Ġbub onic
Ġberg he
Ġbrod y
Ġborn holm
Ġbalan itis
Ġbbb g
Ġlid dle
Ġgy ri
Ġgus her
Ġgib raltar
Ġvm cm
Ġhyps arrhythmia
Ġhyponatr emia
Ġanhyd rase
Ġaclas es
Ġeum yc
Ġhypern atr
Ġhyperex tensi
Ġhyperhomocyste inemia
Ġspo rot
Ġneuroretin oangi
Ġneuroepithel ioma
Ġstum bling
Ġwd ha
Ġwid ebased
Ġatlant oaxial
obil inogen
Ġepig lot
Ġkir ghizian
Ġkyr le
Ġkaw asaki
Ġarrh en
Ġpropt osis
Ġpertuss is
Ġcerebrom ening
Ġseitelberg er
Ġphle gmasia
Ġtumori genesis
Ġtrim ethadione
Ġpoll itt
Ġamyl opectin
Ġimin oglyc
Ġsubependym omas
Ġpuls atile
Ġadenosyl cobalamin
Ġmyelos yring
Ġiss x
Ġmicrov illus
Ġschol astic
Ġagu irre
Ġpseudod iastrophic
Ġoav s
Ġoophor itis
Ġcats cratch
Ġacquis ita
Ġsuppur ativa
Ġoculopalat ocerebral
Ġparahem ophilia
Ġchord oma
Ġeyebrow s
Ġkeratocyst s
Ġophthalmopar esis
Ġimplanti tis
Ġstrebl odactyly
Ġspondylol isthesis
Ġzie hen
Ġzimm ermann
Ġmaint aining
Ġmethylacetoac etic
Ġbarb ae
Ġdermato osteolysis
Ġparasit emia
Ġpeyron ie
Ġrodrig uez
Ġcholel ithiasis
Ġarthrogryp otic
Ġentangle ments
Ġtoxopach y
Ġmcf arlane
Ġadhal in
Ġhyperpotass emia
Ġboerha ave
Ġtriang ular
Ġnewc astle
Ġacromic ric
Ġhydroxyisobut yryl
Ġaminobut yrate
Ġchemodect omas
Ġgynand roblastoma
Ġepiphys i
Ġflavim aculatus
Ġderiv atives
Ġcholecyst oduodenal
Ġtip ped
Ġbfn c
Ġchylomicron emia
Ġsteatohep atitis
Ġacrodyn ic
Ġinfundibul ocystic
Ġfrancesch etti
Ġhemangiopericyt oma
Ġsulph atase
Ġviril ism
Ġhblr cn
Ġrecruit ment
Ġpachydermoperi ostosis
Ġophry ogenes
Ġaujesz ky
Ġparakerat osis
Ġmesenchym oma
fur d
oqu ine
pon siveness
Ġathy reotic
Ġenti re
Ġeld ridge
Ġenth es
Ġumbil icus
Ġsor auf
Ġsia dh
Ġsam son
Ġsoma tization
Ġsanc tis
Ġsaf ety
Ġsund s
Ġsors by
Ġsenn etsu
Ġsuther land
Ġdid moad
Ġdian zani
Ġdund ar
Ġdenb orough
enfl uramine
Ġcory za
Ġcab ezas
Ġcasc os
Ġcroc ker
Ġcoste ff
Ġcanth orum
Ġcass idy
Ġctl n
Ġcta a
Ġcumm ing
Ġcutane a
Ġpib ids
Ġporph obilinogen
Ġpash ayan
Ġpuj o
Ġpumph rey
oscro tal
Ġmth fr
Ġmism atch
Ġmerm aid
Ġmand p
Ġmow at
Ġmyster y
Ġmaff ucci
Ġtromb icul
Ġtangl es
Ġtoler ance
Ġhre idars
Ġhart nup
Ġhasp eslagh
Ġhydrom etroc
Ġaim ah
Ġaesth es
Ġaugh ton
Ġnel son
Ġnot oencephal
Ġnax os
Ġniv elon
Ġniss l
Ġnii kawa
Ġnie vergel
Ġsyncy tial
Ġdisapp earing
opalp ebral
Ġfros tb
Ġfoth ergill
Ġfamm m
Ġfecht ner
Ġflash es
Ġfestin ating
Ġbys s
Ġbet ween
Ġbob ble
Ġbron ze
Ġboh ring
Ġbaf me
Ġbiosyn thesis
Ġbuz zing
Ġbiman ual
Ġbjorn stad
elod amensis
Ġlitt oral
Ġlobul itis
Ġluj an
Ġlanug inosa
Ġrut ledge
Ġriz zo
Ġruther furd
Ġdecl ine
Ġdebar quement
Ġgup ta
Ġgiac cai
Ġgans er
Ġgreas y
Ġgross man
Ġgoll op
Ġgels olin
Ġgumm atous
Ġgulonolact one
Ġgitel man
Ġgurrier i
Ġneum ann
Ġnegr ete
entup a
Ġhypof unction
Ġhypoderm y
Ġhyporen inemic
Ġdysrhythm ia
Ġchick en
Ġchitt y
Ġchaud hry
Ġchavan y
uniss en
odoth yronine
Ġanderm ann
Ġanoch l
Ġconval esc
Ġachl orhydria
Ġacule iform
Ġeard rum
Ġhyperpr ebetalipoproteinemia
Ġhyperarg in
Ġhyperfib rinolysis
Ġhyperech ogenic
Ġhyperco agul
Ġhyperek plexia
Ġhyperzin cemia
Ġsponastr ime
Ġneurosch ist
Ġneuroser pin
Ġneurothe ke
Ġneuroasp ergill
Ġneuroanesth enia
Ġstunn ed
Ġwerm er
Ġwins hip
Ġwarth in
Ġwyb urn
Ġparatr igeminal
Ġhemib all
Ġhemidia phragm
Ġkend all
Ġkoh ler
Ġkras now
Ġkah ler
Ġkats antoni
Ġkuz niecky
Ġkenner knecht
Ġkwash iork
Ġkousse ff
Ġkantap utra
Ġarroy o
Ġaredyl d
Ġadiadoch o
Ġprick ly
Ġprele uk
Ġpriet o
Ġlymphomat osum
Ġprotract ed
Ġperhe entupa
Ġpersis ting
Ġperei ra
Ġperilymph atic
Ġreav en
Ġreves z
Ġreynold s
Ġdystrans thyretinemic
Ġcerebromal ac
Ġjank ovic
Ġjequ ier
Ġjactati o
Ġcommo tio
Ġmalak opl
Ġmalpu ech
Ġheerford t
Ġrecomb inant
Ġtrii odothyronine
Ġamst elodamensis
Ġamcb x
Ġexpr essive
Ġexhaus tion
Ġexacer bation
Ġexhib ition
Ġimpr essions
Ġcorrid or
Ġpostthromb otic
Ġpostwean ing
Ġblizz ard
Ġsubendothel ial
Ġparod ont
Ġpakist ani
Ġnonkerat an
Ġnonreas suring
Ġnonerup tion
Ġnonhered itary
rocalcin oses
Ġmetagon im
Ġbriqu et
Ġbrubak k
Ġintuss uscep
Ġcolav ita
Ġcolick y
Ġcoloves ical
Ġshipp ing
Ġoppos able
Ġopposition al
Ġopisth orch
Ġperihep atitis
Ġperiimpl anti
Ġosteogl ophonic
Ġosteoplastic a
Ġosteorad ion
Ġlipomyel omeningocele
Ġlipodermat osclerosis
Ġdiaphys aire
Ġdiagn osis
Ġmeningoradicul itis
Ġdeaffer entation
Ġanguill ul
Ġmicrogen italism
Ġmicrol iss
Ġendole ak
Ġendosal pingiosis
Ġsciss ors
Ġscrot um
Ġscalen us
Ġorot ate
Ġokl ahoma
Ġmonocarb oxylate
Ġbenacer raf
Ġimmunore active
Ġimmunoneuro l
Ġdermochond rocorneal
Ġunres ponsiveness
Ġunste ady
Ġposther petic
Ġcardioencephal omyopathy
Ġmacrophag ic
Ġdieter ich
Ġdirof ilar
Ġdioxy genase
Ġsleepwal king
Ġrhodops in
Ġnephroblast omatosis
Ġcresc endo
Ġceruloplasm in
Ġsecund um
Ġsmoulder ing
Ġinterleuk in
Ġespecial ly
Ġarthroch al
Ġcalpain opathy
Ġhajd u
Ġflait z
Ġflau jeac
Ġaphalang ia
Ġbilhar z
Ġoculopal atal
Ġoculomaxill ofacial
Ġparaarter i
Ġrozd ilsky
Ġcontagios um
Ġneurasth enic
Ġmoesch ler
Ġpolyglut amine
Ġglucosyl ceramide
Ġimpetig o
Ġstruemp ell
Ġspondylodis k
Ġzlot ogora
Ġserpen tine
Ġwildervanc k
Ġmethylbut yryl
Ġmethylenet etrahydrofolate
Ġlactifer ous
Ġnonsemin omatous
Ġnonstaphyl ococcal
Ġprehyp ert
Ġhepatolen ticular
Ġulceronec rotic
Ġsplanch n
Ġteutsch laender
Ġheterozyg otes
Ġdysmotil ities
Ġpickwick ian
Ġwhisper ing
Ġfluoro uracil
Ġtorulop sis
Ġketothi olase
Ġequival ent
Ġentomophth oram
Ġfrontopari etal
[...]
