{
  "'": 1,
  "0": 2,
  "1": 3,
  "2": 4,
  "3": 5,
  "4": 6,
  "5": 7,
  "6": 8,
  "7": 9,
  "8": 10,
  "9": 11,
  "a": 12,
  "b": 13,
  "c": 14,
  "d": 15,
  "e": 16,
  "f": 17,
  "g": 18,
  "h": 19,
  "i": 20,
  "j": 21,
  "k": 22,
  "l": 23,
  "m": 24,
  "n": 25,
  "o": 26,
  "p": 27,
  "q": 28,
  "r": 29,
  "s": 30,
  "t": 31,
  "u": 32,
  "v": 33,
  "w": 34,
  "x": 35,
  "y": 36,
  "z": 37,
  "¡": 38,
  "¤": 39,
  "§": 40,
  "©": 41,
  "«": 42,
  "¶": 43,
  "¼": 44,
  "Ã": 45,
  "Ċ": 46,
  "Ġ": 47,
  "'d": 48,
  "'s": 49,
  "00": 50,
  "01": 51,
  "10": 52,
  "75": 53,
  "78": 54,
  "ab": 55,
  "ac": 56,
  "ad": 57,
  "ae": 58,
  "af": 59,
  "ag": 60,
  "ah": 61,
  "ai": 62,
  "aj": 63,
  "ak": 64,
  "al": 65,
  "am": 66,
  "an": 67,
  "ao": 68,
  "ap": 69,
  "ar": 70,
  "as": 71,
  "at": 72,
  "au": 73,
  "av": 74,
  "aw": 75,
  "ax": 76,
  "ay": 77,
  "az": 78,
  "ba": 79,
  "bb": 80,
  "bc": 81,
  "bd": 82,
  "be": 83,
  "bh": 84,
  "bi": 85,
  "bl": 86,
  "bm": 87,
  "bp": 88,
  "br": 89,
  "bs": 90,
  "bu": 91,
  "by": 92,
  "ca": 93,
  "cb": 94,
  "cc": 95,
  "cd": 96,
  "cf": 97,
  "ch": 98,
  "ci": 99,
  "ck": 100,
  "cl": 101,
  "cm": 102,
  "cn": 103,
  "co": 104,
  "cp": 105,
  "cq": 106,
  "cr": 107,
  "cs": 108,
  "ct": 109,
  "cw": 110,
  "cy": 111,
  "cz": 112,
  "da": 113,
  "dc": 114,
  "dd": 115,
  "de": 116,
  "dh": 117,
  "di": 118,
  "dl": 119,
  "dm": 120,
  "dn": 121,
  "do": 122,
  "dp": 123,
  "dr": 124,
  "ds": 125,
  "dt": 126,
  "dx": 127,
  "ea": 128,
  "eb": 129,
  "ec": 130,
  "ed": 131,
  "ef": 132,
  "eg": 133,
  "eh": 134,
  "ei": 135,
  "ej": 136,
  "ek": 137,
  "el": 138,
  "em": 139,
  "en": 140,
  "eo": 141,
  "ep": 142,
  "er": 143,
  "es": 144,
  "et": 145,
  "eu": 146,
  "ev": 147,
  "ew": 148,
  "ex": 149,
  "ey": 150,
  "ez": 151,
  "fb": 152,
  "fc": 153,
  "fd": 154,
  "fe": 155,
  "ff": 156,
  "fg": 157,
  "fh": 158,
  "fi": 159,
  "fj": 160,
  "fl": 161,
  "fm": 162,
  "fn": 163,
  "fp": 164,
  "fr": 165,
  "fs": 166,
  "ft": 167,
  "fx": 168,
  "ga": 169,
  "gb": 170,
  "gc": 171,
  "gd": 172,
  "ge": 173,
  "gf": 174,
  "gh": 175,
  "gk": 176,
  "gl": 177,
  "gm": 178,
  "gn": 179,
  "go": 180,
  "gr": 181,
  "gs": 182,
  "gx": 183,
  "ha": 184,
  "hd": 185,
  "he": 186,
  "hf": 187,
  "hh": 188,
  "hi": 189,
  "hk": 190,
  "hl": 191,
  "hm": 192,
  "hn": 193,
  "ho": 194,
  "hr": 195,
  "hs": 196,
  "ht": 197,
  "hu": 198,
  "ia": 199,
  "ib": 200,
  "ic": 201,
  "id": 202,
  "ie": 203,
  "if": 204,
  "ig": 205,
  "ih": 206,
  "ii": 207,
  "ik": 208,
  "il": 209,
  "im": 210,
  "in": 211,
  "io": 212,
  "ip": 213,
  "iq": 214,
  "ir": 215,
  "is": 216,
  "it": 217,
  "iv": 218,
  "ix": 219,
  "iz": 220,
  "ja": 221,
  "jb": 222,
  "jd": 223,
  "ji": 224,
  "jm": 225,
  "jo": 226,
  "js": 227,
  "ka": 228,
  "kc": 229,
  "kd": 230,
  "ke": 231,
  "kh": 232,
  "ki": 233,
  "kl": 234,
  "km": 235,
  "kn": 236,
  "kp": 237,
  "ks": 238,
  "ky": 239,
  "la": 240,
  "ld": 241,
  "le": 242,
  "lh": 243,
  "li": 244,
  "ll": 245,
  "lo": 246,
  "ls": 247,
  "lu": 248,
  "ly": 249,
  "ma": 250,
  "md": 251,
  "me": 252,
  "ml": 253,
  "mm": 254,
  "mn": 255,
  "mo": 256,
  "mr": 257,
  "ms": 258,
  "mt": 259,
  "mv": 260,
  "mx": 261,
  "na": 262,
  "nb": 263,
  "nd": 264,
  "ne": 265,
  "ng": 266,
  "nh": 267,
  "ni": 268,
  "nk": 269,
  "nl": 270,
  "no": 271,
  "np": 272,
  "ns": 273,
  "nu": 274,
  "nv": 275,
  "ny": 276,
  "oa": 277,
  "ob": 278,
  "oc": 279,
  "od": 280,
  "oe": 281,
  "of": 282,
  "og": 283,
  "oh": 284,
  "oi": 285,
  "oj": 286,
  "ok": 287,
  "ol": 288,
  "om": 289,
  "on": 290,
  "op": 291,
  "or": 292,
  "os": 293,
  "ot": 294,
  "ou": 295,
  "ov": 296,
  "ow": 297,
  "ox": 298,
  "oy": 299,
  "oz": 300,
  "pa": 301,
  "pc": 302,
  "pd": 303,
  "pe": 304,
  "pf": 305,
  "pg": 306,
  "ph": 307,
  "pi": 308,
  "pk": 309,
  "pl": 310,
  "pm": 311,
  "pn": 312,
  "po": 313,
  "pp": 314,
  "pr": 315,
  "ps": 316,
  "pt": 317,
  "pu": 318,
  "pv": 319,
  "pw": 320,
  "px": 321,
  "py": 322,
  "qd": 323,
  "qi": 324,
  "qt": 325,
  "qu": 326,
  "ra": 327,
  "rc": 328,
  "rd": 329,
  "re": 330,
  "rf": 331,
  "rh": 332,
  "ri": 333,
  "rl": 334,
  "rm": 335,
  "ro": 336,
  "rp": 337,
  "rs": 338,
  "rt": 339,
  "ry": 340,
  "sa": 341,
  "sc": 342,
  "sd": 343,
  "se": 344,
  "sf": 345,
  "sh": 346,
  "si": 347,
  "sk": 348,
  "sl": 349,
  "sm": 350,
  "sn": 351,
  "so": 352,
  "sp": 353,
  "sr": 354,
  "ss": 355,
  "st": 356,
  "sy": 357,
  "sz": 358,
  "ta": 359,
  "tb": 360,
  "tc": 361,
  "td": 362,
  "te": 363,
  "tg": 364,
  "th": 365,
  "ti": 366,
  "tl": 367,
  "tn": 368,
  "to": 369,
  "tp": 370,
  "tr": 371,
  "ts": 372,
  "ty": 373,
  "tz": 374,
  "ua": 375,
  "ub": 376,
  "uc": 377,
  "ud": 378,
  "ue": 379,
  "ug": 380,
  "uj": 381,
  "uk": 382,
  "ul": 383,
  "um": 384,
  "un": 385,
  "up": 386,
  "ur": 387,
  "us": 388,
  "ut": 389,
  "uv": 390,
  "ux": 391,
  "uy": 392,
  "uz": 393,
  "va": 394,
  "vd": 395,
  "ve": 396,
  "vi": 397,
  "vm": 398,
  "vn": 399,
  "vp": 400,
  "vr": 401,
  "vs": 402,
  "vt": 403,
  "vv": 404,
  "vx": 405,
  "wa": 406,
  "wc": 407,
  "wd": 408,
  "we": 409,
  "wh": 410,
  "wk": 411,
  "wm": 412,
  "ws": 413,
  "wt": 414,
  "wx": 415,
  "xd": 416,
  "xe": 417,
  "xq": 418,
  "xs": 419,
  "xu": 420,
  "xx": 421,
  "xy": 422,
  "ya": 423,
  "yb": 424,
  "yc": 425,
  "yd": 426,
  "ye": 427,
  "yg": 428,
  "yi": 429,
  "yl": 430,
  "ym": 431,
  "yn": 432,
  "yp": 433,
  "yr": 434,
  "ys": 435,
  "yt": 436,
  "yw": 437,
  "yx": 438,
  "za": 439,
  "zd": 440,
  "ze": 441,
  "zo": 442,
  "zs": 443,
  "zt": 444,
  "zx": 445,
  "zy": 446,
  "Ġ'": 447,
  "Ġ0": 448,
  "Ġ1": 449,
  "Ġ2": 450,
  "Ġ3": 451,
  "Ġ4": 452,
  "Ġ5": 453,
  "Ġ6": 454,
  "Ġ7": 455,
  "Ġ8": 456,
  "Ġ9": 457,
  "Ġa": 458,
  "Ġb": 459,
  "Ġc": 460,
  "Ġd": 461,
  "Ġe": 462,
  "Ġf": 463,
  "Ġg": 464,
  "Ġh": 465,
  "Ġi": 466,
  "Ġj": 467,
  "Ġk": 468,
  "Ġl": 469,
  "Ġm": 470,
  "Ġn": 471,
  "Ġo": 472,
  "Ġp": 473,
  "Ġq": 474,
  "Ġr": 475,
  "Ġs": 476,
  "Ġt": 477,
  "Ġu": 478,
  "Ġv": 479,
  "Ġw": 480,
  "Ġx": 481,
  "Ġy": 482,
  "Ġz": 483,
  "ĠÃ": 484,
  "aal": 485,
  "aam": 486,
  "aap": 487,
  "aba": 488,
  "abd": 489,
  "abe": 490,
  "abh": 491,
  "abi": 492,
  "abs": 493,
  "acc": 494,
  "ace": 495,
  "ach": 496,
  "aci": 497,
  "ack": 498,
  "acq": 499,
  "acr": 500,
  "acs": 501,
  "act": 502,
  "acu": 503,
  "acy": 504,
  "ada": 505,
  "add": 506,
  "ade": 507,
  "adh": 508,
  "adi": 509,
  "ado": 510,
  "adr": 511,
  "ads": 512,
  "adt": 513,
  "ady": 514,
  "aek": 515,
  "ael": 516,
  "aer": 517,
  "aes": 518,
  "afa": 519,
  "afd": 520,
  "aff": 521,
  "aga": 522,
  "age": 523,
  "agh": 524,
  "agi": 525,
  "agl": 526,
  "ago": 527,
  "ags": 528,
  "aha": 529,
  "ahd": 530,
  "ahl": 531,
  "ahr": 532,
  "aid": 533,
  "ail": 534,
  "ain": 535,
  "air": 536,
  "ait": 537,
  "ajo": 538,
  "aka": 539,
  "ake": 540,
  "aki": 541,
  "ala": 542,
  "alc": 543,
  "ald": 544,
  "ale": 545,
  "ali": 546,
  "all": 547,
  "alp": 548,
  "als": 549,
  "ama": 550,
  "amd": 551,
  "ame": 552,
  "ami": 553,
  "amm": 554,
  "amn": 555,
  "amo": 556,
  "amp": 557,
  "ams": 558,
  "amy": 559,
  "ana": 560,
  "anc": 561,
  "and": 562,
  "ane": 563,
  "anf": 564,
  "ang": 565,
  "ani": 566,
  "ank": 567,
  "ann": 568,
  "ano": 569,
  "ans": 570,
  "ant": 571,
  "anz": 572,
  "apd": 573,
  "aph": 574,
  "app": 575,
  "aps": 576,
  "apt": 577,
  "aqu": 578,
  "ara": 579,
  "arb": 580,
  "arc": 581,
  "ard": 582,
  "are": 583,
  "arg": 584,
  "ari": 585,
  "ark": 586,
  "arm": 587,
  "arn": 588,
  "arp": 589,
  "ars": 590,
  "art": 591,
  "arx": 592,
  "ary": 593,
  "asc": 594,
  "asd": 595,
  "ase": 596,
  "ash": 597,
  "asi": 598,
  "asm": 599,
  "asp": 600,
  "ass": 601,
  "ast": 602,
  "ata": 603,
  "ate": 604,
  "ath": 605,
  "ati": 606,
  "atm": 607,
  "ato": 608,
  "atr": 609,
  "ats": 610,
  "att": 611,
  "atz": 612,
  "auc": 613,
  "aud": 614,
  "auf": 615,
  "aum": 616,
  "aun": 617,
  "aur": 618,
  "aus": 619,
  "aut": 620,
  "aux": 621,
  "avd": 622,
  "ave": 623,
  "avm": 624,
  "avy": 625,
  "awa": 626,
  "axy": 627,
  "ays": 628,
  "azi": 629,
  "bal": 630,
  "ban": 631,
  "bar": 632,
  "bat": 633,
  "bch": 634,
  "bec": 635,
  "bed": 636,
  "beh": 637,
  "ben": 638,
  "ber": 639,
  "bes": 640,
  "bfl": 641,
  "bia": 642,
  "bil": 643,
  "bin": 644,
  "bla": 645,
  "ble": 646,
  "blr": 647,
  "bma": 648,
  "bms": 649,
  "bol": 650,
  "bom": 651,
  "bor": 652,
  "bow": 653,
  "bre": 654,
  "bts": 655,
  "bul": 656,
  "bum": 657,
  "bur": 658,
  "but": 659,
  "cad": 660,
  "cah": 661,
  "cai": 662,
  "cal": 663,
  "can": 664,
  "car": 665,
  "cas": 666,
  "cax": 667,
  "ccd": 668,
  "ccs": 669,
  "cep": 670,
  "cer": 671,
  "cgr": 672,
  "cha": 673,
  "chs": 674,
  "chy": 675,
  "cid": 676,
  "cin": 677,
  "ckd": 678,
  "cke": 679,
  "clp": 680,
  "cme": 681,
  "cms": 682,
  "coh": 683,
  "cop": 684,
  "cpm": 685,
  "cra": 686,
  "crd": 687,
  "cro": 688,
  "cul": 689,
  "cup": 690,
  "cyg": 691,
  "cyt": 692,
  "dal": 693,
  "dan": 694,
  "day": 695,
  "ddr": 696,
  "deb": 697,
  "del": 698,
  "dem": 699,
  "den": 700,
  "dep": 701,
  "der": 702,
  "des": 703,
  "det": 704,
  "dev": 705,
  "dig": 706,
  "din": 707,
  "dip": 708,
  "dle": 709,
  "dlr": 710,
  "dns": 711,
  "don": 712,
  "dor": 713,
  "dsc": 714,
  "duc": 715,
  "dyn": 716,
  "dyw": 717,
  "eac": 718,
  "eae": 719,
  "eal": 720,
  "ean": 721,
  "ear": 722,
  "eas": 723,
  "eat": 724,
  "eau": 725,
  "eba": 726,
  "ebe": 727,
  "ebi": 728,
  "ebl": 729,
  "ebs": 730,
  "ecd": 731,
  "ech": 732,
  "eck": 733,
  "ecn": 734,
  "eco": 735,
  "ect": 736,
  "edf": 737,
  "edi": 738,
  "edo": 739,
  "edt": 740,
  "edy": 741,
  "eed": 742,
  "eel": 743,
  "eer": 744,
  "egm": 745,
  "ego": 746,
  "egs": 747,
  "eil": 748,
  "eis": 749,
  "eks": 750,
  "ela": 751,
  "eld": 752,
  "ele": 753,
  "elf": 754,
  "eli": 755,
  "ell": 756,
  "elo": 757,
  "els": 758,
  "ely": 759,
  "ema": 760,
  "emb": 761,
  "emp": 762,
  "ems": 763,
  "ena": 764,
  "enb": 765,
  "enc": 766,
  "end": 767,
  "ene": 768,
  "enh": 769,
  "eni": 770,
  "enn": 771,
  "ens": 772,
  "ent": 773,
  "enz": 774,
  "eol": 775,
  "eon": 776,
  "eph": 777,
  "eps": 778,
  "ept": 779,
  "equ": 780,
  "era": 781,
  "erc": 782,
  "ere": 783,
  "erf": 784,
  "erg": 785,
  "eri": 786,
  "erm": 787,
  "ern": 788,
  "ers": 789,
  "ert": 790,
  "erv": 791,
  "ery": 792,
  "erz": 793,
  "esc": 794,
  "ese": 795,
  "ess": 796,
  "est": 797,
  "esz": 798,
  "eta": 799,
  "ete": 800,
  "eth": 801,
  "eti": 802,
  "ets": 803,
  "ett": 804,
  "ety": 805,
  "etz": 806,
  "euk": 807,
  "eum": 808,
  "eus": 809,
  "eve": 810,
  "eym": 811,
  "eze": 812,
  "ezo": 813,
  "fak": 814,
  "fan": 815,
  "fap": 816,
  "fav": 817,
  "fdn": 818,
  "fec": 819,
  "fel": 820,
  "fer": 821,
  "fib": 822,
  "fic": 823,
  "fil": 824,
  "fin": 825,
  "fld": 826,
  "fly": 827,
  "fnd": 828,
  "fol": 829,
  "for": 830,
  "fsd": 831,
  "ftc": 832,
  "ftd": 833,
  "ful": 834,
  "fur": 835,
  "gal": 836,
  "gam": 837,
  "gas": 838,
  "gat": 839,
  "gav": 840,
  "gaz": 841,
  "gda": 842,
  "gdh": 843,
  "ged": 844,
  "gel": 845,
  "gem": 846,
  "gen": 847,
  "ger": 848,
  "ges": 849,
  "get": 850,
  "ggl": 851,
  "gia": 852,
  "gic": 853,
  "gin": 854,
  "glu": 855,
  "gmr": 856,
  "got": 857,
  "gow": 858,
  "gpt": 859,
  "gra": 860,
  "gre": 861,
  "gro": 862,
  "gth": 863,
  "gue": 864,
  "gus": 865,
  "gve": 866,
  "hal": 867,
  "ham": 868,
  "han": 869,
  "hap": 870,
  "har": 871,
  "hed": 872,
  "hel": 873,
  "hem": 874,
  "hen": 875,
  "hep": 876,
  "her": 877,
  "hib": 878,
  "hid": 879,
  "him": 880,
  "hin": 881,
  "hip": 882,
  "hns": 883,
  "hof": 884,
  "hom": 885,
  "hor": 886,
  "hos": 887,
  "hry": 888,
  "hum": 889,
  "hur": 890,
  "hyd": 891,
  "hyp": 892,
  "iaa": 893,
  "iab": 894,
  "iac": 895,
  "iad": 896,
  "iae": 897,
  "ial": 898,
  "iam": 899,
  "ian": 900,
  "iap": 901,
  "ias": 902,
  "ica": 903,
  "ice": 904,
  "ich": 905,
  "ici": 906,
  "ick": 907,
  "ics": 908,
  "ict": 909,
  "icz": 910,
  "ida": 911,
  "ide": 912,
  "idg": 913,
  "idi": 914,
  "ids": 915,
  "idy": 916,
  "ied": 917,
  "ief": 918,
  "iel": 919,
  "ier": 920,
  "ies": 921,
  "iet": 922,
  "ieu": 923,
  "iew": 924,
  "iez": 925,
  "ifa": 926,
  "ife": 927,
  "iff": 928,
  "ift": 929,
  "igh": 930,
  "igm": 931,
  "ign": 932,
  "igo": 933,
  "igu": 934,
  "ihi": 935,
  "ild": 936,
  "ile": 937,
  "ili": 938,
  "ill": 939,
  "ils": 940,
  "ima": 941,
  "ime": 942,
  "imm": 943,
  "ina": 944,
  "inc": 945,
  "ind": 946,
  "ine": 947,
  "inf": 948,
  "ing": 949,
  "inh": 950,
  "ini": 951,
  "ink": 952,
  "inn": 953,
  "ino": 954,
  "ins": 955,
  "int": 956,
  "inv": 957,
  "inz": 958,
  "iod": 959,
  "ion": 960,
  "ior": 961,
  "ios": 962,
  "ipa": 963,
  "iph": 964,
  "ipp": 965,
  "ips": 966,
  "ipt": 967,
  "iqu": 968,
  "ird": 969,
  "ire": 970,
  "iro": 971,
  "irs": 972,
  "isc": 973,
  "ise": 974,
  "ish": 975,
  "isk": 976,
  "ism": 977,
  "iss": 978,
  "ist": 979,
  "ita": 980,
  "ite": 981,
  "ith": 982,
  "iti": 983,
  "ito": 984,
  "its": 985,
  "itt": 986,
  "itu": 987,
  "ity": 988,
  "itz": 989,
  "ium": 990,
  "ius": 991,
  "ive": 992,
  "ize": 993,
  "izi": 994,
  "izz": 995,
  "jab": 996,
  "jad": 997,
  "jal": 998,
  "jar": 999,
  "jaw": 1000,
  "jer": 1001,
  "jew": 1002,
  "jga": 1003,
  "jhn": 1004,
  "jie": 1005,
  "jme": 1006,
  "jum": 1007,
  "jur": 1008,
  "kab": 1009,
  "kal": 1010,
  "kam": 1011,
  "kan": 1012,
  "kar": 1013,
  "ked": 1014,
  "kee": 1015,
  "kel": 1016,
  "ken": 1017,
  "ker": 1018,
  "kes": 1019,
  "ket": 1020,
  "kew": 1021,
  "key": 1022,
  "kie": 1023,
  "kin": 1024,
  "kir": 1025,
  "kit": 1026,
  "kle": 1027,
  "kop": 1028,
  "kos": 1029,
  "kpx": 1030,
  "kus": 1031,
  "kys": 1032,
  "lab": 1033,
  "lag": 1034,
  "lak": 1035,
  "lam": 1036,
  "lan": 1037,
  "lar": 1038,
  "las": 1039,
  "lav": 1040,
  "lay": 1041,
  "leb": 1042,
  "lec": 1043,
  "led": 1044,
  "lek": 1045,
  "lem": 1046,
  "len": 1047,
  "ler": 1048,
  "les": 1049,
  "let": 1050,
  "lex": 1051,
  "ley": 1052,
  "lic": 1053,
  "lin": 1054,
  "lip": 1055,
  "lns": 1056,
  "lob": 1057,
  "loc": 1058,
  "lor": 1059,
  "los": 1060,
  "lot": 1061,
  "lov": 1062,
  "low": 1063,
  "lsd": 1064,
  "lte": 1065,
  "lus": 1066,
  "lux": 1067,
  "mal": 1068,
  "man": 1069,
  "mas": 1070,
  "mch": 1071,
  "mci": 1072,
  "mds": 1073,
  "mdu": 1074,
  "med": 1075,
  "mel": 1076,
  "men": 1077,
  "mer": 1078,
  "mes": 1079,
  "met": 1080,
  "mfh": 1081,
  "mia": 1082,
  "mic": 1083,
  "mie": 1084,
  "min": 1085,
  "mmt": 1086,
  "mns": 1087,
  "mon": 1088,
  "mor": 1089,
  "mos": 1090,
  "mps": 1091,
  "mun": 1092,
  "mur": 1093,
  "mus": 1094,
  "nai": 1095,
  "nal": 1096,
  "nar": 1097,
  "nas": 1098,
  "ncl": 1099,
  "ncr": 1100,
  "nea": 1101,
  "ner": 1102,
  "nes": 1103,
  "nev": 1104,
  "ney": 1105,
  "nia": 1106,
  "nig": 1107,
  "nik": 1108,
  "nis": 1109,
  "nke": 1110,
  "nms": 1111,
  "nmt": 1112,
  "noc": 1113,
  "nos": 1114,
  "now": 1115,
  "nox": 1116,
  "nup": 1117,
  "nus": 1118,
  "nut": 1119,
  "oac": 1120,
  "oag": 1121,
  "oal": 1122,
  "oas": 1123,
  "oat": 1124,
  "oca": 1125,
  "och": 1126,
  "oci": 1127,
  "ock": 1128,
  "ocl": 1129,
  "oco": 1130,
  "ocy": 1131,
  "oda": 1132,
  "odd": 1133,
  "ode": 1134,
  "odg": 1135,
  "ody": 1136,
  "oea": 1137,
  "oel": 1138,
  "oen": 1139,
  "oep": 1140,
  "off": 1141,
  "oft": 1142,
  "ogl": 1143,
  "ogn": 1144,
  "ogy": 1145,
  "ohl": 1146,
  "ohn": 1147,
  "ohr": 1148,
  "oia": 1149,
  "oid": 1150,
  "oin": 1151,
  "ois": 1152,
  "oix": 1153,
  "oke": 1154,
  "oki": 1155,
  "oku": 1156,
  "ola": 1157,
  "old": 1158,
  "ole": 1159,
  "olf": 1160,
  "oli": 1161,
  "olk": 1162,
  "oll": 1163,
  "olm": 1164,
  "ols": 1165,
  "olt": 1166,
  "oma": 1167,
  "omb": 1168,
  "ome": 1169,
  "omm": 1170,
  "omn": 1171,
  "omo": 1172,
  "omp": 1173,
  "omy": 1174,
  "ond": 1175,
  "one": 1176,
  "ong": 1177,
  "oni": 1178,
  "ons": 1179,
  "ont": 1180,
  "onv": 1181,
  "ony": 1182,
  "onz": 1183,
  "ood": 1184,
  "ool": 1185,
  "oon": 1186,
  "oor": 1187,
  "oot": 1188,
  "opa": 1189,
  "opd": 1190,
  "ope": 1191,
  "opf": 1192,
  "oph": 1193,
  "opl": 1194,
  "opo": 1195,
  "opr": 1196,
  "ops": 1197,
  "opt": 1198,
  "opy": 1199,
  "oqu": 1200,
  "ora": 1201,
  "orb": 1202,
  "ord": 1203,
  "ore": 1204,
  "org": 1205,
  "ori": 1206,
  "orm": 1207,
  "orn": 1208,
  "oro": 1209,
  "orp": 1210,
  "ors": 1211,
  "ort": 1212,
  "ory": 1213,
  "osa": 1214,
  "osc": 1215,
  "ose": 1216,
  "osh": 1217,
  "osi": 1218,
  "osl": 1219,
  "oso": 1220,
  "osp": 1221,
  "oss": 1222,
  "ost": 1223,
  "otc": 1224,
  "otd": 1225,
  "oth": 1226,
  "oto": 1227,
  "otr": 1228,
  "ott": 1229,
  "oud": 1230,
  "ouf": 1231,
  "oul": 1232,
  "oun": 1233,
  "our": 1234,
  "ous": 1235,
  "out": 1236,
  "ova": 1237,
  "ove": 1238,
  "own": 1239,
  "oxy": 1240,
  "oyl": 1241,
  "ozo": 1242,
  "pal": 1243,
  "pan": 1244,
  "par": 1245,
  "pas": 1246,
  "pat": 1247,
  "pch": 1248,
  "pdc": 1249,
  "pdd": 1250,
  "pdm": 1251,
  "ped": 1252,
  "pel": 1253,
  "pen": 1254,
  "per": 1255,
  "pet": 1256,
  "pev": 1257,
  "pez": 1258,
  "pfd": 1259,
  "pha": 1260,
  "phm": 1261,
  "pht": 1262,
  "phy": 1263,
  "pid": 1264,
  "pie": 1265,
  "pin": 1266,
  "pkd": 1267,
  "ple": 1268,
  "plt": 1269,
  "pma": 1270,
  "pnk": 1271,
  "poc": 1272,
  "pol": 1273,
  "pon": 1274,
  "por": 1275,
  "pos": 1276,
  "pox": 1277,
  "ppd": 1278,
  "pps": 1279,
  "pre": 1280,
  "prn": 1281,
  "pro": 1282,
  "prs": 1283,
  "prt": 1284,
  "pur": 1285,
  "put": 1286,
  "pyr": 1287,
  "qtl": 1288,
  "que": 1289,
  "rac": 1290,
  "rad": 1291,
  "rae": 1292,
  "raf": 1293,
  "rag": 1294,
  "ral": 1295,
  "ram": 1296,
  "ran": 1297,
  "rap": 1298,
  "rar": 1299,
  "ras": 1300,
  "rav": 1301,
  "raw": 1302,
  "rax": 1303,
  "rcc": 1304,
  "rcd": 1305,
  "rdj": 1306,
  "rea": 1307,
  "red": 1308,
  "ref": 1309,
  "reg": 1310,
  "reh": 1311,
  "rel": 1312,
  "ren": 1313,
  "res": 1314,
  "ret": 1315,
  "rew": 1316,
  "rex": 1317,
  "rey": 1318,
  "ria": 1319,
  "ric": 1320,
  "rid": 1321,
  "rie": 1322,
  "rig": 1323,
  "ril": 1324,
  "rim": 1325,
  "rin": 1326,
  "ris": 1327,
  "rix": 1328,
  "rni": 1329,
  "rob": 1330,
  "roc": 1331,
  "rod": 1332,
  "rof": 1333,
  "rog": 1334,
  "rol": 1335,
  "rom": 1336,
  "ron": 1337,
  "rop": 1338,
  "ror": 1339,
  "ros": 1340,
  "rot": 1341,
  "rov": 1342,
  "row": 1343,
  "rox": 1344,
  "roy": 1345,
  "rps": 1346,
  "rug": 1347,
  "rum": 1348,
  "rup": 1349,
  "rus": 1350,
  "ruz": 1351,
  "rxs": 1352,
  "rys": 1353,
  "sch": 1354,
  "sed": 1355,
  "seg": 1356,
  "sen": 1357,
  "ser": 1358,
  "ses": 1359,
  "sey": 1360,
  "sgs": 1361,
  "sia": 1362,
  "sic": 1363,
  "sin": 1364,
  "sis": 1365,
  "ska": 1366,
  "ski": 1367,
  "sky": 1368,
  "sma": 1369,
  "soc": 1370,
  "son": 1371,
  "spr": 1372,
  "ste": 1373,
  "sti": 1374,
  "sts": 1375,
  "sug": 1376,
  "sus": 1377,
  "syn": 1378,
  "tac": 1379,
  "taf": 1380,
  "tag": 1381,
  "tal": 1382,
  "tar": 1383,
  "tas": 1384,
  "tat": 1385,
  "ted": 1386,
  "teg": 1387,
  "tel": 1388,
  "tem": 1389,
  "ter": 1390,
  "tes": 1391,
  "tex": 1392,
  "tga": 1393,
  "the": 1394,
  "ths": 1395,
  "thy": 1396,
  "tia": 1397,
  "tib": 1398,
  "tic": 1399,
  "tid": 1400,
  "tig": 1401,
  "tii": 1402,
  "til": 1403,
  "tim": 1404,
  "tin": 1405,
  "tio": 1406,
  "tip": 1407,
  "tis": 1408,
  "tit": 1409,
  "tiv": 1410,
  "tle": 1411,
  "toe": 1412,
  "ton": 1413,
  "tor": 1414,
  "tra": 1415,
  "trd": 1416,
  "tub": 1417,
  "tum": 1418,
  "tur": 1419,
  "tys": 1420,
  "ual": 1421,
  "uan": 1422,
  "ubo": 1423,
  "uce": 1424,
  "uch": 1425,
  "uct": 1426,
  "ude": 1427,
  "udi": 1428,
  "ueb": 1429,
  "uec": 1430,
  "uel": 1431,
  "uen": 1432,
  "uer": 1433,
  "ues": 1434,
  "uet": 1435,
  "uez": 1436,
  "uff": 1437,
  "uga": 1438,
  "ugh": 1439,
  "ugo": 1440,
  "ugr": 1441,
  "uhr": 1442,
  "uib": 1443,
  "uit": 1444,
  "uji": 1445,
  "uki": 1446,
  "ula": 1447,
  "ule": 1448,
  "ulf": 1449,
  "uli": 1450,
  "ull": 1451,
  "ulo": 1452,
  "ult": 1453,
  "ulz": 1454,
  "uma": 1455,
  "umb": 1456,
  "umm": 1457,
  "ump": 1458,
  "ums": 1459,
  "unc": 1460,
  "und": 1461,
  "une": 1462,
  "ung": 1463,
  "unk": 1464,
  "unn": 1465,
  "uno": 1466,
  "unt": 1467,
  "uod": 1468,
  "uor": 1469,
  "upr": 1470,
  "ura": 1471,
  "ure": 1472,
  "urg": 1473,
  "urn": 1474,
  "uro": 1475,
  "urr": 1476,
  "urs": 1477,
  "urv": 1478,
  "usa": 1479,
  "usc": 1480,
  "use": 1481,
  "ush": 1482,
  "usk": 1483,
  "uss": 1484,
  "ust": 1485,
  "uta": 1486,
  "ute": 1487,
  "uth": 1488,
  "uto": 1489,
  "utt": 1490,
  "utz": 1491,
  "uve": 1492,
  "uys": 1493,
  "vae": 1494,
  "vag": 1495,
  "val": 1496,
  "var": 1497,
  "vas": 1498,
  "vcl": 1499,
  "vdr": 1500,
  "vel": 1501,
  "ven": 1502,
  "ver": 1503,
  "ves": 1504,
  "vex": 1505,
  "vic": 1506,
  "vid": 1507,
  "vie": 1508,
  "vir": 1509,
  "vis": 1510,
  "vld": 1511,
  "vor": 1512,
  "vre": 1513,
  "vul": 1514,
  "vum": 1515,
  "vus": 1516,
  "wal": 1517,
  "war": 1518,
  "way": 1519,
  "wcr": 1520,
  "wds": 1521,
  "weg": 1522,
  "wer": 1523,
  "whe": 1524,
  "whk": 1525,
  "whs": 1526,
  "wig": 1527,
  "wim": 1528,
  "win": 1529,
  "wor": 1530,
  "xas": 1531,
  "xia": 1532,
  "yal": 1533,
  "yan": 1534,
  "yas": 1535,
  "yce": 1536,
  "ych": 1537,
  "ycl": 1538,
  "yel": 1539,
  "yer": 1540,
  "yes": 1541,
  "yle": 1542,
  "yll": 1543,
  "ylv": 1544,
  "yma": 1545,
  "yme": 1546,
  "ymy": 1547,
  "yne": 1548,
  "yng": 1549,
  "ynn": 1550,
  "yns": 1551,
  "yon": 1552,
  "yos": 1553,
  "yot": 1554,
  "ype": 1555,
  "yph": 1556,
  "ypt": 1557,
  "yse": 1558,
  "ysm": 1559,
  "ysp": 1560,
  "yst": 1561,
  "yte": 1562,
  "yth": 1563,
  "zal": 1564,
  "zar": 1565,
  "zas": 1566,
  "zay": 1567,
  "zel": 1568,
  "zen": 1569,
  "zer": 1570,
  "zhe": 1571,
  "zih": 1572,
  "zin": 1573,
  "zir": 1574,
  "zol": 1575,
  "zot": 1576,
  "zwe": 1577,
  "zyk": 1578,
  "Ġ10": 1579,
  "Ġ11": 1580,
  "Ġ12": 1581,
  "Ġ13": 1582,
  "Ġ14": 1583,
  "Ġ15": 1584,
  "Ġ16": 1585,
  "Ġ17": 1586,
  "Ġ18": 1587,
  "Ġ19": 1588,
  "Ġ20": 1589,
  "Ġ21": 1590,
  "Ġ22": 1591,
  "Ġ23": 1592,
  "Ġ24": 1593,
  "Ġ25": 1594,
  "Ġ26": 1595,
  "Ġ27": 1596,
  "Ġ28": 1597,
  "Ġ29": 1598,
  "Ġ30": 1599,
  "Ġ31": 1600,
  "Ġ32": 1601,
  "Ġ33": 1602,
  "Ġ34": 1603,
  "Ġ35": 1604,
  "Ġ36": 1605,
  "Ġ37": 1606,
  "Ġ38": 1607,
  "Ġ39": 1608,
  "Ġ40": 1609,
  "Ġ41": 1610,
  "Ġ42": 1611,
  "Ġ43": 1612,
  "Ġ44": 1613,
  "Ġ45": 1614,
  "Ġ46": 1615,
  "Ġ47": 1616,
  "Ġ48": 1617,
  "Ġ49": 1618,
  "Ġ50": 1619,
  "Ġ51": 1620,
  "Ġ52": 1621,
  "Ġ53": 1622,
  "Ġ54": 1623,
  "Ġ55": 1624,
  "Ġ56": 1625,
  "Ġ57": 1626,
  "Ġ58": 1627,
  "Ġ59": 1628,
  "Ġ60": 1629,
  "Ġ62": 1630,
  "Ġ63": 1631,
  "Ġ65": 1632,
  "Ġ66": 1633,
  "Ġ67": 1634,
  "Ġ68": 1635,
  "Ġ70": 1636,
  "Ġ71": 1637,
  "Ġ72": 1638,
  "Ġ73": 1639,
  "Ġ74": 1640,
  "Ġ76": 1641,
  "Ġ77": 1642,
  "Ġ78": 1643,
  "Ġ79": 1644,
  "Ġ81": 1645,
  "Ġ82": 1646,
  "Ġ83": 1647,
  "Ġ84": 1648,
  "Ġ85": 1649,
  "Ġ87": 1650,
  "Ġ88": 1651,
  "Ġ89": 1652,
  "Ġ91": 1653,
  "Ġ93": 1654,
  "Ġ94": 1655,
  "Ġ95": 1656,
  "Ġ96": 1657,
  "Ġ98": 1658,
  "Ġaa": 1659,
  "Ġab": 1660,
  "Ġac": 1661,
  "Ġad": 1662,
  "Ġaf": 1663,
  "Ġag": 1664,
  "Ġah": 1665,
  "Ġai": 1666,
  "Ġak": 1667,
  "Ġal": 1668,
  "Ġam": 1669,
  "Ġan": 1670,
  "Ġao": 1671,
  "Ġap": 1672,
  "Ġar": 1673,
  "Ġas": 1674,
  "Ġat": 1675,
  "Ġau": 1676,
  "Ġav": 1677,
  "Ġaw": 1678,
  "Ġax": 1679,
  "Ġaz": 1680,
  "Ġba": 1681,
  "Ġbb": 1682,
  "Ġbc": 1683,
  "Ġbd": 1684,
  "Ġbe": 1685,
  "Ġbf": 1686,
  "Ġbh": 1687,
  "Ġbi": 1688,
  "Ġbl": 1689,
  "Ġbm": 1690,
  "Ġbn": 1691,
  "Ġbo": 1692,
  "Ġbp": 1693,
  "Ġbr": 1694,
  "Ġbs": 1695,
  "Ġbt": 1696,
  "Ġbu": 1697,
  "Ġca": 1698,
  "Ġcb": 1699,
  "Ġcc": 1700,
  "Ġcd": 1701,
  "Ġcf": 1702,
  "Ġch": 1703,
  "Ġci": 1704,
  "Ġck": 1705,
  "Ġcl": 1706,
  "Ġcm": 1707,
  "Ġcn": 1708,
  "Ġco": 1709,
  "Ġcp": 1710,
  "Ġcr": 1711,
  "Ġcs": 1712,
  "Ġct": 1713,
  "Ġcx": 1714,
  "Ġcz": 1715,
  "Ġda": 1716,
  "Ġdb": 1717,
  "Ġdc": 1718,
  "Ġdd": 1719,
  "Ġde": 1720,
  "Ġdf": 1721,
  "Ġdg": 1722,
  "Ġdh": 1723,
  "Ġdi": 1724,
  "Ġdj": 1725,
  "Ġdk": 1726,
  "Ġdl": 1727,
  "Ġdm": 1728,
  "Ġdn": 1729,
  "Ġdo": 1730,
  "Ġdp": 1731,
  "Ġdr": 1732,
  "Ġds": 1733,
  "Ġdu": 1734,
  "Ġea": 1735,
  "Ġeb": 1736,
  "Ġec": 1737,
  "Ġed": 1738,
  "Ġee": 1739,
  "Ġeg": 1740,
  "Ġej": 1741,
  "Ġek": 1742,
  "Ġel": 1743,
  "Ġem": 1744,
  "Ġen": 1745,
  "Ġep": 1746,
  "Ġer": 1747,
  "Ġes": 1748,
  "Ġet": 1749,
  "Ġeu": 1750,
  "Ġev": 1751,
  "Ġew": 1752,
  "Ġex": 1753,
  "Ġey": 1754,
  "Ġfa": 1755,
  "Ġfc": 1756,
  "Ġfd": 1757,
  "Ġfe": 1758,
  "Ġff": 1759,
  "Ġfg": 1760,
  "Ġfh": 1761,
  "Ġfk": 1762,
  "Ġfl": 1763,
  "Ġfm": 1764,
  "Ġfn": 1765,
  "Ġfo": 1766,
  "Ġfr": 1767,
  "Ġft": 1768,
  "Ġga": 1769,
  "Ġgc": 1770,
  "Ġgd": 1771,
  "Ġge": 1772,
  "Ġgg": 1773,
  "Ġgh": 1774,
  "Ġgi": 1775,
  "Ġgk": 1776,
  "Ġgl": 1777,
  "Ġgm": 1778,
  "Ġgo": 1779,
  "Ġgp": 1780,
  "Ġgr": 1781,
  "Ġgs": 1782,
  "Ġgt": 1783,
  "Ġgu": 1784,
  "Ġgy": 1785,
  "Ġha": 1786,
  "Ġhb": 1787,
  "Ġhc": 1788,
  "Ġhd": 1789,
  "Ġhe": 1790,
  "Ġhf": 1791,
  "Ġhg": 1792,
  "Ġhh": 1793,
  "Ġhi": 1794,
  "Ġhj": 1795,
  "Ġhl": 1796,
  "Ġhm": 1797,
  "Ġhn": 1798,
  "Ġho": 1799,
  "Ġhp": 1800,
  "Ġhr": 1801,
  "Ġhs": 1802,
  "Ġht": 1803,
  "Ġhu": 1804,
  "Ġia": 1805,
  "Ġib": 1806,
  "Ġic": 1807,
  "Ġid": 1808,
  "Ġie": 1809,
  "Ġig": 1810,
  "Ġih": 1811,
  "Ġii": 1812,
  "Ġij": 1813,
  "Ġik": 1814,
  "Ġil": 1815,
  "Ġim": 1816,
  "Ġin": 1817,
  "Ġio": 1818,
  "Ġip": 1819,
  "Ġiq": 1820,
  "Ġir": 1821,
  "Ġis": 1822,
  "Ġit": 1823,
  "Ġiv": 1824,
  "Ġix": 1825,
  "Ġja": 1826,
  "Ġjc": 1827,
  "Ġjh": 1828,
  "Ġjo": 1829,
  "Ġjp": 1830,
  "Ġjt": 1831,
  "Ġkb": 1832,
  "Ġke": 1833,
  "Ġkh": 1834,
  "Ġki": 1835,
  "Ġkl": 1836,
  "Ġkn": 1837,
  "Ġko": 1838,
  "Ġkr": 1839,
  "Ġkt": 1840,
  "Ġku": 1841,
  "Ġla": 1842,
  "Ġlc": 1843,
  "Ġle": 1844,
  "Ġlf": 1845,
  "Ġlg": 1846,
  "Ġlh": 1847,
  "Ġli": 1848,
  "Ġlm": 1849,
  "Ġlo": 1850,
  "Ġlr": 1851,
  "Ġls": 1852,
  "Ġlu": 1853,
  "Ġly": 1854,
  "Ġma": 1855,
  "Ġmb": 1856,
  "Ġmc": 1857,
  "Ġmd": 1858,
  "Ġme": 1859,
  "Ġmf": 1860,
  "Ġmg": 1861,
  "Ġmh": 1862,
  "Ġmi": 1863,
  "Ġmk": 1864,
  "Ġml": 1865,
  "Ġmm": 1866,
  "Ġmn": 1867,
  "Ġmo": 1868,
  "Ġmp": 1869,
  "Ġmr": 1870,
  "Ġms": 1871,
  "Ġmt": 1872,
  "Ġmu": 1873,
  "Ġmv": 1874,
  "Ġmy": 1875,
  "Ġna": 1876,
  "Ġnc": 1877,
  "Ġnd": 1878,
  "Ġne": 1879,
  "Ġnf": 1880,
  "Ġng": 1881,
  "Ġnh": 1882,
  "Ġni": 1883,
  "Ġnk": 1884,
  "Ġnn": 1885,
  "Ġno": 1886,
  "Ġnp": 1887,
  "Ġnr": 1888,
  "Ġns": 1889,
  "Ġoa": 1890,
  "Ġob": 1891,
  "Ġoc": 1892,
  "Ġod": 1893,
  "Ġof": 1894,
  "Ġog": 1895,
  "Ġoh": 1896,
  "Ġoi": 1897,
  "Ġok": 1898,
  "Ġol": 1899,
  "Ġom": 1900,
  "Ġon": 1901,
  "Ġop": 1902,
  "Ġor": 1903,
  "Ġos": 1904,
  "Ġot": 1905,
  "Ġov": 1906,
  "Ġow": 1907,
  "Ġox": 1908,
  "Ġpa": 1909,
  "Ġpb": 1910,
  "Ġpc": 1911,
  "Ġpd": 1912,
  "Ġpe": 1913,
  "Ġpf": 1914,
  "Ġph": 1915,
  "Ġpi": 1916,
  "Ġpk": 1917,
  "Ġpl": 1918,
  "Ġpm": 1919,
  "Ġpn": 1920,
  "Ġpo": 1921,
  "Ġpp": 1922,
  "Ġpr": 1923,
  "Ġps": 1924,
  "Ġpt": 1925,
  "Ġpv": 1926,
  "Ġpy": 1927,
  "Ġqt": 1928,
  "Ġqu": 1929,
  "Ġra": 1930,
  "Ġrb": 1931,
  "Ġre": 1932,
  "Ġrf": 1933,
  "Ġrh": 1934,
  "Ġri": 1935,
  "Ġro": 1936,
  "Ġrp": 1937,
  "Ġrs": 1938,
  "Ġrt": 1939,
  "Ġrx": 1940,
  "Ġry": 1941,
  "Ġsa": 1942,
  "Ġsc": 1943,
  "Ġsd": 1944,
  "Ġse": 1945,
  "Ġsf": 1946,
  "Ġsg": 1947,
  "Ġsh": 1948,
  "Ġsi": 1949,
  "Ġsj": 1950,
  "Ġsk": 1951,
  "Ġsl": 1952,
  "Ġsm": 1953,
  "Ġsn": 1954,
  "Ġso": 1955,
  "Ġsp": 1956,
  "Ġsr": 1957,
  "Ġss": 1958,
  "Ġst": 1959,
  "Ġsw": 1960,
  "Ġta": 1961,
  "Ġtb": 1962,
  "Ġtc": 1963,
  "Ġtd": 1964,
  "Ġte": 1965,
  "Ġtg": 1966,
  "Ġth": 1967,
  "Ġti": 1968,
  "Ġtk": 1969,
  "Ġtm": 1970,
  "Ġtn": 1971,
  "Ġto": 1972,
  "Ġtr": 1973,
  "Ġts": 1974,
  "Ġtt": 1975,
  "Ġtu": 1976,
  "Ġtw": 1977,
  "Ġty": 1978,
  "Ġub": 1979,
  "Ġuc": 1980,
  "Ġud": 1981,
  "Ġue": 1982,
  "Ġul": 1983,
  "Ġun": 1984,
  "Ġup": 1985,
  "Ġur": 1986,
  "Ġus": 1987,
  "Ġut": 1988,
  "Ġuv": 1989,
  "Ġva": 1990,
  "Ġvc": 1991,
  "Ġvd": 1992,
  "Ġve": 1993,
  "Ġvf": 1994,
  "Ġvi": 1995,
  "Ġvl": 1996,
  "Ġvm": 1997,
  "Ġvo": 1998,
  "Ġvp": 1999,
  "Ġvs": 2000,
  "Ġvw": 2001,
  "Ġvz": 2002,
  "Ġwa": 2003,
  "Ġwc": 2004,
  "Ġwd": 2005,
  "Ġwe": 2006,
  "Ġwg": 2007,
  "Ġwh": 2008,
  "Ġwl": 2009,
  "Ġwm": 2010,
  "Ġwr": 2011,
  "Ġws": 2012,
  "Ġwt": 2013,
  "Ġwu": 2014,
  "Ġxi": 2015,
  "Ġxk": 2016,
  "Ġxl": 2017,
  "Ġxm": 2018,
  "Ġxo": 2019,
  "Ġxp": 2020,
  "Ġxq": 2021,
  "Ġxr": 2022,
  "Ġxs": 2023,
  "Ġxu": 2024,
  "Ġxv": 2025,
  "Ġxx": 2026,
  "Ġxy": 2027,
  "Ġyo": 2028,
  "Ġyy": 2029,
  "Ġzd": 2030,
  "Ġzs": 2031,
  "ĠÃ¡": 2032,
  "ĠÃ¤": 2033,
  "ĠÃ§": 2034,
  "ĠÃ©": 2035,
  "ĠÃ«": 2036,
  "ĠÃ¶": 2037,
  "ĠÃ¼": 2038,
  "abas": 2039,
  "abis": 2040,
  "able": 2041,
  "abro": 2042,
  "acca": 2043,
  "acch": 2044,
  "acco": 2045,
  "acea": 2046,
  "acek": 2047,
  "acer": 2048,
  "aces": 2049,
  "acet": 2050,
  "ache": 2051,
  "achn": 2052,
  "achy": 2053,
  "acil": 2054,
  "acio": 2055,
  "acob": 2056,
  "acyl": 2057,
  "acyt": 2058,
  "adak": 2059,
  "adal": 2060,
  "aded": 2061,
  "adel": 2062,
  "aden": 2063,
  "adev": 2064,
  "adia": 2065,
  "adic": 2066,
  "adie": 2067,
  "adik": 2068,
  "adip": 2069,
  "aert": 2070,
  "aeus": 2071,
  "afts": 2072,
  "agen": 2073,
  "ages": 2074,
  "agia": 2075,
  "agna": 2076,
  "agni": 2077,
  "agno": 2078,
  "agon": 2079,
  "ague": 2080,
  "agul": 2081,
  "ails": 2082,
  "aine": 2083,
  "ains": 2084,
  "aire": 2085,
  "aito": 2086,
  "ajer": 2087,
  "akeb": 2088,
  "aked": 2089,
  "aker": 2090,
  "akia": 2091,
  "akic": 2092,
  "akis": 2093,
  "akut": 2094,
  "alab": 2095,
  "alac": 2096,
  "alam": 2097,
  "alan": 2098,
  "alaz": 2099,
  "aled": 2100,
  "alen": 2101,
  "aler": 2102,
  "ales": 2103,
  "alia": 2104,
  "alid": 2105,
  "alie": 2106,
  "alit": 2107,
  "ally": 2108,
  "alyc": 2109,
  "amag": 2110,
  "amel": 2111,
  "amen": 2112,
  "ames": 2113,
  "amia": 2114,
  "amic": 2115,
  "amil": 2116,
  "amin": 2117,
  "amon": 2118,
  "ampt": 2119,
  "amut": 2120,
  "amyd": 2121,
  "anal": 2122,
  "ance": 2123,
  "anch": 2124,
  "ancy": 2125,
  "anda": 2126,
  "andy": 2127,
  "anea": 2128,
  "anel": 2129,
  "anes": 2130,
  "aney": 2131,
  "angi": 2132,
  "angl": 2133,
  "ania": 2134,
  "anic": 2135,
  "anni": 2136,
  "anol": 2137,
  "anth": 2138,
  "anti": 2139,
  "anug": 2140,
  "anur": 2141,
  "anut": 2142,
  "apat": 2143,
  "apid": 2144,
  "apit": 2145,
  "aple": 2146,
  "apon": 2147,
  "apse": 2148,
  "apul": 2149,
  "aqtl": 2150,
  "aran": 2151,
  "aras": 2152,
  "arce": 2153,
  "arch": 2154,
  "ardt": 2155,
  "aret": 2156,
  "arge": 2157,
  "aria": 2158,
  "aric": 2159,
  "arin": 2160,
  "aris": 2161,
  "arms": 2162,
  "aron": 2163,
  "arop": 2164,
  "arpo": 2165,
  "arse": 2166,
  "arsk": 2167,
  "arso": 2168,
  "arte": 2169,
  "arth": 2170,
  "arts": 2171,
  "artz": 2172,
  "arus": 2173,
  "aryl": 2174,
  "aryn": 2175,
  "arys": 2176,
  "arzt": 2177,
  "asal": 2178,
  "ased": 2179,
  "ases": 2180,
  "ashi": 2181,
  "asia": 2182,
  "asic": 2183,
  "asil": 2184,
  "asis": 2185,
  "aska": 2186,
  "asms": 2187,
  "asse": 2188,
  "assi": 2189,
  "asth": 2190,
  "astr": 2191,
  "atal": 2192,
  "atas": 2193,
  "atax": 2194,
  "atch": 2195,
  "ated": 2196,
  "aten": 2197,
  "ater": 2198,
  "ates": 2199,
  "athy": 2200,
  "atic": 2201,
  "atid": 2202,
  "atin": 2203,
  "atis": 2204,
  "atol": 2205,
  "atom": 2206,
  "aton": 2207,
  "ator": 2208,
  "atts": 2209,
  "atum": 2210,
  "atur": 2211,
  "atus": 2212,
  "aude": 2213,
  "auer": 2214,
  "aund": 2215,
  "auro": 2216,
  "avan": 2217,
  "aved": 2218,
  "avio": 2219,
  "axes": 2220,
  "axia": 2221,
  "axis": 2222,
  "ayan": 2223,
  "ayas": 2224,
  "ayer": 2225,
  "ayne": 2226,
  "back": 2227,
  "bank": 2228,
  "baum": 2229,
  "beck": 2230,
  "berg": 2231,
  "bern": 2232,
  "bers": 2233,
  "bert": 2234,
  "bery": 2235,
  "best": 2236,
  "bili": 2237,
  "bing": 2238,
  "bite": 2239,
  "blad": 2240,
  "blue": 2241,
  "borg": 2242,
  "born": 2243,
  "bott": 2244,
  "bour": 2245,
  "bran": 2246,
  "bric": 2247,
  "brin": 2248,
  "burg": 2249,
  "burn": 2250,
  "bury": 2251,
  "card": 2252,
  "cari": 2253,
  "cata": 2254,
  "cedo": 2255,
  "cend": 2256,
  "cent": 2257,
  "ceps": 2258,
  "cess": 2259,
  "chap": 2260,
  "chen": 2261,
  "cher": 2262,
  "chez": 2263,
  "chol": 2264,
  "chow": 2265,
  "ciny": 2266,
  "cith": 2267,
  "cler": 2268,
  "cles": 2269,
  "cois": 2270,
  "cott": 2271,
  "crew": 2272,
  "csoy": 2273,
  "cule": 2274,
  "cyst": 2275,
  "dalo": 2276,
  "dens": 2277,
  "derh": 2278,
  "derm": 2279,
  "ding": 2280,
  "dino": 2281,
  "dmnd": 2282,
  "doch": 2283,
  "dock": 2284,
  "draw": 2285,
  "drom": 2286,
  "east": 2287,
  "eaux": 2288,
  "ebec": 2289,
  "ebel": 2290,
  "ebic": 2291,
  "ebja": 2292,
  "eble": 2293,
  "eboa": 2294,
  "ebol": 2295,
  "ecal": 2296,
  "ecan": 2297,
  "ecch": 2298,
  "eced": 2299,
  "echt": 2300,
  "ecky": 2301,
  "ecox": 2302,
  "ecre": 2303,
  "ects": 2304,
  "edal": 2305,
  "edel": 2306,
  "eder": 2307,
  "edes": 2308,
  "edge": 2309,
  "edia": 2310,
  "edow": 2311,
  "edyl": 2312,
  "eech": 2313,
  "egal": 2314,
  "egel": 2315,
  "eger": 2316,
  "egon": 2317,
  "egre": 2318,
  "eine": 2319,
  "eitz": 2320,
  "ejun": 2321,
  "eker": 2322,
  "elan": 2323,
  "elap": 2324,
  "eles": 2325,
  "elia": 2326,
  "elic": 2327,
  "elin": 2328,
  "elip": 2329,
  "ella": 2330,
  "elle": 2331,
  "elli": 2332,
  "ello": 2333,
  "ellw": 2334,
  "elme": 2335,
  "elod": 2336,
  "elon": 2337,
  "elor": 2338,
  "elty": 2339,
  "emal": 2340,
  "eman": 2341,
  "emas": 2342,
  "emat": 2343,
  "emer": 2344,
  "emia": 2345,
  "emic": 2346,
  "emin": 2347,
  "emor": 2348,
  "emuk": 2349,
  "enal": 2350,
  "enar": 2351,
  "enas": 2352,
  "ence": 2353,
  "ench": 2354,
  "ency": 2355,
  "endo": 2356,
  "endt": 2357,
  "ened": 2358,
  "ener": 2359,
  "enet": 2360,
  "eney": 2361,
  "enfl": 2362,
  "engo": 2363,
  "enia": 2364,
  "enib": 2365,
  "enic": 2366,
  "enis": 2367,
  "enke": 2368,
  "enne": 2369,
  "enou": 2370,
  "ensi": 2371,
  "ente": 2372,
  "enth": 2373,
  "enti": 2374,
  "entl": 2375,
  "ents": 2376,
  "enum": 2377,
  "eola": 2378,
  "eose": 2379,
  "epin": 2380,
  "epox": 2381,
  "eppk": 2382,
  "eral": 2383,
  "eram": 2384,
  "erap": 2385,
  "eras": 2386,
  "erat": 2387,
  "ereb": 2388,
  "ered": 2389,
  "erer": 2390,
  "ergy": 2391,
  "erha": 2392,
  "eria": 2393,
  "eric": 2394,
  "erin": 2395,
  "eris": 2396,
  "erit": 2397,
  "erly": 2398,
  "eron": 2399,
  "erup": 2400,
  "eryl": 2401,
  "esch": 2402,
  "esco": 2403,
  "eses": 2404,
  "eshe": 2405,
  "esia": 2406,
  "esic": 2407,
  "esid": 2408,
  "esis": 2409,
  "eson": 2410,
  "essa": 2411,
  "essi": 2412,
  "esth": 2413,
  "esus": 2414,
  "etal": 2415,
  "etch": 2416,
  "eten": 2417,
  "eter": 2418,
  "etes": 2419,
  "etic": 2420,
  "etig": 2421,
  "etoj": 2422,
  "etra": 2423,
  "etsu": 2424,
  "ette": 2425,
  "etti": 2426,
  "etto": 2427,
  "etts": 2428,
  "etyl": 2429,
  "eule": 2430,
  "eune": 2431,
  "exia": 2432,
  "exis": 2433,
  "ezas": 2434,
  "ezia": 2435,
  "faci": 2436,
  "fact": 2437,
  "fans": 2438,
  "fart": 2439,
  "fect": 2440,
  "feet": 2441,
  "feld": 2442,
  "feri": 2443,
  "ferr": 2444,
  "fish": 2445,
  "flow": 2446,
  "fman": 2447,
  "fold": 2448,
  "foot": 2449,
  "ford": 2450,
  "form": 2451,
  "fous": 2452,
  "fqtl": 2453,
  "fria": 2454,
  "ftds": 2455,
  "fted": 2456,
  "full": 2457,
  "furd": 2458,
  "gang": 2459,
  "gart": 2460,
  "gent": 2461,
  "germ": 2462,
  "gers": 2463,
  "ggia": 2464,
  "gian": 2465,
  "gias": 2466,
  "ging": 2467,
  "gins": 2468,
  "gint": 2469,
  "gish": 2470,
  "glom": 2471,
  "glot": 2472,
  "gluc": 2473,
  "glut": 2474,
  "glyc": 2475,
  "gmon": 2476,
  "gnes": 2477,
  "gnos": 2478,
  "good": 2479,
  "grad": 2480,
  "gras": 2481,
  "gren": 2482,
  "grin": 2483,
  "gues": 2484,
  "hans": 2485,
  "hara": 2486,
  "hart": 2487,
  "haus": 2488,
  "hder": 2489,
  "head": 2490,
  "heck": 2491,
  "heim": 2492,
  "herd": 2493,
  "hers": 2494,
  "hier": 2495,
  "hill": 2496,
  "hina": 2497,
  "hisc": 2498,
  "hman": 2499,
  "hoff": 2500,
  "hole": 2501,
  "holm": 2502,
  "horm": 2503,
  "horn": 2504,
  "hrig": 2505,
  "hyde": 2506,
  "ials": 2507,
  "iams": 2508,
  "iant": 2509,
  "iari": 2510,
  "iary": 2511,
  "iasi": 2512,
  "iast": 2513,
  "iate": 2514,
  "ibed": 2515,
  "ible": 2516,
  "ibri": 2517,
  "ical": 2518,
  "ican": 2519,
  "icas": 2520,
  "ices": 2521,
  "icit": 2522,
  "icka": 2523,
  "icke": 2524,
  "icul": 2525,
  "icus": 2526,
  "idae": 2527,
  "idal": 2528,
  "ided": 2529,
  "iden": 2530,
  "ider": 2531,
  "ides": 2532,
  "idia": 2533,
  "idin": 2534,
  "idou": 2535,
  "idox": 2536,
  "idum": 2537,
  "idus": 2538,
  "iejo": 2539,
  "ield": 2540,
  "iene": 2541,
  "ient": 2542,
  "iere": 2543,
  "ieri": 2544,
  "iers": 2545,
  "iest": 2546,
  "ieth": 2547,
  "iety": 2548,
  "ieux": 2549,
  "ifer": 2550,
  "ific": 2551,
  "ifts": 2552,
  "ifug": 2553,
  "igae": 2554,
  "igan": 2555,
  "igar": 2556,
  "igen": 2557,
  "iger": 2558,
  "iggs": 2559,
  "ight": 2560,
  "igin": 2561,
  "igne": 2562,
  "igos": 2563,
  "ikar": 2564,
  "iken": 2565,
  "ikil": 2566,
  "ikov": 2567,
  "ikow": 2568,
  "ilar": 2569,
  "iled": 2570,
  "iles": 2571,
  "iley": 2572,
  "ilia": 2573,
  "ilic": 2574,
  "ilis": 2575,
  "illa": 2576,
  "ille": 2577,
  "illo": 2578,
  "ills": 2579,
  "ilma": 2580,
  "imal": 2581,
  "iman": 2582,
  "imek": 2583,
  "imer": 2584,
  "imia": 2585,
  "imid": 2586,
  "imin": 2587,
  "imke": 2588,
  "imot": 2589,
  "impl": 2590,
  "inal": 2591,
  "inar": 2592,
  "inas": 2593,
  "inca": 2594,
  "incl": 2595,
  "inea": 2596,
  "ined": 2597,
  "iner": 2598,
  "ines": 2599,
  "ings": 2600,
  "inia": 2601,
  "inig": 2602,
  "inii": 2603,
  "insk": 2604,
  "inth": 2605,
  "ints": 2606,
  "ioid": 2607,
  "ioma": 2608,
  "iomy": 2609,
  "ione": 2610,
  "ions": 2611,
  "iore": 2612,
  "iork": 2613,
  "ipan": 2614,
  "ipar": 2615,
  "ipec": 2616,
  "iple": 2617,
  "ippl": 2618,
  "ippo": 2619,
  "ipta": 2620,
  "iqtl": 2621,
  "iral": 2622,
  "ired": 2623,
  "ires": 2624,
  "irid": 2625,
  "irin": 2626,
  "irre": 2627,
  "irrh": 2628,
  "irub": 2629,
  "irus": 2630,
  "isch": 2631,
  "ises": 2632,
  "isia": 2633,
  "isic": 2634,
  "isis": 2635,
  "isms": 2636,
  "ison": 2637,
  "isth": 2638,
  "isti": 2639,
  "istr": 2640,
  "ital": 2641,
  "itar": 2642,
  "itas": 2643,
  "itay": 2644,
  "itch": 2645,
  "ited": 2646,
  "itel": 2647,
  "iter": 2648,
  "ites": 2649,
  "itic": 2650,
  "itid": 2651,
  "itin": 2652,
  "itis": 2653,
  "itiv": 2654,
  "itob": 2655,
  "itol": 2656,
  "itor": 2657,
  "itre": 2658,
  "itri": 2659,
  "itte": 2660,
  "itum": 2661,
  "itus": 2662,
  "ival": 2663,
  "iver": 2664,
  "ixed": 2665,
  "izar": 2666,
  "ized": 2667,
  "izel": 2668,
  "izin": 2669,
  "izos": 2670,
  "jald": 2671,
  "jeac": 2672,
  "jell": 2673,
  "joen": 2674,
  "jorn": 2675,
  "junc": 2676,
  "kall": 2677,
  "kawa": 2678,
  "kele": 2679,
  "kell": 2680,
  "kens": 2681,
  "kers": 2682,
  "keys": 2683,
  "kill": 2684,
  "king": 2685,
  "kins": 2686,
  "kist": 2687,
  "koff": 2688,
  "korn": 2689,
  "kott": 2690,
  "lage": 2691,
  "lagh": 2692,
  "lamm": 2693,
  "lamp": 2694,
  "land": 2695,
  "lane": 2696,
  "lang": 2697,
  "lans": 2698,
  "lant": 2699,
  "larg": 2700,
  "lase": 2701,
  "lash": 2702,
  "last": 2703,
  "leaf": 2704,
  "lean": 2705,
  "lear": 2706,
  "lect": 2707,
  "leda": 2708,
  "ledo": 2709,
  "left": 2710,
  "leid": 2711,
  "lein": 2712,
  "leis": 2713,
  "leod": 2714,
  "lepp": 2715,
  "lers": 2716,
  "less": 2717,
  "leuk": 2718,
  "lexy": 2719,
  "lhof": 2720,
  "lica": 2721,
  "lich": 2722,
  "ligo": 2723,
  "like": 2724,
  "line": 2725,
  "ling": 2726,
  "lism": 2727,
  "litz": 2728,
  "lman": 2729,
  "loch": 2730,
  "lody": 2731,
  "loid": 2732,
  "long": 2733,
  "lory": 2734,
  "lson": 2735,
  "lund": 2736,
  "lyte": 2737,
  "mall": 2738,
  "mani": 2739,
  "mann": 2740,
  "mans": 2741,
  "maul": 2742,
  "mckd": 2743,
  "mens": 2744,
  "ment": 2745,
  "mers": 2746,
  "mias": 2747,
  "mine": 2748,
  "mish": 2749,
  "mium": 2750,
  "mmal": 2751,
  "moad": 2752,
  "mond": 2753,
  "msen": 2754,
  "msmd": 2755,
  "mund": 2756,
  "nanc": 2757,
  "nant": 2758,
  "nath": 2759,
  "nati": 2760,
  "neal": 2761,
  "neas": 2762,
  "neff": 2763,
  "nell": 2764,
  "neph": 2765,
  "neri": 2766,
  "ners": 2767,
  "ness": 2768,
  "neum": 2769,
  "neys": 2770,
  "nian": 2771,
  "nias": 2772,
  "nica": 2773,
  "nick": 2774,
  "nier": 2775,
  "ning": 2776,
  "nios": 2777,
  "nith": 2778,
  "niti": 2779,
  "nold": 2780,
  "nsen": 2781,
  "oaff": 2782,
  "oang": 2783,
  "oast": 2784,
  "obar": 2785,
  "obia": 2786,
  "obic": 2787,
  "obil": 2788,
  "obul": 2789,
  "obut": 2790,
  "ocal": 2791,
  "ocar": 2792,
  "occl": 2793,
  "occo": 2794,
  "ocin": 2795,
  "ocki": 2796,
  "ococ": 2797,
  "ocon": 2798,
  "ocul": 2799,
  "ocys": 2800,
  "ocyt": 2801,
  "odal": 2802,
  "odef": 2803,
  "odes": 2804,
  "odev": 2805,
  "odia": 2806,
  "odic": 2807,
  "odig": 2808,
  "odip": 2809,
  "odis": 2810,
  "odor": 2811,
  "odyn": 2812,
  "odys": 2813,
  "oeck": 2814,
  "oect": 2815,
  "oeic": 2816,
  "oemb": 2817,
  "oese": 2818,
  "oeth": 2819,
  "ofac": 2820,
  "ofer": 2821,
  "ofib": 2822,
  "ofol": 2823,
  "ogen": 2824,
  "ogic": 2825,
  "ogly": 2826,
  "ohem": 2827,
  "ohep": 2828,
  "ohex": 2829,
  "ohue": 2830,
  "ohum": 2831,
  "ohyd": 2832,
  "ohyp": 2833,
  "oias": 2834,
  "oids": 2835,
  "oili": 2836,
  "okal": 2837,
  "oked": 2838,
  "okes": 2839,
  "olab": 2840,
  "olan": 2841,
  "olar": 2842,
  "oldi": 2843,
  "olen": 2844,
  "olep": 2845,
  "oler": 2846,
  "oles": 2847,
  "oley": 2848,
  "olic": 2849,
  "olin": 2850,
  "olip": 2851,
  "olog": 2852,
  "olon": 2853,
  "olop": 2854,
  "olor": 2855,
  "olus": 2856,
  "olys": 2857,
  "omac": 2858,
  "omad": 2859,
  "omal": 2860,
  "oman": 2861,
  "omas": 2862,
  "omat": 2863,
  "omed": 2864,
  "omeg": 2865,
  "omel": 2866,
  "omen": 2867,
  "omer": 2868,
  "omes": 2869,
  "omet": 2870,
  "omez": 2871,
  "omfc": 2872,
  "omia": 2873,
  "omic": 2874,
  "omid": 2875,
  "omod": 2876,
  "omon": 2877,
  "omst": 2878,
  "omuc": 2879,
  "omur": 2880,
  "omus": 2881,
  "omut": 2882,
  "omyc": 2883,
  "omyx": 2884,
  "onad": 2885,
  "onal": 2886,
  "onan": 2887,
  "onas": 2888,
  "onch": 2889,
  "onec": 2890,
  "onei": 2891,
  "ones": 2892,
  "oney": 2893,
  "onia": 2894,
  "onic": 2895,
  "onie": 2896,
  "onig": 2897,
  "onim": 2898,
  "onin": 2899,
  "onit": 2900,
  "onne": 2901,
  "onus": 2902,
  "onyl": 2903,
  "onym": 2904,
  "onys": 2905,
  "oomy": 2906,
  "oood": 2907,
  "opal": 2908,
  "opar": 2909,
  "opec": 2910,
  "opel": 2911,
  "oper": 2912,
  "opia": 2913,
  "opic": 2914,
  "opid": 2915,
  "ople": 2916,
  "opod": 2917,
  "opol": 2918,
  "opos": 2919,
  "oppy": 2920,
  "opro": 2921,
  "opur": 2922,
  "opys": 2923,
  "orac": 2924,
  "orad": 2925,
  "oral": 2926,
  "oram": 2927,
  "orax": 2928,
  "orch": 2929,
  "ored": 2930,
  "oref": 2931,
  "oreg": 2932,
  "oren": 2933,
  "ores": 2934,
  "orff": 2935,
  "orge": 2936,
  "orhe": 2937,
  "oria": 2938,
  "orid": 2939,
  "orie": 2940,
  "orif": 2941,
  "oris": 2942,
  "orof": 2943,
  "oron": 2944,
  "oros": 2945,
  "orph": 2946,
  "orrh": 2947,
  "orst": 2948,
  "orth": 2949,
  "orum": 2950,
  "osal": 2951,
  "osas": 2952,
  "osca": 2953,
  "osch": 2954,
  "osep": 2955,
  "oser": 2956,
  "oses": 2957,
  "oshs": 2958,
  "osin": 2959,
  "osis": 2960,
  "osom": 2961,
  "osph": 2962,
  "oste": 2963,
  "osth": 2964,
  "osud": 2965,
  "osum": 2966,
  "osus": 2967,
  "osut": 2968,
  "osyl": 2969,
  "osyn": 2970,
  "otal": 2971,
  "otch": 2972,
  "otel": 2973,
  "otes": 2974,
  "othi": 2975,
  "othy": 2976,
  "otia": 2977,
  "otic": 2978,
  "otil": 2979,
  "otor": 2980,
  "otox": 2981,
  "otri": 2982,
  "otte": 2983,
  "otti": 2984,
  "otto": 2985,
  "otyp": 2986,
  "ouch": 2987,
  "oude": 2988,
  "ough": 2989,
  "ouin": 2990,
  "ound": 2991,
  "oure": 2992,
  "ouri": 2993,
  "oury": 2994,
  "ouse": 2995,
  "ouzy": 2996,
  "ovag": 2997,
  "oval": 2998,
  "over": 2999,
  "oves": 3000,
  "ovic": 3001,
  "oway": 3002,
  "oxan": 3003,
  "oxic": 3004,
  "oxyl": 3005,
  "oyan": 3006,
  "ozoa": 3007,
  "ozyg": 3008,
  "pain": 3009,
  "pase": 3010,
  "pasm": 3011,
  "past": 3012,
  "path": 3013,
  "pect": 3014,
  "pend": 3015,
  "pers": 3016,
  "pest": 3017,
  "phal": 3018,
  "phan": 3019,
  "phar": 3020,
  "phas": 3021,
  "phen": 3022,
  "pher": 3023,
  "phet": 3024,
  "phia": 3025,
  "phig": 3026,
  "phol": 3027,
  "phos": 3028,
  "phot": 3029,
  "phys": 3030,
  "phyx": 3031,
  "pine": 3032,
  "ping": 3033,
  "plas": 3034,
  "pled": 3035,
  "pock": 3036,
  "poni": 3037,
  "port": 3038,
  "pose": 3039,
  "pric": 3040,
  "prop": 3041,
  "psia": 3042,
  "ptic": 3043,
  "pure": 3044,
  "qeel": 3045,
  "quam": 3046,
  "quat": 3047,
  "quez": 3048,
  "quin": 3049,
  "rach": 3050,
  "ract": 3051,
  "rade": 3052,
  "radi": 3053,
  "raft": 3054,
  "rage": 3055,
  "rain": 3056,
  "ranc": 3057,
  "rand": 3058,
  "rani": 3059,
  "rans": 3060,
  "rant": 3061,
  "raph": 3062,
  "raqu": 3063,
  "rase": 3064,
  "rata": 3065,
  "rate": 3066,
  "rave": 3067,
  "real": 3068,
  "reas": 3069,
  "rect": 3070,
  "reif": 3071,
  "rein": 3072,
  "rell": 3073,
  "rema": 3074,
  "rens": 3075,
  "reta": 3076,
  "rets": 3077,
  "riac": 3078,
  "rial": 3079,
  "rias": 3080,
  "rich": 3081,
  "rier": 3082,
  "ries": 3083,
  "rile": 3084,
  "rine": 3085,
  "ring": 3086,
  "rioc": 3087,
  "rion": 3088,
  "rism": 3089,
  "rist": 3090,
  "rity": 3091,
  "rium": 3092,
  "robi": 3093,
  "roch": 3094,
  "roet": 3095,
  "roff": 3096,
  "rogl": 3097,
  "roid": 3098,
  "roma": 3099,
  "romb": 3100,
  "romy": 3101,
  "rone": 3102,
  "rong": 3103,
  "rons": 3104,
  "ront": 3105,
  "rony": 3106,
  "rool": 3107,
  "room": 3108,
  "root": 3109,
  "roph": 3110,
  "rose": 3111,
  "rosi": 3112,
  "rosp": 3113,
  "ross": 3114,
  "rote": 3115,
  "roti": 3116,
  "roup": 3117,
  "rous": 3118,
  "roux": 3119,
  "rown": 3120,
  "roxy": 3121,
  "roys": 3122,
  "rpdc": 3123,
  "rtfn": 3124,
  "ruch": 3125,
  "ruct": 3126,
  "rull": 3127,
  "rums": 3128,
  "rush": 3129,
  "sack": 3130,
  "sala": 3131,
  "sang": 3132,
  "seal": 3133,
  "seau": 3134,
  "send": 3135,
  "sens": 3136,
  "seud": 3137,
  "ship": 3138,
  "shot": 3139,
  "sian": 3140,
  "sias": 3141,
  "sidi": 3142,
  "siek": 3143,
  "sier": 3144,
  "sies": 3145,
  "sigh": 3146,
  "sile": 3147,
  "simm": 3148,
  "sion": 3149,
  "sius": 3150,
  "sive": 3151,
  "sman": 3152,
  "sons": 3153,
  "sous": 3154,
  "sson": 3155,
  "stad": 3156,
  "stav": 3157,
  "ster": 3158,
  "ston": 3159,
  "stra": 3160,
  "stro": 3161,
  "stwk": 3162,
  "subo": 3163,
  "suit": 3164,
  "sych": 3165,
  "tagl": 3166,
  "tamy": 3167,
  "teat": 3168,
  "teen": 3169,
  "tein": 3170,
  "tely": 3171,
  "tend": 3172,
  "tern": 3173,
  "ters": 3174,
  "teur": 3175,
  "teus": 3176,
  "thal": 3177,
  "thec": 3178,
  "ther": 3179,
  "thes": 3180,
  "thew": 3181,
  "thio": 3182,
  "thle": 3183,
  "tial": 3184,
  "tian": 3185,
  "tias": 3186,
  "tick": 3187,
  "tide": 3188,
  "tier": 3189,
  "ties": 3190,
  "tile": 3191,
  "till": 3192,
  "tima": 3193,
  "time": 3194,
  "tine": 3195,
  "ting": 3196,
  "tion": 3197,
  "tish": 3198,
  "tism": 3199,
  "tits": 3200,
  "tium": 3201,
  "tive": 3202,
  "tles": 3203,
  "tman": 3204,
  "toes": 3205,
  "toid": 3206,
  "tomy": 3207,
  "tons": 3208,
  "tout": 3209,
  "trac": 3210,
  "tren": 3211,
  "trom": 3212,
  "truc": 3213,
  "tson": 3214,
  "tter": 3215,
  "turb": 3216,
  "tuss": 3217,
  "uage": 3218,
  "uana": 3219,
  "uate": 3220,
  "ubak": 3221,
  "ubal": 3222,
  "uber": 3223,
  "uble": 3224,
  "ucci": 3225,
  "uchi": 3226,
  "ucle": 3227,
  "uctu": 3228,
  "uded": 3229,
  "udge": 3230,
  "udts": 3231,
  "uedo": 3232,
  "uegh": 3233,
  "uemp": 3234,
  "uene": 3235,
  "uent": 3236,
  "uert": 3237,
  "uese": 3238,
  "uffy": 3239,
  "uign": 3240,
  "uill": 3241,
  "uium": 3242,
  "ukes": 3243,
  "ulam": 3244,
  "ular": 3245,
  "ulas": 3246,
  "ules": 3247,
  "ulin": 3248,
  "ully": 3249,
  "ulop": 3250,
  "ulse": 3251,
  "ultr": 3252,
  "ulty": 3253,
  "umar": 3254,
  "umin": 3255,
  "umph": 3256,
  "umps": 3257,
  "unar": 3258,
  "unay": 3259,
  "unct": 3260,
  "unda": 3261,
  "uneb": 3262,
  "unia": 3263,
  "unis": 3264,
  "unit": 3265,
  "unta": 3266,
  "unts": 3267,
  "unya": 3268,
  "unze": 3269,
  "uori": 3270,
  "uosp": 3271,
  "uous": 3272,
  "uper": 3273,
  "uple": 3274,
  "ural": 3275,
  "uran": 3276,
  "uray": 3277,
  "urea": 3278,
  "ured": 3279,
  "uren": 3280,
  "ures": 3281,
  "uria": 3282,
  "uric": 3283,
  "uris": 3284,
  "urom": 3285,
  "uron": 3286,
  "urop": 3287,
  "urth": 3288,
  "usal": 3289,
  "usch": 3290,
  "usea": 3291,
  "usen": 3292,
  "user": 3293,
  "uses": 3294,
  "usia": 3295,
  "usis": 3296,
  "uska": 3297,
  "uson": 3298,
  "usor": 3299,
  "usse": 3300,
  "ussi": 3301,
  "uste": 3302,
  "ustr": 3303,
  "usum": 3304,
  "utam": 3305,
  "utch": 3306,
  "uted": 3307,
  "utel": 3308,
  "uter": 3309,
  "utes": 3310,
  "utis": 3311,
  "uton": 3312,
  "utra": 3313,
  "uvic": 3314,
  "uwer": 3315,
  "uyen": 3316,
  "uzio": 3317,
  "vanc": 3318,
  "vans": 3319,
  "vasc": 3320,
  "veal": 3321,
  "veld": 3322,
  "vely": 3323,
  "vens": 3324,
  "vern": 3325,
  "vers": 3326,
  "vert": 3327,
  "veux": 3328,
  "vine": 3329,
  "vior": 3330,
  "voix": 3331,
  "wafd": 3332,
  "wair": 3333,
  "wang": 3334,
  "ward": 3335,
  "wart": 3336,
  "wash": 3337,
  "wean": 3338,
  "weed": 3339,
  "ween": 3340,
  "well": 3341,
  "wick": 3342,
  "will": 3343,
  "wise": 3344,
  "with": 3345,
  "witz": 3346,
  "worm": 3347,
  "xias": 3348,
  "xill": 3349,
  "xtas": 3350,
  "xual": 3351,
  "yama": 3352,
  "yamo": 3353,
  "yane": 3354,
  "yant": 3355,
  "yazi": 3356,
  "ycan": 3357,
  "ycer": 3358,
  "yder": 3359,
  "ydii": 3360,
  "yers": 3361,
  "ygia": 3362,
  "yhan": 3363,
  "ying": 3364,
  "ykes": 3365,
  "ykin": 3366,
  "ylan": 3367,
  "yler": 3368,
  "ylia": 3369,
  "ylic": 3370,
  "ylid": 3371,
  "ylin": 3372,
  "yloh": 3373,
  "ylor": 3374,
  "ymal": 3375,
  "yman": 3376,
  "ymas": 3377,
  "ymic": 3378,
  "ymph": 3379,
  "ynah": 3380,
  "ynch": 3381,
  "yneb": 3382,
  "ynth": 3383,
  "ypan": 3384,
  "ypox": 3385,
  "ypsy": 3386,
  "yria": 3387,
  "yric": 3388,
  "yrin": 3389,
  "yron": 3390,
  "yros": 3391,
  "yryl": 3392,
  "yses": 3393,
  "ysip": 3394,
  "ysis": 3395,
  "ythm": 3396,
  "ytia": 3397,
  "ytic": 3398,
  "yuan": 3399,
  "zani": 3400,
  "zell": 3401,
  "zgre": 3402,
  "zing": 3403,
  "zlow": 3404,
  "zole": 3405,
  "zoon": 3406,
  "Ġ100": 3407,
  "Ġ135": 3408,
  "Ġ180": 3409,
  "Ġ200": 3410,
  "Ġ229": 3411,
  "Ġ256": 3412,
  "Ġ260": 3413,
  "Ġ388": 3414,
  "Ġ450": 3415,
  "Ġ593": 3416,
  "Ġaaa": 3417,
  "Ġaab": 3418,
  "Ġaad": 3419,
  "Ġaap": 3420,
  "Ġaar": 3421,
  "Ġaas": 3422,
  "Ġaat": 3423,
  "Ġabb": 3424,
  "Ġabd": 3425,
  "Ġabl": 3426,
  "Ġabs": 3427,
  "Ġaca": 3428,
  "Ġacc": 3429,
  "Ġacd": 3430,
  "Ġacf": 3431,
  "Ġacg": 3432,
  "Ġach": 3433,
  "Ġacn": 3434,
  "Ġacp": 3435,
  "Ġacs": 3436,
  "Ġacv": 3437,
  "Ġacy": 3438,
  "Ġada": 3439,
  "Ġadd": 3440,
  "Ġadh": 3441,
  "Ġadj": 3442,
  "Ġadr": 3443,
  "Ġadt": 3444,
  "Ġaec": 3445,
  "Ġaeg": 3446,
  "Ġaei": 3447,
  "Ġaem": 3448,
  "Ġaer": 3449,
  "Ġaex": 3450,
  "Ġaez": 3451,
  "Ġafa": 3452,
  "Ġafd": 3453,
  "Ġaff": 3454,
  "Ġaga": 3455,
  "Ġagc": 3456,
  "Ġage": 3457,
  "Ġagg": 3458,
  "Ġagl": 3459,
  "Ġagm": 3460,
  "Ġags": 3461,
  "Ġagt": 3462,
  "Ġagu": 3463,
  "Ġahc": 3464,
  "Ġahd": 3465,
  "Ġahm": 3466,
  "Ġahx": 3467,
  "Ġaic": 3468,
  "Ġaid": 3469,
  "Ġaih": 3470,
  "Ġaim": 3471,
  "Ġaip": 3472,
  "Ġair": 3473,
  "Ġais": 3474,
  "Ġait": 3475,
  "Ġaiv": 3476,
  "Ġaks": 3477,
  "Ġaku": 3478,
  "Ġakv": 3479,
  "Ġalb": 3480,
  "Ġald": 3481,
  "Ġalg": 3482,
  "Ġali": 3483,
  "Ġalk": 3484,
  "Ġall": 3485,
  "Ġalp": 3486,
  "Ġals": 3487,
  "Ġamb": 3488,
  "Ġamc": 3489,
  "Ġamd": 3490,
  "Ġami": 3491,
  "Ġaml": 3492,
  "Ġamn": 3493,
  "Ġamo": 3494,
  "Ġamr": 3495,
  "Ġamy": 3496,
  "Ġana": 3497,
  "Ġanc": 3498,
  "Ġand": 3499,
  "Ġane": 3500,
  "Ġang": 3501,
  "Ġanh": 3502,
  "Ġani": 3503,
  "Ġank": 3504,
  "Ġanm": 3505,
  "Ġann": 3506,
  "Ġano": 3507,
  "Ġans": 3508,
  "Ġant": 3509,
  "Ġaoa": 3510,
  "Ġaof": 3511,
  "Ġaoi": 3512,
  "Ġaom": 3513,
  "Ġaor": 3514,
  "Ġaos": 3515,
  "Ġapc": 3516,
  "Ġape": 3517,
  "Ġaph": 3518,
  "Ġapo": 3519,
  "Ġapp": 3520,
  "Ġaps": 3521,
  "Ġaqu": 3522,
  "Ġarb": 3523,
  "Ġarc": 3524,
  "Ġard": 3525,
  "Ġare": 3526,
  "Ġarg": 3527,
  "Ġarh": 3528,
  "Ġari": 3529,
  "Ġarm": 3530,
  "Ġarr": 3531,
  "Ġars": 3532,
  "Ġarv": 3533,
  "Ġarx": 3534,
  "Ġasa": 3535,
  "Ġasc": 3536,
  "Ġasd": 3537,
  "Ġasg": 3538,
  "Ġash": 3539,
  "Ġasl": 3540,
  "Ġasp": 3541,
  "Ġass": 3542,
  "Ġast": 3543,
  "Ġata": 3544,
  "Ġatc": 3545,
  "Ġatd": 3546,
  "Ġate": 3547,
  "Ġath": 3548,
  "Ġatm": 3549,
  "Ġatn": 3550,
  "Ġatp": 3551,
  "Ġatr": 3552,
  "Ġats": 3553,
  "Ġatt": 3554,
  "Ġaud": 3555,
  "Ġauj": 3556,
  "Ġaun": 3557,
  "Ġaur": 3558,
  "Ġaus": 3559,
  "Ġaut": 3560,
  "Ġavc": 3561,
  "Ġavm": 3562,
  "Ġaws": 3563,
  "Ġazf": 3564,
  "Ġazo": 3565,
  "Ġbab": 3566,
  "Ġbaf": 3567,
  "Ġbag": 3568,
  "Ġbah": 3569,
  "Ġbal": 3570,
  "Ġbam": 3571,
  "Ġbar": 3572,
  "Ġbas": 3573,
  "Ġbav": 3574,
  "Ġbaz": 3575,
  "Ġbbb": 3576,
  "Ġbbs": 3577,
  "Ġbcc": 3578,
  "Ġbcd": 3579,
  "Ġbcg": 3580,
  "Ġbch": 3581,
  "Ġbcl": 3582,
  "Ġbcm": 3583,
  "Ġbcr": 3584,
  "Ġbcs": 3585,
  "Ġbda": 3586,
  "Ġbdb": 3587,
  "Ġbdc": 3588,
  "Ġbdd": 3589,
  "Ġbde": 3590,
  "Ġbdm": 3591,
  "Ġbds": 3592,
  "Ġbea": 3593,
  "Ġbec": 3594,
  "Ġbed": 3595,
  "Ġbeg": 3596,
  "Ġbeh": 3597,
  "Ġbej": 3598,
  "Ġbel": 3599,
  "Ġben": 3600,
  "Ġber": 3601,
  "Ġbes": 3602,
  "Ġbet": 3603,
  "Ġbfh": 3604,
  "Ġbfn": 3605,
  "Ġbgs": 3606,
  "Ġbhc": 3607,
  "Ġbhm": 3608,
  "Ġbic": 3609,
  "Ġbie": 3610,
  "Ġbif": 3611,
  "Ġbig": 3612,
  "Ġbil": 3613,
  "Ġbin": 3614,
  "Ġbio": 3615,
  "Ġbir": 3616,
  "Ġbis": 3617,
  "Ġbit": 3618,
  "Ġbix": 3619,
  "Ġbjs": 3620,
  "Ġble": 3621,
  "Ġblm": 3622,
  "Ġblo": 3623,
  "Ġbls": 3624,
  "Ġblv": 3625,
  "Ġbob": 3626,
  "Ġboc": 3627,
  "Ġbod": 3628,
  "Ġbof": 3629,
  "Ġbog": 3630,
  "Ġboh": 3631,
  "Ġbol": 3632,
  "Ġbor": 3633,
  "Ġbos": 3634,
  "Ġbot": 3635,
  "Ġbov": 3636,
  "Ġbow": 3637,
  "Ġboy": 3638,
  "Ġbpp": 3639,
  "Ġbra": 3640,
  "Ġbre": 3641,
  "Ġbro": 3642,
  "Ġbru": 3643,
  "Ġbrv": 3644,
  "Ġbse": 3645,
  "Ġbss": 3646,
  "Ġbst": 3647,
  "Ġbtd": 3648,
  "Ġbtk": 3649,
  "Ġbtp": 3650,
  "Ġbub": 3651,
  "Ġbuc": 3652,
  "Ġbud": 3653,
  "Ġbul": 3654,
  "Ġbun": 3655,
  "Ġbur": 3656,
  "Ġbut": 3657,
  "Ġbuz": 3658,
  "Ġbvv": 3659,
  "Ġbwc": 3660,
  "Ġbws": 3661,
  "Ġbys": 3662,
  "Ġbyw": 3663,
  "Ġbzs": 3664,
  "Ġbzx": 3665,
  "Ġcaa": 3666,
  "Ġcab": 3667,
  "Ġcac": 3668,
  "Ġcad": 3669,
  "Ġcae": 3670,
  "Ġcaf": 3671,
  "Ġcag": 3672,
  "Ġcah": 3673,
  "Ġcal": 3674,
  "Ġcam": 3675,
  "Ġcan": 3676,
  "Ġcap": 3677,
  "Ġcaq": 3678,
  "Ġcar": 3679,
  "Ġcas": 3680,
  "Ġcat": 3681,
  "Ġcav": 3682,
  "Ġcbb": 3683,
  "Ġcbd": 3684,
  "Ġcbg": 3685,
  "Ġcbl": 3686,
  "Ġcbp": 3687,
  "Ġcbs": 3688,
  "Ġcbt": 3689,
  "Ġcbx": 3690,
  "Ġcca": 3691,
  "Ġccc": 3692,
  "Ġccf": 3693,
  "Ġcch": 3694,
  "Ġccl": 3695,
  "Ġccm": 3696,
  "Ġccn": 3697,
  "Ġcco": 3698,
  "Ġccp": 3699,
  "Ġccs": 3700,
  "Ġcct": 3701,
  "Ġccv": 3702,
  "Ġcda": 3703,
  "Ġcdb": 3704,
  "Ġcdg": 3705,
  "Ġcdh": 3706,
  "Ġcdi": 3707,
  "Ġcdl": 3708,
  "Ġcdo": 3709,
  "Ġcdr": 3710,
  "Ġcds": 3711,
  "Ġcdt": 3712,
  "Ġcec": 3713,
  "Ġced": 3714,
  "Ġcel": 3715,
  "Ġcen": 3716,
  "Ġcep": 3717,
  "Ġcer": 3718,
  "Ġces": 3719,
  "Ġcet": 3720,
  "Ġcfc": 3721,
  "Ġcfd": 3722,
  "Ġcfe": 3723,
  "Ġcfh": 3724,
  "Ġcfm": 3725,
  "Ġcft": 3726,
  "Ġcgd": 3727,
  "Ġcgf": 3728,
  "Ġcgh": 3729,
  "Ġcgl": 3730,
  "Ġcha": 3731,
  "Ġche": 3732,
  "Ġchh": 3733,
  "Ġchl": 3734,
  "Ġchn": 3735,
  "Ġcho": 3736,
  "Ġchr": 3737,
  "Ġchs": 3738,
  "Ġcic": 3739,
  "Ġcid": 3740,
  "Ġcie": 3741,
  "Ġcig": 3742,
  "Ġcil": 3743,
  "Ġcim": 3744,
  "Ġcio": 3745,
  "Ġcir": 3746,
  "Ġcis": 3747,
  "Ġcit": 3748,
  "Ġcjd": 3749,
  "Ġcjm": 3750,
  "Ġckn": 3751,
  "Ġcla": 3752,
  "Ġcle": 3753,
  "Ġclf": 3754,
  "Ġcll": 3755,
  "Ġcln": 3756,
  "Ġclo": 3757,
  "Ġcls": 3758,
  "Ġcmc": 3759,
  "Ġcmd": 3760,
  "Ġcmh": 3761,
  "Ġcml": 3762,
  "Ġcmm": 3763,
  "Ġcmo": 3764,
  "Ġcms": 3765,
  "Ġcmt": 3766,
  "Ġcna": 3767,
  "Ġcnc": 3768,
  "Ġcnd": 3769,
  "Ġcnf": 3770,
  "Ġcnm": 3771,
  "Ġcns": 3772,
  "Ġcoa": 3773,
  "Ġcob": 3774,
  "Ġcoc": 3775,
  "Ġcod": 3776,
  "Ġcoe": 3777,
  "Ġcof": 3778,
  "Ġcog": 3779,
  "Ġcoh": 3780,
  "Ġcoi": 3781,
  "Ġcol": 3782,
  "Ġcom": 3783,
  "Ġcon": 3784,
  "Ġcop": 3785,
  "Ġcoq": 3786,
  "Ġcor": 3787,
  "Ġcot": 3788,
  "Ġcow": 3789,
  "Ġcox": 3790,
  "Ġcpd": 3791,
  "Ġcph": 3792,
  "Ġcpi": 3793,
  "Ġcpk": 3794,
  "Ġcpl": 3795,
  "Ġcpo": 3796,
  "Ġcpp": 3797,
  "Ġcps": 3798,
  "Ġcpt": 3799,
  "Ġcpx": 3800,
  "Ġcrb": 3801,
  "Ġcrc": 3802,
  "Ġcrd": 3803,
  "Ġcre": 3804,
  "Ġcri": 3805,
  "Ġcro": 3806,
  "Ġcrs": 3807,
  "Ġcrv": 3808,
  "Ġcry": 3809,
  "Ġcsa": 3810,
  "Ġcsd": 3811,
  "Ġcse": 3812,
  "Ġcsf": 3813,
  "Ġcst": 3814,
  "Ġcta": 3815,
  "Ġcte": 3816,
  "Ġcth": 3817,
  "Ġctl": 3818,
  "Ġctm": 3819,
  "Ġcts": 3820,
  "Ġctx": 3821,
  "Ġcub": 3822,
  "Ġcud": 3823,
  "Ġcum": 3824,
  "Ġcup": 3825,
  "Ġcur": 3826,
  "Ġcut": 3827,
  "Ġcva": 3828,
  "Ġcvd": 3829,
  "Ġcvs": 3830,
  "Ġcvt": 3831,
  "Ġcxb": 3832,
  "Ġcxn": 3833,
  "Ġcyb": 3834,
  "Ġcyc": 3835,
  "Ġcym": 3836,
  "Ġcyp": 3837,
  "Ġcys": 3838,
  "Ġcyt": 3839,
  "Ġcze": 3840,
  "Ġczp": 3841,
  "Ġdac": 3842,
  "Ġdai": 3843,
  "Ġdal": 3844,
  "Ġdam": 3845,
  "Ġdan": 3846,
  "Ġdap": 3847,
  "Ġdar": 3848,
  "Ġdav": 3849,
  "Ġdax": 3850,
  "Ġday": 3851,
  "Ġdba": 3852,
  "Ġdbm": 3853,
  "Ġdbp": 3854,
  "Ġdbs": 3855,
  "Ġdcb": 3856,
  "Ġdco": 3857,
  "Ġdcr": 3858,
  "Ġdcs": 3859,
  "Ġddc": 3860,
  "Ġddd": 3861,
  "Ġddp": 3862,
  "Ġddu": 3863,
  "Ġdeb": 3864,
  "Ġdec": 3865,
  "Ġded": 3866,
  "Ġdef": 3867,
  "Ġdeg": 3868,
  "Ġdel": 3869,
  "Ġdem": 3870,
  "Ġden": 3871,
  "Ġdep": 3872,
  "Ġder": 3873,
  "Ġdes": 3874,
  "Ġdet": 3875,
  "Ġdev": 3876,
  "Ġdew": 3877,
  "Ġdex": 3878,
  "Ġdfn": 3879,
  "Ġdgi": 3880,
  "Ġdgs": 3881,
  "Ġdhd": 3882,
  "Ġdhh": 3883,
  "Ġdhm": 3884,
  "Ġdhr": 3885,
  "Ġdhs": 3886,
  "Ġdia": 3887,
  "Ġdib": 3888,
  "Ġdic": 3889,
  "Ġdid": 3890,
  "Ġdif": 3891,
  "Ġdig": 3892,
  "Ġdih": 3893,
  "Ġdil": 3894,
  "Ġdim": 3895,
  "Ġdin": 3896,
  "Ġdip": 3897,
  "Ġdis": 3898,
  "Ġdiv": 3899,
  "Ġdjs": 3900,
  "Ġdkc": 3901,
  "Ġdlb": 3902,
  "Ġdld": 3903,
  "Ġdmc": 3904,
  "Ġdmd": 3905,
  "Ġdmr": 3906,
  "Ġdms": 3907,
  "Ġdmt": 3908,
  "Ġdna": 3909,
  "Ġdns": 3910,
  "Ġdoa": 3911,
  "Ġdog": 3912,
  "Ġdoh": 3913,
  "Ġdol": 3914,
  "Ġdon": 3915,
  "Ġdop": 3916,
  "Ġdor": 3917,
  "Ġdos": 3918,
  "Ġdot": 3919,
  "Ġdow": 3920,
  "Ġdpb": 3921,
  "Ġdpd": 3922,
  "Ġdph": 3923,
  "Ġdpm": 3924,
  "Ġdpr": 3925,
  "Ġdrd": 3926,
  "Ġdre": 3927,
  "Ġdrm": 3928,
  "Ġdrs": 3929,
  "Ġdry": 3930,
  "Ġdsd": 3931,
  "Ġdsh": 3932,
  "Ġdsm": 3933,
  "Ġdsn": 3934,
  "Ġdtd": 3935,
  "Ġdub": 3936,
  "Ġduc": 3937,
  "Ġdue": 3938,
  "Ġduh": 3939,
  "Ġduk": 3940,
  "Ġdum": 3941,
  "Ġdup": 3942,
  "Ġdur": 3943,
  "Ġdus": 3944,
  "Ġdva": 3945,
  "Ġdvd": 3946,
  "Ġdvt": 3947,
  "Ġdwm": 3948,
  "Ġdws": 3949,
  "Ġdxs": 3950,
  "Ġdyc": 3951,
  "Ġdyg": 3952,
  "Ġdyn": 3953,
  "Ġdys": 3954,
  "Ġdyt": 3955,
  "Ġdyx": 3956,
  "Ġeac": 3957,
  "Ġead": 3958,
  "Ġeag": 3959,
  "Ġeam": 3960,
  "Ġean": 3961,
  "Ġear": 3962,
  "Ġeas": 3963,
  "Ġebd": 3964,
  "Ġebm": 3965,
  "Ġebr": 3966,
  "Ġebs": 3967,
  "Ġebv": 3968,
  "Ġeca": 3969,
  "Ġecd": 3970,
  "Ġecg": 3971,
  "Ġech": 3972,
  "Ġeco": 3973,
  "Ġect": 3974,
  "Ġecz": 3975,
  "Ġeda": 3976,
  "Ġedm": 3977,
  "Ġeds": 3978,
  "Ġeec": 3979,
  "Ġeem": 3980,
  "Ġefe": 3981,
  "Ġeff": 3982,
  "Ġefm": 3983,
  "Ġegg": 3984,
  "Ġehk": 3985,
  "Ġehr": 3986,
  "Ġehs": 3987,
  "Ġeht": 3988,
  "Ġeie": 3989,
  "Ġeig": 3990,
  "Ġeim": 3991,
  "Ġeis": 3992,
  "Ġeja": 3993,
  "Ġejm": 3994,
  "Ġekd": 3995,
  "Ġekg": 3996,
  "Ġekv": 3997,
  "Ġeld": 3998,
  "Ġele": 3999,
  "Ġell": 4000,
  "Ġema": 4001,
  "Ġemb": 4002,
  "Ġemc": 4003,
  "Ġemd": 4004,
  "Ġemg": 4005,
  "Ġemp": 4006,
  "Ġenc": 4007,
  "Ġend": 4008,
  "Ġeng": 4009,
  "Ġent": 4010,
  "Ġenz": 4011,
  "Ġeoe": 4012,
  "Ġeof": 4013,
  "Ġepd": 4014,
  "Ġeph": 4015,
  "Ġepi": 4016,
  "Ġepm": 4017,
  "Ġepp": 4018,
  "Ġeps": 4019,
  "Ġepv": 4020,
  "Ġequ": 4021,
  "Ġerb": 4022,
  "Ġerm": 4023,
  "Ġess": 4024,
  "Ġest": 4025,
  "Ġetf": 4026,
  "Ġeth": 4027,
  "Ġetl": 4028,
  "Ġetm": 4029,
  "Ġeum": 4030,
  "Ġevc": 4031,
  "Ġevr": 4032,
  "Ġexc": 4033,
  "Ġext": 4034,
  "Ġeye": 4035,
  "Ġfaa": 4036,
  "Ġfab": 4037,
  "Ġfac": 4038,
  "Ġfad": 4039,
  "Ġfae": 4040,
  "Ġfah": 4041,
  "Ġfal": 4042,
  "Ġfap": 4043,
  "Ġfar": 4044,
  "Ġfas": 4045,
  "Ġfat": 4046,
  "Ġfav": 4047,
  "Ġfay": 4048,
  "Ġfaz": 4049,
  "Ġfbd": 4050,
  "Ġfbh": 4051,
  "Ġfbs": 4052,
  "Ġfcc": 4053,
  "Ġfcd": 4054,
  "Ġfch": 4055,
  "Ġfcm": 4056,
  "Ġfcn": 4057,
  "Ġfcs": 4058,
  "Ġfcu": 4059,
  "Ġfdc": 4060,
  "Ġfdd": 4061,
  "Ġfdh": 4062,
  "Ġfeb": 4063,
  "Ġfec": 4064,
  "Ġfed": 4065,
  "Ġfel": 4066,
  "Ġfem": 4067,
  "Ġfeo": 4068,
  "Ġfer": 4069,
  "Ġfet": 4070,
  "Ġffd": 4071,
  "Ġffi": 4072,
  "Ġffm": 4073,
  "Ġfgd": 4074,
  "Ġfgf": 4075,
  "Ġfgl": 4076,
  "Ġfgs": 4077,
  "Ġfha": 4078,
  "Ġfhc": 4079,
  "Ġfhd": 4080,
  "Ġfhf": 4081,
  "Ġfhh": 4082,
  "Ġfhl": 4083,
  "Ġfhm": 4084,
  "Ġfib": 4085,
  "Ġfif": 4086,
  "Ġfig": 4087,
  "Ġfih": 4088,
  "Ġfil": 4089,
  "Ġfim": 4090,
  "Ġfin": 4091,
  "Ġfir": 4092,
  "Ġfis": 4093,
  "Ġfit": 4094,
  "Ġfix": 4095,
  "Ġfle": 4096,
  "Ġflo": 4097,
  "Ġflu": 4098,
  "Ġfmf": 4099,
  "Ġfml": 4100,
  "Ġfmr": 4101,
  "Ġfnd": 4102,
  "Ġfnm": 4103,
  "Ġfoc": 4104,
  "Ġfod": 4105,
  "Ġfog": 4106,
  "Ġfol": 4107,
  "Ġfop": 4108,
  "Ġfor": 4109,
  "Ġfov": 4110,
  "Ġfow": 4111,
  "Ġfox": 4112,
  "Ġfpc": 4113,
  "Ġfpd": 4114,
  "Ġfpf": 4115,
  "Ġfph": 4116,
  "Ġfpl": 4117,
  "Ġfpo": 4118,
  "Ġfpp": 4119,
  "Ġfra": 4120,
  "Ġfre": 4121,
  "Ġfro": 4122,
  "Ġfsh": 4123,
  "Ġfsn": 4124,
  "Ġfsp": 4125,
  "Ġfss": 4126,
  "Ġftc": 4127,
  "Ġftd": 4128,
  "Ġftl": 4129,
  "Ġfuc": 4130,
  "Ġfug": 4131,
  "Ġfuj": 4132,
  "Ġfuk": 4133,
  "Ġful": 4134,
  "Ġfum": 4135,
  "Ġfur": 4136,
  "Ġfus": 4137,
  "Ġfws": 4138,
  "Ġfwt": 4139,
  "Ġgaa": 4140,
  "Ġgab": 4141,
  "Ġgag": 4142,
  "Ġgal": 4143,
  "Ġgam": 4144,
  "Ġgan": 4145,
  "Ġgar": 4146,
  "Ġgas": 4147,
  "Ġgay": 4148,
  "Ġgaz": 4149,
  "Ġgba": 4150,
  "Ġgbb": 4151,
  "Ġgbd": 4152,
  "Ġgbe": 4153,
  "Ġgbm": 4154,
  "Ġgbs": 4155,
  "Ġgcd": 4156,
  "Ġgce": 4157,
  "Ġgcl": 4158,
  "Ġgcm": 4159,
  "Ġgct": 4160,
  "Ġgdd": 4161,
  "Ġgde": 4162,
  "Ġgdl": 4163,
  "Ġgdx": 4164,
  "Ġgef": 4165,
  "Ġgel": 4166,
  "Ġgem": 4167,
  "Ġgen": 4168,
  "Ġgep": 4169,
  "Ġger": 4170,
  "Ġggf": 4171,
  "Ġggm": 4172,
  "Ġggt": 4173,
  "Ġgib": 4174,
  "Ġgig": 4175,
  "Ġgil": 4176,
  "Ġgjb": 4177,
  "Ġgkd": 4178,
  "Ġgla": 4179,
  "Ġglb": 4180,
  "Ġglc": 4181,
  "Ġgld": 4182,
  "Ġglh": 4183,
  "Ġgli": 4184,
  "Ġglm": 4185,
  "Ġgnp": 4186,
  "Ġgoa": 4187,
  "Ġgob": 4188,
  "Ġgol": 4189,
  "Ġgon": 4190,
  "Ġgor": 4191,
  "Ġgpd": 4192,
  "Ġgpi": 4193,
  "Ġgpr": 4194,
  "Ġgps": 4195,
  "Ġgra": 4196,
  "Ġgrd": 4197,
  "Ġgre": 4198,
  "Ġgrn": 4199,
  "Ġgro": 4200,
  "Ġgsd": 4201,
  "Ġgse": 4202,
  "Ġgsh": 4203,
  "Ġgsl": 4204,
  "Ġgsm": 4205,
  "Ġgsn": 4206,
  "Ġgtg": 4207,
  "Ġgtp": 4208,
  "Ġgts": 4209,
  "Ġgub": 4210,
  "Ġgum": 4211,
  "Ġgun": 4212,
  "Ġgup": 4213,
  "Ġgus": 4214,
  "Ġgut": 4215,
  "Ġgvm": 4216,
  "Ġgyg": 4217,
  "Ġgyn": 4218,
  "Ġgyr": 4219,
  "Ġhab": 4220,
  "Ġhae": 4221,
  "Ġhaf": 4222,
  "Ġhag": 4223,
  "Ġhak": 4224,
  "Ġhal": 4225,
  "Ġham": 4226,
  "Ġhan": 4227,
  "Ġhap": 4228,
  "Ġhar": 4229,
  "Ġhaw": 4230,
  "Ġhay": 4231,
  "Ġhbb": 4232,
  "Ġhbd": 4233,
  "Ġhbl": 4234,
  "Ġhbt": 4235,
  "Ġhbv": 4236,
  "Ġhca": 4237,
  "Ġhcc": 4238,
  "Ġhcd": 4239,
  "Ġhcf": 4240,
  "Ġhcg": 4241,
  "Ġhch": 4242,
  "Ġhci": 4243,
  "Ġhcp": 4244,
  "Ġhcv": 4245,
  "Ġhdd": 4246,
  "Ġhdl": 4247,
  "Ġhdr": 4248,
  "Ġheb": 4249,
  "Ġhed": 4250,
  "Ġhei": 4251,
  "Ġhel": 4252,
  "Ġhem": 4253,
  "Ġhen": 4254,
  "Ġhep": 4255,
  "Ġher": 4256,
  "Ġhes": 4257,
  "Ġhex": 4258,
  "Ġhfe": 4259,
  "Ġhfg": 4260,
  "Ġhfm": 4261,
  "Ġhfu": 4262,
  "Ġhga": 4263,
  "Ġhgf": 4264,
  "Ġhha": 4265,
  "Ġhhc": 4266,
  "Ġhhd": 4267,
  "Ġhhf": 4268,
  "Ġhhg": 4269,
  "Ġhhh": 4270,
  "Ġhhp": 4271,
  "Ġhht": 4272,
  "Ġhib": 4273,
  "Ġhic": 4274,
  "Ġhid": 4275,
  "Ġhig": 4276,
  "Ġhip": 4277,
  "Ġhir": 4278,
  "Ġhis": 4279,
  "Ġhiv": 4280,
  "Ġhla": 4281,
  "Ġhld": 4282,
  "Ġhlh": 4283,
  "Ġhln": 4284,
  "Ġhlp": 4285,
  "Ġhls": 4286,
  "Ġhmg": 4287,
  "Ġhmi": 4288,
  "Ġhml": 4289,
  "Ġhmn": 4290,
  "Ġhms": 4291,
  "Ġhna": 4292,
  "Ġhnd": 4293,
  "Ġhnp": 4294,
  "Ġhns": 4295,
  "Ġhoa": 4296,
  "Ġhob": 4297,
  "Ġhoc": 4298,
  "Ġhof": 4299,
  "Ġhog": 4300,
  "Ġhok": 4301,
  "Ġhol": 4302,
  "Ġhom": 4303,
  "Ġhop": 4304,
  "Ġhor": 4305,
  "Ġhos": 4306,
  "Ġhot": 4307,
  "Ġhow": 4308,
  "Ġhpa": 4309,
  "Ġhpc": 4310,
  "Ġhpd": 4311,
  "Ġhpe": 4312,
  "Ġhpi": 4313,
  "Ġhpl": 4314,
  "Ġhps": 4315,
  "Ġhpt": 4316,
  "Ġhpv": 4317,
  "Ġhra": 4318,
  "Ġhrd": 4319,
  "Ġhre": 4320,
  "Ġhrs": 4321,
  "Ġhrx": 4322,
  "Ġhrz": 4323,
  "Ġhsd": 4324,
  "Ġhsh": 4325,
  "Ġhsi": 4326,
  "Ġhsn": 4327,
  "Ġhsp": 4328,
  "Ġhss": 4329,
  "Ġhsu": 4330,
  "Ġhtc": 4331,
  "Ġhtl": 4332,
  "Ġhts": 4333,
  "Ġhtx": 4334,
  "Ġhul": 4335,
  "Ġhum": 4336,
  "Ġhun": 4337,
  "Ġhur": 4338,
  "Ġhus": 4339,
  "Ġhwe": 4340,
  "Ġhyb": 4341,
  "Ġhyc": 4342,
  "Ġhyd": 4343,
  "Ġhyg": 4344,
  "Ġhym": 4345,
  "Ġhyp": 4346,
  "Ġhyt": 4347,
  "Ġiad": 4348,
  "Ġias": 4349,
  "Ġibc": 4350,
  "Ġibd": 4351,
  "Ġibm": 4352,
  "Ġibs": 4353,
  "Ġicc": 4354,
  "Ġicd": 4355,
  "Ġice": 4356,
  "Ġicf": 4357,
  "Ġich": 4358,
  "Ġicp": 4359,
  "Ġicr": 4360,
  "Ġics": 4361,
  "Ġict": 4362,
  "Ġidd": 4363,
  "Ġide": 4364,
  "Ġidi": 4365,
  "Ġids": 4366,
  "Ġifd": 4367,
  "Ġifs": 4368,
  "Ġiga": 4369,
  "Ġigd": 4370,
  "Ġige": 4371,
  "Ġigf": 4372,
  "Ġigg": 4373,
  "Ġigh": 4374,
  "Ġigm": 4375,
  "Ġigs": 4376,
  "Ġihg": 4377,
  "Ġihh": 4378,
  "Ġiia": 4379,
  "Ġiib": 4380,
  "Ġiic": 4381,
  "Ġiid": 4382,
  "Ġiie": 4383,
  "Ġiif": 4384,
  "Ġiig": 4385,
  "Ġiih": 4386,
  "Ġiii": 4387,
  "Ġiij": 4388,
  "Ġiim": 4389,
  "Ġiin": 4390,
  "Ġiis": 4391,
  "Ġiix": 4392,
  "Ġild": 4393,
  "Ġile": 4394,
  "Ġili": 4395,
  "Ġill": 4396,
  "Ġils": 4397,
  "Ġimd": 4398,
  "Ġimm": 4399,
  "Ġimp": 4400,
  "Ġinc": 4401,
  "Ġind": 4402,
  "Ġinf": 4403,
  "Ġing": 4404,
  "Ġinh": 4405,
  "Ġini": 4406,
  "Ġins": 4407,
  "Ġint": 4408,
  "Ġinv": 4409,
  "Ġiod": 4410,
  "Ġiow": 4411,
  "Ġipa": 4412,
  "Ġipd": 4413,
  "Ġips": 4414,
  "Ġira": 4415,
  "Ġird": 4416,
  "Ġirr": 4417,
  "Ġisa": 4418,
  "Ġish": 4419,
  "Ġiss": 4420,
  "Ġita": 4421,
  "Ġitm": 4422,
  "Ġito": 4423,
  "Ġitp": 4424,
  "Ġiud": 4425,
  "Ġiva": 4426,
  "Ġivb": 4427,
  "Ġivc": 4428,
  "Ġivd": 4429,
  "Ġivs": 4430,
  "Ġivy": 4431,
  "Ġiwc": 4432,
  "Ġixa": 4433,
  "Ġixb": 4434,
  "Ġixc": 4435,
  "Ġixd": 4436,
  "Ġjae": 4437,
  "Ġjag": 4438,
  "Ġjak": 4439,
  "Ġjal": 4440,
  "Ġjam": 4441,
  "Ġjap": 4442,
  "Ġjar": 4443,
  "Ġjaw": 4444,
  "Ġjeb": 4445,
  "Ġjeg": 4446,
  "Ġjer": 4447,
  "Ġjet": 4448,
  "Ġjew": 4449,
  "Ġjhf": 4450,
  "Ġjip": 4451,
  "Ġjme": 4452,
  "Ġjmm": 4453,
  "Ġjms": 4454,
  "Ġjob": 4455,
  "Ġjod": 4456,
  "Ġjoh": 4457,
  "Ġjps": 4458,
  "Ġjug": 4459,
  "Ġjuv": 4460,
  "Ġjux": 4461,
  "Ġjws": 4462,
  "Ġkab": 4463,
  "Ġkah": 4464,
  "Ġkaj": 4465,
  "Ġkal": 4466,
  "Ġkam": 4467,
  "Ġkap": 4468,
  "Ġkar": 4469,
  "Ġkas": 4470,
  "Ġkau": 4471,
  "Ġkaw": 4472,
  "Ġkaz": 4473,
  "Ġkbg": 4474,
  "Ġkcn": 4475,
  "Ġkcs": 4476,
  "Ġkel": 4477,
  "Ġker": 4478,
  "Ġket": 4479,
  "Ġkey": 4480,
  "Ġkfs": 4481,
  "Ġkgd": 4482,
  "Ġkhm": 4483,
  "Ġkhr": 4484,
  "Ġkid": 4485,
  "Ġkif": 4486,
  "Ġkik": 4487,
  "Ġkim": 4488,
  "Ġkin": 4489,
  "Ġkir": 4490,
  "Ġkiv": 4491,
  "Ġkle": 4492,
  "Ġklu": 4493,
  "Ġkna": 4494,
  "Ġkne": 4495,
  "Ġkno": 4496,
  "Ġkob": 4497,
  "Ġkoh": 4498,
  "Ġkoj": 4499,
  "Ġkos": 4500,
  "Ġkow": 4501,
  "Ġkpd": 4502,
  "Ġkpp": 4503,
  "Ġkra": 4504,
  "Ġkri": 4505,
  "Ġkrs": 4506,
  "Ġksr": 4507,
  "Ġkss": 4508,
  "Ġktd": 4509,
  "Ġkts": 4510,
  "Ġktw": 4511,
  "Ġkub": 4512,
  "Ġkug": 4513,
  "Ġkur": 4514,
  "Ġkuz": 4515,
  "Ġkwe": 4516,
  "Ġkws": 4517,
  "Ġkym": 4518,
  "Ġkyr": 4519,
  "Ġlab": 4520,
  "Ġlac": 4521,
  "Ġlad": 4522,
  "Ġlaf": 4523,
  "Ġlag": 4524,
  "Ġlah": 4525,
  "Ġlal": 4526,
  "Ġlam": 4527,
  "Ġlap": 4528,
  "Ġlar": 4529,
  "Ġlav": 4530,
  "Ġlaw": 4531,
  "Ġlax": 4532,
  "Ġlaz": 4533,
  "Ġlbd": 4534,
  "Ġlbs": 4535,
  "Ġlca": 4536,
  "Ġlcc": 4537,
  "Ġlcd": 4538,
  "Ġlch": 4539,
  "Ġlcp": 4540,
  "Ġlcs": 4541,
  "Ġldl": 4542,
  "Ġlds": 4543,
  "Ġled": 4544,
  "Ġlee": 4545,
  "Ġleg": 4546,
  "Ġlem": 4547,
  "Ġlen": 4548,
  "Ġlep": 4549,
  "Ġler": 4550,
  "Ġles": 4551,
  "Ġlev": 4552,
  "Ġlew": 4553,
  "Ġlfa": 4554,
  "Ġlfl": 4555,
  "Ġlfs": 4556,
  "Ġlgl": 4557,
  "Ġlgm": 4558,
  "Ġlgs": 4559,
  "Ġlib": 4560,
  "Ġlid": 4561,
  "Ġlig": 4562,
  "Ġlih": 4563,
  "Ġlim": 4564,
  "Ġlip": 4565,
  "Ġlis": 4566,
  "Ġliv": 4567,
  "Ġlkm": 4568,
  "Ġlmd": 4569,
  "Ġlms": 4570,
  "Ġlmw": 4571,
  "Ġlns": 4572,
  "Ġloa": 4573,
  "Ġlob": 4574,
  "Ġloc": 4575,
  "Ġloe": 4576,
  "Ġlog": 4577,
  "Ġlok": 4578,
  "Ġlom": 4579,
  "Ġlop": 4580,
  "Ġlos": 4581,
  "Ġlou": 4582,
  "Ġlow": 4583,
  "Ġlpg": 4584,
  "Ġlpi": 4585,
  "Ġlpl": 4586,
  "Ġlpp": 4587,
  "Ġlps": 4588,
  "Ġlqt": 4589,
  "Ġlrs": 4590,
  "Ġlsf": 4591,
  "Ġlss": 4592,
  "Ġlub": 4593,
  "Ġluc": 4594,
  "Ġlud": 4595,
  "Ġluj": 4596,
  "Ġlum": 4597,
  "Ġlup": 4598,
  "Ġlur": 4599,
  "Ġlut": 4600,
  "Ġlux": 4601,
  "Ġlvm": 4602,
  "Ġlvn": 4603,
  "Ġlwd": 4604,
  "Ġlyp": 4605,
  "Ġlys": 4606,
  "Ġmaa": 4607,
  "Ġmab": 4608,
  "Ġmac": 4609,
  "Ġmad": 4610,
  "Ġmag": 4611,
  "Ġmaj": 4612,
  "Ġmak": 4613,
  "Ġmal": 4614,
  "Ġman": 4615,
  "Ġmap": 4616,
  "Ġmar": 4617,
  "Ġmas": 4618,
  "Ġmat": 4619,
  "Ġmax": 4620,
  "Ġmay": 4621,
  "Ġmbs": 4622,
  "Ġmca": 4623,
  "Ġmcc": 4624,
  "Ġmcd": 4625,
  "Ġmcf": 4626,
  "Ġmci": 4627,
  "Ġmcl": 4628,
  "Ġmcm": 4629,
  "Ġmcs": 4630,
  "Ġmct": 4631,
  "Ġmdb": 4632,
  "Ġmdc": 4633,
  "Ġmdd": 4634,
  "Ġmdi": 4635,
  "Ġmdk": 4636,
  "Ġmdm": 4637,
  "Ġmdr": 4638,
  "Ġmds": 4639,
  "Ġmdx": 4640,
  "Ġmea": 4641,
  "Ġmeb": 4642,
  "Ġmec": 4643,
  "Ġmed": 4644,
  "Ġmeg": 4645,
  "Ġmeh": 4646,
  "Ġmel": 4647,
  "Ġmem": 4648,
  "Ġmen": 4649,
  "Ġmer": 4650,
  "Ġmes": 4651,
  "Ġmet": 4652,
  "Ġmfd": 4653,
  "Ġmfm": 4654,
  "Ġmfs": 4655,
  "Ġmft": 4656,
  "Ġmga": 4657,
  "Ġmgc": 4658,
  "Ġmgr": 4659,
  "Ġmgs": 4660,
  "Ġmha": 4661,
  "Ġmhp": 4662,
  "Ġmhs": 4663,
  "Ġmhw": 4664,
  "Ġmib": 4665,
  "Ġmic": 4666,
  "Ġmid": 4667,
  "Ġmie": 4668,
  "Ġmig": 4669,
  "Ġmik": 4670,
  "Ġmil": 4671,
  "Ġmim": 4672,
  "Ġmin": 4673,
  "Ġmip": 4674,
  "Ġmir": 4675,
  "Ġmis": 4676,
  "Ġmit": 4677,
  "Ġmjd": 4678,
  "Ġmkd": 4679,
  "Ġmks": 4680,
  "Ġmlc": 4681,
  "Ġmld": 4682,
  "Ġmlm": 4683,
  "Ġmls": 4684,
  "Ġmma": 4685,
  "Ġmmd": 4686,
  "Ġmmm": 4687,
  "Ġmmr": 4688,
  "Ġmmt": 4689,
  "Ġmng": 4690,
  "Ġmnk": 4691,
  "Ġmns": 4692,
  "Ġmoc": 4693,
  "Ġmod": 4694,
  "Ġmol": 4695,
  "Ġmon": 4696,
  "Ġmor": 4697,
  "Ġmos": 4698,
  "Ġmov": 4699,
  "Ġmow": 4700,
  "Ġmpb": 4701,
  "Ġmpd": 4702,
  "Ġmpe": 4703,
  "Ġmpi": 4704,
  "Ġmpn": 4705,
  "Ġmpo": 4706,
  "Ġmpr": 4707,
  "Ġmps": 4708,
  "Ġmpt": 4709,
  "Ġmra": 4710,
  "Ġmrd": 4711,
  "Ġmrk": 4712,
  "Ġmrs": 4713,
  "Ġmrt": 4714,
  "Ġmrx": 4715,
  "Ġmsa": 4716,
  "Ġmsd": 4717,
  "Ġmss": 4718,
  "Ġmst": 4719,
  "Ġmtc": 4720,
  "Ġmtd": 4721,
  "Ġmth": 4722,
  "Ġmtm": 4723,
  "Ġmtp": 4724,
  "Ġmts": 4725,
  "Ġmuc": 4726,
  "Ġmud": 4727,
  "Ġmuh": 4728,
  "Ġmul": 4729,
  "Ġmun": 4730,
  "Ġmur": 4731,
  "Ġmus": 4732,
  "Ġmut": 4733,
  "Ġmva": 4734,
  "Ġmvp": 4735,
  "Ġmws": 4736,
  "Ġmyc": 4737,
  "Ġmyd": 4738,
  "Ġmyh": 4739,
  "Ġmyp": 4740,
  "Ġmyx": 4741,
  "Ġnab": 4742,
  "Ġnad": 4743,
  "Ġnae": 4744,
  "Ġnaf": 4745,
  "Ġnag": 4746,
  "Ġnaj": 4747,
  "Ġnak": 4748,
  "Ġnam": 4749,
  "Ġnan": 4750,
  "Ġnao": 4751,
  "Ġnap": 4752,
  "Ġnar": 4753,
  "Ġnas": 4754,
  "Ġnat": 4755,
  "Ġnav": 4756,
  "Ġnax": 4757,
  "Ġnbc": 4758,
  "Ġnbl": 4759,
  "Ġnbm": 4760,
  "Ġnbs": 4761,
  "Ġncf": 4762,
  "Ġncr": 4763,
  "Ġnde": 4764,
  "Ġndh": 4765,
  "Ġndi": 4766,
  "Ġndn": 4767,
  "Ġnec": 4768,
  "Ġned": 4769,
  "Ġneg": 4770,
  "Ġnek": 4771,
  "Ġnel": 4772,
  "Ġnem": 4773,
  "Ġner": 4774,
  "Ġneu": 4775,
  "Ġnev": 4776,
  "Ġnew": 4777,
  "Ġnfj": 4778,
  "Ġnhc": 4779,
  "Ġnhd": 4780,
  "Ġnhe": 4781,
  "Ġnhl": 4782,
  "Ġnhs": 4783,
  "Ġnic": 4784,
  "Ġnid": 4785,
  "Ġnie": 4786,
  "Ġnig": 4787,
  "Ġnii": 4788,
  "Ġnip": 4789,
  "Ġnit": 4790,
  "Ġniv": 4791,
  "Ġnkh": 4792,
  "Ġnmd": 4793,
  "Ġnms": 4794,
  "Ġnmt": 4795,
  "Ġnnh": 4796,
  "Ġnno": 4797,
  "Ġnob": 4798,
  "Ġnoc": 4799,
  "Ġnod": 4800,
  "Ġnon": 4801,
  "Ġnor": 4802,
  "Ġnos": 4803,
  "Ġnot": 4804,
  "Ġnov": 4805,
  "Ġnpc": 4806,
  "Ġnpg": 4807,
  "Ġnph": 4808,
  "Ġnps": 4809,
  "Ġnrc": 4810,
  "Ġnsd": 4811,
  "Ġnsh": 4812,
  "Ġnss": 4813,
  "Ġnsx": 4814,
  "Ġntd": 4815,
  "Ġnte": 4816,
  "Ġntg": 4817,
  "Ġnut": 4818,
  "Ġnyc": 4819,
  "Ġnys": 4820,
  "Ġoak": 4821,
  "Ġoat": 4822,
  "Ġoav": 4823,
  "Ġobl": 4824,
  "Ġoca": 4825,
  "Ġocc": 4826,
  "Ġocd": 4827,
  "Ġoch": 4828,
  "Ġodc": 4829,
  "Ġodd": 4830,
  "Ġodg": 4831,
  "Ġods": 4832,
  "Ġofc": 4833,
  "Ġofd": 4834,
  "Ġofe": 4835,
  "Ġoff": 4836,
  "Ġogd": 4837,
  "Ġogs": 4838,
  "Ġohd": 4839,
  "Ġohs": 4840,
  "Ġoic": 4841,
  "Ġois": 4842,
  "Ġokl": 4843,
  "Ġoks": 4844,
  "Ġokt": 4845,
  "Ġold": 4846,
  "Ġolf": 4847,
  "Ġoll": 4848,
  "Ġomd": 4849,
  "Ġomp": 4850,
  "Ġoms": 4851,
  "Ġonc": 4852,
  "Ġond": 4853,
  "Ġons": 4854,
  "Ġopa": 4855,
  "Ġopc": 4856,
  "Ġopd": 4857,
  "Ġoph": 4858,
  "Ġops": 4859,
  "Ġorb": 4860,
  "Ġorf": 4861,
  "Ġorg": 4862,
  "Ġorm": 4863,
  "Ġoro": 4864,
  "Ġorw": 4865,
  "Ġory": 4866,
  "Ġoss": 4867,
  "Ġost": 4868,
  "Ġosx": 4869,
  "Ġota": 4870,
  "Ġotc": 4871,
  "Ġoth": 4872,
  "Ġoto": 4873,
  "Ġots": 4874,
  "Ġout": 4875,
  "Ġoxy": 4876,
  "Ġpac": 4877,
  "Ġpag": 4878,
  "Ġpah": 4879,
  "Ġpai": 4880,
  "Ġpal": 4881,
  "Ġpan": 4882,
  "Ġpap": 4883,
  "Ġpar": 4884,
  "Ġpas": 4885,
  "Ġpat": 4886,
  "Ġpav": 4887,
  "Ġpax": 4888,
  "Ġpbc": 4889,
  "Ġpbd": 4890,
  "Ġpbl": 4891,
  "Ġpbt": 4892,
  "Ġpca": 4893,
  "Ġpcc": 4894,
  "Ġpcd": 4895,
  "Ġpch": 4896,
  "Ġpck": 4897,
  "Ġpcl": 4898,
  "Ġpco": 4899,
  "Ġpcp": 4900,
  "Ġpcs": 4901,
  "Ġpct": 4902,
  "Ġpda": 4903,
  "Ġpdb": 4904,
  "Ġpdc": 4905,
  "Ġpdd": 4906,
  "Ġpde": 4907,
  "Ġpdh": 4908,
  "Ġpdj": 4909,
  "Ġpdl": 4910,
  "Ġpdm": 4911,
  "Ġpdp": 4912,
  "Ġpdr": 4913,
  "Ġpds": 4914,
  "Ġpec": 4915,
  "Ġped": 4916,
  "Ġpee": 4917,
  "Ġpel": 4918,
  "Ġpem": 4919,
  "Ġpen": 4920,
  "Ġpep": 4921,
  "Ġper": 4922,
  "Ġpes": 4923,
  "Ġpet": 4924,
  "Ġpex": 4925,
  "Ġpfb": 4926,
  "Ġpfd": 4927,
  "Ġpfe": 4928,
  "Ġpfh": 4929,
  "Ġpfm": 4930,
  "Ġpga": 4931,
  "Ġpgk": 4932,
  "Ġpgl": 4933,
  "Ġpgm": 4934,
  "Ġpgs": 4935,
  "Ġpha": 4936,
  "Ġpho": 4937,
  "Ġphp": 4938,
  "Ġphs": 4939,
  "Ġpht": 4940,
  "Ġpib": 4941,
  "Ġpic": 4942,
  "Ġpie": 4943,
  "Ġpig": 4944,
  "Ġpil": 4945,
  "Ġpin": 4946,
  "Ġpir": 4947,
  "Ġpit": 4948,
  "Ġpji": 4949,
  "Ġpjs": 4950,
  "Ġpkc": 4951,
  "Ġpkd": 4952,
  "Ġpkh": 4953,
  "Ġpkk": 4954,
  "Ġpkn": 4955,
  "Ġpku": 4956,
  "Ġpla": 4957,
  "Ġplc": 4958,
  "Ġple": 4959,
  "Ġplf": 4960,
  "Ġplp": 4961,
  "Ġpls": 4962,
  "Ġpmc": 4963,
  "Ġpme": 4964,
  "Ġpmv": 4965,
  "Ġpnd": 4966,
  "Ġpne": 4967,
  "Ġpnh": 4968,
  "Ġpnm": 4969,
  "Ġpns": 4970,
  "Ġpod": 4971,
  "Ġpof": 4972,
  "Ġpoh": 4973,
  "Ġpol": 4974,
  "Ġpom": 4975,
  "Ġpor": 4976,
  "Ġpos": 4977,
  "Ġpot": 4978,
  "Ġpow": 4979,
  "Ġpox": 4980,
  "Ġppa": 4981,
  "Ġppb": 4982,
  "Ġppd": 4983,
  "Ġpph": 4984,
  "Ġppk": 4985,
  "Ġppn": 4986,
  "Ġppp": 4987,
  "Ġppr": 4988,
  "Ġpps": 4989,
  "Ġpra": 4990,
  "Ġprd": 4991,
  "Ġpre": 4992,
  "Ġprl": 4993,
  "Ġprn": 4994,
  "Ġpro": 4995,
  "Ġprs": 4996,
  "Ġprv": 4997,
  "Ġpsa": 4998,
  "Ġpsc": 4999,
  "Ġpsd": 5000,
  "Ġpse": 5001,
  "Ġpsn": 5002,
  "Ġpsp": 5003,
  "Ġpta": 5004,
  "Ġptc": 5005,
  "Ġptd": 5006,
  "Ġptl": 5007,
  "Ġptr": 5008,
  "Ġpts": 5009,
  "Ġpub": 5010,
  "Ġpud": 5011,
  "Ġpug": 5012,
  "Ġpuj": 5013,
  "Ġpul": 5014,
  "Ġpup": 5015,
  "Ġpur": 5016,
  "Ġpus": 5017,
  "Ġpvn": 5018,
  "Ġpvr": 5019,
  "Ġpvs": 5020,
  "Ġpws": 5021,
  "Ġpxe": 5022,
  "Ġpyc": 5023,
  "Ġpyr": 5024,
  "Ġqrs": 5025,
  "Ġqsm": 5026,
  "Ġqtl": 5027,
  "Ġrab": 5028,
  "Ġrac": 5029,
  "Ġrad": 5030,
  "Ġraf": 5031,
  "Ġrag": 5032,
  "Ġral": 5033,
  "Ġram": 5034,
  "Ġran": 5035,
  "Ġrap": 5036,
  "Ġrat": 5037,
  "Ġrav": 5038,
  "Ġray": 5039,
  "Ġrbs": 5040,
  "Ġrcc": 5041,
  "Ġrcd": 5042,
  "Ġrcm": 5043,
  "Ġrdc": 5044,
  "Ġrdp": 5045,
  "Ġrds": 5046,
  "Ġrdt": 5047,
  "Ġreb": 5048,
  "Ġrec": 5049,
  "Ġred": 5050,
  "Ġref": 5051,
  "Ġreg": 5052,
  "Ġrel": 5053,
  "Ġrem": 5054,
  "Ġren": 5055,
  "Ġrep": 5056,
  "Ġres": 5057,
  "Ġret": 5058,
  "Ġrfh": 5059,
  "Ġrfs": 5060,
  "Ġrgs": 5061,
  "Ġrhn": 5062,
  "Ġrib": 5063,
  "Ġric": 5064,
  "Ġrid": 5065,
  "Ġrie": 5066,
  "Ġrif": 5067,
  "Ġrig": 5068,
  "Ġrim": 5069,
  "Ġrin": 5070,
  "Ġrit": 5071,
  "Ġriv": 5072,
  "Ġriz": 5073,
  "Ġrkh": 5074,
  "Ġrls": 5075,
  "Ġrmd": 5076,
  "Ġrms": 5077,
  "Ġrna": 5078,
  "Ġrns": 5079,
  "Ġroc": 5080,
  "Ġrod": 5081,
  "Ġrol": 5082,
  "Ġrom": 5083,
  "Ġrop": 5084,
  "Ġros": 5085,
  "Ġrot": 5086,
  "Ġrow": 5087,
  "Ġroy": 5088,
  "Ġrpr": 5089,
  "Ġrpy": 5090,
  "Ġrrd": 5091,
  "Ġrrm": 5092,
  "Ġrrs": 5093,
  "Ġrsd": 5094,
  "Ġrsh": 5095,
  "Ġrta": 5096,
  "Ġrtd": 5097,
  "Ġrtt": 5098,
  "Ġrub": 5099,
  "Ġrud": 5100,
  "Ġrum": 5101,
  "Ġrup": 5102,
  "Ġrut": 5103,
  "Ġruv": 5104,
  "Ġruz": 5105,
  "Ġrws": 5106,
  "Ġryu": 5107,
  "Ġsab": 5108,
  "Ġsac": 5109,
  "Ġsad": 5110,
  "Ġsaf": 5111,
  "Ġsag": 5112,
  "Ġsah": 5113,
  "Ġsak": 5114,
  "Ġsal": 5115,
  "Ġsam": 5116,
  "Ġsan": 5117,
  "Ġsao": 5118,
  "Ġsap": 5119,
  "Ġsat": 5120,
  "Ġsaw": 5121,
  "Ġsay": 5122,
  "Ġsbc": 5123,
  "Ġsca": 5124,
  "Ġscd": 5125,
  "Ġsch": 5126,
  "Ġscl": 5127,
  "Ġscn": 5128,
  "Ġscr": 5129,
  "Ġscs": 5130,
  "Ġsct": 5131,
  "Ġsds": 5132,
  "Ġsea": 5133,
  "Ġseb": 5134,
  "Ġsec": 5135,
  "Ġsed": 5136,
  "Ġsee": 5137,
  "Ġseg": 5138,
  "Ġsel": 5139,
  "Ġsem": 5140,
  "Ġsen": 5141,
  "Ġsep": 5142,
  "Ġser": 5143,
  "Ġses": 5144,
  "Ġset": 5145,
  "Ġsex": 5146,
  "Ġsez": 5147,
  "Ġsfd": 5148,
  "Ġsfm": 5149,
  "Ġsgd": 5150,
  "Ġshe": 5151,
  "Ġshw": 5152,
  "Ġshy": 5153,
  "Ġsia": 5154,
  "Ġsib": 5155,
  "Ġsic": 5156,
  "Ġsid": 5157,
  "Ġsil": 5158,
  "Ġsim": 5159,
  "Ġsin": 5160,
  "Ġsir": 5161,
  "Ġsit": 5162,
  "Ġsiv": 5163,
  "Ġsix": 5164,
  "Ġsja": 5165,
  "Ġsjo": 5166,
  "Ġsjs": 5167,
  "Ġske": 5168,
  "Ġsle": 5169,
  "Ġsli": 5170,
  "Ġslo": 5171,
  "Ġsls": 5172,
  "Ġsly": 5173,
  "Ġsma": 5174,
  "Ġsmc": 5175,
  "Ġsmd": 5176,
  "Ġsmo": 5177,
  "Ġsms": 5178,
  "Ġsna": 5179,
  "Ġsne": 5180,
  "Ġsoc": 5181,
  "Ġsod": 5182,
  "Ġsof": 5183,
  "Ġsoh": 5184,
  "Ġsol": 5185,
  "Ġson": 5186,
  "Ġsor": 5187,
  "Ġsot": 5188,
  "Ġsox": 5189,
  "Ġspd": 5190,
  "Ġspg": 5191,
  "Ġsph": 5192,
  "Ġspi": 5193,
  "Ġspl": 5194,
  "Ġspm": 5195,
  "Ġspo": 5196,
  "Ġspr": 5197,
  "Ġsqt": 5198,
  "Ġsqu": 5199,
  "Ġsra": 5200,
  "Ġsrn": 5201,
  "Ġsry": 5202,
  "Ġssd": 5203,
  "Ġssk": 5204,
  "Ġssp": 5205,
  "Ġsss": 5206,
  "Ġste": 5207,
  "Ġsth": 5208,
  "Ġsti": 5209,
  "Ġstl": 5210,
  "Ġstr": 5211,
  "Ġsts": 5212,
  "Ġstu": 5213,
  "Ġsub": 5214,
  "Ġsuc": 5215,
  "Ġsud": 5216,
  "Ġsug": 5217,
  "Ġsul": 5218,
  "Ġsun": 5219,
  "Ġsup": 5220,
  "Ġsur": 5221,
  "Ġsus": 5222,
  "Ġsut": 5223,
  "Ġsux": 5224,
  "Ġsvd": 5225,
  "Ġsve": 5226,
  "Ġswe": 5227,
  "Ġsws": 5228,
  "Ġsyd": 5229,
  "Ġsym": 5230,
  "Ġsyn": 5231,
  "Ġsyr": 5232,
  "Ġtab": 5233,
  "Ġtac": 5234,
  "Ġtak": 5235,
  "Ġtal": 5236,
  "Ġtam": 5237,
  "Ġtap": 5238,
  "Ġtar": 5239,
  "Ġtas": 5240,
  "Ġtat": 5241,
  "Ġtau": 5242,
  "Ġtaw": 5243,
  "Ġtay": 5244,
  "Ġtbd": 5245,
  "Ġtbi": 5246,
  "Ġtbs": 5247,
  "Ġtcc": 5248,
  "Ġtcd": 5249,
  "Ġtcn": 5250,
  "Ġtco": 5251,
  "Ġtcp": 5252,
  "Ġtcs": 5253,
  "Ġtdh": 5254,
  "Ġtdo": 5255,
  "Ġtdp": 5256,
  "Ġtec": 5257,
  "Ġtel": 5258,
  "Ġtem": 5259,
  "Ġten": 5260,
  "Ġter": 5261,
  "Ġtes": 5262,
  "Ġtet": 5263,
  "Ġtev": 5264,
  "Ġtfm": 5265,
  "Ġtga": 5266,
  "Ġtgd": 5267,
  "Ġthc": 5268,
  "Ġthd": 5269,
  "Ġthe": 5270,
  "Ġthi": 5271,
  "Ġthm": 5272,
  "Ġthy": 5273,
  "Ġtia": 5274,
  "Ġtib": 5275,
  "Ġtic": 5276,
  "Ġtie": 5277,
  "Ġtig": 5278,
  "Ġtim": 5279,
  "Ġtin": 5280,
  "Ġtip": 5281,
  "Ġtis": 5282,
  "Ġtit": 5283,
  "Ġtkc": 5284,
  "Ġtma": 5285,
  "Ġtmd": 5286,
  "Ġtmj": 5287,
  "Ġtmn": 5288,
  "Ġtnf": 5289,
  "Ġtnh": 5290,
  "Ġtns": 5291,
  "Ġtnx": 5292,
  "Ġtob": 5293,
  "Ġtoc": 5294,
  "Ġtod": 5295,
  "Ġtoe": 5296,
  "Ġtof": 5297,
  "Ġtog": 5298,
  "Ġtol": 5299,
  "Ġton": 5300,
  "Ġtop": 5301,
  "Ġtor": 5302,
  "Ġtow": 5303,
  "Ġtox": 5304,
  "Ġtpc": 5305,
  "Ġtpe": 5306,
  "Ġtpm": 5307,
  "Ġtpt": 5308,
  "Ġtra": 5309,
  "Ġtre": 5310,
  "Ġtrh": 5311,
  "Ġtri": 5312,
  "Ġtro": 5313,
  "Ġtrp": 5314,
  "Ġtsc": 5315,
  "Ġtsd": 5316,
  "Ġtsg": 5317,
  "Ġtsh": 5318,
  "Ġttd": 5319,
  "Ġttm": 5320,
  "Ġttp": 5321,
  "Ġtub": 5322,
  "Ġtuc": 5323,
  "Ġtuk": 5324,
  "Ġtul": 5325,
  "Ġtum": 5326,
  "Ġtur": 5327,
  "Ġtus": 5328,
  "Ġtwo": 5329,
  "Ġtyk": 5330,
  "Ġtym": 5331,
  "Ġtyp": 5332,
  "Ġtys": 5333,
  "Ġuan": 5334,
  "Ġuda": 5335,
  "Ġudd": 5336,
  "Ġudp": 5337,
  "Ġufs": 5338,
  "Ġuhl": 5339,
  "Ġuip": 5340,
  "Ġulc": 5341,
  "Ġuld": 5342,
  "Ġull": 5343,
  "Ġump": 5344,
  "Ġums": 5345,
  "Ġunc": 5346,
  "Ġund": 5347,
  "Ġung": 5348,
  "Ġuni": 5349,
  "Ġups": 5350,
  "Ġurb": 5351,
  "Ġure": 5352,
  "Ġuro": 5353,
  "Ġuse": 5354,
  "Ġush": 5355,
  "Ġuss": 5356,
  "Ġutp": 5357,
  "Ġuve": 5358,
  "Ġuvm": 5359,
  "Ġvag": 5360,
  "Ġvah": 5361,
  "Ġval": 5362,
  "Ġvam": 5363,
  "Ġvan": 5364,
  "Ġvar": 5365,
  "Ġvas": 5366,
  "Ġvaz": 5367,
  "Ġvcf": 5368,
  "Ġvdd": 5369,
  "Ġved": 5370,
  "Ġvel": 5371,
  "Ġven": 5372,
  "Ġver": 5373,
  "Ġves": 5374,
  "Ġvhl": 5375,
  "Ġvia": 5376,
  "Ġvib": 5377,
  "Ġvig": 5378,
  "Ġvii": 5379,
  "Ġvin": 5380,
  "Ġvip": 5381,
  "Ġvir": 5382,
  "Ġvis": 5383,
  "Ġvit": 5384,
  "Ġviv": 5385,
  "Ġvkc": 5386,
  "Ġvkh": 5387,
  "Ġvmd": 5388,
  "Ġvod": 5389,
  "Ġvog": 5390,
  "Ġvoh": 5391,
  "Ġvol": 5392,
  "Ġvon": 5393,
  "Ġvrc": 5394,
  "Ġvsd": 5395,
  "Ġvsp": 5396,
  "Ġvtl": 5397,
  "Ġvul": 5398,
  "Ġvur": 5399,
  "Ġvwd": 5400,
  "Ġvwf": 5401,
  "Ġvwm": 5402,
  "Ġvws": 5403,
  "Ġwag": 5404,
  "Ġwak": 5405,
  "Ġwal": 5406,
  "Ġwar": 5407,
  "Ġwat": 5408,
  "Ġwbs": 5409,
  "Ġwdh": 5410,
  "Ġwdm": 5411,
  "Ġwea": 5412,
  "Ġweb": 5413,
  "Ġwel": 5414,
  "Ġwer": 5415,
  "Ġwet": 5416,
  "Ġwfs": 5417,
  "Ġwgn": 5418,
  "Ġwhe": 5419,
  "Ġwhs": 5420,
  "Ġwid": 5421,
  "Ġwie": 5422,
  "Ġwil": 5423,
  "Ġwin": 5424,
  "Ġwis": 5425,
  "Ġwld": 5426,
  "Ġwms": 5427,
  "Ġwnd": 5428,
  "Ġwnv": 5429,
  "Ġwol": 5430,
  "Ġwor": 5431,
  "Ġwpw": 5432,
  "Ġwri": 5433,
  "Ġwrn": 5434,
  "Ġwrs": 5435,
  "Ġwss": 5436,
  "Ġwtr": 5437,
  "Ġwts": 5438,
  "Ġwvs": 5439,
  "Ġwyb": 5440,
  "Ġwzs": 5441,
  "Ġxbs": 5442,
  "Ġxdh": 5443,
  "Ġxdp": 5444,
  "Ġxdr": 5445,
  "Ġxer": 5446,
  "Ġxfe": 5447,
  "Ġxfg": 5448,
  "Ġxfs": 5449,
  "Ġxhm": 5450,
  "Ġxii": 5451,
  "Ġxiv": 5452,
  "Ġxla": 5453,
  "Ġxlg": 5454,
  "Ġxlh": 5455,
  "Ġxli": 5456,
  "Ġxln": 5457,
  "Ġxlp": 5458,
  "Ġxls": 5459,
  "Ġxlt": 5460,
  "Ġxpa": 5461,
  "Ġxpb": 5462,
  "Ġxpc": 5463,
  "Ġxpd": 5464,
  "Ġxpe": 5465,
  "Ġxpf": 5466,
  "Ġxpg": 5467,
  "Ġxph": 5468,
  "Ġxpv": 5469,
  "Ġxrn": 5470,
  "Ġxxx": 5471,
  "Ġxxy": 5472,
  "Ġxyl": 5473,
  "Ġxyy": 5474,
  "Ġyaw": 5475,
  "Ġyim": 5476,
  "Ġyin": 5477,
  "Ġyns": 5478,
  "Ġzap": 5479,
  "Ġzaz": 5480,
  "Ġzen": 5481,
  "Ġzha": 5482,
  "Ġzie": 5483,
  "Ġzls": 5484,
  "Ġzon": 5485,
  "Ġzwe": 5486,
  "Ġzws": 5487,
  "Ġzyg": 5488,
  "abach": 5489,
  "abies": 5490,
  "ables": 5491,
  "aceae": 5492,
  "aceum": 5493,
  "acham": 5494,
  "acher": 5495,
  "aches": 5496,
  "achia": 5497,
  "achis": 5498,
  "acial": 5499,
  "acill": 5500,
  "acion": 5501,
  "acker": 5502,
  "acopl": 5503,
  "acral": 5504,
  "acter": 5505,
  "actic": 5506,
  "actin": 5507,
  "activ": 5508,
  "actor": 5509,
  "actyl": 5510,
  "acunc": 5511,
  "adass": 5512,
  "adder": 5513,
  "adial": 5514,
  "adian": 5515,
  "adias": 5516,
  "ading": 5517,
  "adjie": 5518,
  "adren": 5519,
  "aduod": 5520,
  "aeker": 5521,
  "aemia": 5522,
  "aemic": 5523,
  "affer": 5524,
  "affin": 5525,
  "agios": 5526,
  "aglia": 5527,
  "agmus": 5528,
  "agnos": 5529,
  "ahoma": 5530,
  "aican": 5531,
  "ailla": 5532,
  "ained": 5533,
  "aired": 5534,
  "ajara": 5535,
  "akary": 5536,
  "akias": 5537,
  "akoff": 5538,
  "alach": 5539,
  "alang": 5540,
  "alass": 5541,
  "alcin": 5542,
  "alcoh": 5543,
  "alden": 5544,
  "algia": 5545,
  "algic": 5546,
  "alias": 5547,
  "align": 5548,
  "alima": 5549,
  "alker": 5550,
  "allat": 5551,
  "allic": 5552,
  "allid": 5553,
  "allow": 5554,
  "alsia": 5555,
  "amata": 5556,
  "amate": 5557,
  "ambul": 5558,
  "ament": 5559,
  "ameth": 5560,
  "amide": 5561,
  "amina": 5562,
  "amine": 5563,
  "amnes": 5564,
  "amoeb": 5565,
  "amoto": 5566,
  "ampal": 5567,
  "amura": 5568,
  "amush": 5569,
  "ancar": 5570,
  "anced": 5571,
  "ancer": 5572,
  "ances": 5573,
  "ancre": 5574,
  "ander": 5575,
  "andez": 5576,
  "andib": 5577,
  "andin": 5578,
  "aneal": 5579,
  "anese": 5580,
  "angle": 5581,
  "anias": 5582,
  "anine": 5583,
  "anish": 5584,
  "anoyl": 5585,
  "ansen": 5586,
  "ansky": 5587,
  "anson": 5588,
  "antal": 5589,
  "antap": 5590,
  "antar": 5591,
  "anter": 5592,
  "antib": 5593,
  "antic": 5594,
  "antid": 5595,
  "antin": 5596,
  "antom": 5597,
  "anuel": 5598,
  "aphyl": 5599,
  "apill": 5600,
  "apnia": 5601,
  "apomp": 5602,
  "apore": 5603,
  "apped": 5604,
  "apses": 5605,
  "aptic": 5606,
  "apton": 5607,
  "apulo": 5608,
  "aract": 5609,
  "arano": 5610,
  "arase": 5611,
  "arate": 5612,
  "arcin": 5613,
  "arcot": 5614,
  "arder": 5615,
  "ardes": 5616,
  "ardia": 5617,
  "ardon": 5618,
  "arges": 5619,
  "arial": 5620,
  "arian": 5621,
  "arias": 5622,
  "aries": 5623,
  "aring": 5624,
  "arino": 5625,
  "arita": 5626,
  "arium": 5627,
  "arius": 5628,
  "arman": 5629,
  "arnyx": 5630,
  "arpal": 5631,
  "arren": 5632,
  "arsal": 5633,
  "arska": 5634,
  "arski": 5635,
  "arson": 5636,
  "arsus": 5637,
  "arter": 5638,
  "artin": 5639,
  "artum": 5640,
  "arwal": 5641,
  "aryls": 5642,
  "aryng": 5643,
  "arynx": 5644,
  "asaki": 5645,
  "asarc": 5646,
  "ascin": 5647,
  "ashes": 5648,
  "asias": 5649,
  "asies": 5650,
  "asing": 5651,
  "asive": 5652,
  "askar": 5653,
  "asmas": 5654,
  "asmus": 5655,
  "asomb": 5656,
  "asomy": 5657,
  "asone": 5658,
  "assan": 5659,
  "aster": 5660,
  "astic": 5661,
  "astle": 5662,
  "ataci": 5663,
  "atase": 5664,
  "atell": 5665,
  "ately": 5666,
  "atent": 5667,
  "atera": 5668,
  "aters": 5669,
  "ateum": 5670,
  "athan": 5671,
  "ather": 5672,
  "athet": 5673,
  "atial": 5674,
  "atian": 5675,
  "atide": 5676,
  "atile": 5677,
  "atine": 5678,
  "ating": 5679,
  "ation": 5680,
  "atism": 5681,
  "atite": 5682,
  "ativa": 5683,
  "ative": 5684,
  "atoid": 5685,
  "atory": 5686,
  "atose": 5687,
  "atous": 5688,
  "atric": 5689,
  "atrix": 5690,
  "atter": 5691,
  "attia": 5692,
  "attic": 5693,
  "attle": 5694,
  "ature": 5695,
  "avage": 5696,
  "avian": 5697,
  "avior": 5698,
  "avson": 5699,
  "axial": 5700,
  "axias": 5701,
  "axies": 5702,
  "ayama": 5703,
  "bault": 5704,
  "berry": 5705,
  "bilis": 5706,
  "bital": 5707,
  "bites": 5708,
  "blast": 5709,
  "blatt": 5710,
  "bling": 5711,
  "brach": 5712,
  "bulin": 5713,
  "burns": 5714,
  "capul": 5715,
  "cemia": 5716,
  "cence": 5717,
  "ceral": 5718,
  "ching": 5719,
  "chior": 5720,
  "chock": 5721,
  "choff": 5722,
  "chole": 5723,
  "chond": 5724,
  "chrom": 5725,
  "cifer": 5726,
  "cious": 5727,
  "cobar": 5728,
  "copic": 5729,
  "cough": 5730,
  "creta": 5731,
  "crine": 5732,
  "cross": 5733,
  "ction": 5734,
  "ctive": 5735,
  "cular": 5736,
  "denum": 5737,
  "dercl": 5738,
  "deron": 5739,
  "dheim": 5740,
  "dings": 5741,
  "donal": 5742,
  "drome": 5743,
  "dural": 5744,
  "eaded": 5745,
  "ealed": 5746,
  "eases": 5747,
  "ebald": 5748,
  "ebaut": 5749,
  "eberg": 5750,
  "ebeta": 5751,
  "ebian": 5752,
  "ebius": 5753,
  "ebner": 5754,
  "ebold": 5755,
  "ebrae": 5756,
  "ebral": 5757,
  "ebrow": 5758,
  "ecial": 5759,
  "ectal": 5760,
  "ectin": 5761,
  "ector": 5762,
  "ectum": 5763,
  "eddon": 5764,
  "edema": 5765,
  "eders": 5766,
  "edian": 5767,
  "edias": 5768,
  "edict": 5769,
  "eding": 5770,
  "edion": 5771,
  "edish": 5772,
  "edule": 5773,
  "edull": 5774,
  "egers": 5775,
  "egler": 5776,
  "elade": 5777,
  "elain": 5778,
  "eland": 5779,
  "elast": 5780,
  "elect": 5781,
  "elena": 5782,
  "eleni": 5783,
  "eless": 5784,
  "elica": 5785,
  "eling": 5786,
  "ellar": 5787,
  "ellas": 5788,
  "ellen": 5789,
  "eller": 5790,
  "elley": 5791,
  "ellig": 5792,
  "ellow": 5793,
  "elock": 5794,
  "elsch": 5795,
  "elsen": 5796,
  "emann": 5797,
  "emark": 5798,
  "emase": 5799,
  "emens": 5800,
  "ement": 5801,
  "emers": 5802,
  "emias": 5803,
  "emink": 5804,
  "emoid": 5805,
  "emond": 5806,
  "emper": 5807,
  "emuka": 5808,
  "enail": 5809,
  "enata": 5810,
  "enate": 5811,
  "ences": 5812,
  "encie": 5813,
  "endal": 5814,
  "endam": 5815,
  "ender": 5816,
  "endoc": 5817,
  "endym": 5818,
  "eness": 5819,
  "enian": 5820,
  "enias": 5821,
  "enign": 5822,
  "enile": 5823,
  "ening": 5824,
  "enism": 5825,
  "enite": 5826,
  "enmen": 5827,
  "enner": 5828,
  "enous": 5829,
  "ensae": 5830,
  "ensen": 5831,
  "ensis": 5832,
  "ensor": 5833,
  "enstr": 5834,
  "ental": 5835,
  "entea": 5836,
  "enter": 5837,
  "entia": 5838,
  "entil": 5839,
  "entin": 5840,
  "entup": 5841,
  "eolum": 5842,
  "eorge": 5843,
  "epend": 5844,
  "epens": 5845,
  "ephal": 5846,
  "epine": 5847,
  "eping": 5848,
  "epsin": 5849,
  "epsis": 5850,
  "eptic": 5851,
  "eptid": 5852,
  "eptor": 5853,
  "equal": 5854,
  "erapy": 5855,
  "erary": 5856,
  "ercul": 5857,
  "erden": 5858,
  "ereal": 5859,
  "erens": 5860,
  "erent": 5861,
  "erger": 5862,
  "ergic": 5863,
  "erhof": 5864,
  "erian": 5865,
  "eriff": 5866,
  "erkal": 5867,
  "ermak": 5868,
  "ermal": 5869,
  "ermam": 5870,
  "erman": 5871,
  "ermia": 5872,
  "ernal": 5873,
  "erone": 5874,
  "erres": 5875,
  "ersch": 5876,
  "ertal": 5877,
  "ertia": 5878,
  "ertoe": 5879,
  "erton": 5880,
  "eryth": 5881,
  "esani": 5882,
  "esaur": 5883,
  "eshan": 5884,
  "esian": 5885,
  "esias": 5886,
  "esidi": 5887,
  "esize": 5888,
  "esley": 5889,
  "esser": 5890,
  "essin": 5891,
  "esson": 5892,
  "essor": 5893,
  "ester": 5894,
  "estig": 5895,
  "estin": 5896,
  "eston": 5897,
  "etary": 5898,
  "etase": 5899,
  "etast": 5900,
  "etens": 5901,
  "eterm": 5902,
  "ethre": 5903,
  "ethyl": 5904,
  "etoff": 5905,
  "etoma": 5906,
  "etozo": 5907,
  "etric": 5908,
  "etroc": 5909,
  "etrop": 5910,
  "etsch": 5911,
  "ettsi": 5912,
  "ewald": 5913,
  "eworm": 5914,
  "ewski": 5915,
  "ezing": 5916,
  "farin": 5917,
  "feldt": 5918,
  "ferer": 5919,
  "feron": 5920,
  "fever": 5921,
  "ffner": 5922,
  "field": 5923,
  "flake": 5924,
  "fmann": 5925,
  "forth": 5926,
  "found": 5927,
  "front": 5928,
  "fting": 5929,
  "fying": 5930,
  "garis": 5931,
  "gastr": 5932,
  "gemin": 5933,
  "gener": 5934,
  "genic": 5935,
  "genis": 5936,
  "geral": 5937,
  "geria": 5938,
  "gesia": 5939,
  "gliel": 5940,
  "gradi": 5941,
  "graef": 5942,
  "hardt": 5943,
  "heiro": 5944,
  "hered": 5945,
  "histi": 5946,
  "hlers": 5947,
  "hmann": 5948,
  "hoorn": 5949,
  "house": 5950,
  "huana": 5951,
  "iaens": 5952,
  "iaere": 5953,
  "iafav": 5954,
  "ialis": 5955,
  "iaris": 5956,
  "iases": 5957,
  "iasis": 5958,
  "iated": 5959,
  "iatic": 5960,
  "iativ": 5961,
  "ibaud": 5962,
  "iberg": 5963,
  "iberi": 5964,
  "ibrey": 5965,
  "ibrio": 5966,
  "icard": 5967,
  "iccyt": 5968,
  "ichia": 5969,
  "icial": 5970,
  "ickes": 5971,
  "icles": 5972,
  "icore": 5973,
  "icrin": 5974,
  "icter": 5975,
  "iculo": 5976,
  "idars": 5977,
  "idase": 5978,
  "idema": 5979,
  "iderm": 5980,
  "idian": 5981,
  "idine": 5982,
  "iding": 5983,
  "idism": 5984,
  "idity": 5985,
  "idose": 5986,
  "idual": 5987,
  "iduct": 5988,
  "iella": 5989,
  "iello": 5990,
  "iemic": 5991,
  "ience": 5992,
  "ieres": 5993,
  "ierre": 5994,
  "iesch": 5995,
  "ieser": 5996,
  "iesis": 5997,
  "ietal": 5998,
  "ifasc": 5999,
  "ifest": 6000,
  "iffer": 6001,
  "ified": 6002,
  "ifman": 6003,
  "iform": 6004,
  "iforn": 6005,
  "ighth": 6006,
  "igler": 6007,
  "igral": 6008,
  "iitis": 6009,
  "ikoff": 6010,
  "ilaga": 6011,
  "ilder": 6012,
  "ileth": 6013,
  "ilian": 6014,
  "ilias": 6015,
  "ilino": 6016,
  "ility": 6017,
  "illar": 6018,
  "illas": 6019,
  "illed": 6020,
  "iller": 6021,
  "illes": 6022,
  "illie": 6023,
  "illin": 6024,
  "illus": 6025,
  "ilogy": 6026,
  "ilsky": 6027,
  "iltra": 6028,
  "ilvie": 6029,
  "imean": 6030,
  "iment": 6031,
  "imers": 6032,
  "imias": 6033,
  "imler": 6034,
  "immel": 6035,
  "immer": 6036,
  "immun": 6037,
  "imoto": 6038,
  "inant": 6039,
  "inary": 6040,
  "inase": 6041,
  "inate": 6042,
  "inato": 6043,
  "inder": 6044,
  "ineau": 6045,
  "iness": 6046,
  "inger": 6047,
  "inhib": 6048,
  "inica": 6049,
  "inism": 6050,
  "inked": 6051,
  "inkel": 6052,
  "inker": 6053,
  "inkly": 6054,
  "inoma": 6055,
  "inosa": 6056,
  "inous": 6057,
  "insel": 6058,
  "insic": 6059,
  "inski": 6060,
  "insky": 6061,
  "inson": 6062,
  "inter": 6063,
  "invas": 6064,
  "iomas": 6065,
  "ional": 6066,
  "ionic": 6067,
  "ionyl": 6068,
  "ioses": 6069,
  "iosis": 6070,
  "ioste": 6071,
  "iosyn": 6072,
  "iotic": 6073,
  "ipert": 6074,
  "ipino": 6075,
  "ipple": 6076,
  "ippos": 6077,
  "iproc": 6078,
  "iquin": 6079,
  "ircul": 6080,
  "irect": 6081,
  "irick": 6082,
  "irium": 6083,
  "irler": 6084,
  "irobi": 6085,
  "isata": 6086,
  "ished": 6087,
  "isher": 6088,
  "isian": 6089,
  "ision": 6090,
  "ismus": 6091,
  "isomy": 6092,
  "isons": 6093,
  "isper": 6094,
  "isson": 6095,
  "isted": 6096,
  "ister": 6097,
  "istic": 6098,
  "itans": 6099,
  "itant": 6100,
  "itary": 6101,
  "iteal": 6102,
  "iters": 6103,
  "ithel": 6104,
  "ither": 6105,
  "ithya": 6106,
  "itida": 6107,
  "itide": 6108,
  "ities": 6109,
  "iting": 6110,
  "ition": 6111,
  "itish": 6112,
  "itive": 6113,
  "itkop": 6114,
  "itone": 6115,
  "itory": 6116,
  "ittac": 6117,
  "ittal": 6118,
  "itted": 6119,
  "ittle": 6120,
  "itude": 6121,
  "ivers": 6122,
  "ivian": 6123,
  "izian": 6124,
  "izing": 6125,
  "jects": 6126,
  "jover": 6127,
  "juana": 6128,
  "kelet": 6129,
  "keown": 6130,
  "kerat": 6131,
  "khite": 6132,
  "kless": 6133,
  "kling": 6134,
  "kmann": 6135,
  "knife": 6136,
  "knock": 6137,
  "lanti": 6138,
  "ledge": 6139,
  "legel": 6140,
  "lelic": 6141,
  "leman": 6142,
  "lenia": 6143,
  "lepha": 6144,
  "leria": 6145,
  "letes": 6146,
  "leton": 6147,
  "lexia": 6148,
  "lexic": 6149,
  "lices": 6150,
  "lichs": 6151,
  "liken": 6152,
  "lings": 6153,
  "litis": 6154,
  "loids": 6155,
  "lonus": 6156,
  "luent": 6157,
  "luenz": 6158,
  "lycer": 6159,
  "lying": 6160,
  "lytic": 6161,
  "maker": 6162,
  "matic": 6163,
  "meier": 6164,
  "ments": 6165,
  "metal": 6166,
  "meter": 6167,
  "minth": 6168,
  "molar": 6169,
  "monic": 6170,
  "natal": 6171,
  "natum": 6172,
  "nekam": 6173,
  "nelia": 6174,
  "nelli": 6175,
  "neous": 6176,
  "nesic": 6177,
  "netii": 6178,
  "neuro": 6179,
  "neval": 6180,
  "nific": 6181,
  "nikov": 6182,
  "nikow": 6183,
  "nitus": 6184,
  "nosin": 6185,
  "oacet": 6186,
  "oaden": 6187,
  "oamel": 6188,
  "oangi": 6189,
  "obart": 6190,
  "obezo": 6191,
  "obias": 6192,
  "obile": 6193,
  "obium": 6194,
  "obius": 6195,
  "oblas": 6196,
  "oboth": 6197,
  "ocara": 6198,
  "ocarb": 6199,
  "ocard": 6200,
  "occid": 6201,
  "occul": 6202,
  "occyg": 6203,
  "ocele": 6204,
  "ocerc": 6205,
  "ocere": 6206,
  "ochei": 6207,
  "ochez": 6208,
  "ochle": 6209,
  "ocial": 6210,
  "ocies": 6211,
  "ocity": 6212,
  "oclas": 6213,
  "ococc": 6214,
  "oconi": 6215,
  "ocont": 6216,
  "ocorm": 6217,
  "ocost": 6218,
  "ocran": 6219,
  "ocycl": 6220,
  "ocyst": 6221,
  "ocyte": 6222,
  "ocyth": 6223,
  "odect": 6224,
  "odend": 6225,
  "odent": 6226,
  "oderm": 6227,
  "odias": 6228,
  "odies": 6229,
  "odion": 6230,
  "odisc": 6231,
  "odist": 6232,
  "odium": 6233,
  "odius": 6234,
  "odont": 6235,
  "odops": 6236,
  "odoth": 6237,
  "oduod": 6238,
  "odyst": 6239,
  "ofaci": 6240,
  "ofasc": 6241,
  "oflav": 6242,
  "oform": 6243,
  "ofusc": 6244,
  "ogene": 6245,
  "oglob": 6246,
  "oglut": 6247,
  "oglyc": 6248,
  "ogoni": 6249,
  "ogora": 6250,
  "ogout": 6251,
  "ogram": 6252,
  "ogrel": 6253,
  "ohert": 6254,
  "ohyph": 6255,
  "oidal": 6256,
  "oidea": 6257,
  "oides": 6258,
  "oikil": 6259,
  "oined": 6260,
  "oking": 6261,
  "okoro": 6262,
  "okwim": 6263,
  "olact": 6264,
  "olaid": 6265,
  "olano": 6266,
  "olars": 6267,
  "olase": 6268,
  "olate": 6269,
  "older": 6270,
  "olent": 6271,
  "oleuk": 6272,
  "olian": 6273,
  "olism": 6274,
  "olith": 6275,
  "ollis": 6276,
  "olmia": 6277,
  "ology": 6278,
  "olons": 6279,
  "olpos": 6280,
  "oluys": 6281,
  "omach": 6282,
  "omaly": 6283,
  "omann": 6284,
  "omata": 6285,
  "ombes": 6286,
  "omens": 6287,
  "ometa": 6288,
  "omial": 6289,
  "omian": 6290,
  "omias": 6291,
  "omide": 6292,
  "omids": 6293,
  "omies": 6294,
  "omnia": 6295,
  "omous": 6296,
  "omple": 6297,
  "omyel": 6298,
  "onate": 6299,
  "onatr": 6300,
  "ondyl": 6301,
  "oneal": 6302,
  "onema": 6303,
  "onent": 6304,
  "oneph": 6305,
  "oneum": 6306,
  "onged": 6307,
  "ongue": 6308,
  "onial": 6309,
  "onias": 6310,
  "onica": 6311,
  "onium": 6312,
  "onnev": 6313,
  "onomo": 6314,
  "ontal": 6315,
  "ontia": 6316,
  "ontic": 6317,
  "onver": 6318,
  "onych": 6319,
  "ooste": 6320,
  "opach": 6321,
  "opalp": 6322,
  "opard": 6323,
  "opari": 6324,
  "opath": 6325,
  "opeau": 6326,
  "operi": 6327,
  "ophag": 6328,
  "ophan": 6329,
  "ophil": 6330,
  "ophob": 6331,
  "ophor": 6332,
  "ophth": 6333,
  "ophys": 6334,
  "ophyt": 6335,
  "opian": 6336,
  "opias": 6337,
  "oping": 6338,
  "oplas": 6339,
  "opont": 6340,
  "opoul": 6341,
  "oprol": 6342,
  "oprop": 6343,
  "opros": 6344,
  "opsia": 6345,
  "optic": 6346,
  "opust": 6347,
  "orage": 6348,
  "orain": 6349,
  "oraph": 6350,
  "orary": 6351,
  "orase": 6352,
  "orbut": 6353,
  "orden": 6354,
  "order": 6355,
  "orean": 6356,
  "orgen": 6357,
  "orhin": 6358,
  "orial": 6359,
  "orian": 6360,
  "orias": 6361,
  "oride": 6362,
  "orine": 6363,
  "orini": 6364,
  "oripa": 6365,
  "orled": 6366,
  "ormal": 6367,
  "ornea": 6368,
  "orner": 6369,
  "oroid": 6370,
  "orpha": 6371,
  "orted": 6372,
  "ortem": 6373,
  "ortic": 6374,
  "ortin": 6375,
  "ortis": 6376,
  "orums": 6377,
  "osant": 6378,
  "osarc": 6379,
  "oscro": 6380,
  "osedi": 6381,
  "osens": 6382,
  "oseph": 6383,
  "oside": 6384,
  "osine": 6385,
  "osing": 6386,
  "osite": 6387,
  "osity": 6388,
  "osive": 6389,
  "osmia": 6390,
  "osoma": 6391,
  "osome": 6392,
  "ospir": 6393,
  "ossal": 6394,
  "ossia": 6395,
  "oster": 6396,
  "ostom": 6397,
  "ostri": 6398,
  "osulf": 6399,
  "otass": 6400,
  "othel": 6401,
  "otian": 6402,
  "otica": 6403,
  "otide": 6404,
  "otile": 6405,
  "otine": 6406,
  "otomy": 6407,
  "otrop": 6408,
  "otype": 6409,
  "otzot": 6410,
  "oulin": 6411,
  "ousis": 6412,
  "ousse": 6413,
  "ousus": 6414,
  "oveal": 6415,
  "ovisc": 6416,
  "owicz": 6417,
  "owitz": 6418,
  "owski": 6419,
  "owsky": 6420,
  "oxide": 6421,
  "pathy": 6422,
  "pedge": 6423,
  "peral": 6424,
  "petic": 6425,
  "phics": 6426,
  "phleb": 6427,
  "phora": 6428,
  "phrag": 6429,
  "pidus": 6430,
  "pigin": 6431,
  "plasm": 6432,
  "pling": 6433,
  "pread": 6434,
  "prech": 6435,
  "print": 6436,
  "quito": 6437,
  "quois": 6438,
  "raden": 6439,
  "raeli": 6440,
  "randa": 6441,
  "rania": 6442,
  "ranii": 6443,
  "ranul": 6444,
  "rasia": 6445,
  "rated": 6446,
  "ratia": 6447,
  "rault": 6448,
  "ravik": 6449,
  "rbott": 6450,
  "reich": 6451,
  "relia": 6452,
  "renal": 6453,
  "renia": 6454,
  "renic": 6455,
  "retin": 6456,
  "riate": 6457,
  "rices": 6458,
  "richy": 6459,
  "ridge": 6460,
  "ridic": 6461,
  "riers": 6462,
  "right": 6463,
  "rimal": 6464,
  "rions": 6465,
  "rison": 6466,
  "ritic": 6467,
  "ritis": 6468,
  "rmann": 6469,
  "rocyt": 6470,
  "roduc": 6471,
  "rogen": 6472,
  "rolip": 6473,
  "romal": 6474,
  "romas": 6475,
  "romat": 6476,
  "romuc": 6477,
  "ronch": 6478,
  "ropar": 6479,
  "rophy": 6480,
  "ropia": 6481,
  "ropic": 6482,
  "ropin": 6483,
  "ropod": 6484,
  "ropyr": 6485,
  "roses": 6486,
  "rosis": 6487,
  "roste": 6488,
  "rotal": 6489,
  "roten": 6490,
  "rotia": 6491,
  "rotic": 6492,
  "rotid": 6493,
  "rough": 6494,
  "rowth": 6495,
  "scher": 6496,
  "seini": 6497,
  "selli": 6498,
  "seous": 6499,
  "sfeld": 6500,
  "shans": 6501,
  "sible": 6502,
  "simon": 6503,
  "sions": 6504,
  "smans": 6505,
  "smark": 6506,
  "sonia": 6507,
  "stada": 6508,
  "stein": 6509,
  "stiel": 6510,
  "still": 6511,
  "storp": 6512,
  "strom": 6513,
  "struc": 6514,
  "sythe": 6515,
  "tance": 6516,
  "tanic": 6517,
  "tensi": 6518,
  "terew": 6519,
  "terin": 6520,
  "terix": 6521,
  "terna": 6522,
  "thalm": 6523,
  "tharg": 6524,
  "thers": 6525,
  "tiary": 6526,
  "tible": 6527,
  "tical": 6528,
  "ticis": 6529,
  "ticks": 6530,
  "ticul": 6531,
  "ticum": 6532,
  "ticus": 6533,
  "tides": 6534,
  "tidic": 6535,
  "tiers": 6536,
  "tifer": 6537,
  "tigin": 6538,
  "tillo": 6539,
  "timal": 6540,
  "timas": 6541,
  "tinal": 6542,
  "tinen": 6543,
  "tines": 6544,
  "tinin": 6545,
  "tinum": 6546,
  "tions": 6547,
  "tious": 6548,
  "tisic": 6549,
  "tisms": 6550,
  "titis": 6551,
  "titus": 6552,
  "tmann": 6553,
  "tomia": 6554,
  "toses": 6555,
  "tosis": 6556,
  "toval": 6557,
  "tract": 6558,
  "trans": 6559,
  "traum": 6560,
  "treal": 6561,
  "trens": 6562,
  "trigo": 6563,
  "tript": 6564,
  "trypt": 6565,
  "ttles": 6566,
  "tured": 6567,
  "turia": 6568,
  "tyoca": 6569,
  "ually": 6570,
  "uated": 6571,
  "ubben": 6572,
  "uberg": 6573,
  "ubert": 6574,
  "ubian": 6575,
  "ubism": 6576,
  "uccin": 6577,
  "ucent": 6578,
  "uchis": 6579,
  "uchwa": 6580,
  "ucine": 6581,
  "uckle": 6582,
  "ucous": 6583,
  "uctal": 6584,
  "udesc": 6585,
  "uding": 6586,
  "udism": 6587,
  "udley": 6588,
  "uelan": 6589,
  "ufous": 6590,
  "ugate": 6591,
  "uhara": 6592,
  "uinal": 6593,
  "ukawa": 6594,
  "ulant": 6595,
  "ulare": 6596,
  "ulate": 6597,
  "ulbar": 6598,
  "ulent": 6599,
  "ulfov": 6600,
  "uliar": 6601,
  "ulicz": 6602,
  "uller": 6603,
  "ulman": 6604,
  "ulnar": 6605,
  "uloma": 6606,
  "ulosa": 6607,
  "uloul": 6608,
  "ulous": 6609,
  "umada": 6610,
  "umbil": 6611,
  "umeni": 6612,
  "ummer": 6613,
  "umoff": 6614,
  "umscr": 6615,
  "uncal": 6616,
  "uncle": 6617,
  "undus": 6618,
  "unich": 6619,
  "unier": 6620,
  "union": 6621,
  "uniss": 6622,
  "unken": 6623,
  "unnel": 6624,
  "unois": 6625,
  "unuch": 6626,
  "upine": 6627,
  "uping": 6628,
  "urata": 6629,
  "urati": 6630,
  "urias": 6631,
  "urida": 6632,
  "uring": 6633,
  "urity": 6634,
  "urnal": 6635,
  "uroki": 6636,
  "urton": 6637,
  "uruta": 6638,
  "urysm": 6639,
  "uscep": 6640,
  "uscum": 6641,
  "usens": 6642,
  "usias": 6643,
  "usion": 6644,
  "usive": 6645,
  "uspid": 6646,
  "ussan": 6647,
  "uster": 6648,
  "ustic": 6649,
  "usual": 6650,
  "utane": 6651,
  "uther": 6652,
  "utier": 6653,
  "ution": 6654,
  "utism": 6655,
  "utsch": 6656,
  "utsug": 6657,
  "utter": 6658,
  "uvant": 6659,
  "uvate": 6660,
  "uvica": 6661,
  "uvier": 6662,
  "uvoyl": 6663,
  "uyama": 6664,
  "varia": 6665,
  "velop": 6666,
  "venth": 6667,
  "verse": 6668,
  "ville": 6669,
  "virus": 6670,
  "vital": 6671,
  "vival": 6672,
  "vular": 6673,
  "vulus": 6674,
  "waiti": 6675,
  "water": 6676,
  "xicus": 6677,
  "xiety": 6678,
  "ximal": 6679,
  "ybert": 6680,
  "ycard": 6681,
  "ycomb": 6682,
  "yderm": 6683,
  "ydrom": 6684,
  "ygium": 6685,
  "ylase": 6686,
  "ylate": 6687,
  "yline": 6688,
  "yloid": 6689,
  "ymann": 6690,
  "ymond": 6691,
  "ynaud": 6692,
  "yneck": 6693,
  "yness": 6694,
  "ynold": 6695,
  "ynski": 6696,
  "yoshi": 6697,
  "ypass": 6698,
  "yphen": 6699,
  "ypsin": 6700,
  "yrate": 6701,
  "yrias": 6702,
  "yring": 6703,
  "yroid": 6704,
  "ystem": 6705,
  "yster": 6706,
  "ystic": 6707,
  "ystis": 6708,
  "ythms": 6709,
  "ytoin": 6710,
  "ziger": 6711,
  "znica": 6712,
  "zweig": 6713,
  "Ġ1210": 6714,
  "Ġ1375": 6715,
  "Ġ1901": 6716,
  "Ġ3500": 6717,
  "Ġ5178": 6718,
  "Ġaaas": 6719,
  "Ġaabt": 6720,
  "Ġaadc": 6721,
  "Ġaadh": 6722,
  "Ġaapc": 6723,
  "Ġaasa": 6724,
  "Ġaase": 6725,
  "Ġabca": 6726,
  "Ġabcd": 6727,
  "Ġabds": 6728,
  "Ġaber": 6729,
  "Ġabhs": 6730,
  "Ġabor": 6731,
  "Ġabri": 6732,
  "Ġacad": 6733,
  "Ġacal": 6734,
  "Ġacdm": 6735,
  "Ġacet": 6736,
  "Ġacfd": 6737,
  "Ġache": 6738,
  "Ġachl": 6739,
  "Ġachm": 6740,
  "Ġachp": 6741,
  "Ġacid": 6742,
  "Ġacin": 6743,
  "Ġacll": 6744,
  "Ġacls": 6745,
  "Ġacne": 6746,
  "Ġacps": 6747,
  "Ġacqu": 6748,
  "Ġacro": 6749,
  "Ġacrp": 6750,
  "Ġacth": 6751,
  "Ġacug": 6752,
  "Ġacyl": 6753,
  "Ġadam": 6754,
  "Ġadap": 6755,
  "Ġadca": 6756,
  "Ġadcc": 6757,
  "Ġadcl": 6758,
  "Ġaden": 6759,
  "Ġadfn": 6760,
  "Ġadhd": 6761,
  "Ġadhr": 6762,
  "Ġadie": 6763,
  "Ġadip": 6764,
  "Ġadld": 6765,
  "Ġadne": 6766,
  "Ġadpe": 6767,
  "Ġadsa": 6768,
  "Ġadsd": 6769,
  "Ġadsl": 6770,
  "Ġadwh": 6771,
  "Ġadyn": 6772,
  "Ġaemk": 6773,
  "Ġaexs": 6774,
  "Ġafap": 6775,
  "Ġafib": 6776,
  "Ġagat": 6777,
  "Ġagen": 6778,
  "Ġaggr": 6779,
  "Ġagmx": 6780,
  "Ġagps": 6781,
  "Ġahch": 6782,
  "Ġahds": 6783,
  "Ġahus": 6784,
  "Ġaica": 6785,
  "Ġaidp": 6786,
  "Ġaids": 6787,
  "Ġaied": 6788,
  "Ġaihh": 6789,
  "Ġainh": 6790,
  "Ġaipl": 6791,
  "Ġaird": 6792,
  "Ġaitd": 6793,
  "Ġaitp": 6794,
  "Ġaivr": 6795,
  "Ġaksu": 6796,
  "Ġalad": 6797,
  "Ġalar": 6798,
  "Ġalba": 6799,
  "Ġaldh": 6800,
  "Ġalds": 6801,
  "Ġaleu": 6802,
  "Ġalex": 6803,
  "Ġalgs": 6804,
  "Ġalky": 6805,
  "Ġalme": 6806,
  "Ġalms": 6807,
  "Ġalog": 6808,
  "Ġaloi": 6809,
  "Ġalph": 6810,
  "Ġalps": 6811,
  "Ġalrh": 6812,
  "Ġalsg": 6813,
  "Ġalsj": 6814,
  "Ġalss": 6815,
  "Ġalve": 6816,
  "Ġamaz": 6817,
  "Ġamcb": 6818,
  "Ġamcd": 6819,
  "Ġamcn": 6820,
  "Ġamcx": 6821,
  "Ġamdg": 6822,
  "Ġamdh": 6823,
  "Ġamdm": 6824,
  "Ġameb": 6825,
  "Ġameg": 6826,
  "Ġamel": 6827,
  "Ġamin": 6828,
  "Ġamme": 6829,
  "Ġamrf": 6830,
  "Ġamst": 6831,
  "Ġamyg": 6832,
  "Ġamyl": 6833,
  "Ġanad": 6834,
  "Ġanal": 6835,
  "Ġanap": 6836,
  "Ġanca": 6837,
  "Ġanch": 6838,
  "Ġancr": 6839,
  "Ġandd": 6840,
  "Ġanep": 6841,
  "Ġanet": 6842,
  "Ġanfh": 6843,
  "Ġangi": 6844,
  "Ġanib": 6845,
  "Ġanic": 6846,
  "Ġanis": 6847,
  "Ġanll": 6848,
  "Ġanni": 6849,
  "Ġanon": 6850,
  "Ġanop": 6851,
  "Ġanos": 6852,
  "Ġanov": 6853,
  "Ġanox": 6854,
  "Ġante": 6855,
  "Ġanth": 6856,
  "Ġanti": 6857,
  "Ġanus": 6858,
  "Ġaoch": 6859,
  "Ġaoii": 6860,
  "Ġaoms": 6861,
  "Ġaorf": 6862,
  "Ġaort": 6863,
  "Ġapca": 6864,
  "Ġaper": 6865,
  "Ġapic": 6866,
  "Ġapkd": 6867,
  "Ġapld": 6868,
  "Ġapmr": 6869,
  "Ġapob": 6870,
  "Ġapoc": 6871,
  "Ġapoe": 6872,
  "Ġapop": 6873,
  "Ġaprt": 6874,
  "Ġapsm": 6875,
  "Ġapss": 6876,
  "Ġapud": 6877,
  "Ġapvr": 6878,
  "Ġarak": 6879,
  "Ġarcc": 6880,
  "Ġarch": 6881,
  "Ġarcl": 6882,
  "Ġarcs": 6883,
  "Ġards": 6884,
  "Ġaref": 6885,
  "Ġarei": 6886,
  "Ġaren": 6887,
  "Ġarhi": 6888,
  "Ġarhp": 6889,
  "Ġarhr": 6890,
  "Ġarih": 6891,
  "Ġarmd": 6892,
  "Ġarrh": 6893,
  "Ġarsa": 6894,
  "Ġarsb": 6895,
  "Ġarth": 6896,
  "Ġarts": 6897,
  "Ġarvc": 6898,
  "Ġarvd": 6899,
  "Ġarwh": 6900,
  "Ġasat": 6901,
  "Ġasdp": 6902,
  "Ġasmd": 6903,
  "Ġasod": 6904,
  "Ġaspa": 6905,
  "Ġaspg": 6906,
  "Ġasps": 6907,
  "Ġasrt": 6908,
  "Ġasth": 6909,
  "Ġasym": 6910,
  "Ġatax": 6911,
  "Ġatcs": 6912,
  "Ġatel": 6913,
  "Ġatfb": 6914,
  "Ġaths": 6915,
  "Ġathy": 6916,
  "Ġatic": 6917,
  "Ġatld": 6918,
  "Ġatll": 6919,
  "Ġatod": 6920,
  "Ġatri": 6921,
  "Ġatrx": 6922,
  "Ġattr": 6923,
  "Ġaugh": 6924,
  "Ġaula": 6925,
  "Ġauna": 6926,
  "Ġaunb": 6927,
  "Ġaunx": 6928,
  "Ġaura": 6929,
  "Ġaure": 6930,
  "Ġauto": 6931,
  "Ġauts": 6932,
  "Ġavcd": 6933,
  "Ġaved": 6934,
  "Ġavmd": 6935,
  "Ġavsd": 6936,
  "Ġavul": 6937,
  "Ġaxen": 6938,
  "Ġaxon": 6939,
  "Ġaxpc": 6940,
  "Ġayer": 6941,
  "Ġazar": 6942,
  "Ġaziz": 6943,
  "Ġazon": 6944,
  "Ġbabl": 6945,
  "Ġbaby": 6946,
  "Ġback": 6947,
  "Ġbaff": 6948,
  "Ġbald": 6949,
  "Ġball": 6950,
  "Ġbalo": 6951,
  "Ġbanc": 6952,
  "Ġband": 6953,
  "Ġbanf": 6954,
  "Ġbang": 6955,
  "Ġbann": 6956,
  "Ġbant": 6957,
  "Ġbarb": 6958,
  "Ġbarc": 6959,
  "Ġbard": 6960,
  "Ġbare": 6961,
  "Ġbarr": 6962,
  "Ġbart": 6963,
  "Ġbary": 6964,
  "Ġbase": 6965,
  "Ġbass": 6966,
  "Ġbath": 6967,
  "Ġbatt": 6968,
  "Ġbaum": 6969,
  "Ġbavm": 6970,
  "Ġbbbg": 6971,
  "Ġbbgd": 6972,
  "Ġbcie": 6973,
  "Ġbckd": 6974,
  "Ġbcll": 6975,
  "Ġbcns": 6976,
  "Ġbcpm": 6977,
  "Ġbdcs": 6978,
  "Ġbdet": 6979,
  "Ġbdls": 6980,
  "Ġbdmf": 6981,
  "Ġbdmr": 6982,
  "Ġbdsd": 6983,
  "Ġbeal": 6984,
  "Ġbean": 6985,
  "Ġbeas": 6986,
  "Ġbeat": 6987,
  "Ġbech": 6988,
  "Ġbeck": 6989,
  "Ġbeds": 6990,
  "Ġbehc": 6991,
  "Ġbehr": 6992,
  "Ġbell": 6993,
  "Ġbend": 6994,
  "Ġbens": 6995,
  "Ġbent": 6996,
  "Ġberg": 6997,
  "Ġberk": 6998,
  "Ġbern": 6999,
  "Ġbert": 7000,
  "Ġbesc": 7001,
  "Ġbest": 7002,
  "Ġbeta": 7003,
  "Ġbeth": 7004,
  "Ġbezo": 7005,
  "Ġbfhd": 7006,
  "Ġbfic": 7007,
  "Ġbfis": 7008,
  "Ġbfls": 7009,
  "Ġbfnc": 7010,
  "Ġbfns": 7011,
  "Ġbfpp": 7012,
  "Ġbgmr": 7013,
  "Ġbhan": 7014,
  "Ġbick": 7015,
  "Ġbids": 7016,
  "Ġbied": 7017,
  "Ġbign": 7018,
  "Ġbile": 7019,
  "Ġbind": 7020,
  "Ġbing": 7021,
  "Ġbins": 7022,
  "Ġbird": 7023,
  "Ġbirk": 7024,
  "Ġbirt": 7025,
  "Ġbite": 7026,
  "Ġbjer": 7027,
  "Ġblau": 7028,
  "Ġbleb": 7029,
  "Ġblnk": 7030,
  "Ġblow": 7031,
  "Ġblue": 7032,
  "Ġbmiq": 7033,
  "Ġbmnd": 7034,
  "Ġbnar": 7035,
  "Ġboca": 7036,
  "Ġbocd": 7037,
  "Ġbody": 7038,
  "Ġbofs": 7039,
  "Ġbohl": 7040,
  "Ġbone": 7041,
  "Ġbony": 7042,
  "Ġboop": 7043,
  "Ġbops": 7044,
  "Ġborj": 7045,
  "Ġbork": 7046,
  "Ġborn": 7047,
  "Ġbost": 7048,
  "Ġboth": 7049,
  "Ġbott": 7050,
  "Ġbour": 7051,
  "Ġbout": 7052,
  "Ġbpeo": 7053,
  "Ġbpes": 7054,
  "Ġbpgm": 7055,
  "Ġbpnh": 7056,
  "Ġbppv": 7057,
  "Ġbrad": 7058,
  "Ġbran": 7059,
  "Ġbrca": 7060,
  "Ġbres": 7061,
  "Ġbric": 7062,
  "Ġbrks": 7063,
  "Ġbroc": 7064,
  "Ġbrod": 7065,
  "Ġbron": 7066,
  "Ġbrov": 7067,
  "Ġbrrs": 7068,
  "Ġbrss": 7069,
  "Ġbruc": 7070,
  "Ġbrug": 7071,
  "Ġbrun": 7072,
  "Ġbrux": 7073,
  "Ġbsas": 7074,
  "Ġbscl": 7075,
  "Ġbses": 7076,
  "Ġbsnd": 7077,
  "Ġbssa": 7078,
  "Ġbths": 7079,
  "Ġbtps": 7080,
  "Ġbuch": 7081,
  "Ġbucy": 7082,
  "Ġbudd": 7083,
  "Ġbuen": 7084,
  "Ġbulb": 7085,
  "Ġbull": 7086,
  "Ġbuln": 7087,
  "Ġbund": 7088,
  "Ġbuny": 7089,
  "Ġburg": 7090,
  "Ġburk": 7091,
  "Ġburn": 7092,
  "Ġburs": 7093,
  "Ġbush": 7094,
  "Ġbust": 7095,
  "Ġbwcr": 7096,
  "Ġbyss": 7097,
  "Ġcaar": 7098,
  "Ġcaca": 7099,
  "Ġcacd": 7100,
  "Ġcach": 7101,
  "Ġcacp": 7102,
  "Ġcact": 7103,
  "Ġcada": 7104,
  "Ġcadh": 7105,
  "Ġcafe": 7106,
  "Ġcafs": 7107,
  "Ġcahm": 7108,
  "Ġcalc": 7109,
  "Ġcalf": 7110,
  "Ġcall": 7111,
  "Ġcalv": 7112,
  "Ġcamm": 7113,
  "Ġcamp": 7114,
  "Ġcamr": 7115,
  "Ġcamt": 7116,
  "Ġcanc": 7117,
  "Ġcand": 7118,
  "Ġcane": 7119,
  "Ġcann": 7120,
  "Ġcant": 7121,
  "Ġcapa": 7122,
  "Ġcapb": 7123,
  "Ġcaps": 7124,
  "Ġcarb": 7125,
  "Ġcard": 7126,
  "Ġcarp": 7127,
  "Ġcarr": 7128,
  "Ġcart": 7129,
  "Ġcary": 7130,
  "Ġcasc": 7131,
  "Ġcass": 7132,
  "Ġcast": 7133,
  "Ġcatc": 7134,
  "Ġcath": 7135,
  "Ġcatm": 7136,
  "Ġcats": 7137,
  "Ġcaud": 7138,
  "Ġcaus": 7139,
  "Ġcauv": 7140,
  "Ġcava": 7141,
  "Ġcavd": 7142,
  "Ġcbas": 7143,
  "Ġcbbm": 7144,
  "Ġcbla": 7145,
  "Ġcblb": 7146,
  "Ġcblc": 7147,
  "Ġcbld": 7148,
  "Ġcble": 7149,
  "Ġcblf": 7150,
  "Ġcblg": 7151,
  "Ġcblh": 7152,
  "Ġcbps": 7153,
  "Ġccal": 7154,
  "Ġcchs": 7155,
  "Ġccnp": 7156,
  "Ġccts": 7157,
  "Ġcczs": 7158,
  "Ġcdan": 7159,
  "Ġcdcd": 7160,
  "Ġcdfe": 7161,
  "Ġcdfi": 7162,
  "Ġcdgg": 7163,
  "Ġcdgi": 7164,
  "Ġcdgs": 7165,
  "Ġcdhs": 7166,
  "Ġcdkl": 7167,
  "Ġcdls": 7168,
  "Ġcdmd": 7169,
  "Ġcdpd": 7170,
  "Ġcdpr": 7171,
  "Ġcdpx": 7172,
  "Ġcdrb": 7173,
  "Ġcdsp": 7174,
  "Ġcdtb": 7175,
  "Ġcdtd": 7176,
  "Ġceds": 7177,
  "Ġcell": 7178,
  "Ġcent": 7179,
  "Ġcerv": 7180,
  "Ġcesd": 7181,
  "Ġcest": 7182,
  "Ġcetp": 7183,
  "Ġcfcs": 7184,
  "Ġcfhd": 7185,
  "Ġcfid": 7186,
  "Ġcfnd": 7187,
  "Ġcfns": 7188,
  "Ġcfpd": 7189,
  "Ġcftd": 7190,
  "Ġchac": 7191,
  "Ġchag": 7192,
  "Ġcham": 7193,
  "Ġchap": 7194,
  "Ġchar": 7195,
  "Ġchat": 7196,
  "Ġchbl": 7197,
  "Ġchcl": 7198,
  "Ġchdm": 7199,
  "Ġchds": 7200,
  "Ġched": 7201,
  "Ġchem": 7202,
  "Ġchen": 7203,
  "Ġcher": 7204,
  "Ġchhs": 7205,
  "Ġchhv": 7206,
  "Ġchik": 7207,
  "Ġchil": 7208,
  "Ġchin": 7209,
  "Ġchlo": 7210,
  "Ġchls": 7211,
  "Ġchng": 7212,
  "Ġchol": 7213,
  "Ġchor": 7214,
  "Ġchot": 7215,
  "Ġchrs": 7216,
  "Ġchtd": 7217,
  "Ġchuv": 7218,
  "Ġchyl": 7219,
  "Ġcidp": 7220,
  "Ġcidx": 7221,
  "Ġcigu": 7222,
  "Ġcihl": 7223,
  "Ġciid": 7224,
  "Ġciip": 7225,
  "Ġcild": 7226,
  "Ġcimt": 7227,
  "Ġcina": 7228,
  "Ġcing": 7229,
  "Ġcipa": 7230,
  "Ġcirc": 7231,
  "Ġciss": 7232,
  "Ġcjmg": 7233,
  "Ġclam": 7234,
  "Ġclas": 7235,
  "Ġclaw": 7236,
  "Ġclcd": 7237,
  "Ġclic": 7238,
  "Ġclin": 7239,
  "Ġclls": 7240,
  "Ġclos": 7241,
  "Ġclsd": 7242,
  "Ġclss": 7243,
  "Ġclub": 7244,
  "Ġcmal": 7245,
  "Ġcmct": 7246,
  "Ġcmdd": 7247,
  "Ġcmdj": 7248,
  "Ġcmdr": 7249,
  "Ġcmml": 7250,
  "Ġcmpd": 7251,
  "Ġcmrd": 7252,
  "Ġcmta": 7253,
  "Ġcmtb": 7254,
  "Ġcmtc": 7255,
  "Ġcmtd": 7256,
  "Ġcmtr": 7257,
  "Ġcmtx": 7258,
  "Ġcnmx": 7259,
  "Ġcoad": 7260,
  "Ġcoag": 7261,
  "Ġcoal": 7262,
  "Ġcoat": 7263,
  "Ġcoca": 7264,
  "Ġcoch": 7265,
  "Ġcock": 7266,
  "Ġcode": 7267,
  "Ġcoen": 7268,
  "Ġcoff": 7269,
  "Ġcofs": 7270,
  "Ġcogn": 7271,
  "Ġcoin": 7272,
  "Ġcold": 7273,
  "Ġcole": 7274,
  "Ġcoli": 7275,
  "Ġcoll": 7276,
  "Ġcoma": 7277,
  "Ġcome": 7278,
  "Ġcomm": 7279,
  "Ġcomp": 7280,
  "Ġconc": 7281,
  "Ġcond": 7282,
  "Ġcone": 7283,
  "Ġconf": 7284,
  "Ġcong": 7285,
  "Ġconj": 7286,
  "Ġconn": 7287,
  "Ġcons": 7288,
  "Ġcont": 7289,
  "Ġcook": 7290,
  "Ġcopd": 7291,
  "Ġcord": 7292,
  "Ġcore": 7293,
  "Ġcori": 7294,
  "Ġcorm": 7295,
  "Ġcorp": 7296,
  "Ġcors": 7297,
  "Ġcory": 7298,
  "Ġcost": 7299,
  "Ġcote": 7300,
  "Ġcoup": 7301,
  "Ġcous": 7302,
  "Ġcoxa": 7303,
  "Ġcpeo": 7304,
  "Ġcphd": 7305,
  "Ġcpox": 7306,
  "Ġcprs": 7307,
  "Ġcpsq": 7308,
  "Ġcpvt": 7309,
  "Ġcpxd": 7310,
  "Ġcpxr": 7311,
  "Ġcrac": 7312,
  "Ġcram": 7313,
  "Ġcran": 7314,
  "Ġcrap": 7315,
  "Ġcrbm": 7316,
  "Ġcrcs": 7317,
  "Ġcree": 7318,
  "Ġcrib": 7319,
  "Ġcrie": 7320,
  "Ġcrmo": 7321,
  "Ġcroc": 7322,
  "Ġcrom": 7323,
  "Ġcron": 7324,
  "Ġcros": 7325,
  "Ġcrov": 7326,
  "Ġcrow": 7327,
  "Ġcrps": 7328,
  "Ġcrsa": 7329,
  "Ġcrst": 7330,
  "Ġcruz": 7331,
  "Ġcscd": 7332,
  "Ġcsid": 7333,
  "Ġcsnb": 7334,
  "Ġcsnu": 7335,
  "Ġcspc": 7336,
  "Ġctaa": 7337,
  "Ġcthm": 7338,
  "Ġctln": 7339,
  "Ġctnl": 7340,
  "Ġctns": 7341,
  "Ġctpa": 7342,
  "Ġctpp": 7343,
  "Ġcumm": 7344,
  "Ġcurr": 7345,
  "Ġcurv": 7346,
  "Ġcush": 7347,
  "Ġcvas": 7348,
  "Ġcvid": 7349,
  "Ġcyan": 7350,
  "Ġcyba": 7351,
  "Ġcycl": 7352,
  "Ġcymd": 7353,
  "Ġcyst": 7354,
  "Ġdail": 7355,
  "Ġdais": 7356,
  "Ġdaly": 7357,
  "Ġdanc": 7358,
  "Ġdari": 7359,
  "Ġdark": 7360,
  "Ġdavy": 7361,
  "Ġdbqd": 7362,
  "Ġdcis": 7363,
  "Ġdcma": 7364,
  "Ġdcmd": 7365,
  "Ġddeb": 7366,
  "Ġddsh": 7367,
  "Ġdead": 7368,
  "Ġdeaf": 7369,
  "Ġdeal": 7370,
  "Ġdecl": 7371,
  "Ġdecr": 7372,
  "Ġdeep": 7373,
  "Ġdele": 7374,
  "Ġdenb": 7375,
  "Ġdend": 7376,
  "Ġdens": 7377,
  "Ġdent": 7378,
  "Ġdepr": 7379,
  "Ġdequ": 7380,
  "Ġderc": 7381,
  "Ġderm": 7382,
  "Ġdesm": 7383,
  "Ġdest": 7384,
  "Ġdetr": 7385,
  "Ġdeut": 7386,
  "Ġdeux": 7387,
  "Ġdeva": 7388,
  "Ġdext": 7389,
  "Ġdfna": 7390,
  "Ġdfnb": 7391,
  "Ġdfnm": 7392,
  "Ġdfnx": 7393,
  "Ġdfny": 7394,
  "Ġdgcr": 7395,
  "Ġdgsx": 7396,
  "Ġdhmn": 7397,
  "Ġdhof": 7398,
  "Ġdhpr": 7399,
  "Ġdhrd": 7400,
  "Ġdhtr": 7401,
  "Ġdiab": 7402,
  "Ġdial": 7403,
  "Ġdian": 7404,
  "Ġdiar": 7405,
  "Ġdich": 7406,
  "Ġdiff": 7407,
  "Ġdill": 7408,
  "Ġdims": 7409,
  "Ġdiph": 7410,
  "Ġdipl": 7411,
  "Ġdira": 7412,
  "Ġdisc": 7413,
  "Ġdisk": 7414,
  "Ġdism": 7415,
  "Ġdiss": 7416,
  "Ġdist": 7417,
  "Ġdizz": 7418,
  "Ġdkbi": 7419,
  "Ġdkca": 7420,
  "Ġdkcb": 7421,
  "Ġdkcx": 7422,
  "Ġdlcd": 7423,
  "Ġdmat": 7424,
  "Ġdmda": 7425,
  "Ġdmpk": 7426,
  "Ġdmrv": 7427,
  "Ġdmsd": 7428,
  "Ġdmtn": 7429,
  "Ġdoes": 7430,
  "Ġdohi": 7431,
  "Ġdoll": 7432,
  "Ġdopa": 7433,
  "Ġdors": 7434,
  "Ġdorv": 7435,
  "Ġdoss": 7436,
  "Ġdott": 7437,
  "Ġdoul": 7438,
  "Ġdour": 7439,
  "Ġdown": 7440,
  "Ġdped": 7441,
  "Ġdpgm": 7442,
  "Ġdpyd": 7443,
  "Ġdpys": 7444,
  "Ġdrag": 7445,
  "Ġdrop": 7446,
  "Ġdrow": 7447,
  "Ġdrpl": 7448,
  "Ġdrrd": 7449,
  "Ġdrrs": 7450,
  "Ġdrug": 7451,
  "Ġdsap": 7452,
  "Ġdscr": 7453,
  "Ġdsds": 7454,
  "Ġdsma": 7455,
  "Ġdtdp": 7456,
  "Ġdtga": 7457,
  "Ġdual": 7458,
  "Ġdube": 7459,
  "Ġduch": 7460,
  "Ġduck": 7461,
  "Ġduct": 7462,
  "Ġduhr": 7463,
  "Ġdunc": 7464,
  "Ġdund": 7465,
  "Ġdunn": 7466,
  "Ġduod": 7467,
  "Ġdupc": 7468,
  "Ġdurs": 7469,
  "Ġdust": 7470,
  "Ġdwar": 7471,
  "Ġdyck": 7472,
  "Ġdysf": 7473,
  "Ġdysg": 7474,
  "Ġdysl": 7475,
  "Ġdysm": 7476,
  "Ġdysn": 7477,
  "Ġdysp": 7478,
  "Ġdyss": 7479,
  "Ġdyst": 7480,
  "Ġeaoh": 7481,
  "Ġeard": 7482,
  "Ġears": 7483,
  "Ġease": 7484,
  "Ġeast": 7485,
  "Ġebdd": 7486,
  "Ġebla": 7487,
  "Ġebmd": 7488,
  "Ġebvs": 7489,
  "Ġecch": 7490,
  "Ġecho": 7491,
  "Ġecth": 7492,
  "Ġecyt": 7493,
  "Ġedmd": 7494,
  "Ġedss": 7495,
  "Ġefmr": 7496,
  "Ġeich": 7497,
  "Ġeiee": 7498,
  "Ġekvp": 7499,
  "Ġelev": 7500,
  "Ġelli": 7501,
  "Ġemac": 7502,
  "Ġempt": 7503,
  "Ġempy": 7504,
  "Ġemwx": 7505,
  "Ġench": 7506,
  "Ġende": 7507,
  "Ġendo": 7508,
  "Ġenfl": 7509,
  "Ġengl": 7510,
  "Ġenth": 7511,
  "Ġenti": 7512,
  "Ġenur": 7513,
  "Ġenvi": 7514,
  "Ġenzo": 7515,
  "Ġeoca": 7516,
  "Ġeotd": 7517,
  "Ġepdf": 7518,
  "Ġepib": 7519,
  "Ġepic": 7520,
  "Ġepid": 7521,
  "Ġepig": 7522,
  "Ġepil": 7523,
  "Ġepis": 7524,
  "Ġepmr": 7525,
  "Ġeppk": 7526,
  "Ġepps": 7527,
  "Ġepul": 7528,
  "Ġerbs": 7529,
  "Ġercc": 7530,
  "Ġergo": 7531,
  "Ġerik": 7532,
  "Ġeros": 7533,
  "Ġertb": 7534,
  "Ġerup": 7535,
  "Ġervr": 7536,
  "Ġescc": 7537,
  "Ġescs": 7538,
  "Ġesrd": 7539,
  "Ġetat": 7540,
  "Ġetfa": 7541,
  "Ġetfb": 7542,
  "Ġethm": 7543,
  "Ġetic": 7544,
  "Ġeuth": 7545,
  "Ġevan": 7546,
  "Ġever": 7547,
  "Ġevil": 7548,
  "Ġevrx": 7549,
  "Ġexag": 7550,
  "Ġexer": 7551,
  "Ġexit": 7552,
  "Ġexpl": 7553,
  "Ġexpr": 7554,
  "Ġexst": 7555,
  "Ġextr": 7556,
  "Ġeyel": 7557,
  "Ġeyes": 7558,
  "Ġfacb": 7559,
  "Ġfacc": 7560,
  "Ġfacd": 7561,
  "Ġface": 7562,
  "Ġfach": 7563,
  "Ġfaci": 7564,
  "Ġfads": 7565,
  "Ġfahl": 7566,
  "Ġfahn": 7567,
  "Ġfahr": 7568,
  "Ġfail": 7569,
  "Ġfain": 7570,
  "Ġfair": 7571,
  "Ġfalc": 7572,
  "Ġfald": 7573,
  "Ġfall": 7574,
  "Ġfals": 7575,
  "Ġfame": 7576,
  "Ġfamm": 7577,
  "Ġfanc": 7578,
  "Ġfara": 7579,
  "Ġfarr": 7580,
  "Ġfasc": 7581,
  "Ġfast": 7582,
  "Ġfati": 7583,
  "Ġfaye": 7584,
  "Ġfcas": 7585,
  "Ġfcdt": 7586,
  "Ġfchl": 7587,
  "Ġfcmd": 7588,
  "Ġfcnc": 7589,
  "Ġfear": 7590,
  "Ġfecd": 7591,
  "Ġfeer": 7592,
  "Ġfeet": 7593,
  "Ġfeil": 7594,
  "Ġfell": 7595,
  "Ġfens": 7596,
  "Ġfeom": 7597,
  "Ġferg": 7598,
  "Ġfevr": 7599,
  "Ġffdd": 7600,
  "Ġfgdy": 7601,
  "Ġfhbl": 7602,
  "Ġfhca": 7603,
  "Ġfhcb": 7604,
  "Ġfhha": 7605,
  "Ġfhhn": 7606,
  "Ġfhlh": 7607,
  "Ġfibr": 7608,
  "Ġfigd": 7609,
  "Ġfihp": 7610,
  "Ġfill": 7611,
  "Ġfime": 7612,
  "Ġfimg": 7613,
  "Ġfind": 7614,
  "Ġfine": 7615,
  "Ġfing": 7616,
  "Ġfinn": 7617,
  "Ġfipa": 7618,
  "Ġfire": 7619,
  "Ġfish": 7620,
  "Ġfiss": 7621,
  "Ġfist": 7622,
  "Ġfits": 7623,
  "Ġfitz": 7624,
  "Ġfium": 7625,
  "Ġfive": 7626,
  "Ġfjhn": 7627,
  "Ġfkrp": 7628,
  "Ġfktn": 7629,
  "Ġflat": 7630,
  "Ġflau": 7631,
  "Ġflav": 7632,
  "Ġflea": 7633,
  "Ġflec": 7634,
  "Ġflet": 7635,
  "Ġflex": 7636,
  "Ġflow": 7637,
  "Ġfluo": 7638,
  "Ġfmfd": 7639,
  "Ġfmtc": 7640,
  "Ġfoar": 7641,
  "Ġfoci": 7642,
  "Ġfodh": 7643,
  "Ġfogo": 7644,
  "Ġfoix": 7645,
  "Ġfold": 7646,
  "Ġfong": 7647,
  "Ġfont": 7648,
  "Ġfood": 7649,
  "Ġfoot": 7650,
  "Ġford": 7651,
  "Ġfore": 7652,
  "Ġform": 7653,
  "Ġfors": 7654,
  "Ġfoss": 7655,
  "Ġfoth": 7656,
  "Ġfour": 7657,
  "Ġfove": 7658,
  "Ġfowl": 7659,
  "Ġfoxc": 7660,
  "Ġfpev": 7661,
  "Ġfpld": 7662,
  "Ġfrag": 7663,
  "Ġfram": 7664,
  "Ġfran": 7665,
  "Ġfras": 7666,
  "Ġfrax": 7667,
  "Ġfrda": 7668,
  "Ġfree": 7669,
  "Ġfren": 7670,
  "Ġfrey": 7671,
  "Ġfrkp": 7672,
  "Ġfrob": 7673,
  "Ġfrom": 7674,
  "Ġfron": 7675,
  "Ġfros": 7676,
  "Ġfrts": 7677,
  "Ġfsgs": 7678,
  "Ġfshd": 7679,
  "Ġfsnf": 7680,
  "Ġfssv": 7681,
  "Ġftdp": 7682,
  "Ġftdu": 7683,
  "Ġfths": 7684,
  "Ġftld": 7685,
  "Ġftle": 7686,
  "Ġftns": 7687,
  "Ġfuch": 7688,
  "Ġfuhr": 7689,
  "Ġfull": 7690,
  "Ġfulm": 7691,
  "Ġfund": 7692,
  "Ġfung": 7693,
  "Ġgaba": 7694,
  "Ġgaci": 7695,
  "Ġgacr": 7696,
  "Ġgain": 7697,
  "Ġgait": 7698,
  "Ġgale": 7699,
  "Ġgalk": 7700,
  "Ġgall": 7701,
  "Ġgalt": 7702,
  "Ġgame": 7703,
  "Ġgamm": 7704,
  "Ġgamt": 7705,
  "Ġgang": 7706,
  "Ġgans": 7707,
  "Ġgarc": 7708,
  "Ġgard": 7709,
  "Ġgare": 7710,
  "Ġgarg": 7711,
  "Ġgass": 7712,
  "Ġgast": 7713,
  "Ġgatm": 7714,
  "Ġgauc": 7715,
  "Ġgaze": 7716,
  "Ġgbbb": 7717,
  "Ġgccd": 7718,
  "Ġgcps": 7719,
  "Ġgdfd": 7720,
  "Ġgdld": 7721,
  "Ġgefs": 7722,
  "Ġgele": 7723,
  "Ġgels": 7724,
  "Ġgene": 7725,
  "Ġgenu": 7726,
  "Ġgepd": 7727,
  "Ġgerd": 7728,
  "Ġgerm": 7729,
  "Ġgest": 7730,
  "Ġgfnd": 7731,
  "Ġgggb": 7732,
  "Ġghdd": 7733,
  "Ġgiac": 7734,
  "Ġgian": 7735,
  "Ġgier": 7736,
  "Ġgill": 7737,
  "Ġging": 7738,
  "Ġgird": 7739,
  "Ġglab": 7740,
  "Ġglas": 7741,
  "Ġglnh": 7742,
  "Ġglob": 7743,
  "Ġglom": 7744,
  "Ġgluc": 7745,
  "Ġglue": 7746,
  "Ġglut": 7747,
  "Ġglyc": 7748,
  "Ġglys": 7749,
  "Ġgnmt": 7750,
  "Ġgoat": 7751,
  "Ġgold": 7752,
  "Ġgole": 7753,
  "Ġgoll": 7754,
  "Ġgomb": 7755,
  "Ġgomm": 7756,
  "Ġgond": 7757,
  "Ġgood": 7758,
  "Ġgord": 7759,
  "Ġgott": 7760,
  "Ġgout": 7761,
  "Ġgpds": 7762,
  "Ġgpsc": 7763,
  "Ġgrac": 7764,
  "Ġgram": 7765,
  "Ġgran": 7766,
  "Ġgras": 7767,
  "Ġgray": 7768,
  "Ġgrdx": 7769,
  "Ġgren": 7770,
  "Ġgrey": 7771,
  "Ġgron": 7772,
  "Ġgros": 7773,
  "Ġgses": 7774,
  "Ġgssd": 7775,
  "Ġgual": 7776,
  "Ġguam": 7777,
  "Ġgulf": 7778,
  "Ġguli": 7779,
  "Ġgulo": 7780,
  "Ġgumm": 7781,
  "Ġgunn": 7782,
  "Ġgusb": 7783,
  "Ġgust": 7784,
  "Ġgutt": 7785,
  "Ġgyri": 7786,
  "Ġhaan": 7787,
  "Ġhaar": 7788,
  "Ġhaas": 7789,
  "Ġhadd": 7790,
  "Ġhadh": 7791,
  "Ġhaem": 7792,
  "Ġhaim": 7793,
  "Ġhair": 7794,
  "Ġhajd": 7795,
  "Ġhall": 7796,
  "Ġhalo": 7797,
  "Ġhalp": 7798,
  "Ġhamm": 7799,
  "Ġhand": 7800,
  "Ġhane": 7801,
  "Ġhang": 7802,
  "Ġhans": 7803,
  "Ġhant": 7804,
  "Ġharb": 7805,
  "Ġhard": 7806,
  "Ġharg": 7807,
  "Ġharm": 7808,
  "Ġharp": 7809,
  "Ġhart": 7810,
  "Ġhash": 7811,
  "Ġhasp": 7812,
  "Ġhass": 7813,
  "Ġhaws": 7814,
  "Ġhbbd": 7815,
  "Ġhbhr": 7816,
  "Ġhblr": 7817,
  "Ġhboc": 7818,
  "Ġhcfp": 7819,
  "Ġhcvs": 7820,
  "Ġhddd": 7821,
  "Ġhdgc": 7822,
  "Ġhdlc": 7823,
  "Ġhdld": 7824,
  "Ġhdls": 7825,
  "Ġhdrs": 7826,
  "Ġhead": 7827,
  "Ġheal": 7828,
  "Ġheat": 7829,
  "Ġheck": 7830,
  "Ġheel": 7831,
  "Ġheid": 7832,
  "Ġhela": 7833,
  "Ġhell": 7834,
  "Ġhema": 7835,
  "Ġhemb": 7836,
  "Ġheme": 7837,
  "Ġhemi": 7838,
  "Ġhern": 7839,
  "Ġherp": 7840,
  "Ġhers": 7841,
  "Ġheub": 7842,
  "Ġhexa": 7843,
  "Ġhfrs": 7844,
  "Ġhftc": 7845,
  "Ġhgps": 7846,
  "Ġhhhs": 7847,
  "Ġhhrh": 7848,
  "Ġhick": 7849,
  "Ġhids": 7850,
  "Ġhies": 7851,
  "Ġhigh": 7852,
  "Ġhigm": 7853,
  "Ġhist": 7854,
  "Ġhitt": 7855,
  "Ġhjcd": 7856,
  "Ġhjmd": 7857,
  "Ġhkpx": 7858,
  "Ġhlah": 7859,
  "Ġhlcs": 7860,
  "Ġhlhs": 7861,
  "Ġhlts": 7862,
  "Ġhmcs": 7863,
  "Ġhmga": 7864,
  "Ġhmnj": 7865,
  "Ġhmps": 7866,
  "Ġhmsn": 7867,
  "Ġhmwk": 7868,
  "Ġhnfj": 7869,
  "Ġhnpp": 7870,
  "Ġhoar": 7871,
  "Ġhocm": 7872,
  "Ġhodg": 7873,
  "Ġhoep": 7874,
  "Ġhoff": 7875,
  "Ġhoga": 7876,
  "Ġhogg": 7877,
  "Ġhole": 7878,
  "Ġholm": 7879,
  "Ġholt": 7880,
  "Ġhomg": 7881,
  "Ġhone": 7882,
  "Ġhooe": 7883,
  "Ġhook": 7884,
  "Ġhopf": 7885,
  "Ġhops": 7886,
  "Ġhord": 7887,
  "Ġhorm": 7888,
  "Ġhorn": 7889,
  "Ġhors": 7890,
  "Ġhort": 7891,
  "Ġhosp": 7892,
  "Ġhost": 7893,
  "Ġhour": 7894,
  "Ġhpcd": 7895,
  "Ġhpcx": 7896,
  "Ġhpdr": 7897,
  "Ġhpec": 7898,
  "Ġhpii": 7899,
  "Ġhplh": 7900,
  "Ġhpns": 7901,
  "Ġhppd": 7902,
  "Ġhprt": 7903,
  "Ġhrpt": 7904,
  "Ġhsan": 7905,
  "Ġhsas": 7906,
  "Ġhscr": 7907,
  "Ġhsdb": 7908,
  "Ġhsmn": 7909,
  "Ġhtgl": 7910,
  "Ġhtlv": 7911,
  "Ġhtnb": 7912,
  "Ġhtor": 7913,
  "Ġhtss": 7914,
  "Ġhuet": 7915,
  "Ġhugh": 7916,
  "Ġhunt": 7917,
  "Ġhutt": 7918,
  "Ġhvdr": 7919,
  "Ġhyal": 7920,
  "Ġhycx": 7921,
  "Ġhyde": 7922,
  "Ġhydm": 7923,
  "Ġhydr": 7924,
  "Ġhyph": 7925,
  "Ġhypn": 7926,
  "Ġhypo": 7927,
  "Ġhypp": 7928,
  "Ġhyps": 7929,
  "Ġhypt": 7930,
  "Ġhypx": 7931,
  "Ġhysp": 7932,
  "Ġhyst": 7933,
  "Ġiadd": 7934,
  "Ġiahs": 7935,
  "Ġibgc": 7936,
  "Ġibsn": 7937,
  "Ġicam": 7938,
  "Ġicca": 7939,
  "Ġicos": 7940,
  "Ġiddm": 7941,
  "Ġidmd": 7942,
  "Ġiecn": 7943,
  "Ġifap": 7944,
  "Ġigad": 7945,
  "Ġigan": 7946,
  "Ġigat": 7947,
  "Ġigda": 7948,
  "Ġigds": 7949,
  "Ġigel": 7950,
  "Ġiger": 7951,
  "Ġighd": 7952,
  "Ġighm": 7953,
  "Ġighr": 7954,
  "Ġigll": 7955,
  "Ġihcm": 7956,
  "Ġihga": 7957,
  "Ġihis": 7958,
  "Ġihps": 7959,
  "Ġihss": 7960,
  "Ġiiac": 7961,
  "Ġiiae": 7962,
  "Ġiias": 7963,
  "Ġiibs": 7964,
  "Ġiida": 7965,
  "Ġiiia": 7966,
  "Ġiiib": 7967,
  "Ġiiic": 7968,
  "Ġiiid": 7969,
  "Ġiiis": 7970,
  "Ġilio": 7971,
  "Ġimah": 7972,
  "Ġimin": 7973,
  "Ġimpg": 7974,
  "Ġimpr": 7975,
  "Ġinad": 7976,
  "Ġincl": 7977,
  "Ġinco": 7978,
  "Ġinde": 7979,
  "Ġinoc": 7980,
  "Ġinsi": 7981,
  "Ġinst": 7982,
  "Ġinte": 7983,
  "Ġintr": 7984,
  "Ġinvm": 7985,
  "Ġiowa": 7986,
  "Ġipex": 7987,
  "Ġipox": 7988,
  "Ġirak": 7989,
  "Ġiran": 7990,
  "Ġirid": 7991,
  "Ġiris": 7992,
  "Ġiron": 7993,
  "Ġisch": 7994,
  "Ġiscw": 7995,
  "Ġissc": 7996,
  "Ġissd": 7997,
  "Ġissx": 7998,
  "Ġitai": 7999,
  "Ġital": 8000,
  "Ġitch": 8001,
  "Ġiugr": 8002,
  "Ġivbs": 8003,
  "Ġivic": 8004,
  "Ġjabs": 8005,
  "Ġjack": 8006,
  "Ġjail": 8007,
  "Ġjank": 8008,
  "Ġjanz": 8009,
  "Ġjarg": 8010,
  "Ġjatz": 8011,
  "Ġjaws": 8012,
  "Ġjbts": 8013,
  "Ġjean": 8014,
  "Ġjequ": 8015,
  "Ġjerk": 8016,
  "Ġjerv": 8017,
  "Ġjlns": 8018,
  "Ġjmes": 8019,
  "Ġjmml": 8020,
  "Ġjncl": 8021,
  "Ġjoag": 8022,
  "Ġjobs": 8023,
  "Ġjohn": 8024,
  "Ġjons": 8025,
  "Ġjpht": 8026,
  "Ġjung": 8027,
  "Ġjwds": 8028,
  "Ġkaes": 8029,
  "Ġkahr": 8030,
  "Ġkala": 8031,
  "Ġkall": 8032,
  "Ġkand": 8033,
  "Ġkann": 8034,
  "Ġkanz": 8035,
  "Ġkapp": 8036,
  "Ġkarp": 8037,
  "Ġkars": 8038,
  "Ġkart": 8039,
  "Ġkary": 8040,
  "Ġkash": 8041,
  "Ġkast": 8042,
  "Ġkats": 8043,
  "Ġkaur": 8044,
  "Ġkave": 8045,
  "Ġkaza": 8046,
  "Ġkcnv": 8047,
  "Ġkear": 8048,
  "Ġkell": 8049,
  "Ġkend": 8050,
  "Ġkenn": 8051,
  "Ġkent": 8052,
  "Ġkern": 8053,
  "Ġketo": 8054,
  "Ġkfsd": 8055,
  "Ġkhal": 8056,
  "Ġkhid": 8057,
  "Ġkhrz": 8058,
  "Ġkiaa": 8059,
  "Ġkill": 8060,
  "Ġking": 8061,
  "Ġkink": 8062,
  "Ġkinn": 8063,
  "Ġkins": 8064,
  "Ġkjer": 8065,
  "Ġkleb": 8066,
  "Ġklic": 8067,
  "Ġklip": 8068,
  "Ġknee": 8069,
  "Ġknox": 8070,
  "Ġkoch": 8071,
  "Ġkoeh": 8072,
  "Ġkohl": 8073,
  "Ġkond": 8074,
  "Ġkorn": 8075,
  "Ġkors": 8076,
  "Ġkppp": 8077,
  "Ġkpps": 8078,
  "Ġkram": 8079,
  "Ġkras": 8080,
  "Ġkreh": 8081,
  "Ġkrol": 8082,
  "Ġktcn": 8083,
  "Ġkuba": 8084,
  "Ġkufs": 8085,
  "Ġkuhn": 8086,
  "Ġkuru": 8087,
  "Ġkusk": 8088,
  "Ġkuss": 8089,
  "Ġkyas": 8090,
  "Ġkyph": 8091,
  "Ġlach": 8092,
  "Ġlack": 8093,
  "Ġlact": 8094,
  "Ġladd": 8095,
  "Ġlait": 8096,
  "Ġlall": 8097,
  "Ġlama": 8098,
  "Ġlamb": 8099,
  "Ġlamm": 8100,
  "Ġlamy": 8101,
  "Ġland": 8102,
  "Ġlang": 8103,
  "Ġlann": 8104,
  "Ġlars": 8105,
  "Ġlass": 8106,
  "Ġlate": 8107,
  "Ġlath": 8108,
  "Ġlaur": 8109,
  "Ġlaxa": 8110,
  "Ġlazy": 8111,
  "Ġlbsl": 8112,
  "Ġlcat": 8113,
  "Ġlccs": 8114,
  "Ġlcpd": 8115,
  "Ġlead": 8116,
  "Ġleak": 8117,
  "Ġleal": 8118,
  "Ġlean": 8119,
  "Ġlecd": 8120,
  "Ġlefe": 8121,
  "Ġleft": 8122,
  "Ġlegg": 8123,
  "Ġlegs": 8124,
  "Ġlens": 8125,
  "Ġlent": 8126,
  "Ġlenz": 8127,
  "Ġlept": 8128,
  "Ġleri": 8129,
  "Ġleuc": 8130,
  "Ġleud": 8131,
  "Ġleuk": 8132,
  "Ġlevi": 8133,
  "Ġlevy": 8134,
  "Ġlewy": 8135,
  "Ġleyd": 8136,
  "Ġlfhl": 8137,
  "Ġlfit": 8138,
  "Ġlgmd": 8139,
  "Ġlhfp": 8140,
  "Ġlhon": 8141,
  "Ġliab": 8142,
  "Ġlice": 8143,
  "Ġlich": 8144,
  "Ġlieo": 8145,
  "Ġlife": 8146,
  "Ġlign": 8147,
  "Ġlike": 8148,
  "Ġlimb": 8149,
  "Ġlimm": 8150,
  "Ġlind": 8151,
  "Ġline": 8152,
  "Ġling": 8153,
  "Ġlipa": 8154,
  "Ġlipd": 8155,
  "Ġlips": 8156,
  "Ġliss": 8157,
  "Ġlisx": 8158,
  "Ġlitt": 8159,
  "Ġlitu": 8160,
  "Ġller": 8161,
  "Ġlmna": 8162,
  "Ġlmph": 8163,
  "Ġlmps": 8164,
  "Ġlncr": 8165,
  "Ġloas": 8166,
  "Ġlobe": 8167,
  "Ġlobo": 8168,
  "Ġlock": 8169,
  "Ġlocs": 8170,
  "Ġlohr": 8171,
  "Ġlond": 8172,
  "Ġlong": 8173,
  "Ġloop": 8174,
  "Ġlord": 8175,
  "Ġloss": 8176,
  "Ġlowe": 8177,
  "Ġlown": 8178,
  "Ġlprs": 8179,
  "Ġlrat": 8180,
  "Ġlrcc": 8181,
  "Ġlrrc": 8182,
  "Ġlrsl": 8183,
  "Ġlsfc": 8184,
  "Ġlubs": 8185,
  "Ġluen": 8186,
  "Ġluft": 8187,
  "Ġluis": 8188,
  "Ġlumb": 8189,
  "Ġlund": 8190,
  "Ġlung": 8191,
  "Ġlute": 8192,
  "Ġlutz": 8193,
  "Ġlvnc": 8194,
  "Ġlyme": 8195,
  "Ġlyng": 8196,
  "Ġmach": 8197,
  "Ġmack": 8198,
  "Ġmacs": 8199,
  "Ġmada": 8200,
  "Ġmadb": 8201,
  "Ġmadd": 8202,
  "Ġmafd": 8203,
  "Ġmaff": 8204,
  "Ġmage": 8205,
  "Ġmaha": 8206,
  "Ġmaia": 8207,
  "Ġmain": 8208,
  "Ġmake": 8209,
  "Ġmale": 8210,
  "Ġmals": 8211,
  "Ġmalt": 8212,
  "Ġmamm": 8213,
  "Ġmand": 8214,
  "Ġmang": 8215,
  "Ġmann": 8216,
  "Ġmant": 8217,
  "Ġmanz": 8218,
  "Ġmarc": 8219,
  "Ġmard": 8220,
  "Ġmarg": 8221,
  "Ġmari": 8222,
  "Ġmark": 8223,
  "Ġmary": 8224,
  "Ġmasa": 8225,
  "Ġmask": 8226,
  "Ġmasp": 8227,
  "Ġmass": 8228,
  "Ġmast": 8229,
  "Ġmate": 8230,
  "Ġmath": 8231,
  "Ġmatn": 8232,
  "Ġmben": 8233,
  "Ġmcad": 8234,
  "Ġmcal": 8235,
  "Ġmccd": 8236,
  "Ġmcdc": 8237,
  "Ġmcdr": 8238,
  "Ġmcds": 8239,
  "Ġmcfd": 8240,
  "Ġmckd": 8241,
  "Ġmcop": 8242,
  "Ġmcor": 8243,
  "Ġmcph": 8244,
  "Ġmcrd": 8245,
  "Ġmcsz": 8246,
  "Ġmctd": 8247,
  "Ġmcul": 8248,
  "Ġmdcl": 8249,
  "Ġmdcr": 8250,
  "Ġmddc": 8251,
  "Ġmddg": 8252,
  "Ġmdls": 8253,
  "Ġmdns": 8254,
  "Ġmdrs": 8255,
  "Ġmdrv": 8256,
  "Ġmeas": 8257,
  "Ġmeax": 8258,
  "Ġmecd": 8259,
  "Ġmech": 8260,
  "Ġmeck": 8261,
  "Ġmecp": 8262,
  "Ġmega": 8263,
  "Ġmehm": 8264,
  "Ġmeig": 8265,
  "Ġmele": 8266,
  "Ġmelf": 8267,
  "Ġmell": 8268,
  "Ġmena": 8269,
  "Ġmend": 8270,
  "Ġmeph": 8271,
  "Ġmerc": 8272,
  "Ġmerm": 8273,
  "Ġmerr": 8274,
  "Ġmert": 8275,
  "Ġmeta": 8276,
  "Ġmeth": 8277,
  "Ġmfts": 8278,
  "Ġmgau": 8279,
  "Ġmgca": 8280,
  "Ġmgcn": 8281,
  "Ġmgct": 8282,
  "Ġmgoa": 8283,
  "Ġmhac": 8284,
  "Ġmham": 8285,
  "Ġmhbd": 8286,
  "Ġmiar": 8287,
  "Ġmich": 8288,
  "Ġmidb": 8289,
  "Ġmidf": 8290,
  "Ġmies": 8291,
  "Ġmild": 8292,
  "Ġmili": 8293,
  "Ġmilk": 8294,
  "Ġmill": 8295,
  "Ġmims": 8296,
  "Ġmink": 8297,
  "Ġmism": 8298,
  "Ġmiss": 8299,
  "Ġmite": 8300,
  "Ġmkks": 8301,
  "Ġmlas": 8302,
  "Ġmlrl": 8303,
  "Ġmlvt": 8304,
  "Ġmmdk": 8305,
  "Ġmmds": 8306,
  "Ġmmep": 8307,
  "Ġmmih": 8308,
  "Ġmmmm": 8309,
  "Ġmmvp": 8310,
  "Ġmnmn": 8311,
  "Ġmnri": 8312,
  "Ġmods": 8313,
  "Ġmody": 8314,
  "Ġmohr": 8315,
  "Ġmole": 8316,
  "Ġmoll": 8317,
  "Ġmomo": 8318,
  "Ġmona": 8319,
  "Ġmond": 8320,
  "Ġmong": 8321,
  "Ġmonk": 8322,
  "Ġmono": 8323,
  "Ġmood": 8324,
  "Ġmoon": 8325,
  "Ġmopd": 8326,
  "Ġmorb": 8327,
  "Ġmorg": 8328,
  "Ġmorm": 8329,
  "Ġmorn": 8330,
  "Ġmoro": 8331,
  "Ġmorv": 8332,
  "Ġmosa": 8333,
  "Ġmoss": 8334,
  "Ġmoth": 8335,
  "Ġmott": 8336,
  "Ġmous": 8337,
  "Ġmovc": 8338,
  "Ġmoya": 8339,
  "Ġmpcd": 8340,
  "Ġmpgn": 8341,
  "Ġmpod": 8342,
  "Ġmprm": 8343,
  "Ġmptp": 8344,
  "Ġmrcs": 8345,
  "Ġmrgh": 8346,
  "Ġmrkh": 8347,
  "Ġmrmv": 8348,
  "Ġmros": 8349,
  "Ġmrsd": 8350,
  "Ġmrss": 8351,
  "Ġmrst": 8352,
  "Ġmrxe": 8353,
  "Ġmrxs": 8354,
  "Ġmsls": 8355,
  "Ġmsmd": 8356,
  "Ġmssd": 8357,
  "Ġmsse": 8358,
  "Ġmstd": 8359,
  "Ġmsud": 8360,
  "Ġmtbs": 8361,
  "Ġmtdp": 8362,
  "Ġmtmx": 8363,
  "Ġmtss": 8364,
  "Ġmuhh": 8365,
  "Ġmuir": 8366,
  "Ġmumm": 8367,
  "Ġmund": 8368,
  "Ġmung": 8369,
  "Ġmunk": 8370,
  "Ġmurk": 8371,
  "Ġmusc": 8372,
  "Ġmush": 8373,
  "Ġmvcd": 8374,
  "Ġmvid": 8375,
  "Ġmyas": 8376,
  "Ġmyel": 8377,
  "Ġmymy": 8378,
  "Ġmyoc": 8379,
  "Ġmyof": 8380,
  "Ġmyok": 8381,
  "Ġmyot": 8382,
  "Ġnadh": 8383,
  "Ġnaeg": 8384,
  "Ġnaff": 8385,
  "Ġnaga": 8386,
  "Ġnagl": 8387,
  "Ġnags": 8388,
  "Ġnaic": 8389,
  "Ġnail": 8390,
  "Ġnair": 8391,
  "Ġnajm": 8392,
  "Ġnaka": 8393,
  "Ġnald": 8394,
  "Ġname": 8395,
  "Ġnana": 8396,
  "Ġnapb": 8397,
  "Ġnarc": 8398,
  "Ġnare": 8399,
  "Ġnarp": 8400,
  "Ġnass": 8401,
  "Ġnasu": 8402,
  "Ġnath": 8403,
  "Ġnbia": 8404,
  "Ġncie": 8405,
  "Ġncmd": 8406,
  "Ġndez": 8407,
  "Ġndnc": 8408,
  "Ġnear": 8409,
  "Ġneck": 8410,
  "Ġnede": 8411,
  "Ġneed": 8412,
  "Ġnegr": 8413,
  "Ġnemo": 8414,
  "Ġneon": 8415,
  "Ġneph": 8416,
  "Ġnepp": 8417,
  "Ġneri": 8418,
  "Ġnerv": 8419,
  "Ġneth": 8420,
  "Ġneug": 8421,
  "Ġneum": 8422,
  "Ġneur": 8423,
  "Ġneut": 8424,
  "Ġnevi": 8425,
  "Ġnevo": 8426,
  "Ġnewc": 8427,
  "Ġnfjs": 8428,
  "Ġnfls": 8429,
  "Ġnfns": 8430,
  "Ġnftc": 8431,
  "Ġngbe": 8432,
  "Ġnhbp": 8433,
  "Ġnhej": 8434,
  "Ġnhpt": 8435,
  "Ġnich": 8436,
  "Ġnihf": 8437,
  "Ġnile": 8438,
  "Ġnima": 8439,
  "Ġnish": 8440,
  "Ġniss": 8441,
  "Ġnkcd": 8442,
  "Ġnlsd": 8443,
  "Ġnmda": 8444,
  "Ġnmss": 8445,
  "Ġnmtc": 8446,
  "Ġnnci": 8447,
  "Ġnode": 8448,
  "Ġnoma": 8449,
  "Ġnonc": 8450,
  "Ġnond": 8451,
  "Ġnonf": 8452,
  "Ġnonl": 8453,
  "Ġnonp": 8454,
  "Ġnons": 8455,
  "Ġnont": 8456,
  "Ġnorm": 8457,
  "Ġnose": 8458,
  "Ġnova": 8459,
  "Ġnpca": 8460,
  "Ġnphl": 8461,
  "Ġnphp": 8462,
  "Ġnphs": 8463,
  "Ġnsia": 8464,
  "Ġnslh": 8465,
  "Ġnsll": 8466,
  "Ġnsph": 8467,
  "Ġnsrd": 8468,
  "Ġntem": 8469,
  "Ġnuch": 8470,
  "Ġnull": 8471,
  "Ġnumb": 8472,
  "Ġnyct": 8473,
  "Ġnyst": 8474,
  "Ġoasd": 8475,
  "Ġoavs": 8476,
  "Ġoawa": 8477,
  "Ġobes": 8478,
  "Ġobli": 8479,
  "Ġoccl": 8480,
  "Ġocmd": 8481,
  "Ġocrl": 8482,
  "Ġoctd": 8483,
  "Ġocul": 8484,
  "Ġoddd": 8485,
  "Ġoddi": 8486,
  "Ġoded": 8487,
  "Ġodod": 8488,
  "Ġodor": 8489,
  "Ġodpd": 8490,
  "Ġodpf": 8491,
  "Ġoeis": 8492,
  "Ġofcd": 8493,
  "Ġofds": 8494,
  "Ġogna": 8495,
  "Ġogur": 8496,
  "Ġohdo": 8497,
  "Ġohds": 8498,
  "Ġohss": 8499,
  "Ġokam": 8500,
  "Ġolig": 8501,
  "Ġoliv": 8502,
  "Ġolli": 8503,
  "Ġolsz": 8504,
  "Ġomen": 8505,
  "Ġomod": 8506,
  "Ġompp": 8507,
  "Ġomsk": 8508,
  "Ġonat": 8509,
  "Ġonly": 8510,
  "Ġoodd": 8511,
  "Ġoors": 8512,
  "Ġopac": 8513,
  "Ġopca": 8514,
  "Ġopem": 8515,
  "Ġopen": 8516,
  "Ġopll": 8517,
  "Ġopmd": 8518,
  "Ġoppg": 8519,
  "Ġoprt": 8520,
  "Ġopta": 8521,
  "Ġoptb": 8522,
  "Ġoral": 8523,
  "Ġoram": 8524,
  "Ġorch": 8525,
  "Ġoris": 8526,
  "Ġorof": 8527,
  "Ġorot": 8528,
  "Ġorth": 8529,
  "Ġoscs": 8530,
  "Ġosrc": 8531,
  "Ġossi": 8532,
  "Ġoste": 8533,
  "Ġotas": 8534,
  "Ġotor": 8535,
  "Ġotsc": 8536,
  "Ġotto": 8537,
  "Ġoval": 8538,
  "Ġover": 8539,
  "Ġoxal": 8540,
  "Ġoxid": 8541,
  "Ġozen": 8542,
  "Ġpaca": 8543,
  "Ġpach": 8544,
  "Ġpact": 8545,
  "Ġpads": 8546,
  "Ġpafc": 8547,
  "Ġpaid": 8548,
  "Ġpain": 8549,
  "Ġpais": 8550,
  "Ġpall": 8551,
  "Ġpalm": 8552,
  "Ġpals": 8553,
  "Ġpanc": 8554,
  "Ġpand": 8555,
  "Ġpann": 8556,
  "Ġpant": 8557,
  "Ġpaod": 8558,
  "Ġpapa": 8559,
  "Ġpapb": 8560,
  "Ġpapp": 8561,
  "Ġpara": 8562,
  "Ġparc": 8563,
  "Ġpark": 8564,
  "Ġpars": 8565,
  "Ġpart": 8566,
  "Ġparv": 8567,
  "Ġpasc": 8568,
  "Ġpash": 8569,
  "Ġpass": 8570,
  "Ġpath": 8571,
  "Ġpati": 8572,
  "Ġpauc": 8573,
  "Ġpbam": 8574,
  "Ġpbfe": 8575,
  "Ġpbgd": 8576,
  "Ġpblt": 8577,
  "Ġpcap": 8578,
  "Ġpcbc": 8579,
  "Ġpcbd": 8580,
  "Ġpccd": 8581,
  "Ġpccf": 8582,
  "Ġpcdh": 8583,
  "Ġpcld": 8584,
  "Ġpcos": 8585,
  "Ġpcsx": 8586,
  "Ġpctt": 8587,
  "Ġpcwh": 8588,
  "Ġpddr": 8589,
  "Ġpdhc": 8590,
  "Ġpdmi": 8591,
  "Ġpdzd": 8592,
  "Ġpect": 8593,
  "Ġpedi": 8594,
  "Ġpeel": 8595,
  "Ġpeep": 8596,
  "Ġpeho": 8597,
  "Ġpell": 8598,
  "Ġpena": 8599,
  "Ġpend": 8600,
  "Ġpent": 8601,
  "Ġpeoa": 8602,
  "Ġpeob": 8603,
  "Ġpepd": 8604,
  "Ġpeps": 8605,
  "Ġperc": 8606,
  "Ġperi": 8607,
  "Ġperm": 8608,
  "Ġpern": 8609,
  "Ġpers": 8610,
  "Ġpess": 8611,
  "Ġpexg": 8612,
  "Ġpexs": 8613,
  "Ġpfbi": 8614,
  "Ġpfcp": 8615,
  "Ġpfhb": 8616,
  "Ġpfic": 8617,
  "Ġpfkm": 8618,
  "Ġphac": 8619,
  "Ġphae": 8620,
  "Ġphag": 8621,
  "Ġphak": 8622,
  "Ġphen": 8623,
  "Ġphhi": 8624,
  "Ġphid": 8625,
  "Ġphil": 8626,
  "Ġphle": 8627,
  "Ġphob": 8628,
  "Ġphon": 8629,
  "Ġphot": 8630,
  "Ġphox": 8631,
  "Ġphpt": 8632,
  "Ġphpx": 8633,
  "Ġphth": 8634,
  "Ġphyc": 8635,
  "Ġphys": 8636,
  "Ġphyt": 8637,
  "Ġpica": 8638,
  "Ġpick": 8639,
  "Ġpied": 8640,
  "Ġpier": 8641,
  "Ġpies": 8642,
  "Ġpigm": 8643,
  "Ġpign": 8644,
  "Ġpigs": 8645,
  "Ġpike": 8646,
  "Ġpili": 8647,
  "Ġpill": 8648,
  "Ġpilz": 8649,
  "Ġpind": 8650,
  "Ġpine": 8651,
  "Ġping": 8652,
  "Ġpinh": 8653,
  "Ġpink": 8654,
  "Ġpinn": 8655,
  "Ġpint": 8656,
  "Ġpisc": 8657,
  "Ġpits": 8658,
  "Ġpitt": 8659,
  "Ġpitu": 8660,
  "Ġpity": 8661,
  "Ġpkan": 8662,
  "Ġpkhd": 8663,
  "Ġpknd": 8664,
  "Ġpkps": 8665,
  "Ġpkws": 8666,
  "Ġplac": 8667,
  "Ġplag": 8668,
  "Ġplan": 8669,
  "Ġplas": 8670,
  "Ġplat": 8671,
  "Ġplca": 8672,
  "Ġplex": 8673,
  "Ġplsa": 8674,
  "Ġplsd": 8675,
  "Ġplsj": 8676,
  "Ġplus": 8677,
  "Ġpmds": 8678,
  "Ġpmgx": 8679,
  "Ġpmld": 8680,
  "Ġpmse": 8681,
  "Ġpnca": 8682,
  "Ġpndc": 8683,
  "Ġpndm": 8684,
  "Ġpnet": 8685,
  "Ġpnkd": 8686,
  "Ġpnpo": 8687,
  "Ġpoag": 8688,
  "Ġpock": 8689,
  "Ġpofd": 8690,
  "Ġpofx": 8691,
  "Ġpolg": 8692,
  "Ġpoli": 8693,
  "Ġpoll": 8694,
  "Ġpoly": 8695,
  "Ġpomp": 8696,
  "Ġpomt": 8697,
  "Ġpong": 8698,
  "Ġpont": 8699,
  "Ġponv": 8700,
  "Ġpool": 8701,
  "Ġpoor": 8702,
  "Ġporc": 8703,
  "Ġport": 8704,
  "Ġpost": 8705,
  "Ġpott": 8706,
  "Ġppac": 8707,
  "Ġppca": 8708,
  "Ġppcd": 8709,
  "Ġpphp": 8710,
  "Ġppkb": 8711,
  "Ġppkp": 8712,
  "Ġppks": 8713,
  "Ġppmx": 8714,
  "Ġppnd": 8715,
  "Ġppox": 8716,
  "Ġpppd": 8717,
  "Ġppsh": 8718,
  "Ġprag": 8719,
  "Ġprca": 8720,
  "Ġprds": 8721,
  "Ġprea": 8722,
  "Ġprec": 8723,
  "Ġpred": 8724,
  "Ġpref": 8725,
  "Ġpreg": 8726,
  "Ġprem": 8727,
  "Ġprep": 8728,
  "Ġpres": 8729,
  "Ġprev": 8730,
  "Ġprim": 8731,
  "Ġprob": 8732,
  "Ġproc": 8733,
  "Ġprof": 8734,
  "Ġprog": 8735,
  "Ġprol": 8736,
  "Ġprom": 8737,
  "Ġprop": 8738,
  "Ġpros": 8739,
  "Ġprot": 8740,
  "Ġprps": 8741,
  "Ġprrs": 8742,
  "Ġprtc": 8743,
  "Ġprth": 8744,
  "Ġprts": 8745,
  "Ġprur": 8746,
  "Ġpsat": 8747,
  "Ġpsek": 8748,
  "Ġpshk": 8749,
  "Ġpsmn": 8750,
  "Ġpsnp": 8751,
  "Ġpsor": 8752,
  "Ġpten": 8753,
  "Ġpter": 8754,
  "Ġpths": 8755,
  "Ġptls": 8756,
  "Ġptos": 8757,
  "Ġptsd": 8758,
  "Ġpujo": 8759,
  "Ġpulp": 8760,
  "Ġpuls": 8761,
  "Ġpunc": 8762,
  "Ġpure": 8763,
  "Ġpust": 8764,
  "Ġpvhh": 8765,
  "Ġpvnh": 8766,
  "Ġpvod": 8767,
  "Ġpvop": 8768,
  "Ġpvss": 8769,
  "Ġpwcr": 8770,
  "Ġpycd": 8771,
  "Ġpycn": 8772,
  "Ġpyel": 8773,
  "Ġpygm": 8774,
  "Ġpykn": 8775,
  "Ġpyle": 8776,
  "Ġpyoh": 8777,
  "Ġpyth": 8778,
  "Ġqazi": 8779,
  "Ġqter": 8780,
  "Ġquad": 8781,
  "Ġraas": 8782,
  "Ġrach": 8783,
  "Ġradi": 8784,
  "Ġraeb": 8785,
  "Ġraem": 8786,
  "Ġrain": 8787,
  "Ġrale": 8788,
  "Ġrall": 8789,
  "Ġramb": 8790,
  "Ġrams": 8791,
  "Ġraph": 8792,
  "Ġrapp": 8793,
  "Ġrare": 8794,
  "Ġrash": 8795,
  "Ġrass": 8796,
  "Ġrate": 8797,
  "Ġrath": 8798,
  "Ġraut": 8799,
  "Ġrbcd": 8800,
  "Ġrcad": 8801,
  "Ġrccp": 8802,
  "Ġrccs": 8803,
  "Ġrcdp": 8804,
  "Ġrcrd": 8805,
  "Ġrdeb": 8806,
  "Ġrdpa": 8807,
  "Ġreac": 8808,
  "Ġrear": 8809,
  "Ġreav": 8810,
  "Ġrecr": 8811,
  "Ġrect": 8812,
  "Ġreed": 8813,
  "Ġrefs": 8814,
  "Ġregr": 8815,
  "Ġreif": 8816,
  "Ġreis": 8817,
  "Ġrele": 8818,
  "Ġrend": 8819,
  "Ġreno": 8820,
  "Ġrens": 8821,
  "Ġresp": 8822,
  "Ġrest": 8823,
  "Ġrete": 8824,
  "Ġrett": 8825,
  "Ġreye": 8826,
  "Ġrhin": 8827,
  "Ġrhpd": 8828,
  "Ġrhuc": 8829,
  "Ġrhus": 8830,
  "Ġribs": 8831,
  "Ġrice": 8832,
  "Ġrich": 8833,
  "Ġrick": 8834,
  "Ġricp": 8835,
  "Ġrida": 8836,
  "Ġrieg": 8837,
  "Ġrift": 8838,
  "Ġrimm": 8839,
  "Ġring": 8840,
  "Ġrisk": 8841,
  "Ġrmch": 8842,
  "Ġrmsa": 8843,
  "Ġrmss": 8844,
  "Ġroca": 8845,
  "Ġrock": 8846,
  "Ġrods": 8847,
  "Ġrohn": 8848,
  "Ġromb": 8849,
  "Ġroot": 8850,
  "Ġroth": 8851,
  "Ġrots": 8852,
  "Ġrous": 8853,
  "Ġrozd": 8854,
  "Ġrrdx": 8855,
  "Ġrsds": 8856,
  "Ġrsmd": 8857,
  "Ġrsts": 8858,
  "Ġrtps": 8859,
  "Ġrubs": 8860,
  "Ġrudd": 8861,
  "Ġruds": 8862,
  "Ġrund": 8863,
  "Ġrunt": 8864,
  "Ġrupt": 8865,
  "Ġruss": 8866,
  "Ġrvcl": 8867,
  "Ġsaal": 8868,
  "Ġsacc": 8869,
  "Ġsach": 8870,
  "Ġsack": 8871,
  "Ġsacs": 8872,
  "Ġsahs": 8873,
  "Ġsall": 8874,
  "Ġsalt": 8875,
  "Ġsamm": 8876,
  "Ġsanc": 8877,
  "Ġsand": 8878,
  "Ġsant": 8879,
  "Ġsaph": 8880,
  "Ġsarc": 8881,
  "Ġsard": 8882,
  "Ġsaul": 8883,
  "Ġsbla": 8884,
  "Ġsbma": 8885,
  "Ġscad": 8886,
  "Ġscae": 8887,
  "Ġscan": 8888,
  "Ġscar": 8889,
  "Ġscax": 8890,
  "Ġsccd": 8891,
  "Ġsccl": 8892,
  "Ġscdo": 8893,
  "Ġsche": 8894,
  "Ġschm": 8895,
  "Ġschn": 8896,
  "Ġschw": 8897,
  "Ġscid": 8898,
  "Ġscjd": 8899,
  "Ġsckl": 8900,
  "Ġsclc": 8901,
  "Ġscnx": 8902,
  "Ġscot": 8903,
  "Ġscra": 8904,
  "Ġscts": 8905,
  "Ġsczd": 8906,
  "Ġsdam": 8907,
  "Ġsdsx": 8908,
  "Ġsdty": 8909,
  "Ġsdys": 8910,
  "Ġseas": 8911,
  "Ġsedc": 8912,
  "Ġsedk": 8913,
  "Ġsedt": 8914,
  "Ġseek": 8915,
  "Ġseip": 8916,
  "Ġseiz": 8917,
  "Ġself": 8918,
  "Ġsemd": 8919,
  "Ġsenn": 8920,
  "Ġsens": 8921,
  "Ġseow": 8922,
  "Ġsepn": 8923,
  "Ġsequ": 8924,
  "Ġsert": 8925,
  "Ġsfms": 8926,
  "Ġsfnp": 8927,
  "Ġsgbs": 8928,
  "Ġsgpa": 8929,
  "Ġshah": 8930,
  "Ġshak": 8931,
  "Ġshap": 8932,
  "Ġshar": 8933,
  "Ġshek": 8934,
  "Ġshfd": 8935,
  "Ġshfm": 8936,
  "Ġshig": 8937,
  "Ġshin": 8938,
  "Ġshml": 8939,
  "Ġshow": 8940,
  "Ġshsf": 8941,
  "Ġsial": 8942,
  "Ġsiam": 8943,
  "Ġsian": 8944,
  "Ġsick": 8945,
  "Ġsids": 8946,
  "Ġsiew": 8947,
  "Ġsign": 8948,
  "Ġsill": 8949,
  "Ġsilo": 8950,
  "Ġsimp": 8951,
  "Ġsine": 8952,
  "Ġsing": 8953,
  "Ġsiod": 8954,
  "Ġsite": 8955,
  "Ġsitu": 8956,
  "Ġsiwe": 8957,
  "Ġsize": 8958,
  "Ġsjog": 8959,
  "Ġskew": 8960,
  "Ġskin": 8961,
  "Ġsleb": 8962,
  "Ġsleh": 8963,
  "Ġslen": 8964,
  "Ġslev": 8965,
  "Ġslim": 8966,
  "Ġslip": 8967,
  "Ġslit": 8968,
  "Ġslos": 8969,
  "Ġslow": 8970,
  "Ġslsj": 8971,
  "Ġslsn": 8972,
  "Ġslti": 8973,
  "Ġsmax": 8974,
  "Ġsmcr": 8975,
  "Ġsmdk": 8976,
  "Ġsmdp": 8977,
  "Ġsmed": 8978,
  "Ġsmei": 8979,
  "Ġsmet": 8980,
  "Ġsmmd": 8981,
  "Ġsmna": 8982,
  "Ġsnax": 8983,
  "Ġsndi": 8984,
  "Ġsnel": 8985,
  "Ġsnor": 8986,
  "Ġsnow": 8987,
  "Ġsnub": 8988,
  "Ġsock": 8989,
  "Ġsoft": 8990,
  "Ġsoma": 8991,
  "Ġsome": 8992,
  "Ġsomn": 8993,
  "Ġsore": 8994,
  "Ġsorg": 8995,
  "Ġsors": 8996,
  "Ġsost": 8997,
  "Ġsott": 8998,
  "Ġsoul": 8999,
  "Ġsova": 9000,
  "Ġspan": 9001,
  "Ġspas": 9002,
  "Ġspax": 9003,
  "Ġspch": 9004,
  "Ġspda": 9005,
  "Ġspgf": 9006,
  "Ġspha": 9007,
  "Ġspik": 9008,
  "Ġspin": 9009,
  "Ġsple": 9010,
  "Ġspmd": 9011,
  "Ġspmm": 9012,
  "Ġspot": 9013,
  "Ġsppk": 9014,
  "Ġsppx": 9015,
  "Ġspum": 9016,
  "Ġspur": 9017,
  "Ġsqtl": 9018,
  "Ġsrps": 9019,
  "Ġsrvx": 9020,
  "Ġsrxx": 9021,
  "Ġsrxy": 9022,
  "Ġssdd": 9023,
  "Ġssks": 9024,
  "Ġsspe": 9025,
  "Ġssps": 9026,
  "Ġstab": 9027,
  "Ġstap": 9028,
  "Ġstar": 9029,
  "Ġstat": 9030,
  "Ġstds": 9031,
  "Ġstem": 9032,
  "Ġsten": 9033,
  "Ġster": 9034,
  "Ġstgd": 9035,
  "Ġsthe": 9036,
  "Ġstil": 9037,
  "Ġstim": 9038,
  "Ġstip": 9039,
  "Ġstra": 9040,
  "Ġstre": 9041,
  "Ġstri": 9042,
  "Ġstrk": 9043,
  "Ġstro": 9044,
  "Ġstsl": 9045,
  "Ġstub": 9046,
  "Ġstum": 9047,
  "Ġstun": 9048,
  "Ġstup": 9049,
  "Ġstut": 9050,
  "Ġstws": 9051,
  "Ġstye": 9052,
  "Ġsubc": 9053,
  "Ġsubd": 9054,
  "Ġsubm": 9055,
  "Ġsubs": 9056,
  "Ġsubt": 9057,
  "Ġsuff": 9058,
  "Ġsulf": 9059,
  "Ġsumm": 9060,
  "Ġsump": 9061,
  "Ġsund": 9062,
  "Ġsurg": 9063,
  "Ġsust": 9064,
  "Ġsvas": 9065,
  "Ġswar": 9066,
  "Ġsylv": 9067,
  "Ġsyns": 9068,
  "Ġsyph": 9069,
  "Ġsyst": 9070,
  "Ġtach": 9071,
  "Ġtaci": 9072,
  "Ġtaen": 9073,
  "Ġtail": 9074,
  "Ġtaki": 9075,
  "Ġtako": 9076,
  "Ġtall": 9077,
  "Ġtalo": 9078,
  "Ġtals": 9079,
  "Ġtamp": 9080,
  "Ġtang": 9081,
  "Ġtank": 9082,
  "Ġtaor": 9083,
  "Ġtard": 9084,
  "Ġtarp": 9085,
  "Ġtart": 9086,
  "Ġtaru": 9087,
  "Ġtast": 9088,
  "Ġtaub": 9089,
  "Ġtaur": 9090,
  "Ġtbcd": 9091,
  "Ġtbdn": 9092,
  "Ġtbis": 9093,
  "Ġtcof": 9094,
  "Ġtcpt": 9095,
  "Ġtdfx": 9096,
  "Ġtear": 9097,
  "Ġtele": 9098,
  "Ġtemp": 9099,
  "Ġtend": 9100,
  "Ġtenn": 9101,
  "Ġterm": 9102,
  "Ġtest": 9103,
  "Ġtgas": 9104,
  "Ġtgct": 9105,
  "Ġthai": 9106,
  "Ġthak": 9107,
  "Ġthan": 9108,
  "Ġthas": 9109,
  "Ġthec": 9110,
  "Ġthin": 9111,
  "Ġthio": 9112,
  "Ġthmd": 9113,
  "Ġthom": 9114,
  "Ġthph": 9115,
  "Ġthre": 9116,
  "Ġthri": 9117,
  "Ġthro": 9118,
  "Ġthym": 9119,
  "Ġtias": 9120,
  "Ġtick": 9121,
  "Ġtics": 9122,
  "Ġtime": 9123,
  "Ġtink": 9124,
  "Ġtire": 9125,
  "Ġtiss": 9126,
  "Ġtkcr": 9127,
  "Ġtmau": 9128,
  "Ġtmip": 9129,
  "Ġtndm": 9130,
  "Ġtodd": 9131,
  "Ġtodv": 9132,
  "Ġtoes": 9133,
  "Ġtoll": 9134,
  "Ġtone": 9135,
  "Ġtong": 9136,
  "Ġtoni": 9137,
  "Ġtons": 9138,
  "Ġtonz": 9139,
  "Ġtorg": 9140,
  "Ġtors": 9141,
  "Ġtort": 9142,
  "Ġtour": 9143,
  "Ġtran": 9144,
  "Ġtree": 9145,
  "Ġtrep": 9146,
  "Ġtric": 9147,
  "Ġtrig": 9148,
  "Ġtrii": 9149,
  "Ġtrim": 9150,
  "Ġtrip": 9151,
  "Ġtrit": 9152,
  "Ġtrma": 9153,
  "Ġtrna": 9154,
  "Ġtrop": 9155,
  "Ġtrox": 9156,
  "Ġtrps": 9157,
  "Ġtrue": 9158,
  "Ġtshl": 9159,
  "Ġttdn": 9160,
  "Ġttdp": 9161,
  "Ġttpp": 9162,
  "Ġtubb": 9163,
  "Ġtube": 9164,
  "Ġtulp": 9165,
  "Ġtung": 9166,
  "Ġturc": 9167,
  "Ġtwin": 9168,
  "Ġtymp": 9169,
  "Ġtype": 9170,
  "Ġtyph": 9171,
  "Ġuadt": 9172,
  "Ġucmd": 9173,
  "Ġueba": 9174,
  "Ġulna": 9175,
  "Ġumph": 9176,
  "Ġumps": 9177,
  "Ġunex": 9178,
  "Ġunkn": 9179,
  "Ġunna": 9180,
  "Ġupsh": 9181,
  "Ġupta": 9182,
  "Ġurds": 9183,
  "Ġurea": 9184,
  "Ġurge": 9185,
  "Ġuria": 9186,
  "Ġuric": 9187,
  "Ġurid": 9188,
  "Ġurod": 9189,
  "Ġurol": 9190,
  "Ġuros": 9191,
  "Ġuter": 9192,
  "Ġuvea": 9193,
  "Ġuvss": 9194,
  "Ġvaal": 9195,
  "Ġvacc": 9196,
  "Ġvact": 9197,
  "Ġvacu": 9198,
  "Ġvalg": 9199,
  "Ġvaqu": 9200,
  "Ġvara": 9201,
  "Ġvard": 9202,
  "Ġvari": 9203,
  "Ġvasa": 9204,
  "Ġvasc": 9205,
  "Ġvbch": 9206,
  "Ġvcfs": 9207,
  "Ġvcjd": 9208,
  "Ġvddr": 9209,
  "Ġvdws": 9210,
  "Ġvein": 9211,
  "Ġvelo": 9212,
  "Ġvena": 9213,
  "Ġveno": 9214,
  "Ġvera": 9215,
  "Ġverm": 9216,
  "Ġverr": 9217,
  "Ġvers": 9218,
  "Ġvert": 9219,
  "Ġvery": 9220,
  "Ġvess": 9221,
  "Ġvici": 9222,
  "Ġvies": 9223,
  "Ġviia": 9224,
  "Ġviib": 9225,
  "Ġviic": 9226,
  "Ġviii": 9227,
  "Ġviis": 9228,
  "Ġvill": 9229,
  "Ġvisc": 9230,
  "Ġvith": 9231,
  "Ġvivo": 9232,
  "Ġvlin": 9233,
  "Ġvmcm": 9234,
  "Ġvodi": 9235,
  "Ġvogt": 9236,
  "Ġvoid": 9237,
  "Ġvoye": 9238,
  "Ġvrcp": 9239,
  "Ġvrni": 9240,
  "Ġvrol": 9241,
  "Ġvspa": 9242,
  "Ġvtlg": 9243,
  "Ġvulv": 9244,
  "Ġvwdp": 9245,
  "Ġvwsm": 9246,
  "Ġwach": 9247,
  "Ġwagr": 9248,
  "Ġwake": 9249,
  "Ġwald": 9250,
  "Ġwall": 9251,
  "Ġwalt": 9252,
  "Ġwang": 9253,
  "Ġwarb": 9254,
  "Ġward": 9255,
  "Ġwars": 9256,
  "Ġwart": 9257,
  "Ġwaxy": 9258,
  "Ġwdha": 9259,
  "Ġwdhh": 9260,
  "Ġwear": 9261,
  "Ġwebb": 9262,
  "Ġweil": 9263,
  "Ġweir": 9264,
  "Ġwell": 9265,
  "Ġwerm": 9266,
  "Ġwern": 9267,
  "Ġwest": 9268,
  "Ġwetz": 9269,
  "Ġwhim": 9270,
  "Ġwied": 9271,
  "Ġwill": 9272,
  "Ġwilm": 9273,
  "Ġwine": 9274,
  "Ġwing": 9275,
  "Ġwinn": 9276,
  "Ġwins": 9277,
  "Ġwiss": 9278,
  "Ġwith": 9279,
  "Ġwitt": 9280,
  "Ġwohl": 9281,
  "Ġwolf": 9282,
  "Ġwood": 9283,
  "Ġwool": 9284,
  "Ġword": 9285,
  "Ġwork": 9286,
  "Ġworm": 9287,
  "Ġwors": 9288,
  "Ġwtrs": 9289,
  "Ġwtsl": 9290,
  "Ġxbsn": 9291,
  "Ġxcid": 9292,
  "Ġxecd": 9293,
  "Ġxgpt": 9294,
  "Ġxhed": 9295,
  "Ġxhim": 9296,
  "Ġxiap": 9297,
  "Ġxiii": 9298,
  "Ġxlag": 9299,
  "Ġxlas": 9300,
  "Ġxlcm": 9301,
  "Ġxldp": 9302,
  "Ġxlhr": 9303,
  "Ġxlis": 9304,
  "Ġxlmr": 9305,
  "Ġxlmt": 9306,
  "Ġxlpd": 9307,
  "Ġxlrs": 9308,
  "Ġxlsa": 9309,
  "Ġxltt": 9310,
  "Ġxmea": 9311,
  "Ġxmvd": 9312,
  "Ġxpbc": 9313,
  "Ġxpcc": 9314,
  "Ġxpdc": 9315,
  "Ġxpgc": 9316,
  "Ġxpid": 9317,
  "Ġxxgd": 9318,
  "Ġxxxx": 9319,
  "Ġxxxy": 9320,
  "Ġxxyy": 9321,
  "Ġyale": 9322,
  "Ġyang": 9323,
  "Ġyaws": 9324,
  "Ġyolk": 9325,
  "Ġyosh": 9326,
  "Ġyush": 9327,
  "Ġyusk": 9328,
  "Ġzapp": 9329,
  "Ġzasp": 9330,
  "Ġzeta": 9331,
  "Ġzhao": 9332,
  "Ġzimm": 9333,
  "Ġzinc": 9334,
  "Ġzlot": 9335,
  "Ġzona": 9336,
  "Ġzone": 9337,
  "Ġzoon": 9338,
  "Ġzori": 9339,
  "Ġzsch": 9340,
  "abolic": 9341,
  "abular": 9342,
  "acchar": 9343,
  "acetic": 9344,
  "achami": 9345,
  "achers": 9346,
  "achlan": 9347,
  "achman": 9348,
  "achond": 9349,
  "acinar": 9350,
  "ackova": 9351,
  "actati": 9352,
  "acting": 9353,
  "action": 9354,
  "active": 9355,
  "actoid": 9356,
  "actory": 9357,
  "actyly": 9358,
  "acular": 9359,
  "acusis": 9360,
  "acytic": 9361,
  "adened": 9362,
  "adione": 9363,
  "aemias": 9364,
  "agaeri": 9365,
  "agener": 9366,
  "ageria": 9367,
  "agille": 9368,
  "agnant": 9369,
  "agogic": 9370,
  "agonia": 9371,
  "agsiek": 9372,
  "ainhum": 9373,
  "aining": 9374,
  "aitser": 9375,
  "akness": 9376,
  "alamin": 9377,
  "alangy": 9378,
  "alcaba": 9379,
  "algias": 9380,
  "allouf": 9381,
  "altout": 9382,
  "alytic": 9383,
  "amaria": 9384,
  "amberg": 9385,
  "amelia": 9386,
  "aments": 9387,
  "ammagl": 9388,
  "ammary": 9389,
  "amorph": 9390,
  "amushi": 9391,
  "anarin": 9392,
  "ancies": 9393,
  "anding": 9394,
  "aneous": 9395,
  "anesth": 9396,
  "angial": 9397,
  "angite": 9398,
  "anical": 9399,
  "anidin": 9400,
  "anized": 9401,
  "anning": 9402,
  "anopia": 9403,
  "anoses": 9404,
  "anosis": 9405,
  "anotic": 9406,
  "anthem": 9407,
  "anthus": 9408,
  "antoin": 9409,
  "antoni": 9410,
  "antral": 9411,
  "anurus": 9412,
  "aortic": 9413,
  "apnias": 9414,
  "aposin": 9415,
  "apping": 9416,
  "apular": 9417,
  "arapid": 9418,
  "araxis": 9419,
  "arbane": 9420,
  "arcoma": 9421,
  "ardiac": 9422,
  "ardial": 9423,
  "ardias": 9424,
  "arette": 9425,
  "arlane": 9426,
  "arning": 9427,
  "ascorb": 9428,
  "asemia": 9429,
  "ashima": 9430,
  "asilar": 9431,
  "asitic": 9432,
  "astian": 9433,
  "asting": 9434,
  "astric": 9435,
  "atakis": 9436,
  "atales": 9437,
  "atally": 9438,
  "atelet": 9439,
  "atelle": 9440,
  "atemia": 9441,
  "ateral": 9442,
  "athies": 9443,
  "athion": 9444,
  "ations": 9445,
  "atisms": 9446,
  "atitis": 9447,
  "atives": 9448,
  "ativis": 9449,
  "ativum": 9450,
  "ativus": 9451,
  "atment": 9452,
  "atoses": 9453,
  "atosis": 9454,
  "attles": 9455,
  "atures": 9456,
  "aturia": 9457,
  "atznik": 9458,
  "aumann": 9459,
  "avatum": 9460,
  "avirus": 9461,
  "avuori": 9462,
  "ayback": 9463,
  "bacher": 9464,
  "bation": 9465,
  "berger": 9466,
  "berian": 9467,
  "berley": 9468,
  "bilane": 9469,
  "bility": 9470,
  "bismus": 9471,
  "blings": 9472,
  "bourne": 9473,
  "bright": 9474,
  "bronch": 9475,
  "bulbar": 9476,
  "burger": 9477,
  "calves": 9478,
  "capton": 9479,
  "cation": 9480,
  "cemias": 9481,
  "cephal": 9482,
  "chetto": 9483,
  "chhorn": 9484,
  "chings": 9485,
  "chises": 9486,
  "chisis": 9487,
  "chment": 9488,
  "christ": 9489,
  "ciuria": 9490,
  "ciuric": 9491,
  "cornea": 9492,
  "corner": 9493,
  "cowitz": 9494,
  "cratch": 9495,
  "dactyl": 9496,
  "dehyde": 9497,
  "derate": 9498,
  "dergem": 9499,
  "dermal": 9500,
  "dermic": 9501,
  "dermid": 9502,
  "dermot": 9503,
  "derson": 9504,
  "ditary": 9505,
  "dontia": 9506,
  "dromal": 9507,
  "dromic": 9508,
  "ductal": 9509,
  "earing": 9510,
  "eating": 9511,
  "ebased": 9512,
  "ebauer": 9513,
  "ebrain": 9514,
  "ebrets": 9515,
  "echiae": 9516,
  "ecific": 9517,
  "ectile": 9518,
  "ection": 9519,
  "ective": 9520,
  "ectomy": 9521,
  "edemas": 9522,
  "edemat": 9523,
  "edemic": 9524,
  "edenic": 9525,
  "ediate": 9526,
  "ediens": 9527,
  "edural": 9528,
  "eeding": 9529,
  "efstra": 9530,
  "egeman": 9531,
  "ehlers": 9532,
  "elakis": 9533,
  "elberg": 9534,
  "elings": 9535,
  "ellect": 9536,
  "elline": 9537,
  "elling": 9538,
  "ellino": 9539,
  "elsons": 9540,
  "emalis": 9541,
  "emberm": 9542,
  "embran": 9543,
  "ementi": 9544,
  "emeral": 9545,
  "emeses": 9546,
  "emesis": 9547,
  "eminal": 9548,
  "eminne": 9549,
  "emoral": 9550,
  "emoser": 9551,
  "enance": 9552,
  "enatal": 9553,
  "enbeck": 9554,
  "enberg": 9555,
  "enburg": 9556,
  "encies": 9557,
  "encycl": 9558,
  "ending": 9559,
  "enetti": 9560,
  "enhain": 9561,
  "enhall": 9562,
  "enloch": 9563,
  "enolep": 9564,
  "enoses": 9565,
  "enosis": 9566,
  "enozoa": 9567,
  "enport": 9568,
  "ension": 9569,
  "ensity": 9570,
  "ensive": 9571,
  "ensory": 9572,
  "enstra": 9573,
  "entaff": 9574,
  "enthal": 9575,
  "ential": 9576,
  "ention": 9577,
  "entral": 9578,
  "entric": 9579,
  "entupa": 9580,
  "enuria": 9581,
  "enzyme": 9582,
  "epelin": 9583,
  "ephaly": 9584,
  "epkorn": 9585,
  "eptide": 9586,
  "eption": 9587,
  "eptive": 9588,
  "eptual": 9589,
  "equate": 9590,
  "erapeu": 9591,
  "erated": 9592,
  "ercise": 9593,
  "erford": 9594,
  "ergers": 9595,
  "ergies": 9596,
  "ergill": 9597,
  "erging": 9598,
  "erling": 9599,
  "ermann": 9600,
  "ermans": 9601,
  "ermaph": 9602,
  "ermias": 9603,
  "ertain": 9604,
  "erthle": 9605,
  "ertion": 9606,
  "escens": 9607,
  "eslagh": 9608,
  "esmann": 9609,
  "ession": 9610,
  "essive": 9611,
  "estern": 9612,
  "estion": 9613,
  "estive": 9614,
  "estone": 9615,
  "etales": 9616,
  "etalip": 9617,
  "eteral": 9618,
  "etetal": 9619,
  "etomas": 9620,
  "etotic": 9621,
  "etrans": 9622,
  "etting": 9623,
  "facial": 9624,
  "felter": 9625,
  "ferase": 9626,
  "ficans": 9627,
  "ficial": 9628,
  "formis": 9629,
  "fusion": 9630,
  "garten": 9631,
  "gement": 9632,
  "genase": 9633,
  "gender": 9634,
  "genhal": 9635,
  "gentin": 9636,
  "gerous": 9637,
  "gmasia": 9638,
  "growth": 9639,
  "gruent": 9640,
  "hanced": 9641,
  "hausen": 9642,
  "hauser": 9643,
  "hiasis": 9644,
  "hlberg": 9645,
  "holder": 9646,
  "hydria": 9647,
  "iaceae": 9648,
  "iaceus": 9649,
  "iacism": 9650,
  "iadoch": 9651,
  "iatica": 9652,
  "iating": 9653,
  "iation": 9654,
  "iative": 9655,
  "iatric": 9656,
  "ibitor": 9657,
  "ibosyl": 9658,
  "ibrion": 9659,
  "ically": 9660,
  "icardi": 9661,
  "icemia": 9662,
  "ichsen": 9663,
  "icidal": 9664,
  "icienc": 9665,
  "icient": 9666,
  "icious": 9667,
  "icolor": 9668,
  "icular": 9669,
  "iculty": 9670,
  "idases": 9671,
  "idemia": 9672,
  "idemic": 9673,
  "idoses": 9674,
  "idosis": 9675,
  "iduous": 9676,
  "iduria": 9677,
  "iental": 9678,
  "ierres": 9679,
  "iesche": 9680,
  "iewicz": 9681,
  "iforme": 9682,
  "ifting": 9683,
  "ifying": 9684,
  "igenic": 9685,
  "ighton": 9686,
  "igital": 9687,
  "igment": 9688,
  "igmoid": 9689,
  "ignani": 9690,
  "igraft": 9691,
  "iguous": 9692,
  "ikonia": 9693,
  "ikrein": 9694,
  "ilbert": 9695,
  "ilding": 9696,
  "ilhier": 9697,
  "ilibri": 9698,
  "ilitas": 9699,
  "iljoen": 9700,
  "illarg": 9701,
  "illary": 9702,
  "illing": 9703,
  "ilobar": 9704,
  "ilymph": 9705,
  "imally": 9706,
  "imitar": 9707,
  "immune": 9708,
  "imoses": 9709,
  "imosis": 9710,
  "imotor": 9711,
  "imotos": 9712,
  "inance": 9713,
  "inants": 9714,
  "inatus": 9715,
  "inburg": 9716,
  "inding": 9717,
  "indler": 9718,
  "ineers": 9719,
  "inelli": 9720,
  "inemia": 9721,
  "inemic": 9722,
  "ineral": 9723,
  "inetic": 9724,
  "infarc": 9725,
  "ingles": 9726,
  "ingold": 9727,
  "ington": 9728,
  "inical": 9729,
  "initis": 9730,
  "inking": 9731,
  "inogen": 9732,
  "inomas": 9733,
  "inoses": 9734,
  "inosis": 9735,
  "insons": 9736,
  "insser": 9737,
  "insson": 9738,
  "intill": 9739,
  "intosh": 9740,
  "inucle": 9741,
  "inural": 9742,
  "inuria": 9743,
  "inuric": 9744,
  "iocarb": 9745,
  "iology": 9746,
  "iomata": 9747,
  "ionine": 9748,
  "iophor": 9749,
  "iparum": 9750,
  "ipient": 9751,
  "ipital": 9752,
  "iplash": 9753,
  "ipolar": 9754,
  "ipples": 9755,
  "iption": 9756,
  "ipunct": 9757,
  "irales": 9758,
  "iridae": 9759,
  "iroses": 9760,
  "irosis": 9761,
  "isalab": 9762,
  "ischer": 9763,
  "isella": 9764,
  "ishing": 9765,
  "ishman": 9766,
  "ismann": 9767,
  "isobut": 9768,
  "isponi": 9769,
  "ission": 9770,
  "istian": 9771,
  "isural": 9772,
  "iswick": 9773,
  "itable": 9774,
  "itamin": 9775,
  "itance": 9776,
  "itence": 9777,
  "itides": 9778,
  "itions": 9779,
  "itoses": 9780,
  "itosis": 9781,
  "itreal": 9782,
  "itrous": 9783,
  "itrull": 9784,
  "ittant": 9785,
  "ittent": 9786,
  "itting": 9787,
  "itzler": 9788,
  "ivided": 9789,
  "ivirus": 9790,
  "kefull": 9791,
  "kelein": 9792,
  "kenazi": 9793,
  "kerman": 9794,
  "kewitz": 9795,
  "keypox": 9796,
  "kinase": 9797,
  "kinawa": 9798,
  "kinson": 9799,
  "knecht": 9800,
  "knosis": 9801,
  "kowitz": 9802,
  "lassic": 9803,
  "lastic": 9804,
  "latter": 9805,
  "leaved": 9806,
  "lebran": 9807,
  "leptic": 9808,
  "lequin": 9809,
  "lethal": 9810,
  "letier": 9811,
  "levoix": 9812,
  "lexias": 9813,
  "linked": 9814,
  "lister": 9815,
  "loride": 9816,
  "lowitz": 9817,
  "luence": 9818,
  "macher": 9819,
  "matian": 9820,
  "matism": 9821,
  "mental": 9822,
  "mented": 9823,
  "merhor": 9824,
  "messer": 9825,
  "metric": 9826,
  "minans": 9827,
  "mining": 9828,
  "monale": 9829,
  "monary": 9830,
  "nathia": 9831,
  "neberg": 9832,
  "nesium": 9833,
  "niecky": 9834,
  "nitine": 9835,
  "normal": 9836,
  "oacral": 9837,
  "oamide": 9838,
  "oaxial": 9839,
  "obilia": 9840,
  "oblast": 9841,
  "obloch": 9842,
  "obrach": 9843,
  "obular": 9844,
  "obulin": 9845,
  "ocardi": 9846,
  "ocecal": 9847,
  "oceles": 9848,
  "ocereb": 9849,
  "ocheil": 9850,
  "ochond": 9851,
  "ochrom": 9852,
  "oclast": 9853,
  "ocleid": 9854,
  "ocoele": 9855,
  "oconus": 9856,
  "ocorac": 9857,
  "ocoria": 9858,
  "ocrani": 9859,
  "ocrine": 9860,
  "ocular": 9861,
  "ocyste": 9862,
  "ocytes": 9863,
  "ocytic": 9864,
  "ocytop": 9865,
  "oderma": 9866,
  "odgkin": 9867,
  "odigit": 9868,
  "odular": 9869,
  "odynia": 9870,
  "oedema": 9871,
  "oelast": 9872,
  "oeling": 9873,
  "oepfer": 9874,
  "ofetal": 9875,
  "ofruct": 9876,
  "ogenes": 9877,
  "ogenic": 9878,
  "ogenit": 9879,
  "oggins": 9880,
  "ogical": 9881,
  "ognath": 9882,
  "ogonad": 9883,
  "ograde": 9884,
  "ograph": 9885,
  "ogroup": 9886,
  "oherty": 9887,
  "ohisti": 9888,
  "ohypop": 9889,
  "oidism": 9890,
  "oietic": 9891,
  "oimmun": 9892,
  "ojejun": 9893,
  "okerat": 9894,
  "olalia": 9895,
  "olanyi": 9896,
  "olated": 9897,
  "olemia": 9898,
  "olence": 9899,
  "olevul": 9900,
  "olipid": 9901,
  "olitis": 9902,
  "olling": 9903,
  "ologic": 9904,
  "olosis": 9905,
  "oluric": 9906,
  "olymph": 9907,
  "olyses": 9908,
  "olysis": 9909,
  "olytic": 9910,
  "omalac": 9911,
  "omania": 9912,
  "omatas": 9913,
  "omatic": 9914,
  "omegal": 9915,
  "omelan": 9916,
  "omelia": 9917,
  "omelic": 9918,
  "omelus": 9919,
  "omeric": 9920,
  "ometra": 9921,
  "ominal": 9922,
  "omnias": 9923,
  "omodal": 9924,
  "omonas": 9925,
  "omotic": 9926,
  "omotor": 9927,
  "ompens": 9928,
  "omphal": 9929,
  "omycin": 9930,
  "onasal": 9931,
  "onastr": 9932,
  "onatal": 9933,
  "ondini": 9934,
  "ondrom": 9935,
  "oneuro": 9936,
  "onfria": 9937,
  "onicum": 9938,
  "onidal": 9939,
  "oniere": 9940,
  "onitis": 9941,
  "onnell": 9942,
  "onomic": 9943,
  "onorch": 9944,
  "onough": 9945,
  "onstit": 9946,
  "ontine": 9947,
  "oonych": 9948,
  "ooping": 9949,
  "opalat": 9950,
  "opapul": 9951,
  "opathy": 9952,
  "openia": 9953,
  "openic": 9954,
  "ophagy": 9955,
  "ophila": 9956,
  "ophyma": 9957,
  "ophyte": 9958,
  "oplasm": 9959,
  "oplida": 9960,
  "opneum": 9961,
  "opolys": 9962,
  "opsias": 9963,
  "opyrin": 9964,
  "oquine": 9965,
  "oracic": 9966,
  "ordons": 9967,
  "orenal": 9968,
  "oretic": 9969,
  "oretin": 9970,
  "orican": 9971,
  "orific": 9972,
  "orneal": 9973,
  "orough": 9974,
  "orphic": 9975,
  "orphyr": 9976,
  "orrhag": 9977,
  "orrhea": 9978,
  "orsion": 9979,
  "ortion": 9980,
  "ortive": 9981,
  "osamin": 9982,
  "oscler": 9983,
  "osider": 9984,
  "osilic": 9985,
  "ositis": 9986,
  "ositol": 9987,
  "osmias": 9988,
  "osomal": 9989,
  "osomes": 9990,
  "ospasm": 9991,
  "osplen": 9992,
  "ospong": 9993,
  "ossias": 9994,
  "osteal": 9995,
  "ostoma": 9996,
  "ostomy": 9997,
  "ostrid": 9998,
  "osuria": 9999,
  "otaxia": 10000,
  "otemia": 10001,
  "otence": 10002,
  "othrix": 10003,
  "otocin": 10004,
  "otomus": 10005,
  "otonia": 10006,
  "otonin": 10007,
  "otoxic": 10008,
  "otrach": 10009,
  "otrich": 10010,
  "otroph": 10011,
  "otsubo": 10012,
  "otting": 10013,
  "otypes": 10014,
  "otypic": 10015,
  "otyros": 10016,
  "ouizos": 10017,
  "oulder": 10018,
  "oureux": 10019,
  "oustic": 10020,
  "ouston": 10021,
  "ouveal": 10022,
  "ovagin": 10023,
  "ovarus": 10024,
  "oviral": 10025,
  "ovirus": 10026,
  "oxanth": 10027,
  "oxical": 10028,
  "oylism": 10029,
  "oyoshi": 10030,
  "pathic": 10031,
  "pation": 10032,
  "pebral": 10033,
  "pecial": 10034,
  "pected": 10035,
  "person": 10036,
  "phagia": 10037,
  "phalip": 10038,
  "pheral": 10039,
  "philis": 10040,
  "phosph": 10041,
  "phragm": 10042,
  "phrine": 10043,
  "physes": 10044,
  "physis": 10045,
  "plasia": 10046,
  "plasma": 10047,
  "platin": 10048,
  "plenia": 10049,
  "plenic": 10050,
  "plexia": 10051,
  "plices": 10052,
  "posing": 10053,
  "quency": 10054,
  "racycl": 10055,
  "radren": 10056,
  "ralgia": 10057,
  "ralogy": 10058,
  "raltar": 10059,
  "rander": 10060,
  "ranean": 10061,
  "ranger": 10062,
  "ranial": 10063,
  "ranias": 10064,
  "ransky": 10065,
  "raphic": 10066,
  "ratase": 10067,
  "ratent": 10068,
  "ration": 10069,
  "ratory": 10070,
  "rayama": 10071,
  "rcular": 10072,
  "regate": 10073,
  "renias": 10074,
  "renner": 10075,
  "reotic": 10076,
  "ressor": 10077,
  "reting": 10078,
  "rhagia": 10079,
  "rhythm": 10080,
  "riases": 10081,
  "riasis": 10082,
  "riatum": 10083,
  "ricans": 10084,
  "riceps": 10085,
  "ricult": 10086,
  "rielli": 10087,
  "riendt": 10088,
  "riform": 10089,
  "rillar": 10090,
  "rinsky": 10091,
  "risomy": 10092,
  "rition": 10093,
  "robial": 10094,
  "rocalc": 10095,
  "rocoel": 10096,
  "rocyst": 10097,
  "rocyte": 10098,
  "rodism": 10099,
  "roduod": 10100,
  "rolase": 10101,
  "rolean": 10102,
  "roline": 10103,
  "romata": 10104,
  "romial": 10105,
  "roneph": 10106,
  "ronous": 10107,
  "rontal": 10108,
  "ronych": 10109,
  "ropath": 10110,
  "rophag": 10111,
  "rophia": 10112,
  "rophic": 10113,
  "rophil": 10114,
  "ropias": 10115,
  "ropion": 10116,
  "ropody": 10117,
  "rosarc": 10118,
  "rotein": 10119,
  "roxysm": 10120,
  "ruggen": 10121,
  "rusion": 10122,
  "schild": 10123,
  "schnig": 10124,
  "sexual": 10125,
  "siella": 10126,
  "stable": 10127,
  "stmann": 10128,
  "strong": 10129,
  "suring": 10130,
  "sutism": 10131,
  "syring": 10132,
  "tahara": 10133,
  "tality": 10134,
  "talsis": 10135,
  "taphyl": 10136,
  "tation": 10137,
  "tative": 10138,
  "tectin": 10139,
  "terior": 10140,
  "ternal": 10141,
  "ternas": 10142,
  "thesis": 10143,
  "thetic": 10144,
  "thorax": 10145,
  "thromb": 10146,
  "tially": 10147,
  "tiasis": 10148,
  "tibial": 10149,
  "tidase": 10150,
  "tiform": 10151,
  "tigrew": 10152,
  "tility": 10153,
  "tinism": 10154,
  "tional": 10155,
  "tiosum": 10156,
  "tising": 10157,
  "tivity": 10158,
  "tlosis": 10159,
  "tomias": 10160,
  "tongue": 10161,
  "turban": 10162,
  "uberty": 10163,
  "ubitus": 10164,
  "ubular": 10165,
  "ucidum": 10166,
  "uclear": 10167,
  "uctase": 10168,
  "udhina": 10169,
  "udinal": 10170,
  "udness": 10171,
  "udtson": 10172,
  "udwick": 10173,
  "ueller": 10174,
  "uffard": 10175,
  "ugaret": 10176,
  "uggish": 10177,
  "uguese": 10178,
  "ukyuan": 10179,
  "ulator": 10180,
  "ulatus": 10181,
  "ulence": 10182,
  "ulitis": 10183,
  "ullous": 10184,
  "ulomas": 10185,
  "uloses": 10186,
  "ulosis": 10187,
  "ulsive": 10188,
  "ulting": 10189,
  "umarin": 10190,
  "umping": 10191,
  "umpled": 10192,
  "uncles": 10193,
  "ungual": 10194,
  "united": 10195,
  "unning": 10196,
  "untary": 10197,
  "uosity": 10198,
  "upedal": 10199,
  "uracil": 10200,
  "uramin": 10201,
  "uratum": 10202,
  "urenic": 10203,
  "uresis": 10204,
  "ureter": 10205,
  "uretic": 10206,
  "urimal": 10207,
  "urings": 10208,
  "uritis": 10209,
  "urosis": 10210,
  "urrier": 10211,
  "urston": 10212,
  "ushing": 10213,
  "usions": 10214,
  "ussels": 10215,
  "ussion": 10216,
  "utamic": 10217,
  "utinum": 10218,
  "utions": 10219,
  "utisms": 10220,
  "uvicas": 10221,
  "uvrier": 10222,
  "uxetic": 10223,
  "valvar": 10224,
  "vasive": 10225,
  "veness": 10226,
  "veolar": 10227,
  "vergel": 10228,
  "vernos": 10229,
  "verous": 10230,
  "versal": 10231,
  "verted": 10232,
  "vnikov": 10233,
  "vnikow": 10234,
  "weight": 10235,
  "wilder": 10236,
  "winkel": 10237,
  "wright": 10238,
  "xialis": 10239,
  "yalgia": 10240,
  "yanagi": 10241,
  "ycemia": 10242,
  "ychial": 10243,
  "ycoses": 10244,
  "ycosis": 10245,
  "yeraal": 10246,
  "ylalan": 10247,
  "ylloid": 10248,
  "yloses": 10249,
  "ylosis": 10250,
  "ylthio": 10251,
  "ylvian": 10252,
  "ymaker": 10253,
  "ynuren": 10254,
  "yphoid": 10255,
  "ypical": 10256,
  "yposis": 10257,
  "yptian": 10258,
  "yrinth": 10259,
  "ystole": 10260,
  "ythmia": 10261,
  "ythmic": 10262,
  "zation": 10263,
  "zilian": 10264,
  "zoster": 10265,
  "Ġaagen": 10266,
  "Ġaaopd": 10267,
  "Ġaarau": 10268,
  "Ġaarrs": 10269,
  "Ġaarsk": 10270,
  "Ġabbot": 10271,
  "Ġabcds": 10272,
  "Ġabduc": 10273,
  "Ġabidi": 10274,
  "Ġabras": 10275,
  "Ġabrup": 10276,
  "Ġabruz": 10277,
  "Ġabuse": 10278,
  "Ġacadm": 10279,
  "Ġacads": 10280,
  "Ġacamp": 10281,
  "Ġaccid": 10282,
  "Ġaccpn": 10283,
  "Ġaceta": 10284,
  "Ġachal": 10285,
  "Ġachei": 10286,
  "Ġaches": 10287,
  "Ġacids": 10288,
  "Ġackee": 10289,
  "Ġaclas": 10290,
  "Ġacllx": 10291,
  "Ġacnes": 10292,
  "Ġacral": 10293,
  "Ġacroc": 10294,
  "Ġacrod": 10295,
  "Ġacrof": 10296,
  "Ġacrom": 10297,
  "Ġacrop": 10298,
  "Ġacros": 10299,
  "Ġacrps": 10300,
  "Ġacrpv": 10301,
  "Ġactin": 10302,
  "Ġactiv": 10303,
  "Ġacule": 10304,
  "Ġacuta": 10305,
  "Ġacute": 10306,
  "Ġadams": 10307,
  "Ġadcad": 10308,
  "Ġadcme": 10309,
  "Ġaddad": 10310,
  "Ġaddic": 10311,
  "Ġadduc": 10312,
  "Ġadela": 10313,
  "Ġadhal": 10314,
  "Ġadhes": 10315,
  "Ġadies": 10316,
  "Ġadlte": 10317,
  "Ġadnex": 10318,
  "Ġadpkd": 10319,
  "Ġadren": 10320,
  "Ġadult": 10321,
  "Ġadvir": 10322,
  "Ġaesth": 10323,
  "Ġafric": 10324,
  "Ġagain": 10325,
  "Ġageus": 10326,
  "Ġagglu": 10327,
  "Ġaging": 10328,
  "Ġagnos": 10329,
  "Ġagotc": 10330,
  "Ġagpat": 10331,
  "Ġagram": 10332,
  "Ġahmad": 10333,
  "Ġaicar": 10334,
  "Ġaidss": 10335,
  "Ġaihht": 10336,
  "Ġaimah": 10337,
  "Ġairoc": 10338,
  "Ġakaba": 10339,
  "Ġalacr": 10340,
  "Ġaland": 10341,
  "Ġalarm": 10342,
  "Ġalbin": 10343,
  "Ġalcoh": 10344,
  "Ġaldoa": 10345,
  "Ġalemb": 10346,
  "Ġaleuk": 10347,
  "Ġalger": 10348,
  "Ġalgor": 10349,
  "Ġalien": 10350,
  "Ġalkal": 10351,
  "Ġalkyl": 10352,
  "Ġallan": 10353,
  "Ġalper": 10354,
  "Ġalpha": 10355,
  "Ġalter": 10356,
  "Ġaltid": 10357,
  "Ġaltit": 10358,
  "Ġalunc": 10359,
  "Ġalves": 10360,
  "Ġalzhe": 10361,
  "Ġamacr": 10362,
  "Ġambly": 10363,
  "Ġamcbx": 10364,
  "Ġamino": 10365,
  "Ġamish": 10366,
  "Ġamlcr": 10367,
  "Ġammon": 10368,
  "Ġamnes": 10369,
  "Ġamput": 10370,
  "Ġamylo": 10371,
  "Ġamyot": 10372,
  "Ġanank": 10373,
  "Ġanast": 10374,
  "Ġancyl": 10375,
  "Ġander": 10376,
  "Ġandre": 10377,
  "Ġaneup": 10378,
  "Ġangel": 10379,
  "Ġangio": 10380,
  "Ġangle": 10381,
  "Ġangor": 10382,
  "Ġanhed": 10383,
  "Ġanhid": 10384,
  "Ġanhyd": 10385,
  "Ġanise": 10386,
  "Ġankle": 10387,
  "Ġankyl": 10388,
  "Ġannul": 10389,
  "Ġanoch": 10390,
  "Ġanore": 10391,
  "Ġanter": 10392,
  "Ġantet": 10393,
  "Ġantib": 10394,
  "Ġantic": 10395,
  "Ġantis": 10396,
  "Ġanton": 10397,
  "Ġaofmd": 10398,
  "Ġaoiii": 10399,
  "Ġaorta": 10400,
  "Ġaorto": 10401,
  "Ġapert": 10402,
  "Ġaphth": 10403,
  "Ġapnea": 10404,
  "Ġappar": 10405,
  "Ġapple": 10406,
  "Ġaprax": 10407,
  "Ġapros": 10408,
  "Ġaptit": 10409,
  "Ġaqeel": 10410,
  "Ġaqued": 10411,
  "Ġarcmt": 10412,
  "Ġarcnd": 10413,
  "Ġarcus": 10414,
  "Ġardss": 10415,
  "Ġareas": 10416,
  "Ġarena": 10417,
  "Ġargin": 10418,
  "Ġarhin": 10419,
  "Ġarias": 10420,
  "Ġarima": 10421,
  "Ġarous": 10422,
  "Ġarphm": 10423,
  "Ġarpkd": 10424,
  "Ġarroy": 10425,
  "Ġarsal": 10426,
  "Ġarsen": 10427,
  "Ġarson": 10428,
  "Ġarter": 10429,
  "Ġascar": 10430,
  "Ġasial": 10431,
  "Ġaskin": 10432,
  "Ġaspgx": 10433,
  "Ġasrar": 10434,
  "Ġassoc": 10435,
  "Ġastig": 10436,
  "Ġataxy": 10437,
  "Ġatcay": 10438,
  "Ġather": 10439,
  "Ġathet": 10440,
  "Ġathle": 10441,
  "Ġatkin": 10442,
  "Ġatmds": 10443,
  "Ġatony": 10444,
  "Ġatopy": 10445,
  "Ġatpaf": 10446,
  "Ġatrio": 10447,
  "Ġaural": 10448,
  "Ġauras": 10449,
  "Ġauric": 10450,
  "Ġauris": 10451,
  "Ġautis": 10452,
  "Ġautsx": 10453,
  "Ġavian": 10454,
  "Ġavium": 10455,
  "Ġavoid": 10456,
  "Ġawadi": 10457,
  "Ġaxial": 10458,
  "Ġayazi": 10459,
  "Ġbabes": 10460,
  "Ġbadal": 10461,
  "Ġbaetz": 10462,
  "Ġbaffr": 10463,
  "Ġbafme": 10464,
  "Ġbaker": 10465,
  "Ġbalan": 10466,
  "Ġballs": 10467,
  "Ġbands": 10468,
  "Ġbangs": 10469,
  "Ġbanti": 10470,
  "Ġbantu": 10471,
  "Ġbarak": 10472,
  "Ġbarel": 10473,
  "Ġbarre": 10474,
  "Ġbarry": 10475,
  "Ġbarsy": 10476,
  "Ġbarth": 10477,
  "Ġbasal": 10478,
  "Ġbasan": 10479,
  "Ġbasic": 10480,
  "Ġbazex": 10481,
  "Ġbazin": 10482,
  "Ġbcamd": 10483,
  "Ġbdchs": 10484,
  "Ġbdplt": 10485,
  "Ġbeals": 10486,
  "Ġbeard": 10487,
  "Ġbeare": 10488,
  "Ġbeats": 10489,
  "Ġbects": 10490,
  "Ġbeetz": 10491,
  "Ġbejel": 10492,
  "Ġbells": 10493,
  "Ġbelly": 10494,
  "Ġbends": 10495,
  "Ġberry": 10496,
  "Ġberti": 10497,
  "Ġbesno": 10498,
  "Ġbests": 10499,
  "Ġbfnis": 10500,
  "Ġbhmed": 10501,
  "Ġbiedl": 10502,
  "Ġbifid": 10503,
  "Ġbigio": 10504,
  "Ġbiman": 10505,
  "Ġbinge": 10506,
  "Ġbipar": 10507,
  "Ġbirds": 10508,
  "Ġbirth": 10509,
  "Ġbites": 10510,
  "Ġbjorn": 10511,
  "Ġblack": 10512,
  "Ġblast": 10513,
  "Ġblcpm": 10514,
  "Ġblebs": 10515,
  "Ġbleed": 10516,
  "Ġblenn": 10517,
  "Ġblind": 10518,
  "Ġblizz": 10519,
  "Ġbloat": 10520,
  "Ġbloch": 10521,
  "Ġblock": 10522,
  "Ġblood": 10523,
  "Ġbloom": 10524,
  "Ġbluec": 10525,
  "Ġbluet": 10526,
  "Ġblumb": 10527,
  "Ġblunt": 10528,
  "Ġboder": 10529,
  "Ġboeck": 10530,
  "Ġboils": 10531,
  "Ġboman": 10532,
  "Ġbones": 10533,
  "Ġborer": 10534,
  "Ġborgh": 10535,
  "Ġborna": 10536,
  "Ġborne": 10537,
  "Ġbosma": 10538,
  "Ġbotul": 10539,
  "Ġbowed": 10540,
  "Ġbowel": 10541,
  "Ġbowen": 10542,
  "Ġboyle": 10543,
  "Ġbrach": 10544,
  "Ġbracq": 10545,
  "Ġbrady": 10546,
  "Ġbrain": 10547,
  "Ġbrcax": 10548,
  "Ġbreak": 10549,
  "Ġbrett": 10550,
  "Ġbrgda": 10551,
  "Ġbridg": 10552,
  "Ġbrief": 10553,
  "Ġbrill": 10554,
  "Ġbriqu": 10555,
  "Ġbroad": 10556,
  "Ġbroca": 10557,
  "Ġbrock": 10558,
  "Ġbrocq": 10559,
  "Ġbrody": 10560,
  "Ġbrown": 10561,
  "Ġbruce": 10562,
  "Ġbruch": 10563,
  "Ġbruck": 10564,
  "Ġbruns": 10565,
  "Ġbrush": 10566,
  "Ġbspdc": 10567,
  "Ġbstvs": 10568,
  "Ġbuckl": 10569,
  "Ġbueno": 10570,
  "Ġbulas": 10571,
  "Ġbulbo": 10572,
  "Ġbulla": 10573,
  "Ġburns": 10574,
  "Ġbusch": 10575,
  "Ġbvvls": 10576,
  "Ġbwcns": 10577,
  "Ġbyler": 10578,
  "Ġcacch": 10579,
  "Ġcadds": 10580,
  "Ġcaend": 10581,
  "Ġcaffe": 10582,
  "Ġcahmr": 10583,
  "Ġcakut": 10584,
  "Ġcalja": 10585,
  "Ġcalve": 10586,
  "Ġcamos": 10587,
  "Ġcampd": 10588,
  "Ġcampt": 10589,
  "Ġcamrq": 10590,
  "Ġcanal": 10591,
  "Ġcandf": 10592,
  "Ġcandn": 10593,
  "Ġcanic": 10594,
  "Ġcanis": 10595,
  "Ġcanth": 10596,
  "Ġcantu": 10597,
  "Ġcaped": 10598,
  "Ġcapos": 10599,
  "Ġcardi": 10600,
  "Ġcarey": 10601,
  "Ġcarol": 10602,
  "Ġcarva": 10603,
  "Ġcasil": 10604,
  "Ġcatal": 10605,
  "Ġcatar": 10606,
  "Ġcatat": 10607,
  "Ġcatch": 10608,
  "Ġcatcn": 10609,
  "Ġcatel": 10610,
  "Ġcatis": 10611,
  "Ġcauda": 10612,
  "Ġcavan": 10613,
  "Ġcavus": 10614,
  "Ġcazen": 10615,
  "Ġcbavd": 10616,
  "Ġccfdn": 10617,
  "Ġccmmt": 10618,
  "Ġccsso": 10619,
  "Ġcdags": 10620,
  "Ġcdgdl": 10621,
  "Ġcdgia": 10622,
  "Ġcdgib": 10623,
  "Ġcdgic": 10624,
  "Ġcdgid": 10625,
  "Ġcdgie": 10626,
  "Ġcdgif": 10627,
  "Ġcdgig": 10628,
  "Ġcdgih": 10629,
  "Ġcdgii": 10630,
  "Ġcdgij": 10631,
  "Ġcdgik": 10632,
  "Ġcdgil": 10633,
  "Ġcdgim": 10634,
  "Ġcdgin": 10635,
  "Ġcdgio": 10636,
  "Ġcdgiq": 10637,
  "Ġcdpxd": 10638,
  "Ġcdtbc": 10639,
  "Ġcecal": 10640,
  "Ġcecum": 10641,
  "Ġcells": 10642,
  "Ġcelsi": 10643,
  "Ġcentr": 10644,
  "Ġcerea": 10645,
  "Ġcereb": 10646,
  "Ġceule": 10647,
  "Ġcfeom": 10648,
  "Ġcftdm": 10649,
  "Ġcftdx": 10650,
  "Ġchain": 10651,
  "Ġchamp": 10652,
  "Ġchanc": 10653,
  "Ġchand": 10654,
  "Ġchang": 10655,
  "Ġchann": 10656,
  "Ġchaud": 10657,
  "Ġcheek": 10658,
  "Ġcheil": 10659,
  "Ġchest": 10660,
  "Ġchias": 10661,
  "Ġchick": 10662,
  "Ġchild": 10663,
  "Ġchime": 10664,
  "Ġchitt": 10665,
  "Ġchium": 10666,
  "Ġchole": 10667,
  "Ġchond": 10668,
  "Ġchord": 10669,
  "Ġchore": 10670,
  "Ġchori": 10671,
  "Ġchrom": 10672,
  "Ġchron": 10673,
  "Ġchurg": 10674,
  "Ġciehk": 10675,
  "Ġciipx": 10676,
  "Ġcilia": 10677,
  "Ġcilio": 10678,
  "Ġcinca": 10679,
  "Ġcirrh": 10680,
  "Ġclaes": 10681,
  "Ġclark": 10682,
  "Ġclasp": 10683,
  "Ġclass": 10684,
  "Ġclaud": 10685,
  "Ġclear": 10686,
  "Ġcleft": 10687,
  "Ġcleid": 10688,
  "Ġclick": 10689,
  "Ġcloac": 10690,
  "Ġclock": 10691,
  "Ġcloud": 10692,
  "Ġclped": 10693,
  "Ġclqtl": 10694,
  "Ġcmavm": 10695,
  "Ġcmems": 10696,
  "Ġcmtdi": 10697,
  "Ġcnmdu": 10698,
  "Ġcoach": 10699,
  "Ġcoarc": 10700,
  "Ġcoast": 10701,
  "Ġcoats": 10702,
  "Ġcodas": 10703,
  "Ġcogan": 10704,
  "Ġcohen": 10705,
  "Ġcoinf": 10706,
  "Ġcolav": 10707,
  "Ġcolds": 10708,
  "Ġcolic": 10709,
  "Ġcolli": 10710,
  "Ġcolob": 10711,
  "Ġcolon": 10712,
  "Ġcolor": 10713,
  "Ġcolum": 10714,
  "Ġcolus": 10715,
  "Ġcomas": 10716,
  "Ġcommo": 10717,
  "Ġcompr": 10718,
  "Ġcongo": 10719,
  "Ġconns": 10720,
  "Ġconst": 10721,
  "Ġcontr": 10722,
  "Ġconus": 10723,
  "Ġcooks": 10724,
  "Ġcoole": 10725,
  "Ġcords": 10726,
  "Ġcordx": 10727,
  "Ġcores": 10728,
  "Ġcoris": 10729,
  "Ġcorks": 10730,
  "Ġcorne": 10731,
  "Ġcorns": 10732,
  "Ġcoron": 10733,
  "Ġcorps": 10734,
  "Ġcosta": 10735,
  "Ġcoste": 10736,
  "Ġcough": 10737,
  "Ġcount": 10738,
  "Ġcoves": 10739,
  "Ġcoxpd": 10740,
  "Ġcppdd": 10741,
  "Ġcrack": 10742,
  "Ġcramp": 10743,
  "Ġcrane": 10744,
  "Ġcrani": 10745,
  "Ġcrapb": 10746,
  "Ġcrash": 10747,
  "Ġcresc": 10748,
  "Ġcrest": 10749,
  "Ġcriss": 10750,
  "Ġcrohn": 10751,
  "Ġcrome": 10752,
  "Ġcross": 10753,
  "Ġcroup": 10754,
  "Ġcrouz": 10755,
  "Ġcruor": 10756,
  "Ġcrush": 10757,
  "Ġcruve": 10758,
  "Ġcryab": 10759,
  "Ġcrypt": 10760,
  "Ġcryst": 10761,
  "Ġcteph": 10762,
  "Ġcucci": 10763,
  "Ġcurly": 10764,
  "Ġcurry": 10765,
  "Ġcurse": 10766,
  "Ġcurth": 10767,
  "Ġcutem": 10768,
  "Ġcutis": 10769,
  "Ġcycle": 10770,
  "Ġcylin": 10771,
  "Ġcysts": 10772,
  "Ġcytos": 10773,
  "Ġczech": 10774,
  "Ġdacry": 10775,
  "Ġdaiid": 10776,
  "Ġdaily": 10777,
  "Ġdaish": 10778,
  "Ġdance": 10779,
  "Ġdandy": 10780,
  "Ġdanks": 10781,
  "Ġdanon": 10782,
  "Ġdavid": 10783,
  "Ġdavis": 10784,
  "Ġdcwhk": 10785,
  "Ġddpac": 10786,
  "Ġdeads": 10787,
  "Ġdeath": 10788,
  "Ġdebar": 10789,
  "Ġdebre": 10790,
  "Ġdecal": 10791,
  "Ġdecay": 10792,
  "Ġdeglu": 10793,
  "Ġdegos": 10794,
  "Ġdehal": 10795,
  "Ġdehyd": 10796,
  "Ġdeiod": 10797,
  "Ġdejer": 10798,
  "Ġdekab": 10799,
  "Ġdelay": 10800,
  "Ġdelta": 10801,
  "Ġdenny": 10802,
  "Ġdense": 10803,
  "Ġdente": 10804,
  "Ġdenti": 10805,
  "Ġdento": 10806,
  "Ġdents": 10807,
  "Ġdenys": 10808,
  "Ġdeple": 10809,
  "Ġdepos": 10810,
  "Ġdepth": 10811,
  "Ġderiv": 10812,
  "Ġdermo": 10813,
  "Ġdesbu": 10814,
  "Ġdeter": 10815,
  "Ġdevic": 10816,
  "Ġdextr": 10817,
  "Ġdiagn": 10818,
  "Ġdiast": 10819,
  "Ġdiath": 10820,
  "Ġdiego": 10821,
  "Ġdierc": 10822,
  "Ġdietz": 10823,
  "Ġdigit": 10824,
  "Ġdihyd": 10825,
  "Ġdilat": 10826,
  "Ġdimin": 10827,
  "Ġdioxy": 10828,
  "Ġdiple": 10829,
  "Ġdipoa": 10830,
  "Ġdirof": 10831,
  "Ġdisch": 10832,
  "Ġdiscr": 10833,
  "Ġdiscs": 10834,
  "Ġdisks": 10835,
  "Ġdispl": 10836,
  "Ġdista": 10837,
  "Ġdistr": 10838,
  "Ġdiver": 10839,
  "Ġdivry": 10840,
  "Ġdmgdh": 10841,
  "Ġdoess": 10842,
  "Ġdohle": 10843,
  "Ġdoman": 10844,
  "Ġdowns": 10845,
  "Ġdoyne": 10846,
  "Ġdrash": 10847,
  "Ġdrave": 10848,
  "Ġdreif": 10849,
  "Ġdress": 10850,
  "Ġdrift": 10851,
  "Ġdrisc": 10852,
  "Ġdrool": 10853,
  "Ġdrown": 10854,
  "Ġdrpla": 10855,
  "Ġdsmav": 10856,
  "Ġdsmax": 10857,
  "Ġduane": 10858,
  "Ġdubin": 10859,
  "Ġducts": 10860,
  "Ġduffy": 10861,
  "Ġduker": 10862,
  "Ġdupre": 10863,
  "Ġdupuy": 10864,
  "Ġdural": 10865,
  "Ġdutch": 10866,
  "Ġdwarf": 10867,
  "Ġdying": 10868,
  "Ġdykes": 10869,
  "Ġdysch": 10870,
  "Ġdysco": 10871,
  "Ġdyscr": 10872,
  "Ġdysgl": 10873,
  "Ġdyson": 10874,
  "Ġdysph": 10875,
  "Ġdyspr": 10876,
  "Ġdysth": 10877,
  "Ġeagle": 10878,
  "Ġeales": 10879,
  "Ġeared": 10880,
  "Ġearly": 10881,
  "Ġeaten": 10882,
  "Ġeaton": 10883,
  "Ġebbin": 10884,
  "Ġebdct": 10885,
  "Ġebdsc": 10886,
  "Ġebola": 10887,
  "Ġechin": 10888,
  "Ġeclab": 10889,
  "Ġedema": 10890,
  "Ġedmmd": 10891,
  "Ġedwin": 10892,
  "Ġeiken": 10893,
  "Ġekbom": 10894,
  "Ġelast": 10895,
  "Ġelatt": 10896,
  "Ġelbow": 10897,
  "Ġelect": 10898,
  "Ġeleph": 10899,
  "Ġelfin": 10900,
  "Ġelias": 10901,
  "Ġellis": 10902,
  "Ġembry": 10903,
  "Ġemerg": 10904,
  "Ġemery": 10905,
  "Ġempty": 10906,
  "Ġendoc": 10907,
  "Ġendpl": 10908,
  "Ġengel": 10909,
  "Ġenter": 10910,
  "Ġentry": 10911,
  "Ġenven": 10912,
  "Ġenzym": 10913,
  "Ġeomfc": 10914,
  "Ġepile": 10915,
  "Ġepire": 10916,
  "Ġepisp": 10917,
  "Ġepist": 10918,
  "Ġepolm": 10919,
  "Ġeppks": 10920,
  "Ġequin": 10921,
  "Ġergot": 10922,
  "Ġerick": 10923,
  "Ġerror": 10924,
  "Ġeruct": 10925,
  "Ġeryth": 10926,
  "Ġester": 10927,
  "Ġetfdh": 10928,
  "Ġethyl": 10929,
  "Ġeumyc": 10930,
  "Ġeurop": 10931,
  "Ġevans": 10932,
  "Ġevent": 10933,
  "Ġevmps": 10934,
  "Ġewing": 10935,
  "Ġexfol": 10936,
  "Ġexhib": 10937,
  "Ġexpan": 10938,
  "Ġexper": 10939,
  "Ġexpos": 10940,
  "Ġextra": 10941,
  "Ġfabry": 10942,
  "Ġfaces": 10943,
  "Ġfacio": 10944,
  "Ġfaids": 10945,
  "Ġfaint": 10946,
  "Ġfairy": 10947,
  "Ġfaldh": 10948,
  "Ġfalls": 10949,
  "Ġfalse": 10950,
  "Ġfamil": 10951,
  "Ġfamin": 10952,
  "Ġfammm": 10953,
  "Ġfanca": 10954,
  "Ġfancb": 10955,
  "Ġfancc": 10956,
  "Ġfancd": 10957,
  "Ġfance": 10958,
  "Ġfancf": 10959,
  "Ġfanci": 10960,
  "Ġfancj": 10961,
  "Ġfancn": 10962,
  "Ġfanco": 10963,
  "Ġfarag": 10964,
  "Ġfasci": 10965,
  "Ġfasps": 10966,
  "Ġfatal": 10967,
  "Ġfatig": 10968,
  "Ġfatty": 10969,
  "Ġfavre": 10970,
  "Ġfavus": 10971,
  "Ġfazio": 10972,
  "Ġfccms": 10973,
  "Ġfcmte": 10974,
  "Ġfecal": 10975,
  "Ġfeces": 10976,
  "Ġfecht": 10977,
  "Ġfeers": 10978,
  "Ġfelty": 10979,
  "Ġfemal": 10980,
  "Ġfemin": 10981,
  "Ġfemor": 10982,
  "Ġfemur": 10983,
  "Ġfenib": 10984,
  "Ġfetal": 10985,
  "Ġfetus": 10986,
  "Ġfever": 10987,
  "Ġfevrx": 10988,
  "Ġfglds": 10989,
  "Ġfhasd": 10990,
  "Ġfhhnc": 10991,
  "Ġfiber": 10992,
  "Ġfibre": 10993,
  "Ġfibro": 10994,
  "Ġfield": 10995,
  "Ġfifth": 10996,
  "Ġfiglu": 10997,
  "Ġfilar": 10998,
  "Ġfiqtl": 10999,
  "Ġfirst": 11000,
  "Ġfitch": 11001,
  "Ġfixed": 11002,
  "Ġflacc": 11003,
  "Ġflail": 11004,
  "Ġflait": 11005,
  "Ġflamm": 11006,
  "Ġflank": 11007,
  "Ġflash": 11008,
  "Ġfldem": 11009,
  "Ġfleck": 11010,
  "Ġflnms": 11011,
  "Ġfloor": 11012,
  "Ġfluid": 11013,
  "Ġflush": 11014,
  "Ġflynn": 11015,
  "Ġfmtle": 11016,
  "Ġfoamy": 11017,
  "Ġfocal": 11018,
  "Ġfoley": 11019,
  "Ġfolic": 11020,
  "Ġfolie": 11021,
  "Ġfores": 11022,
  "Ġforme": 11023,
  "Ġforms": 11024,
  "Ġfossa": 11025,
  "Ġfount": 11026,
  "Ġfovea": 11027,
  "Ġfpdmm": 11028,
  "Ġfpevf": 11029,
  "Ġfract": 11030,
  "Ġframb": 11031,
  "Ġfranc": 11032,
  "Ġfrank": 11033,
  "Ġfraxa": 11034,
  "Ġfraxe": 11035,
  "Ġfreck": 11036,
  "Ġfreys": 11037,
  "Ġfrias": 11038,
  "Ġfried": 11039,
  "Ġfrizz": 11040,
  "Ġfroeh": 11041,
  "Ġfront": 11042,
  "Ġfruct": 11043,
  "Ġfryns": 11044,
  "Ġfshmd": 11045,
  "Ġftlds": 11046,
  "Ġftldu": 11047,
  "Ġfuchs": 11048,
  "Ġfugax": 11049,
  "Ġfugue": 11050,
  "Ġfunis": 11051,
  "Ġfused": 11052,
  "Ġfxtas": 11053,
  "Ġgabeb": 11054,
  "Ġgains": 11055,
  "Ġgaits": 11056,
  "Ġgalen": 11057,
  "Ġgalns": 11058,
  "Ġgamma": 11059,
  "Ġgangl": 11060,
  "Ġgastr": 11061,
  "Ġgayet": 11062,
  "Ġgdxym": 11063,
  "Ġgefsp": 11064,
  "Ġgemss": 11065,
  "Ġgenee": 11066,
  "Ġgenes": 11067,
  "Ġgenit": 11068,
  "Ġgenoa": 11069,
  "Ġghose": 11070,
  "Ġghost": 11071,
  "Ġgiant": 11072,
  "Ġgiard": 11073,
  "Ġgigan": 11074,
  "Ġgingf": 11075,
  "Ġgitel": 11076,
  "Ġgland": 11077,
  "Ġglanz": 11078,
  "Ġglast": 11079,
  "Ġglauc": 11080,
  "Ġglial": 11081,
  "Ġglios": 11082,
  "Ġglory": 11083,
  "Ġgloss": 11084,
  "Ġgnath": 11085,
  "Ġgnpat": 11086,
  "Ġgoerz": 11087,
  "Ġgoltz": 11088,
  "Ġgombo": 11089,
  "Ġgomez": 11090,
  "Ġgonad": 11091,
  "Ġgoshs": 11092,
  "Ġgouts": 11093,
  "Ġgouty": 11094,
  "Ġgphys": 11095,
  "Ġgrade": 11096,
  "Ġgradi": 11097,
  "Ġgraef": 11098,
  "Ġgraft": 11099,
  "Ġgrand": 11100,
  "Ġgrant": 11101,
  "Ġgravi": 11102,
  "Ġgreas": 11103,
  "Ġgreat": 11104,
  "Ġgrebe": 11105,
  "Ġgreco": 11106,
  "Ġgreen": 11107,
  "Ġgreig": 11108,
  "Ġgriff": 11109,
  "Ġgripp": 11110,
  "Ġgrisc": 11111,
  "Ġgroll": 11112,
  "Ġgross": 11113,
  "Ġgrote": 11114,
  "Ġgroup": 11115,
  "Ġgrutz": 11116,
  "Ġguala": 11117,
  "Ġguill": 11118,
  "Ġguion": 11119,
  "Ġgulop": 11120,
  "Ġgunal": 11121,
  "Ġgupta": 11122,
  "Ġguyon": 11123,
  "Ġgwafd": 11124,
  "Ġgynec": 11125,
  "Ġgypsy": 11126,
  "Ġhabit": 11127,
  "Ġhairs": 11128,
  "Ġhairy": 11129,
  "Ġhajdu": 11130,
  "Ġhakim": 11131,
  "Ġhalal": 11132,
  "Ġhamel": 11133,
  "Ġhanac": 11134,
  "Ġhands": 11135,
  "Ġhappy": 11136,
  "Ġhaque": 11137,
  "Ġhards": 11138,
  "Ġhayas": 11139,
  "Ġhblrg": 11140,
  "Ġhchwa": 11141,
  "Ġhdlcq": 11142,
  "Ġhdldt": 11143,
  "Ġheart": 11144,
  "Ġheavy": 11145,
  "Ġhecht": 11146,
  "Ġhecks": 11147,
  "Ġheggl": 11148,
  "Ġheinz": 11149,
  "Ġheise": 11150,
  "Ġhelic": 11151,
  "Ġhelio": 11152,
  "Ġhellp": 11153,
  "Ġhemat": 11154,
  "Ġhemib": 11155,
  "Ġhemic": 11156,
  "Ġhemim": 11157,
  "Ġhemis": 11158,
  "Ġhepat": 11159,
  "Ġhepod": 11160,
  "Ġhered": 11161,
  "Ġherma": 11162,
  "Ġhersh": 11163,
  "Ġhertz": 11164,
  "Ġheter": 11165,
  "Ġhgpps": 11166,
  "Ġhgprt": 11167,
  "Ġhibch": 11168,
  "Ġhiess": 11169,
  "Ġhiker": 11170,
  "Ġhisti": 11171,
  "Ġhistr": 11172,
  "Ġhitch": 11173,
  "Ġhives": 11174,
  "Ġhlrcc": 11175,
  "Ġhmerf": 11176,
  "Ġhmgcl": 11177,
  "Ġhmgcs": 11178,
  "Ġhmgic": 11179,
  "Ġhmsnl": 11180,
  "Ġhmsno": 11181,
  "Ġhmsnp": 11182,
  "Ġhmsnr": 11183,
  "Ġhnpcc": 11184,
  "Ġhnscc": 11185,
  "Ġhoard": 11186,
  "Ġhobbs": 11187,
  "Ġhodes": 11188,
  "Ġhoeve": 11189,
  "Ġhofer": 11190,
  "Ġhogan": 11191,
  "Ġhokpp": 11192,
  "Ġholes": 11193,
  "Ġhooft": 11194,
  "Ġhoran": 11195,
  "Ġhorse": 11196,
  "Ġhorst": 11197,
  "Ġhozay": 11198,
  "Ġhpabh": 11199,
  "Ġhpnss": 11200,
  "Ġhsans": 11201,
  "Ġhuman": 11202,
  "Ġhumer": 11203,
  "Ġhurst": 11204,
  "Ġhutch": 11205,
  "Ġhvdrr": 11206,
  "Ġhydro": 11207,
  "Ġhyper": 11208,
  "Ġhypob": 11209,
  "Ġhypoc": 11210,
  "Ġhypof": 11211,
  "Ġhypog": 11212,
  "Ġhypoh": 11213,
  "Ġhypok": 11214,
  "Ġhypom": 11215,
  "Ġhypop": 11216,
  "Ġhypot": 11217,
  "Ġhypov": 11218,
  "Ġhypox": 11219,
  "Ġiahsp": 11220,
  "Ġibids": 11221,
  "Ġichty": 11222,
  "Ġictal": 11223,
  "Ġicter": 11224,
  "Ġiddmx": 11225,
  "Ġidmdc": 11226,
  "Ġihsss": 11227,
  "Ġileal": 11228,
  "Ġileum": 11229,
  "Ġileus": 11230,
  "Ġiliac": 11231,
  "Ġillig": 11232,
  "Ġimage": 11233,
  "Ġimbal": 11234,
  "Ġimers": 11235,
  "Ġimmer": 11236,
  "Ġimmun": 11237,
  "Ġimper": 11238,
  "Ġinapp": 11239,
  "Ġinatt": 11240,
  "Ġincis": 11241,
  "Ġincon": 11242,
  "Ġincus": 11243,
  "Ġindex": 11244,
  "Ġindig": 11245,
  "Ġinduc": 11246,
  "Ġinert": 11247,
  "Ġinfec": 11248,
  "Ġinfer": 11249,
  "Ġinhal": 11250,
  "Ġinher": 11251,
  "Ġiniti": 11252,
  "Ġinjur": 11253,
  "Ġinner": 11254,
  "Ġinnoc": 11255,
  "Ġinter": 11256,
  "Ġintes": 11257,
  "Ġintra": 11258,
  "Ġinvag": 11259,
  "Ġinvas": 11260,
  "Ġinvol": 11261,
  "Ġiomid": 11262,
  "Ġiosca": 11263,
  "Ġipsid": 11264,
  "Ġiraqi": 11265,
  "Ġirgat": 11266,
  "Ġirida": 11267,
  "Ġirish": 11268,
  "Ġirons": 11269,
  "Ġisaac": 11270,
  "Ġisaia": 11271,
  "Ġislet": 11272,
  "Ġisole": 11273,
  "Ġisosp": 11274,
  "Ġisscw": 11275,
  "Ġitchs": 11276,
  "Ġjacob": 11277,
  "Ġjakob": 11278,
  "Ġjalkh": 11279,
  "Ġjames": 11280,
  "Ġjarch": 11281,
  "Ġjarid": 11282,
  "Ġjaund": 11283,
  "Ġjawad": 11284,
  "Ġjejun": 11285,
  "Ġjerks": 11286,
  "Ġjeune": 11287,
  "Ġjoaqu": 11288,
  "Ġjohne": 11289,
  "Ġjoint": 11290,
  "Ġjones": 11291,
  "Ġjorge": 11292,
  "Ġjudge": 11293,
  "Ġjuven": 11294,
  "Ġkabuk": 11295,
  "Ġkajii": 11296,
  "Ġkaler": 11297,
  "Ġkappa": 11298,
  "Ġkapur": 11299,
  "Ġkarak": 11300,
  "Ġkearn": 11301,
  "Ġkeats": 11302,
  "Ġkeele": 11303,
  "Ġkelly": 11304,
  "Ġkenny": 11305,
  "Ġkerat": 11306,
  "Ġketon": 11307,
  "Ġkfsdx": 11308,
  "Ġkhidr": 11309,
  "Ġkienb": 11310,
  "Ġkings": 11311,
  "Ġkinky": 11312,
  "Ġkjell": 11313,
  "Ġklats": 11314,
  "Ġklein": 11315,
  "Ġklich": 11316,
  "Ġklick": 11317,
  "Ġkline": 11318,
  "Ġklump": 11319,
  "Ġknaap": 11320,
  "Ġknees": 11321,
  "Ġknife": 11322,
  "Ġknock": 11323,
  "Ġkochs": 11324,
  "Ġkojew": 11325,
  "Ġkolop": 11326,
  "Ġkomur": 11327,
  "Ġkonig": 11328,
  "Ġkoone": 11329,
  "Ġkopys": 11330,
  "Ġkoszt": 11331,
  "Ġkozhe": 11332,
  "Ġkrabb": 11333,
  "Ġkrebs": 11334,
  "Ġkremp": 11335,
  "Ġkrppd": 11336,
  "Ġkufor": 11337,
  "Ġkumar": 11338,
  "Ġkunze": 11339,
  "Ġkurcz": 11340,
  "Ġkwash": 11341,
  "Ġkyrle": 11342,
  "Ġlaahd": 11343,
  "Ġlabia": 11344,
  "Ġlabor": 11345,
  "Ġlacaz": 11346,
  "Ġlacer": 11347,
  "Ġladda": 11348,
  "Ġlaere": 11349,
  "Ġlafer": 11350,
  "Ġlagoy": 11351,
  "Ġlaing": 11352,
  "Ġlambd": 11353,
  "Ġlambl": 11354,
  "Ġlamin": 11355,
  "Ġlandy": 11356,
  "Ġlange": 11357,
  "Ġlanug": 11358,
  "Ġlarge": 11359,
  "Ġlaron": 11360,
  "Ġlarva": 11361,
  "Ġlassa": 11362,
  "Ġlatex": 11363,
  "Ġlavia": 11364,
  "Ġlayer": 11365,
  "Ġlchad": 11366,
  "Ġldlcq": 11367,
  "Ġleage": 11368,
  "Ġleaks": 11369,
  "Ġleaky": 11370,
  "Ġleary": 11371,
  "Ġleber": 11372,
  "Ġlegal": 11373,
  "Ġleich": 11374,
  "Ġleigh": 11375,
  "Ġlelek": 11376,
  "Ġlemli": 11377,
  "Ġlenta": 11378,
  "Ġlenti": 11379,
  "Ġlepro": 11380,
  "Ġleroy": 11381,
  "Ġlesch": 11382,
  "Ġlesny": 11383,
  "Ġletal": 11384,
  "Ġleuko": 11385,
  "Ġlevel": 11386,
  "Ġlevin": 11387,
  "Ġlewis": 11388,
  "Ġlhcgr": 11389,
  "Ġlieou": 11390,
  "Ġlight": 11391,
  "Ġlille": 11392,
  "Ġlimbs": 11393,
  "Ġlimit": 11394,
  "Ġlincl": 11395,
  "Ġlingu": 11396,
  "Ġlipid": 11397,
  "Ġlisch": 11398,
  "Ġlison": 11399,
  "Ġliver": 11400,
  "Ġlivor": 11401,
  "Ġlkmcd": 11402,
  "Ġlobar": 11403,
  "Ġlobos": 11404,
  "Ġlobul": 11405,
  "Ġlocah": 11406,
  "Ġlocal": 11407,
  "Ġlocus": 11408,
  "Ġloeff": 11409,
  "Ġloeys": 11410,
  "Ġlogic": 11411,
  "Ġloken": 11412,
  "Ġlonde": 11413,
  "Ġloose": 11414,
  "Ġlopes": 11415,
  "Ġlopez": 11416,
  "Ġlouis": 11417,
  "Ġlouse": 11418,
  "Ġlower": 11419,
  "Ġlowry": 11420,
  "Ġlphas": 11421,
  "Ġlucey": 11422,
  "Ġluder": 11423,
  "Ġlufts": 11424,
  "Ġlujan": 11425,
  "Ġlumen": 11426,
  "Ġlumpy": 11427,
  "Ġlungs": 11428,
  "Ġlupus": 11429,
  "Ġlurie": 11430,
  "Ġluton": 11431,
  "Ġlvncx": 11432,
  "Ġlyase": 11433,
  "Ġlyell": 11434,
  "Ġlymph": 11435,
  "Ġlynch": 11436,
  "Ġlysis": 11437,
  "Ġlyssa": 11438,
  "Ġlysyl": 11439,
  "Ġmabry": 11440,
  "Ġmacom": 11441,
  "Ġmacro": 11442,
  "Ġmacul": 11443,
  "Ġmadds": 11444,
  "Ġmadel": 11445,
  "Ġmaedi": 11446,
  "Ġmagee": 11447,
  "Ġmaids": 11448,
  "Ġmaine": 11449,
  "Ġmaint": 11450,
  "Ġmajor": 11451,
  "Ġmalak": 11452,
  "Ġmalde": 11453,
  "Ġmales": 11454,
  "Ġmalik": 11455,
  "Ġmalpu": 11456,
  "Ġmalta": 11457,
  "Ġmalva": 11458,
  "Ġmandp": 11459,
  "Ġmange": 11460,
  "Ġmania": 11461,
  "Ġmanic": 11462,
  "Ġmapbp": 11463,
  "Ġmaple": 11464,
  "Ġmarch": 11465,
  "Ġmarec": 11466,
  "Ġmarek": 11467,
  "Ġmaria": 11468,
  "Ġmarie": 11469,
  "Ġmarin": 11470,
  "Ġmarks": 11471,
  "Ġmarsd": 11472,
  "Ġmarsh": 11473,
  "Ġmarts": 11474,
  "Ġmarxq": 11475,
  "Ġmason": 11476,
  "Ġmassa": 11477,
  "Ġmater": 11478,
  "Ġmatur": 11479,
  "Ġmayer": 11480,
  "Ġmayou": 11481,
  "Ġmcadh": 11482,
  "Ġmcard": 11483,
  "Ġmccar": 11484,
  "Ġmcdca": 11485,
  "Ġmckee": 11486,
  "Ġmckus": 11487,
  "Ġmclds": 11488,
  "Ġmcops": 11489,
  "Ġmcpha": 11490,
  "Ġmddga": 11491,
  "Ġmddgb": 11492,
  "Ġmddgc": 11493,
  "Ġmdebs": 11494,
  "Ġmeara": 11495,
  "Ġmedia": 11496,
  "Ġmegac": 11497,
  "Ġmegal": 11498,
  "Ġmehes": 11499,
  "Ġmehmo": 11500,
  "Ġmehta": 11501,
  "Ġmeier": 11502,
  "Ġmeige": 11503,
  "Ġmeigs": 11504,
  "Ġmelan": 11505,
  "Ġmelas": 11506,
  "Ġmende": 11507,
  "Ġmenet": 11508,
  "Ġmeral": 11509,
  "Ġmerrf": 11510,
  "Ġmesom": 11511,
  "Ġmetab": 11512,
  "Ġmetal": 11513,
  "Ġmetat": 11514,
  "Ġmetcd": 11515,
  "Ġmeval": 11516,
  "Ġmeyer": 11517,
  "Ġmgors": 11518,
  "Ġmicro": 11519,
  "Ġmidas": 11520,
  "Ġmigra": 11521,
  "Ġmilad": 11522,
  "Ġmiles": 11523,
  "Ġmills": 11524,
  "Ġmimae": 11525,
  "Ġminer": 11526,
  "Ġminor": 11527,
  "Ġminus": 11528,
  "Ġmisch": 11529,
  "Ġmitis": 11530,
  "Ġmixed": 11531,
  "Ġmlasa": 11532,
  "Ġmmedf": 11533,
  "Ġmmrcs": 11534,
  "Ġmngie": 11535,
  "Ġmnkes": 11536,
  "Ġmocod": 11537,
  "Ġmoded": 11538,
  "Ġmodel": 11539,
  "Ġmodif": 11540,
  "Ġmoens": 11541,
  "Ġmolar": 11542,
  "Ġmoles": 11543,
  "Ġmonil": 11544,
  "Ġmonon": 11545,
  "Ġmonro": 11546,
  "Ġmoore": 11547,
  "Ġmorax": 11548,
  "Ġmorel": 11549,
  "Ġmorph": 11550,
  "Ġmorqu": 11551,
  "Ġmosch": 11552,
  "Ġmotor": 11553,
  "Ġmount": 11554,
  "Ġmousa": 11555,
  "Ġmouse": 11556,
  "Ġmouth": 11557,
  "Ġmowat": 11558,
  "Ġmpnst": 11559,
  "Ġmrams": 11560,
  "Ġmrtes": 11561,
  "Ġmrxhf": 11562,
  "Ġmrxsa": 11563,
  "Ġmrxsc": 11564,
  "Ġmrxsf": 11565,
  "Ġmrxsh": 11566,
  "Ġmrxsj": 11567,
  "Ġmrxsl": 11568,
  "Ġmrxsr": 11569,
  "Ġmrxst": 11570,
  "Ġmrxsw": 11571,
  "Ġmtbsx": 11572,
  "Ġmtdps": 11573,
  "Ġmthfr": 11574,
  "Ġmucha": 11575,
  "Ġmulti": 11576,
  "Ġmulvi": 11577,
  "Ġmumps": 11578,
  "Ġmuniz": 11579,
  "Ġmunoz": 11580,
  "Ġmurcs": 11581,
  "Ġmutil": 11582,
  "Ġmyers": 11583,
  "Ġmyhre": 11584,
  "Ġmyocl": 11585,
  "Ġmyoma": 11586,
  "Ġnadmr": 11587,
  "Ġnaevi": 11588,
  "Ġnafld": 11589,
  "Ġnager": 11590,
  "Ġnaglu": 11591,
  "Ġnails": 11592,
  "Ġnaion": 11593,
  "Ġnaito": 11594,
  "Ġnajar": 11595,
  "Ġnakao": 11596,
  "Ġnamsd": 11597,
  "Ġnanbh": 11598,
  "Ġnance": 11599,
  "Ġnares": 11600,
  "Ġnasal": 11601,
  "Ġnatal": 11602,
  "Ġnaxos": 11603,
  "Ġnbccs": 11604,
  "Ġnberg": 11605,
  "Ġnblst": 11606,
  "Ġnbsld": 11607,
  "Ġnccah": 11608,
  "Ġncrna": 11609,
  "Ġnecro": 11610,
  "Ġneiss": 11611,
  "Ġnemal": 11612,
  "Ġnemat": 11613,
  "Ġneoin": 11614,
  "Ġneppk": 11615,
  "Ġnerve": 11616,
  "Ġneuro": 11617,
  "Ġnever": 11618,
  "Ġnevus": 11619,
  "Ġnezel": 11620,
  "Ġnfrcd": 11621,
  "Ġniccd": 11622,
  "Ġniddm": 11623,
  "Ġniger": 11624,
  "Ġnight": 11625,
  "Ġnigra": 11626,
  "Ġnijme": 11627,
  "Ġninth": 11628,
  "Ġnipal": 11629,
  "Ġnisch": 11630,
  "Ġnissl": 11631,
  "Ġnitid": 11632,
  "Ġnlsdi": 11633,
  "Ġnlsdm": 11634,
  "Ġnmdar": 11635,
  "Ġnoack": 11636,
  "Ġnoble": 11637,
  "Ġnodal": 11638,
  "Ġnodes": 11639,
  "Ġnoise": 11640,
  "Ġnomas": 11641,
  "Ġnomid": 11642,
  "Ġnoncr": 11643,
  "Ġnongo": 11644,
  "Ġnonne": 11645,
  "Ġnorad": 11646,
  "Ġnorth": 11647,
  "Ġnorum": 11648,
  "Ġnosed": 11649,
  "Ġnovak": 11650,
  "Ġnphpl": 11651,
  "Ġnrclp": 11652,
  "Ġnsaid": 11653,
  "Ġnsdan": 11654,
  "Ġnshpt": 11655,
  "Ġnsiad": 11656,
  "Ġnsran": 11657,
  "Ġnucle": 11658,
  "Ġnyhan": 11659,
  "Ġoadip": 11660,
  "Ġobese": 11661,
  "Ġobtur": 11662,
  "Ġoccul": 11663,
  "Ġochoa": 11664,
  "Ġoctat": 11665,
  "Ġoculi": 11666,
  "Ġoculo": 11667,
  "Ġodont": 11668,
  "Ġofuji": 11669,
  "Ġohaha": 11670,
  "Ġohura": 11671,
  "Ġokihi": 11672,
  "Ġokuno": 11673,
  "Ġolder": 11674,
  "Ġoldig": 11675,
  "Ġoleda": 11676,
  "Ġolivo": 11677,
  "Ġomani": 11678,
  "Ġomenn": 11679,
  "Ġonset": 11680,
  "Ġonych": 11681,
  "Ġopcax": 11682,
  "Ġopenb": 11683,
  "Ġophry": 11684,
  "Ġopitz": 11685,
  "Ġoppen": 11686,
  "Ġoppos": 11687,
  "Ġopsoc": 11688,
  "Ġoptic": 11689,
  "Ġorbit": 11690,
  "Ġorgan": 11691,
  "Ġoroph": 11692,
  "Ġoroya": 11693,
  "Ġosame": 11694,
  "Ġoslam": 11695,
  "Ġosler": 11696,
  "Ġosmed": 11697,
  "Ġosteo": 11698,
  "Ġoster": 11699,
  "Ġother": 11700,
  "Ġoudts": 11701,
  "Ġouter": 11702,
  "Ġovale": 11703,
  "Ġovari": 11704,
  "Ġovary": 11705,
  "Ġovcas": 11706,
  "Ġoverd": 11707,
  "Ġoverj": 11708,
  "Ġoverl": 11709,
  "Ġovern": 11710,
  "Ġovine": 11711,
  "Ġovoid": 11712,
  "Ġowren": 11713,
  "Ġoxido": 11714,
  "Ġoxoac": 11715,
  "Ġoxyph": 11716,
  "Ġozena": 11717,
  "Ġpachy": 11718,
  "Ġpacns": 11719,
  "Ġpagen": 11720,
  "Ġpaget": 11721,
  "Ġpagod": 11722,
  "Ġpagon": 11723,
  "Ġpaine": 11724,
  "Ġpains": 11725,
  "Ġpairs": 11726,
  "Ġpalat": 11727,
  "Ġpalmo": 11728,
  "Ġpalms": 11729,
  "Ġpalsy": 11730,
  "Ġpanic": 11731,
  "Ġpapas": 11732,
  "Ġpapul": 11733,
  "Ġparac": 11734,
  "Ġparad": 11735,
  "Ġparaf": 11736,
  "Ġparag": 11737,
  "Ġparak": 11738,
  "Ġparal": 11739,
  "Ġparam": 11740,
  "Ġparan": 11741,
  "Ġparap": 11742,
  "Ġparas": 11743,
  "Ġparat": 11744,
  "Ġparav": 11745,
  "Ġparis": 11746,
  "Ġparod": 11747,
  "Ġparov": 11748,
  "Ġparry": 11749,
  "Ġparts": 11750,
  "Ġpatau": 11751,
  "Ġpatel": 11752,
  "Ġpatil": 11753,
  "Ġpauci": 11754,
  "Ġpaulo": 11755,
  "Ġpause": 11756,
  "Ġpavor": 11757,
  "Ġpbcra": 11758,
  "Ġpcarp": 11759,
  "Ġpdhad": 11760,
  "Ġpdhdd": 11761,
  "Ġpdhpd": 11762,
  "Ġpdhxd": 11763,
  "Ġpedis": 11764,
  "Ġpeliz": 11765,
  "Ġpelvi": 11766,
  "Ġpenic": 11767,
  "Ġpenis": 11768,
  "Ġpenta": 11769,
  "Ġpepck": 11770,
  "Ġperei": 11771,
  "Ġperez": 11772,
  "Ġperhe": 11773,
  "Ġperia": 11774,
  "Ġperic": 11775,
  "Ġperim": 11776,
  "Ġperin": 11777,
  "Ġperip": 11778,
  "Ġperit": 11779,
  "Ġperni": 11780,
  "Ġperox": 11781,
  "Ġperrs": 11782,
  "Ġperry": 11783,
  "Ġperst": 11784,
  "Ġpeste": 11785,
  "Ġpeter": 11786,
  "Ġpetit": 11787,
  "Ġpetty": 11788,
  "Ġpeutz": 11789,
  "Ġpexpd": 11790,
  "Ġpfhbi": 11791,
  "Ġphace": 11792,
  "Ġpharc": 11793,
  "Ġpharm": 11794,
  "Ġphase": 11795,
  "Ġphgdh": 11796,
  "Ġphill": 11797,
  "Ġphleb": 11798,
  "Ġphlor": 11799,
  "Ġphoar": 11800,
  "Ġphoto": 11801,
  "Ġphptc": 11802,
  "Ġphras": 11803,
  "Ġphyll": 11804,
  "Ġpicks": 11805,
  "Ġpilar": 11806,
  "Ġpinna": 11807,
  "Ġpinta": 11808,
  "Ġpinto": 11809,
  "Ġpipec": 11810,
  "Ġpkdts": 11811,
  "Ġpkdys": 11812,
  "Ġplana": 11813,
  "Ġplant": 11814,
  "Ġplaqu": 11815,
  "Ġplasm": 11816,
  "Ġplauc": 11817,
  "Ġplosl": 11818,
  "Ġplott": 11819,
  "Ġplsdl": 11820,
  "Ġplsdt": 11821,
  "Ġplumb": 11822,
  "Ġpnets": 11823,
  "Ġpneum": 11824,
  "Ġpoads": 11825,
  "Ġpoems": 11826,
  "Ġpoint": 11827,
  "Ġpolar": 11828,
  "Ġpolio": 11829,
  "Ġpolyc": 11830,
  "Ġpolyd": 11831,
  "Ġpolym": 11832,
  "Ġpolyp": 11833,
  "Ġpolys": 11834,
  "Ġpomgn": 11835,
  "Ġpompe": 11836,
  "Ġponto": 11837,
  "Ġporen": 11838,
  "Ġporph": 11839,
  "Ġpostc": 11840,
  "Ġpostm": 11841,
  "Ġpostp": 11842,
  "Ġpostv": 11843,
  "Ġpotts": 11844,
  "Ġpouch": 11845,
  "Ġpoult": 11846,
  "Ġpparg": 11847,
  "Ġppcra": 11848,
  "Ġppnad": 11849,
  "Ġppnet": 11850,
  "Ġpprom": 11851,
  "Ġpprpe": 11852,
  "Ġpraev": 11853,
  "Ġprata": 11854,
  "Ġpreec": 11855,
  "Ġpreex": 11856,
  "Ġpreey": 11857,
  "Ġpregn": 11858,
  "Ġprele": 11859,
  "Ġprene": 11860,
  "Ġpresb": 11861,
  "Ġpress": 11862,
  "Ġpreus": 11863,
  "Ġpriap": 11864,
  "Ġprick": 11865,
  "Ġpriet": 11866,
  "Ġprime": 11867,
  "Ġpring": 11868,
  "Ġprinz": 11869,
  "Ġprion": 11870,
  "Ġpritz": 11871,
  "Ġproct": 11872,
  "Ġprogr": 11873,
  "Ġpromm": 11874,
  "Ġprone": 11875,
  "Ġpropt": 11876,
  "Ġprost": 11877,
  "Ġprote": 11878,
  "Ġprotr": 11879,
  "Ġproud": 11880,
  "Ġprune": 11881,
  "Ġpsach": 11882,
  "Ġpsapd": 11883,
  "Ġpsatd": 11884,
  "Ġpsaum": 11885,
  "Ġpseud": 11886,
  "Ġpsmns": 11887,
  "Ġpsoas": 11888,
  "Ġpsors": 11889,
  "Ġpsych": 11890,
  "Ġpthsl": 11891,
  "Ġptlah": 11892,
  "Ġptosx": 11893,
  "Ġpubic": 11894,
  "Ġpubis": 11895,
  "Ġpuert": 11896,
  "Ġpuffy": 11897,
  "Ġpulpl": 11898,
  "Ġpumph": 11899,
  "Ġpunct": 11900,
  "Ġpupil": 11901,
  "Ġputam": 11902,
  "Ġpykno": 11903,
  "Ġpylor": 11904,
  "Ġpyrex": 11905,
  "Ġpyrom": 11906,
  "Ġquadr": 11907,
  "Ġquerv": 11908,
  "Ġquery": 11909,
  "Ġquinc": 11910,
  "Ġradii": 11911,
  "Ġradio": 11912,
  "Ġraine": 11913,
  "Ġrajab": 11914,
  "Ġrakeb": 11915,
  "Ġrales": 11916,
  "Ġramer": 11917,
  "Ġramji": 11918,
  "Ġramon": 11919,
  "Ġramos": 11920,
  "Ġraphe": 11921,
  "Ġrapid": 11922,
  "Ġrates": 11923,
  "Ġrecti": 11924,
  "Ġreduc": 11925,
  "Ġreent": 11926,
  "Ġreich": 11927,
  "Ġreinh": 11928,
  "Ġremod": 11929,
  "Ġrenal": 11930,
  "Ġrendu": 11931,
  "Ġresdx": 11932,
  "Ġresis": 11933,
  "Ġretin": 11934,
  "Ġretro": 11935,
  "Ġretts": 11936,
  "Ġreves": 11937,
  "Ġrhabd": 11938,
  "Ġrhdns": 11939,
  "Ġrhegm": 11940,
  "Ġrheum": 11941,
  "Ġrhyns": 11942,
  "Ġricci": 11943,
  "Ġriehm": 11944,
  "Ġriggs": 11945,
  "Ġright": 11946,
  "Ġrigid": 11947,
  "Ġrigor": 11948,
  "Ġriley": 11949,
  "Ġrippl": 11950,
  "Ġriver": 11951,
  "Ġrizzo": 11952,
  "Ġrmscr": 11953,
  "Ġrnanc": 11954,
  "Ġroacc": 11955,
  "Ġrobin": 11956,
  "Ġrocco": 11957,
  "Ġrocky": 11958,
  "Ġrokit": 11959,
  "Ġrombo": 11960,
  "Ġroots": 11961,
  "Ġrosai": 11962,
  "Ġrosea": 11963,
  "Ġrosew": 11964,
  "Ġrossi": 11965,
  "Ġrotes": 11966,
  "Ġrotor": 11967,
  "Ġround": 11968,
  "Ġroyal": 11969,
  "Ġroyer": 11970,
  "Ġrozin": 11971,
  "Ġrprgl": 11972,
  "Ġrtadr": 11973,
  "Ġruber": 11974,
  "Ġrubra": 11975,
  "Ġrusse": 11976,
  "Ġrussi": 11977,
  "Ġsabre": 11978,
  "Ġsacch": 11979,
  "Ġsachs": 11980,
  "Ġsacks": 11981,
  "Ġsacro": 11982,
  "Ġsaids": 11983,
  "Ġsaint": 11984,
  "Ġsaito": 11985,
  "Ġsalas": 11986,
  "Ġsaleh": 11987,
  "Ġsalem": 11988,
  "Ġsalih": 11989,
  "Ġsaliv": 11990,
  "Ġsalla": 11991,
  "Ġsando": 11992,
  "Ġsapho": 11993,
  "Ġsardh": 11994,
  "Ġsatur": 11995,
  "Ġsayre": 11996,
  "Ġscabd": 11997,
  "Ġscadh": 11998,
  "Ġscald": 11999,
  "Ġscale": 12000,
  "Ġscalp": 12001,
  "Ġscaph": 12002,
  "Ġscarf": 12003,
  "Ġscars": 12004,
  "Ġscasi": 12005,
  "Ġsccms": 12006,
  "Ġschad": 12007,
  "Ġschae": 12008,
  "Ġscheu": 12009,
  "Ġschiz": 12010,
  "Ġschny": 12011,
  "Ġschol": 12012,
  "Ġschon": 12013,
  "Ġschut": 12014,
  "Ġscida": 12015,
  "Ġscidx": 12016,
  "Ġsciss": 12017,
  "Ġscler": 12018,
  "Ġscott": 12019,
  "Ġscpnk": 12020,
  "Ġscrap": 12021,
  "Ġscrew": 12022,
  "Ġscrof": 12023,
  "Ġscrot": 12024,
  "Ġscrub": 12025,
  "Ġscurv": 12026,
[...]
