{"'":0,"0":1,"1":2,"2":3,"3":4,"4":5,"5":6,"6":7,"7":8,"8":9,"9":10,"a":11,"b":12,"c":13,"d":14,"e":15,"f":16,"g":17,"h":18,"i":19,"j":20,"k":21,"l":22,"m":23,"n":24,"o":25,"p":26,"q":27,"r":28,"s":29,"t":30,"u":31,"v":32,"w":33,"x":34,"y":35,"z":36,"¡":37,"¤":38,"§":39,"©":40,"«":41,"¶":42,"¼":43,"Ã":44,"Ċ":45,"Ġ":46,"al":47,"ti":48,"er":49,"ro":50,"in":51,"Ġs":52,"Ġd":53,"en":54,"as":55,"on":56,"Ġc":57,"ar":58,"is":59,"es":60,"Ġp":61,"ic":62,"an":63,"at":64,"os":65,"or":66,"Ġm":67,"om":68,"Ġt":69,"Ġh":70,"rom":71,"ph":72,"Ġa":73,"le":74,"yn":75,"Ġn":76,"ia":77,"ul":78,"Ġsyn":79,"Ġdis":80,"drom":81,"us":82,"Ġsyndrom":83,"ed":84,"em":85,"it":86,"Ġin":87,"op":88,"yp":89,"Ġf":90,"Ġb":91,"Ġsyndrome":92,"tion":93,"el":94,"ys":95,"Ġl":96,"tic":97,"ac":98,"Ġr":99,"oc":100,"ur":101,"eas":102,"Ġde":103,"id":104,"il":105,"ec":106,"Ġg":107,"Ġdiseas":108,"ol":109,"Ġne":110,"ve":111,"ent":112,"enc":113,"las":114,"et":115,"ial":116,"iti":117,"Ġdisease":118,"ath":119,"Ġ1":120,"th":121,"ep":122,"um":123,"ut":124,"Ġv":125,"ra":126,"osis":127,"ary":128,"Ġdef":129,"Ġhyp":130,"gen":131,"am":132,"ype":133,"Ġtype":134,"ation":135,"der":136,"ici":137,"Ġdys":138,"Ġch":139,"si":140,"icienc":141,"ular":142,"im":143,"oma":144,"ell":145,"ig":146,"un":147,"ias":148,"Ġinf":149,"Ġdeficienc":150,"od":151,"Ġan":152,"ing":153,"Ġ2":154,"ter":155,"Ġcon":156,"uc":157,"ran":158,"Ġac":159,"ot":160,"uro":161,"cl":162,"ud":163,"roph":164,"Ġdeficiency":165,"ous":166,"ies":167,"Ġe":168,"ym":169,"order":170,"ag":171,"athy":172,"Ġdisorder":173,"oplas":174,"ir":175,"Ġle":176,"ch":177,"itis":178,"eb":179,"osom":180,"tin":181,"Ġmy":182,"Ġhyper":183,"Ġsp":184,"ost":185,"anc":186,"Ġneuro":187,"yl":188,"ard":189,"emia":190,"Ġst":191,"Ġw":192,"ant":193,"ine":194,"ad":195,"Ġat":196,"ity":197,"ital":198,"act":199,"Ġi":200,"eph":201,"ob":202,"Ġpar":203,"orm":204,"oplasm":205,"arc":206,"Ġinfec":207,"yst":208,"Ġner":209,"ess":210,"Ġneoplasm":211,"Ġep":212,"omas":213,"usc":214,"Ġincl":215,"Ġal":216,"Ġaut":217,"ephal":218,"ymph":219,"sive":220,"ip":221,"ereb":222,"Ġhem":223,"Ġk":224,"Ġar":225,"Ġinfection":226,"ub":227,"uded":228,"Ġad":229,"ile":230,"plas":231,"Ġincluded":232,"Ġth":233,"Ġpr":234,"Ġcongen":235,"ron":236,"Ġcell":237,"eal":238,"ver":239,"oid":240,"amil":241,"Ġlymph":242,"oph":243,"atic":244,"Ġfamil":245,"rophy":246,"Ġ3":247,"Ġfamilial":248,"ral":249,"Ġdiseases":250,"ple":251,"Ġpro":252,"ati":253,"ect":254,"Ġgl":255,"ase":256,"Ġper":257,"Ġre":258,"Ġx":259,"opathy":260,"uk":261,"ated":262,"Ġcongenital":263,"Ġnerve":264,"ental":265,"og":266,"ib":267,"ric":268,"ocy":269,"ism":270,"oses":271,"osomal":272,"Ġher":273,"Ġleuk":274,"essive":275,"ach":276,"des":277,"up":278,"ate":279,"ens":280,"if":281,"encephal":282,"Ġdyst":283,"ancer":284,"Ġab":285,"Ġcancer":286,"Ġcereb":287,"Ġj":288,"omy":289,"plasia":290,"ory":291,"'s":292,"sy":293,"Ġautosomal":294,"itary":295,"re":296,"ang":297,"ure":298,"ons":299,"Ġcom":300,"tr":301,"Ġ4":302,"iz":303,"Ġmal":304,"ap":305,"Ġse":306,"ne":307,"Ġtum":308,"eral":309,"Ġdisorders":310,"Ġhe":311,"ov":312,"te":313,"Ġas":314,"end":315,"Ġph":316,"Ġtra":317,"Ġsyndromes":318,"Ġrec":319,"ros":320,"Ġtumor":321,"tib":322,"erm":323,"yd":324,"Ġtr":325,"itides":326,"ox":327,"Ġpol":328,"opath":329,"tis":330,"ink":331,"ign":332,"rh":333,"Ġtraum":334,"ab":335,"inal":336,"Ġam":337,"qu":338,"ill":339,"Ġex":340,"Ġhered":341,"inked":342,"Ġlinked":343,"Ġneoplasms":344,"Ġhereditary":345,"ness":346,"ogen":347,"ond":348,"oth":349,"pathy":350,"and":351,"Ġret":352,"Ġepile":353,"Ġepilep":354,"ute":355,"ical":356,"mun":357,"Ġmusc":358,"ax":359,"ility":360,"Ġim":361,"Ġencephal":362,"Ġcor":363,"Ġmul":364,"arcin":365,"Ġdysplasia":366,"ion":367,"Ġinfections":368,"Ġpost":369,"Ġpal":370,"yc":371,"esis":372,"kin":373,"ari":374,"ment":375,"se":376,"enal":377,"jur":378,"Ġinjur":379,"all":380,"Ġdystrophy":381,"Ġbl":382,"Ġchrom":383,"tal":384,"Ġii":385,"oh":386,"Ġoc":387,"onic":388,"Ġrecessive":389,"Ġsub":390,"rain":391,"orrh":392,"uscep":393,"Ġpa":394,"asc":395,"Ġchron":396,"Ġsuscep":397,"omat":398,"Ġacute":399,"Ġsusceptib":400,"ations":401,"Ġchronic":402,"mon":403,"Ġsusceptibility":404,"ative":405,"ural":406,"ue":407,"af":408,"son":409,"Ġmulti":410,"derm":411,"Ġnon":412,"Ġprim":413,"roc":414,"Ġmet":415,"Ġtran":416,"sion":417,"ith":418,"duc":419,"Ġ5":420,"inant":421,"ening":422,"art":423,"Ġmental":424,"Ġarter":425,"Ġcarcin":426,"Ġbr":427,"Ġretard":428,"Ġbrain":429,"osome":430,"ow":431,"Ġcerebral":432,"Ġgen":433,"Ġretardation":434,"Ġtraumatic":435,"ominant":436,"Ġchromosome":437,"ystem":438,"Ġleukemia":439,"Ġdominant":440,"Ġpul":441,"Ġfib":442,"oste":443,"ranial":444,"gr":445,"age":446,"Ġint":447,"unc":448,"Ġcol":449,"amm":450,"ocytic":451,"Ġsh":452,"cler":453,"Ġsystem":454,"Ġcard":455,"ellar":456,"ting":457,"Ġaden":458,"ane":459,"emias":460,"acial":461,"tinal":462,"Ġmultiple":463,"roid":464,"one":465,"Ġop":466,"Ġperi":467,"Ġprimary":468,"of":469,"monary":470,"Ġq":471,"Ġ6":472,"Ġneuropathy":473,"Ġoste":474,"tein":475,"Ġlip":476,"ke":477,"romb":478,"ocyt":479,"och":480,"Ġdia":481,"tive":482,"rop":483,"Ġepilepsy":484,"ures":485,"Ġmuscular":486,"entric":487,"st":488,"Ġcyst":489,"Ġer":490,"Ġsens":491,"Ġmyel":492,"Ġmening":493,"etic":494,"Ġhemorrh":495,"Ġdeaf":496,"opathic":497,"Ġang":498,"oderm":499,"yth":500,"Ġid":501,"ann":502,"lic":503,"erg":504,"Ġrel":505,"iv":506,"Ġpulmonary":507,"ull":508,"ior":509,"Ġhypert":510,"Ġatax":511,"Ġfr":512,"eg":513,"Ġis":514,"ities":515,"cul":516,"Ġmic":517,"aryn":518,"Ġsch":519,"ast":520,"Ġfe":521,"Ġrelated":522,"anti":523,"est":524,"ly":525,"Ġdeafness":526,"Ġend":527,"Ġthromb":528,"Ġtrans":529,"Ġco":530,"atal":531,"gener":532,"gia":533,"uv":534,"tial":535,"Ġlymphoma":536,"actyl":537,"Ġsc":538,"Ġag":539,"soc":540,"Ġinduc":541,"seud":542,"enile":543,"tions":544,"Ġinduced":545,"ak":546,"ormal":547,"Ġpseud":548,"Ġhep":549,"otor":550,"Ġspas":551,"onia":552,"ysis":553,"Ġo":554,"gressive":555,"per":556,"Ġto":557,"igh":558,"atory":559,"osph":560,"entricular":561,"Ġscler":562,"av":563,"oblas":564,"Ġseiz":565,"thal":566,"Ġrenal":567,"Ġdefect":568,"Ġdiab":569,"actyly":570,"Ġur":571,"Ġacid":572,"Ġtub":573,"Ġmon":574,"omal":575,"oss":576,"Ġben":577,"iopathic":578,"Ġpl":579,"ung":580,"ich":581,"Ġpain":582,"Ġataxia":583,"Ġimmun":584,"aryng":585,"Ġmyoc":586,"Ġbenign":587,"ea":588,"erat":589,"Ġdeficiencies":590,"Ġassoc":591,"opathies":592,"Ġabs":593,"Ġhead":594,"ri":595,"ff":596,"ft":597,"normal":598,"Ġdegener":599,"Ġmalign":600,"Ġap":601,"Ġidiopathic":602,"Ġor":603,"Ġspinal":604,"ascular":605,"iated":606,"ood":607,"Ġatrophy":608,"Ġabnormal":609,"Ġinjury":610,"enti":611,"Ġons":612,"Ġonset":613,"ay":614,"ers":615,"Ġcent":616,"ysm":617,"path":618,"Ġinfanti":619,"Ġli":620,"Ġderm":621,"trac":622,"Ġtumors":623,"aneous":624,"otic":625,"Ġun":626,"Ġpo":627,"Ġinfantile":628,"Ġhyd":629,"Ġprogressive":630,"gl":631,"angi":632,"osa":633,"Ġcomple":634,"Ġcarcinoma":635,"uria":636,"Ġjuv":637,"ort":638,"emic":639,"Ġassociated":640,"Ġpos":641,"Ġins":642,"ist":643,"ence":644,"Ġnerv":645,"Ġcardi":646,"Ġjuvenile":647,"ian":648,"Ġmalignant":649,"pr":650,"opro":651,"Ġgran":652,"Ġcancers":653,"Ġ7":654,"Ġtooth":655,"ick":656,"terior":657,"rod":658,"rophic":659,"sies":660,"ocal":661,"cess":662,"Ġnervous":663,"nal":664,"Ġcle":665,"ateral":666,"Ġfacial":667,"yt":668,"ert":669,"Ġsle":670,"neum":671,"Ġmac":672,"pha":673,"lex":674,"Ġintrac":675,"Ġfever":676,"yr":677,"enia":678,"Ġem":679,"Ġcat":680,"Ġect":681,"ild":682,"rox":683,"Ġepid":684,"ogenic":685,"esia":686,"fer":687,"Ġcl":688,"ult":689,"irus":690,"rosis":691,"form":692,"acter":693,"Ġdi":694,"Ġpneum":695,"ema":696,"Ġinjuries":697,"usion":698,"enter":699,"Ġangi":700,"Ġres":701,"ophag":702,"Ġob":703,"Ġform":704,"ired":705,"Ġeryth":706,"ortic":707,"ocereb":708,"Ġsleep":709,"roti":710,"Ġrh":711,"Ġneph":712,"ail":713,"Ġca":714,"ose":715,"thalm":716,"Ġcentral":717,"ual":718,"Ġacqu":719,"lamm":720,"Ġoptic":721,"yroid":722,"Ġacquired":723,"ms":724,"Ġartery":725,"rial":726,"Ġanomal":727,"Ġcr":728,"olic":729,"Ġpartial":730,"idase":731,"Ġheart":732,"rogen":733,"utaneous":734,"ophil":735,"aryngeal":736,"Ġnec":737,"use":738,"uct":739,"ogic":740,"Ġcer":741,"iac":742,"rophies":743,"Ġ8":744,"Ġul":745,"ystic":746,"iasis":747,"inemia":748,"Ġcar":749,"Ġsec":750,"Ġref":751,"Ġspastic":752,"iciency":753,"immun":754,"Ġhemorrhag":755,"Ġsm":756,"asia":757,"Ġintracranial":758,"ole":759,"itiv":760,"atitis":761,"ogl":762,"ight":763,"Ġhypoplas":764,"bin":765,"vel":766,"Ġintra":767,"pathies":768,"ix":769,"Ġmed":770,"Ġinter":771,"Ġmyopathy":772,"Ġadult":773,"Ġsin":774,"unction":775,"Ġglyc":776,"illary":777,"Ġmuc":778,"Ġinflamm":779,"Ġcomp":780,"Ġauto":781,"itive":782,"odyst":783,"angl":784,"Ġdem":785,"ug":786,"Ġes":787,"ind":788,"Ġsten":789,"ercul":790,"phys":791,"Ġanemia":792,"rich":793,"pt":794,"Ġarth":795,"Ġfract":796,"Ġneon":797,"rad":798,"Ġchild":799,"Ġdiabet":800,"Ġmyocl":801,"Ġgranul":802,"ios":803,"vul":804,"Ġov":805,"Ġmetab":806,"Ġlim":807,"Ġmalform":808,"Ġol":809,"Ġcranial":810,"isti":811,"Ġbone":812,"idosis":813,"Ġcerebellar":814,"Ġcal":815,"asal":816,"Ġha":817,"amin":818,"Ġneonatal":819,"Ġdif":820,"Ġfl":821,"ody":822,"ized":823,"her":824,"row":825,"Ġdiabetes":826,"Ġparal":827,"immune":828,"igment":829,"Ġcardiomy":830,"und":831,"Ġtubercul":832,"hyd":833,"Ġ9":834,"Ġventricular":835,"Ġskin":836,"Ġpap":837,"Ġmari":838,"Ġaph":839,"Ġsinus":840,"Ġalpha":841,"ritis":842,"ont":843,"estinal":844,"Ġadr":845,"oblastic":846,"Ġheadach":847,"ocerebellar":848,"ison":849,"ack":850,"Ġthyroid":851,"Ġretin":852,"Ġpalsy":853,"cal":854,"emat":855,"Ġdele":856,"ock":857,"ef":858,"ioma":859,"Ġdue":860,"Ġsup":861,"eta":862,"Ġear":863,"Ġwith":864,"oprotein":865,"Ġresp":866,"Ġdr":867,"orph":868,"enic":869,"itus":870,"Ġhypers":871,"Ġiii":872,"Ġautoimmune":873,"neal":874,"sych":875,"Ġmarie":876,"Ġrad":877,"ostosis":878,"iform":879,"rocephal":880,"ae":881,"mental":882,"odermal":883,"ytic":884,"ticul":885,"Ġgeneral":886,"Ġlung":887,"Ġperiod":888,"Ġdegeneration":889,"velop":890,"tides":891,"ong":892,"Ġ11":893,"auc":894,"ating":895,"int":896,"Ġbil":897,"Ġspin":898,"Ġsensory":899,"Ġnod":900,"itu":901,"Ġphosph":902,"Ġdeletion":903,"coh":904,"Ġleukemias":905,"Ġencephalopathy":906,"Ġisch":907,"Ġpigment":908,"Ġmotor":909,"Ġdevelop":910,"Ġves":911,"Ġneuropathies":912,"Ġocul":913,"isomy":914,"Ġpsych":915,"Ġvascular":916,"yne":917,"etal":918,"truc":919,"Ġmuscle":920,"Ġcysts":921,"Ġcleft":922,"ension":923,"arcot":924,"Ġalcoh":925,"ophthalm":926,"Ġlimb":927,"struc":928,"arg":929,"icul":930,"thy":931,"Ġcharcot":932,"Ġcorneal":933,"Ġocular":934,"Ġseizure":935,"Ġpara":936,"yloid":937,"Ġtrisomy":938,"ithel":939,"ium":940,"Ġgast":941,"Ġchor":942,"Ġinfarc":943,"Ġall":944,"war":945,"romat":946,"east":947,"Ġgangl":948,"Ġhypoplasia":949,"yph":950,"Ġro":951,"olysis":952,"Ġretinal":953,"Ġcatar":954,"Ġval":955,"Ġey":956,"Ġprol":957,"Ġcardiomyopathy":958,"Ġfo":959,"Ġloss":960,"oxic":961,"Ġpoison":962,"odystrophy":963,"Ġsarc":964,"Ġcran":965,"emor":966,"Ġamyloid":967,"Ġchildh":968,"man":969,"na":970,"Ġdysf":971,"Ġprotein":972,"Ġchildhood":973,"Ġlymphocytic":974,"Ġbreast":975,"itivity":976,"erative":977,"sions":978,"Ġane":979,"Ġpoisoning":980,"onal":981,"Ġcord":982,"Ġepiderm":983,"Ġhemat":984,"omyel":985,"Ġhemorrhage":986,"urysm":987,"eth":988,"imal":989,"Ġbrach":990,"Ġcerv":991,"Ġdiff":992,"opl":993,"urg":994,"Ġabnormalities":995,"Ġgeneralized":996,"Ġcataract":997,"ance":998,"omatous":999,"out":1000,"Ġmes":1001,"ulin":1002,"Ġneurol":1003,"Ġkerat":1004,"omatosis":1005,"Ġliver":1006,"ele":1007,"Ġen":1008,"Ġbull":1009,"lase":1010,"uter":1011,"Ġkid":1012,"Ġcardiac":1013,"Ġich":1014,"orn":1015,"lear":1016,"Ġulc":1017,"physeal":1018,"rine":1019,"uff":1020,"Ġcd":1021,"olar":1022,"ney":1023,"Ġcarcinomas":1024,"Ġichthy":1025,"ococ":1026,"Ġesophag":1027,"Ġfail":1028,"Ġlow":1029,"Ġepilepsies":1030,"Ġabscess":1031,"Ġaneurysm":1032,"Ġdiffuse":1033,"ler":1034,"anth":1035,"Ġver":1036,"Ġinflammatory":1037,"Ġhisti":1038,"olism":1039,"Ġneural":1040,"genesis":1041,"Ġmel":1042,"Ġmig":1043,"Ġbody":1044,"Ġgland":1045,"ogical":1046,"Ġencephalitis":1047,"Ġhepatic":1048,"ancy":1049,"Ġdementi":1050,"ions":1051,"Ġcutaneous":1052,"Ġpanc":1053,"oles":1054,"kinson":1055,"Ġendoc":1056,"Ġsclerosis":1057,"Ġseizures":1058,"Ġobstruc":1059,"Ġsecond":1060,"Ġpitu":1061,"Ġ13":1062,"Ġcont":1063,"Ġext":1064,"Ġintestinal":1065,"oderma":1066,"Ġpituitary":1067,"md":1068,"inary":1069,"iation":1070,"yposis":1071,"Ġneur":1072,"oplastic":1073,"bran":1074,"pur":1075,"ins":1076,"asis":1077,"pheral":1078,"edema":1079,"opia":1080,"odef":1081,"Ġparkinson":1082,"Ġec":1083,"tious":1084,"Ġven":1085,"Ġimmunodef":1086,"iomas":1087,"Ġsep":1088,"Ġvit":1089,"Ġperipheral":1090,"lication":1091,"Ġsym":1092,"Ġmo":1093,"olytic":1094,"antar":1095,"plasias":1096,"ronch":1097,"Ġsex":1098,"ixed":1099,"Ġallerg":1100,"io":1101,"orage":1102,"Ġstorage":1103,"Ġcomplex":1104,"Ġmar":1105,"Ġstat":1106,"ondyl":1107,"Ġkidney":1108,"ps":1109,"Ġpel":1110,"osp":1111,"Ġhand":1112,"Ġdystonia":1113,"Ġblind":1114,"tiv":1115,"onad":1116,"Ġmixed":1117,"Ġfist":1118,"Ġshort":1119,"Ġhemorrhagic":1120,"Ġwithout":1121,"Ġspinocerebellar":1122,"Ġparaple":1123,"Ġfistul":1124,"gias":1125,"Ġgal":1126,"Ġ10":1127,"ydactyly":1128,"Ġeye":1129,"Ġenter":1130,"Ġdistal":1131,"ement":1132,"Ġfol":1133,"ird":1134,"Ġinfectious":1135,"Ġpolyne":1136,"Ġmyoclonic":1137,"Ġparalysis":1138,"Ġimmunodeficiency":1139,"ok":1140,"Ġanterior":1141,"Ġpreg":1142,"Ġposterior":1143,"ylase":1144,"Ġcir":1145,"Ġmit":1146,"Ġvari":1147,"othel":1148,"Ġpregn":1149,"pend":1150,"Ġbeta":1151,"adder":1152,"Ġperson":1153,"Ġhern":1154,"rotid":1155,"Ġadrenal":1156,"Ġdevelopmental":1157,"osin":1158,"Ġgi":1159,"Ġhypot":1160,"Ġlymphomas":1161,"Ġasp":1162,"Ġpalm":1163,"Ġanomalies":1164,"ma":1165,"ish":1166,"Ġinc":1167,"Ġ12":1168,"rax":1169,"ella":1170,"ry":1171,"erly":1172,"onias":1173,"Ġbronch":1174,"Ġinsuff":1175,"roxysm":1176,"Ġformerly":1177,"Ġneurologic":1178,"he":1179,"Ġresis":1180,"Ġdehyd":1181,"oblast":1182,"iss":1183,"Ġpup":1184,"ogenesis":1185,"ocytop":1186,"Ġpersonal":1187,"Ġresist":1188,"ct":1189,"ker":1190,"Ġdental":1191,"ore":1192,"rans":1193,"ferase":1194,"Ġdwar":1195,"arth":1196,"Ġpoly":1197,"arian":1198,"Ġmonosom":1199,"Ġreflex":1200,"Ġdwarf":1201,"Ġuter":1202,"ite":1203,"atitides":1204,"oencephal":1205,"Ġdeform":1206,"Ġhypoth":1207,"iral":1208,"Ġglauc":1209,"Ġparoxysm":1210,"Ġtransi":1211,"Ġfailure":1212,"Ġy":1213,"Ġophthalm":1214,"Ġmem":1215,"omer":1216,"ochond":1217,"Ġdefects":1218,"Ġectodermal":1219,"Ġmonosomy":1220,"ait":1221,"itic":1222,"opic":1223,"Ġbacter":1224,"ensitivity":1225,"Ġtrauma":1226,"Ġovarian":1227,"arge":1228,"romatosis":1229,"Ġdwarfism":1230,"utis":1231,"Ġdel":1232,"ass":1233,"Ġvis":1234,"Ġsmall":1235,"Ġvestib":1236,"Ġparaplegia":1237,"tur":1238,"Ġdup":1239,"Ġhall":1240,"Ġfocal":1241,"tical":1242,"Ġhemangi":1243,"Ġsever":1244,"ocytosis":1245,"Ġheadache":1246,"Ġalcohol":1247,"ans":1248,"Ġmr":1249,"omic":1250,"let":1251,"ardial":1252,"Ġgluc":1253,"Ġimp":1254,"Ġmeth":1255,"Ġglycogen":1256,"Ġdysfunction":1257,"Ġgalact":1258,"Ġpolyneuro":1259,"ii":1260,"Ġdf":1261,"itt":1262,"Ġdepr":1263,"Ġstr":1264,"rogenase":1265,"Ġstenosis":1266,"Ġsecondary":1267,"Ġparoxysmal":1268,"omel":1269,"ita":1270,"Ġvag":1271,"Ġsystemic":1272,"rocephaly":1273,"Ġdehydrogenase":1274,"Ġsevere":1275,"ain":1276,"Ġspondyl":1277,"Ġmetabolic":1278,"Ġmalformation":1279,"ux":1280,"Ġduct":1281,"Ġmell":1282,"emp":1283,"uch":1284,"irid":1285,"Ġtremor":1286,"Ġlike":1287,"Ġmacular":1288,"Ġdementia":1289,"ns":1290,"inosis":1291,"Ġhum":1292,"ited":1293,"eter":1294,"ration":1295,"iases":1296,"Ġfibro":1297,"Ġhair":1298,"Ġdrug":1299,"Ġpregnancy":1300,"Ġmellitus":1301,"bl":1302,"icular":1303,"omotor":1304,"Ġfetal":1305,"ram":1306,"Ġurinary":1307,"Ġemb":1308,"lip":1309,"Ġsim":1310,"Ġpur":1311,"Ġviral":1312,"Ġmyeloid":1313,"Ġpy":1314,"ysplasia":1315,"ological":1316,"Ġvar":1317,"sd":1318,"Ġz":1319,"Ġma":1320,"Ġfron":1321,"Ġexper":1322,"Ġdiabetic":1323,"Ġinfarction":1324,"ner":1325,"Ġtis":1326,"Ġfac":1327,"urr":1328,"imental":1329,"Ġwe":1330,"ific":1331,"Ġcarotid":1332,"Ġfoot":1333,"Ġexperimental":1334,"Ġtiss":1335,"ren":1336,"Ġconvul":1337,"Ġmale":1338,"Ġcolor":1339,"ococcal":1340,"Ġblindness":1341,"Ġgiant":1342,"iary":1343,"nes":1344,"aring":1345,"ypical":1346,"Ġcongenita":1347,"Ġreac":1348,"Ġcalc":1349,"Ġearly":1350,"ithelial":1351,"osinophil":1352,"ransferase":1353,"mann":1354,"Ġox":1355,"til":1356,"Ġser":1357,"Ġmyc":1358,"Ġwil":1359,"actor":1360,"Ġiv":1361,"Ġerythro":1362,"Ġcarb":1363,"Ġcervical":1364,"Ġmelan":1365,"iosis":1366,"Ġsw":1367,"Ġaortic":1368,"ilar":1369,"Ġdyskin":1370,"Ġcombin":1371,"Ġrecurr":1372,"Ġadenoma":1373,"Ġhydrox":1374,"Ġcrani":1375,"Ġcombined":1376,"cop":1377,"Ġsal":1378,"Ġcystic":1379,"Ġlarge":1380,"Ġdepend":1381,"ebral":1382,"Ġphen":1383,"licular":1384,"Ġfractures":1385,"Ġvariant":1386,"aw":1387,"cr":1388,"ulf":1389,"Ġrem":1390,"ocarcin":1391,"Ġatypical":1392,"encephaly":1393,"Ġfracture":1394,"Ġpersonality":1395,"Ġtissue":1396,"Ġdig":1397,"ominal":1398,"Ġjo":1399,"Ġhearing":1400,"egal":1401,"Ġcoron":1402,"Ġbullosa":1403,"Ġmethyl":1404,"ier":1405,"ied":1406,"osidase":1407,"Ġmer":1408,"Ġvasc":1409,"plastic":1410,"Ġbladder":1411,"Ġsubac":1412,"Ġbilateral":1413,"Ġvascul":1414,"ive":1415,"asth":1416,"Ġinv":1417,"veolar":1418,"genic":1419,"Ġatr":1420,"Ġpseudo":1421,"Ġoral":1422,"Ġepidermolysis":1423,"Ġichthyosis":1424,"Ġhiv":1425,"ople":1426,"umb":1427,"Ġprost":1428,"Ġhypertension":1429,"Ġvalve":1430,"oplantar":1431,"Ġpalmoplantar":1432,"ik":1433,"nos":1434,"alam":1435,"titis":1436,"rotic":1437,"oneal":1438,"atase":1439,"oral":1440,"Ġlac":1441,"Ġgait":1442,"Ġast":1443,"Ġschiz":1444,"Ġpositive":1445,"Ġpancre":1446,"Ġendocrine":1447,"Ġtransient":1448,"ition":1449,"ession":1450,"Ġpath":1451,"osyl":1452,"osarc":1453,"Ġfactor":1454,"olated":1455,"Ġglomer":1456,"rocyt":1457,"kele":1458,"Ġisolated":1459,"Ġaphasia":1460,"Ġesophageal":1461,"dominal":1462,"ton":1463,"Ġbas":1464,"ids":1465,"Ġeosinophil":1466,"ectal":1467,"andib":1468,"Ġperiodic":1469,"Ġbacterial":1470,"Ġduplication":1471,"keletal":1472,"anic":1473,"Ġtrich":1474,"Ġsynth":1475,"usions":1476,"Ġlate":1477,"obul":1478,"Ġpremat":1479,"Ġtract":1480,"Ġpalate":1481,"Ġanomaly":1482,"Ġsubacute":1483,"Ġqu":1484,"Ġax":1485,"iratory":1486,"obacter":1487,"Ġherp":1488,"omyc":1489,"ie":1490,"Ġclas":1491,"Ġlaryngeal":1492,"last":1493,"aden":1494,"Ġabsence":1495,"rowth":1496,"Ġrespiratory":1497,"omyelitis":1498,"transferase":1499,"Ġig":1500,"rof":1501,"ror":1502,"ropathy":1503,"osing":1504,"Ġnons":1505,"ypt":1506,"ticular":1507,"Ġnev":1508,"aph":1509,"vic":1510,"zing":1511,"Ġbor":1512,"Ġloc":1513,"Ġpre":1514,"Ġimper":1515,"Ġpalsies":1516,"Ġhypertrophic":1517,"Ġthrombocytop":1518,"Ġallergic":1519,"Ġpurpur":1520,"Ġimperf":1521,"yal":1522,"ors":1523,"omn":1524,"Ġtach":1525,"Ġright":1526,"Ġchond":1527,"Ġaprax":1528,"Ġhuman":1529,"Ġrecurrent":1530,"Ġve":1531,"Ġdil":1532,"Ġneg":1533,"Ġhemolytic":1534,"Ġpains":1535,"Ġglaucoma":1536,"Ġpremature":1537,"fib":1538,"ern":1539,"Ġging":1540,"olip":1541,"Ġtraumas":1542,"Ġmyocardial":1543,"Ġtuberculosis":1544,"Ġuterine":1545,"kerat":1546,"oac":1547,"ritides":1548,"rogl":1549,"asias":1550,"oni":1551,"Ġinher":1552,"Ġlateral":1553,"Ġred":1554,"Ġatrial":1555,"iferative":1556,"Ġcortical":1557,"ofacial":1558,"Ġdermatitis":1559,"Ġhemorrhages":1560,"Ġmetabolism":1561,"born":1562,"mus":1563,"onus":1564,"Ġaud":1565,"yses":1566,"Ġgra":1567,"rag":1568,"Ġmyasth":1569,"Ġinsufficiency":1570,"Ġhypothalam":1571,"Ġglomerul":1572,"our":1573,"Ġot":1574,"onomic":1575,"Ġmor":1576,"Ġhorm":1577,"emal":1578,"Ġbar":1579,"Ġrup":1580,"omatic":1581,"Ġanti":1582,"athyroid":1583,"opharyngeal":1584,"Ġtrig":1585,"Ġdermat":1586,"Ġcomplement":1587,"rotizing":1588,"Ġnecrotizing":1589,"Ġgastro":1590,"Ġfollicular":1591,"Ġinherited":1592,"ble":1593,"Ġbe":1594,"Ġble":1595,"tine":1596,"Ġparane":1597,"tract":1598,"rosp":1599,"Ġclass":1600,"Ġparaneoplastic":1601,"ca":1602,"enb":1603,"esias":1604,"ide":1605,"ologic":1606,"Ġparas":1607,"Ġsimple":1608,"Ġgingiv":1609,"Ġos":1610,"Ġcm":1611,"Ġtonic":1612,"Ġele":1613,"Ġmyot":1614,"Ġalveolar":1615,"Ġabdominal":1616,"ortical":1617,"Ġcrypt":1618,"oglob":1619,"emporal":1620,"yel":1621,"Ġpat":1622,"Ġdiss":1623,"itory":1624,"Ġgrowth":1625,"iple":1626,"Ġmicrocephaly":1627,"Ġhepat":1628,"Ġulcer":1629,"Ġmigra":1630,"Ġmrx":1631,"Ġpolyneuropathy":1632,"dactyly":1633,"Ġdu":1634,"Ġcox":1635,"ept":1636,"Ġchol":1637,"achn":1638,"Ġdiver":1639,"Ġnodular":1640,"Ġjoint":1641,"eum":1642,"Ġsulf":1643,"oscler":1644,"Ġmin":1645,"Ġaids":1646,"emann":1647,"Ġvon":1648,"Ġspl":1649,"Ġneurofib":1650,"Ġautonomic":1651,"ycard":1652,"Ġsarcoma":1653,"Ġpancreatic":1654,"andibular":1655,"Ġimperfect":1656,"hl":1657,"pro":1658,"tl":1659,"Ġcap":1660,"Ġte":1661,"Ġheter":1662,"Ġbran":1663,"etra":1664,"Ġvert":1665,"Ġconc":1666,"Ġleft":1667,"ineural":1668,"Ġsensor":1669,"Ġpneumonia":1670,"Ġradiation":1671,"Ġfistula":1672,"omelic":1673,"Ġdiverticul":1674,"ber":1675,"ound":1676,"Ġtic":1677,"ald":1678,"inating":1679,"ony":1680,"ord":1681,"phosph":1682,"Ġnyst":1683,"Ġnasal":1684,"Ġsyncop":1685,"Ġlo":1686,"Ġlob":1687,"Ġ15":1688,"Ġvirus":1689,"Ġhypog":1690,"Ġdysm":1691,"Ġaccess":1692,"agmus":1693,"vers":1694,"nea":1695,"Ġmalformations":1696,"oproteinemia":1697,"Ġmitochond":1698,"Ġcoronary":1699,"Ġauditory":1700,"Ġhormone":1701,"Ġbranch":1702,"Ġnystagmus":1703,"Ġaccessory":1704,"Ġuro":1705,"Ġden":1706,"Ġcam":1707,"emin":1708,"Ġfanc":1709,"ech":1710,"Ġhyperplasia":1711,"Ġatrophies":1712,"Ġgenetic":1713,"Ġmeningitis":1714,"Ġagnos":1715,"Ġprolap":1716,"Ġcdg":1717,"Ġvitamin":1718,"Ġimperfecta":1719,"tia":1720,"ination":1721,"Ġsick":1722,"Ġplas":1723,"Ġpick":1724,"osum":1725,"orac":1726,"Ġavul":1727,"Ġbov":1728,"Ġwa":1729,"actory":1730,"vern":1731,"Ġreg":1732,"Ġasth":1733,"Ġganglios":1734,"Ġophthalmople":1735,"Ġmembran":1736,"Ġastrocyt":1737,"Ġtachycard":1738,"Ġmitochondrial":1739,"Ġbovine":1740,"Ġic":1741,"Ġpe":1742,"Ġmid":1743,"ational":1744,"Ġ21":1745,"Ġach":1746,"otrop":1747,"Ġwh":1748,"Ġalbin":1749,"Ġadenomas":1750,"Ġcoa":1751,"Ġpseudoh":1752,"Ġabnormality":1753,"Ġphosphate":1754,"Ġvenous":1755,"Ġpupil":1756,"bar":1757,"ger":1758,"rov":1759,"oster":1760,"ection":1761,"Ġgro":1762,"Ġ14":1763,"icient":1764,"imer":1765,"Ġcontract":1766,"Ġdystrophies":1767,"Ġosteop":1768,"angiect":1769,"oprol":1770,"Ġrheum":1771,"orphyr":1772,"olester":1773,"Ġsympt":1774,"iridae":1775,"Ġschizoph":1776,"Ġalbinism":1777,"de":1778,"ts":1779,"zo":1780,"Ġfasc":1781,"Ġcho":1782,"Ġleg":1783,"Ġarterial":1784,"ythm":1785,"Ġstenoses":1786,"Ġhypersensitivity":1787,"Ġlocus":1788,"Ġmigraine":1789,"Ġcyt":1790,"ata":1791,"Ġmast":1792,"omet":1793,"phal":1794,"ective":1795,"Ġatt":1796,"roses":1797,"able":1798,"Ġgenital":1799,"Ġflu":1800,"Ġretinitis":1801,"Ġdyskinesia":1802,"Ġdependent":1803,"Ġhypothalamic":1804,"Ġrupt":1805,"bs":1806,"Ġcan":1807,"Ġple":1808,"Ġ17":1809,"Ġlethal":1810,"Ġneuronal":1811,"Ġthrombosis":1812,"Ġperiodon":1813,"Ġischemia":1814,"Ġsensorineural":1815,"nb":1816,"rob":1817,"ars":1818,"Ġtor":1819,"Ġni":1820,"Ġnoc":1821,"opec":1822,"Ġbasal":1823,"Ġlang":1824,"eck":1825,"Ġdeficient":1826,"ings":1827,"Ġket":1828,"Ġadenocarcin":1829,"Ġfevers":1830,"Ġhalluc":1831,"Ġfibrous":1832,"Ġatresia":1833,"Ġnegative":1834,"air":1835,"roch":1836,"ina":1837,"oneph":1838,"esth":1839,"Ġagenesis":1840,"Ġbre":1841,"Ġlam":1842,"acch":1843,"Ġdysplasias":1844,"Ġphot":1845,"Ġpolyposis":1846,"Ġencephalopathies":1847,"Ġcavern":1848,"Ġinterm":1849,"Ġmyoclonus":1850,"Ġolig":1851,"Ġheadaches":1852,"Ġgastric":1853,"Ġaxonal":1854,"gic":1855,"iphyseal":1856,"pl":1857,"yg":1858,"Ġed":1859,"Ġsph":1860,"Ġnail":1861,"uss":1862,"Ġneu":1863,"Ġ22":1864,"Ġalopec":1865,"Ġpolyc":1866,"orrhea":1867,"Ġpigmentosa":1868,"oproliferative":1869,"Ġalopecia":1870,"port":1871,"Ġod":1872,"Ġedema":1873,"Ġsl":1874,"Ġav":1875,"ulation":1876,"Ġhypogl":1877,"oustic":1878,"Ġequ":1879,"Ġneurogenic":1880,"Ġblock":1881,"rade":1882,"Ġischemic":1883,"Ġparkinsonism":1884,"Ġdilated":1885,"junc":1886,"Ġrod":1887,"Ġskeletal":1888,"eminal":1889,"old":1890,"Ġ18":1891,"atid":1892,"Ġtrait":1893,"omatoses":1894,"Ġorg":1895,"richosis":1896,"Ġseptal":1897,"Ġresistant":1898,"ci":1899,"matic":1900,"uth":1901,"yot":1902,"Ġdes":1903,"Ġps":1904,"Ġman":1905,"omp":1906,"Ġbow":1907,"Ġgird":1908,"odactyly":1909,"Ġcone":1910,"Ġneuron":1911,"Ġhepatitis":1912,"Ġpapill":1913,"oblastoma":1914,"Ġcavernous":1915,"Ġgirdle":1916,"eld":1917,"Ġhyperlip":1918,"Ġpolydactyly":1919,"Ġsubc":1920,"ochrom":1921,"Ġendomet":1922,"Ġdegenerations":1923,"Ġclonic":1924,"Ġmedull":1925,"Ġcomplic":1926,"Ġcolorectal":1927,"cd":1928,"atent":1929,"opol":1930,"Ġrep":1931,"ostoses":1932,"vert":1933,"Ġleukoencephal":1934,"Ġoccl":1935,"ammary":1936,"Ġaciduria":1937,"Ġectopic":1938,"Ġoculomotor":1939,"Ġheterot":1940,"dural":1941,"Ġdan":1942,"ush":1943,"Ġinborn":1944,"Ġbur":1945,"ocele":1946,"Ġneut":1947,"Ġchole":1948,"Ġacoustic":1949,"rophthalm":1950,"ocyte":1951,"Ġextr":1952,"Ġinsulin":1953,"Ġarthro":1954,"Ġobstruction":1955,"Ġremod":1956,"osarcoma":1957,"Ġpurpura":1958,"achnoid":1959,"oracic":1960,"Ġchoroid":1961,"junctiv":1962,"hep":1963,"oi":1964,"pos":1965,"way":1966,"Ġill":1967,"Ġsk":1968,"ater":1969,"Ġtel":1970,"Ġaplasia":1971,"emas":1972,"Ġlup":1973,"enth":1974,"ench":1975,"Ġanimal":1976,"Ġfibrom":1977,"Ġolf":1978,"Ġkeratoderma":1979,"Ġdelay":1980,"Ġtrigeminal":1981,"onych":1982,"Ġarthrogr":1983,"sti":1984,"zhe":1985,"Ġhyal":1986,"itz":1987,"Ġgu":1988,"Ġvas":1989,"raph":1990,"ternal":1991,"off":1992,"Ġmicrophthalm":1993,"Ġimmune":1994,"Ġdermatitides":1995,"Ġbiliary":1996,"Ġhernia":1997,"Ġvestibular":1998,"Ġsaliv":1999,"Ġbasilar":2000,"Ġeosinophilic":2001,"gin":2002,"edi":2003,"Ġgm":2004,"Ġthumb":2005,"Ġreticul":2006,"isms":2007,"Ġarthritis":2008,"Ġpelvic":2009,"Ġneurom":2010,"oietic":2011,"Ġlupus":2012,"au":2013,"los":2014,"ventricular":2015,"Ġup":2016,"ases":2017,"Ġpen":2018,"tern":2019,"yltransferase":2020,"Ġib":2021,"oventricular":2022,"Ġacidosis":2023,"Ġplag":2024,"Ġextra":2025,"Ġcalcific":2026,"Ġteeth":2027,"Ġconcus":2028,"Ġgangliosidosis":2029,"Ġolfactory":2030,"Ġarthrogryposis":2031,"loc":2032,"pid":2033,"renia":2034,"orp":2035,"Ġlong":2036,"ilateral":2037,"Ġank":2038,"Ġjaw":2039,"ovirus":2040,"quam":2041,"Ġout":2042,"Ġchorea":2043,"Ġabscesses":2044,"Ġdfnb":2045,"Ġnevus":2046,"Ġborne":2047,"Ġchondrod":2048,"Ġparasitic":2049,"Ġnoctur":2050,"acchar":2051,"Ġpolycystic":2052,"doch":2053,"fusion":2054,"sis":2055,"Ġu":2056,"ash":2057,"Ġcns":2058,"ositis":2059,"Ġtes":2060,"Ġhs":2061,"Ġbul":2062,"acc":2063,"yme":2064,"oxylase":2065,"Ġosteo":2066,"utism":2067,"obulinemia":2068,"Ġdissemin":2069,"Ġskull":2070,"Ġsalivary":2071,"ses":2072,"ino":2073,"Ġmammary":2074,"Ġtre":2075,"Ġhun":2076,"Ġvul":2077,"Ġdysph":2078,"Ġdysgenesis":2079,"agl":2080,"Ġthym":2081,"Ġleukodystrophy":2082,"Ġcommun":2083,"ocytoses":2084,"Ġspasm":2085,"Ġunilateral":2086,"Ġrhin":2087,"itivities":2088,"Ġdemyel":2089,"Ġadren":2090,"Ġamyloidosis":2091,"Ġpoisonings":2092,"Ġbrachydactyly":2093,"Ġstature":2094,"keratosis":2095,"Ġsimplex":2096,"hlers":2097,"Ġniemann":2098,"opolys":2099,"hepatic":2100,"Ġtelangiect":2101,"Ġent":2102,"Ġath":2103,"Ġtib":2104,"eness":2105,"Ġhip":2106,"Ġaur":2107,"Ġgest":2108,"odys":2109,"Ġacet":2110,"Ġehlers":2111,"Ġalzhe":2112,"Ġpress":2113,"Ġglut":2114,"Ġpers":2115,"Ġperit":2116,"rhythm":2117,"Ġencephalomyelitis":2118,"Ġangle":2119,"Ġneuralgia":2120,"Ġfront":2121,"Ġmycobacter":2122,"Ġfanconi":2123,"Ġdanlos":2124,"stitial":2125,"ling":2126,"ning":2127,"py":2128,"epithelial":2129,"ovascular":2130,"Ġage":2131,"Ġorof":2132,"Ġtubular":2133,"ossal":2134,"ferenti":2135,"Ġsecre":2136,"Ġstress":2137,"Ġalzheimer":2138,"Ġpersist":2139,"sch":2140,"ty":2141,"Ġhtl":2142,"Ġair":2143,"ust":2144,"Ġfemal":2145,"ilis":2146,"Ġ46":2147,"Ġexternal":2148,"Ġsubdural":2149,"Ġarteri":2150,"Ġfibrosis":2151,"Ġtransm":2152,"Ġsclerosing":2153,"eae":2154,"Ġnephropathy":2155,"Ġpapillary":2156,"Ġdeformity":2157,"Ġvasculitis":2158,"Ġthrombocytopenia":2159,"Ġneurofibromatosis":2160,"Ġcomplications":2161,"Ġpressure":2162,"Ġfemale":2163,"ha":2164,"mal":2165,"sk":2166,"inf":2167,"Ġtox":2168,"ocephal":2169,"Ġgonad":2170,"raw":2171,"Ġconduc":2172,"Ġdigital":2173,"Ġherpes":2174,"Ġapraxia":2175,"Ġhypogonad":2176,"Ġmicrophthalmia":2177,"opolysacchar":2178,"Ġhtlv":2179,"fic":2180,"hin":2181,"nar":2182,"erc":2183,"ential":2184,"Ġcre":2185,"Ġplex":2186,"Ġme":2187,"Ġmov":2188,"omegal":2189,"Ġhigh":2190,"Ġdisc":2191,"Ġring":2192,"Ġgauc":2193,"uclear":2194,"Ġatri":2195,"Ġthoracic":2196,"Ġgloss":2197,"Ġamyot":2198,"Ġlipodystrophy":2199,"ochlear":2200,"arynx":2201,"unctional":2202,"Ġmucopolysacchar":2203,"Ġneuritis":2204,"Ġvestibul":2205,"Ġerythroderm":2206,"cin":2207,"Ġess":2208,"tig":2209,"asm":2210,"arathyroid":2211,"eses":2212,"Ġpag":2213,"Ġmc":2214,"Ġhms":2215,"Ġsyndactyly":2216,"Ġsyndromic":2217,"iter":2218,"Ġgsd":2219,"ets":2220,"etric":2221,"Ġana":2222,"Ġconjunctiv":2223,"Ġactin":2224,"Ġspont":2225,"atelet":2226,"Ġamnes":2227,"Ġhyperten":2228,"Ġover":2229,"Ġplatelet":2230,"Ġinterstitial":2231,"Ġparalyses":2232,"Ġtuberculoses":2233,"Ġlower":2234,"Ġresistance":2235,"Ġglomeruloneph":2236,"Ġcoxa":2237,"Ġpersistent":2238,"Ġmovement":2239,"Ġgaucher":2240,"Ġmucopolysaccharidosis":2241,"reas":2242,"val":2243,"vis":2244,"Ġdent":2245,"osamin":2246,"Ġtoxic":2247,"Ġdisk":2248,"opias":2249,"Ġfeb":2250,"Ġchain":2251,"Ġste":2252,"Ġprot":2253,"Ġamel":2254,"Ġblue":2255,"Ġblack":2256,"ammagl":2257,"Ġhydatid":2258,"Ġalcoholic":2259,"Ġbrachial":2260,"Ġhistiocytic":2261,"Ġmyasthenic":2262,"Ġophthalmoplegia":2263,"Ġwhite":2264,"Ġnocturnal":2265,"Ġessential":2266,"Ġhmsn":2267,"Ġspontaneous":2268,"den":2269,"sen":2270,"ta":2271,"Ġcil":2272,"isis":2273,"ice":2274,"orad":2275,"leb":2276,"Ġles":2277,"ocutaneous":2278,"Ġhypox":2279,"Ġdysostosis":2280,"Ġstate":2281,"ipar":2282,"Ġglob":2283,"ogenous":2284,"Ġcorp":2285,"unctions":2286,"Ġscot":2287,"Ġhematoma":2288,"Ġfistulas":2289,"aphyl":2290,"Ġgingival":2291,"osclerosis":2292,"Ġpseudohyp":2293,"quamous":2294,"Ġosteoarth":2295,"Ġcommunic":2296,"bert":2297,"draw":2298,"Ġir":2299,"esophag":2300,"osus":2301,"Ġmur":2302,"Ġnight":2303,"Ġfung":2304,"Ġlocal":2305,"etase":2306,"amo":2307,"ymal":2308,"Ġepis":2309,"Ġepithel":2310,"Ġinclusion":2311,"Ġsequ":2312,"Ġtrach":2313,"Ġpolyp":2314,"Ġepileptic":2315,"Ġocc":2316,"Ġmeningioma":2317,"Ġschw":2318,"Ġcomplete":2319,"pression":2320,"Ġgranuloma":2321,"Ġcalcul":2322,"Ġaphasias":2323,"ontocerebellar":2324,"Ġsuper":2325,"Ġwithdraw":2326,"orphic":2327,"Ġtremors":2328,"enburg":2329,"Ġtachycardia":2330,"Ġgroup":2331,"Ġequine":2332,"vertebral":2333,"Ġdisseminated":2334,"Ġdemyelinating":2335,"Ġwithdrawal":2336,"fe":2337,"oep":2338,"pel":2339,"Ġros":2340,"aria":2341,"Ġporphyr":2342,"Ġmen":2343,"eles":2344,"Ġgo":2345,"Ġgall":2346,"Ġcerebrosp":2347,"ability":2348,"Ġblood":2349,"Ġcoll":2350,"Ġerror":2351,"Ġradial":2352,"elect":2353,"Ġneuralgias":2354,"Ġobstructive":2355,"Ġnonsyn":2356,"Ġcerebrospinal":2357,"titides":2358,"Ġsial":2359,"asive":2360,"Ġcys":2361,"arb":2362,"estive":2363,"Ġpyr":2364,"Ġhol":2365,"Ġ16":2366,"Ġventric":2367,"odic":2368,"Ġand":2369,"Ġanemias":2370,"Ġeff":2371,"Ġspg":2372,"Ġspong":2373,"Ġneurot":2374,"Ġepithelial":2375,"Ġpulp":2376,"ofusc":2377,"Ġlipofusc":2378,"ocytoma":2379,"ropoietic":2380,"Ġspasms":2381,"Ġdegenerative":2382,"Ġepidural":2383,"Ġceroid":2384,"Ġmouth":2385,"Ġenteropathy":2386,"Ġglucose":2387,"oglobin":2388,"Ġvertebral":2389,"Ġodont":2390,"Ġankyl":2391,"Ġvulv":2392,"cent":2393,"line":2394,"rac":2395,"ratent":2396,"rog":2397,"Ġseb":2398,"Ġpas":2399,"orial":2400,"dromic":2401,"Ġfel":2402,"Ġliss":2403,"Ġdeath":2404,"utz":2405,"Ġhypop":2406,"Ġparan":2407,"Ġpres":2408,"Ġencephalitides":2409,"Ġmeta":2410,"Ġcolob":2411,"Ġmeningiomas":2412,"Ġendothel":2413,"Ġcoag":2414,"glyc":2415,"Ġdiar":2416,"Ġulnar":2417,"Ġgranulomatous":2418,"Ġbronchi":2419,"Ġinvol":2420,"Ġcmt":2421,"eptor":2422,"Ġschizophrenia":2423,"Ġfluid":2424,"Ġupper":2425,"ratentorial":2426,"ex":2427,"feld":2428,"pd":2429,"vular":2430,"yros":2431,"Ġmat":2432,"Ġtroph":2433,"Ġrub":2434,"Ġrick":2435,"Ġvocal":2436,"sible":2437,"Ġmyx":2438,"Ġwal":2439,"Ġwol":2440,"Ġpolym":2441,"Ġmeningeal":2442,"Ġfruct":2443,"Ġnecrosis":2444,"Ġcirrh":2445,"Ġvisc":2446,"Ġconvulsions":2447,"Ġphenyl":2448,"Ġblepha":2449,"etrating":2450,"Ġplasma":2451,"Ġregion":2452,"Ġcholedoch":2453,"esophageal":2454,"bital":2455,"lux":2456,"alass":2457,"erap":2458,"eryth":2459,"ondrom":2460,"Ġcall":2461,"omen":2462,"romal":2463,"eling":2464,"Ġlab":2465,"ida":2466,"ections":2467,"Ġchang":2468,"igm":2469,"uccin":2470,"Ġlev":2471,"Ġargin":2472,"Ġarrhythm":2473,"Ġadd":2474,"Ġadh":2475,"Ġthalass":2476,"Ġcommon":2477,"Ġhex":2478,"Ġreceptor":2479,"Ġfibr":2480,"Ġataxias":2481,"riate":2482,"Ġgranular":2483,"Ġglycosyl":2484,"rown":2485,"Ġphosphor":2486,"emoral":2487,"Ġulcers":2488,"Ġaneurysms":2489,"purative":2490,"Ġimpair":2491,"Ġembolism":2492,"Ġembry":2493,"Ġhydroxylase":2494,"Ġsulfatase":2495,"Ġendometrial":2496,"Ġextrem":2497,"Ġerythroderma":2498,"arathyroidism":2499,"Ġcorpus":2500,"Ġnonsyndromic":2501,"Ġimpairment":2502,"az":2503,"for":2504,"ones":2505,"ister":2506,"Ġtet":2507,"Ġhom":2508,"lebran":2509,"Ġdisloc":2510,"tional":2511,"Ġlich":2512,"Ġdeep":2513,"ider":2514,"Ġcholester":2515,"Ġanal":2516,"Ġ25":2517,"Ġlepro":2518,"Ġhypercal":2519,"Ġwor":2520,"Ġwound":2521,"Ġamb":2522,"Ġshe":2523,"Ġabsent":2524,"Ġerythemat":2525,"Ġhypoplastic":2526,"intestinal":2527,"Ġecz":2528,"Ġsexual":2529,"Ġwillebran":2530,"Ġcarboxylase":2531,"Ġmelanoma":2532,"Ġcholest":2533,"Ġsickness":2534,"Ġsubcortical":2535,"ferentiated":2536,"Ġwillebrand":2537,"bil":2538,"eo":2539,"gue":2540,"ket":2541,"sh":2542,"rol":2543,"Ġsyph":2544,"ator":2545,"osiform":2546,"Ġtroch":2547,"Ġhid":2548,"phrag":2549,"Ġnut":2550,"ito":2551,"itation":2552,"Ġbile":2553,"Ġlen":2554,"Ġlys":2555,"Ġrest":2556,"Ġgamm":2557,"Ġdysenter":2558,"iciencies":2559,"Ġleber":2560,"Ġmyopathies":2561,"ardenburg":2562,"Ġstromal":2563,"Ġald":2564,"Ġko":2565,"Ġlymphoblastic":2566,"Ġxanth":2567,"Ġmetach":2568,"unct":2569,"Ġfried":2570,"Ġthromboses":2571,"ophilia":2572,"Ġneck":2573,"Ġhaem":2574,"Ġdevelopment":2575,"Ġdysfunctions":2576,"Ġdfna":2577,"Ġsynthase":2578,"Ġvein":2579,"Ġdentin":2580,"Ġagnosia":2581,"Ġwaardenburg":2582,"Ġastrocytoma":2583,"Ġrupture":2584,"Ġhypoglossal":2585,"Ġbowel":2586,"Ġuve":2587,"Ġtibial":2588,"Ġairway":2589,"Ġgonadal":2590,"Ġglossopharyngeal":2591,"bal":2592,"lu":2593,"rile":2594,"inase":2595,"Ġsud":2596,"Ġcog":2597,"Ġcand":2598,"Ġpor":2599,"Ġtw":2600,"Ġtur":2601,"Ġhir":2602,"ulmonary":2603,"ace":2604,"Ġmyopia":2605,"inetic":2606,"Ġthird":2607,"Ġasym":2608,"axial":2609,"Ġchromosomal":2610,"oneuro":2611,"ofib":2612,"Ġlipoprotein":2613,"avirus":2614,"Ġpneumonias":2615,"Ġmucolip":2616,"Ġcircul":2617,"Ġasperg":2618,"Ġmaj":2619,"Ġduod":2620,"Ġprolapse":2621,"Ġcontractures":2622,"Ġchondrodysplasia":2623,"malonic":2624,"Ġfebrile":2625,"Ġdiarrh":2626,"Ġglycosylation":2627,"auro":2628,"blast":2629,"iration":2630,"tative":2631,"Ġel":2632,"tile":2633,"inations":2634,"inemias":2635,"Ġster":2636,"Ġdna":2637,"oseph":2638,"Ġtyros":2639,"ley":2640,"operative":2641,"Ġback":2642,"urias":2643,"amine":2644,"odig":2645,"Ġant":2646,"Ġacanth":2647,"otal":2648,"Ġlead":2649,"Ġsporad":2650,"Ġatelect":2651,"Ġxx":2652,"acher":2653,"ifest":2654,"Ġmyelogenous":2655,"Ġmeningoencephal":2656,"antitative":2657,"Ġureth":2658,"Ġplac":2659,"Ġoliv":2660,"Ġkeratosis":2661,"ococc":2662,"Ġhypotrichosis":2663,"oblastomas":2664,"Ġhemangioma":2665,"Ġvagus":2666,"Ġreaction":2667,"Ġprostate":2668,"Ġquantitative":2669,"Ġclassic":2670,"Ġmanifest":2671,"Ġhypogonadism":2672,"Ġpaget":2673,"Ġcallosum":2674,"Ġthalassemia":2675,"Ġtrochlear":2676,"Ġsporadic":2677,"berg":2678,"dm":2679,"kal":2680,"ls":2681,"ule":2682,"ximal":2683,"ĠÃ":2684,"ery":2685,"onent":2686,"Ġcutis":2687,"org":2688,"Ġmax":2689,"opulmonary":2690,"Ġbif":2691,"ilities":2692,"ums":2693,"Ġvii":2694,"odg":2695,"ranul":2696,"Ġacc":2697,"Ġacro":2698,"ebic":2699,"Ġstaphyl":2700,"Ġweb":2701,"Ġepiphyseal":2702,"Ġhemiple":2703,"ophosph":2704,"Ġproximal":2705,"Ġperfor":2706,"Ġxy":2707,"apul":2708,"Ġangina":2709,"omalac":2710,"pathetic":2711,"uctase":2712,"Ġinflammation":2713,"Ġcomponent":2714,"Ġbullous":2715,"Ġichthyosiform":2716,"Ġstates":2717,"tivity":2718,"Ġmitral":2719,"Ġhernias":2720,"omycosis":2721,"omnia":2722,"Ġmyotonic":2723,"Ġcampt":2724,"Ġosteopo":2725,"Ġattack":2726,"Ġtorsion":2727,"Ġmedullary":2728,"osaminidase":2729,"ammaglobulinemia":2730,"Ġepisodic":2731,"Ġlipofuscinosis":2732,"iomy":2733,"rin":2734,"osens":2735,"Ġhp":2736,"Ġfus":2737,"Ġfati":2738,"Ġfemoral":2739,"Ġrp":2740,"Ġrig":2741,"Ġgas":2742,"Ġhypo":2743,"odysplasia":2744,"Ġhyperp":2745,"Ġhyperostosis":2746,"Ġwern":2747,"ectodermal":2748,"ization":2749,"Ġseg":2750,"endothel":2751,"Ġamn":2752,"Ġmultic":2753,"Ġbrainst":2754,"Ġcold":2755,"Ġopen":2756,"Ġperiventricular":2757,"Ġerup":2758,"iosyn":2759,"wareness":2760,"Ġsarcomas":2761,"Ġcontusion":2762,"Ġmemory":2763,"Ġvisual":2764,"Ġfrontal":2765,"Ġfacies":2766,"Ġswine":2767,"Ġcraniofacial":2768,"Ġmerc":2769,"Ġsynthetase":2770,"Ġgastrointestinal":2771,"versal":2772,"Ġadenocarcinoma":2773,"Ġacetyl":2774,"odgkin":2775,"Ġbrainstem":2776,"dle":2777,"ioid":2778,"min":2779,"nath":2780,"oul":2781,"ras":2782,"enous":2783,"Ġcram":2784,"ese":2785,"Ġpt":2786,"Ġpem":2787,"Ġpter":2788,"Ġpunct":2789,"osch":2790,"Ġmann":2791,"Ġmeg":2792,"romandibular":2793,"phig":2794,"Ġind":2795,"ili":2796,"Ġ23":2797,"Ġlymphoproliferative":2798,"ophys":2799,"Ġperoneal":2800,"reich":2801,"ross":2802,"abd":2803,"ohyph":2804,"Ġgene":2805,"odystrophies":2806,"Ġneuritides":2807,"Ġpupillary":2808,"Ġinvasive":2809,"Ġprostatic":2810,"Ġcryptogenic":2811,"Ġsyncope":2812,"rovascular":2813,"Ġoligod":2814,"Ġconcussive":2815,"orption":2816,"Ġhypertensive":2817,"Ġvisceral":2818,"Ġweber":2819,"Ġmercur":2820,"Ġpemphig":2821,"cs":2822,"hid":2823,"oendothel":2824,"Ġus":2825,"alan":2826,"rous":2827,"Ġpach":2828,"Ġmd":2829,"Ġtend":2830,"Ġhm":2831,"romatic":2832,"Ġaff":2833,"iatic":2834,"Ġber":2835,"yster":2836,"ocon":2837,"oceles":2838,"Ġgr":2839,"Ġgre":2840,"Ġvan":2841,"Ġinfant":2842,"Ġcond":2843,"irub":2844,"ostatic":2845,"Ġparag":2846,"version":2847,"Ġlymphaden":2848,"ensitivities":2849,"Ġabuse":2850,"Ġcompression":2851,"Ġcolon":2852,"Ġdiaphrag":2853,"Ġrhabd":2854,"Ġthyroiditis":2855,"Ġrespon":2856,"Ġhypersensitivities":2857,"Ġcraniosyn":2858,"Ġcontusions":2859,"Ġsymptom":2860,"Ġfascicul":2861,"ediate":2862,"Ġtesticular":2863,"Ġtelangiectasia":2864,"Ġtransmis":2865,"Ġciliary":2866,"Ġfeline":2867,"Ġcoagulation":2868,"Ġwalker":2869,"Ġcirrhosis":2870,"Ġcholestasis":2871,"Ġhirsch":2872,"ioses":2873,"iari":2874,"kes":2875,"alang":2876,"tit":2877,"Ġsol":2878,"ontia":2879,"arachnoid":2880,"aton":2881,"osal":2882,"Ġmas":2883,"Ġterat":2884,"Ġhur":2885,"Ġautism":2886,"opa":2887,"Ġfing":2888,"Ġbrown":2889,"ille":2890,"lastic":2891,"thromb":2892,"Ġchl":2893,"Ġ24":2894,"ott":2895,"Ġhemian":2896,"Ġdystrophic":2897,"Ġsubarachnoid":2898,"Ġcolonic":2899,"ropath":2900,"Ġplantar":2901,"Ġclear":2902,"Ġreflux":2903,"Ġintrahepatic":2904,"Ġmedial":2905,"Ġvertig":2906,"Ġseptic":2907,"Ġcirc":2908,"Ġvaria":2909,"Ġoxidase":2910,"Ġbeh":2911,"Ġasthma":2912,"Ġplexus":2913,"Ġfungal":2914,"Ġandrogen":2915,"Ġcoloboma":2916,"Ġfructose":2917,"Ġlichen":2918,"Ġfriedreich":2919,"Ġcandid":2920,"Ġrigid":2921,"Ġresponsive":2922,"aqu":2923,"les":2924,"onitis":2925,"Ġcmd":2926,"omach":2927,"Ġtong":2928,"Ġtotal":2929,"lec":2930,"oper":2931,"Ġfat":2932,"Ġfood":2933,"Ġbis":2934,"ocys":2935,"Ġdec":2936,"idal":2937,"Ġger":2938,"Ġvi":2939,"rap":2940,"genital":2941,"Ġchiari":2942,"Ġ20":2943,"otemporal":2944,"oplasia":2945,"Ġneurode":2946,"Ġstomach":2947,"Ġatrophic":2948,"Ġiron":2949,"Ġhemoglobin":2950,"Ġprec":2951,"Ġdystonias":2952,"Ġcerebro":2953,"Ġcerebell":2954,"app":2955,"Ġphase":2956,"Ġamauro":2957,"Ġexc":2958,"seous":2959,"ally":2960,"uvate":2961,"Ġobes":2962,"Ġsmith":2963,"Ġcontact":2964,"Ġvitre":2965,"Ġhypotension":2966,"Ġweight":2967,"Ġreactive":2968,"Ġelev":2969,"Ġhyperlipoproteinemia":2970,"Ġamyotrophic":2971,"Ġanaplastic":2972,"Ġneurotoxic":2973,"Ġendothelial":2974,"Ġerythematosus":2975,"Ġmetachromatic":2976,"Ġstaphylococcal":2977,"ophosphat":2978,"Ġtransmissible":2979,"ew":2980,"fan":2981,"mia":2982,"metric":2983,"ozo":2984,"Ġtin":2985,"tim":2986,"Ġsem":2987,"Ġdip":2988,"Ġdens":2989,"enz":2990,"ise":2991,"icke":2992,"Ġhodgkin":2993,"Ġna":2994,"Ġbi":2995,"Ġbo":2996,"ocular":2997,"Ġgrade":2998,"olitis":2999,"ump":3000,"Ġhyperglyc":3001,"Ġstro":3002,"Ġstra":3003,"Ġiia":3004,"Ġparap":3005,"Ġparesis":3006,"Ġpros":3007,"ermann":3008,"Ġtri":3009,"Ġsensitive":3010,"Ġtransection":3011,"Ġunipar":3012,"Ġhydrocephal":3013,"roditis":3014,"Ġmedias":3015,"radicul":3016,"Ġfour":3017,"Ġsympathetic":3018,"Ġpolyradicul":3019,"tility":3020,"Ġsplenic":3021,"Ġavulsion":3022,"Ġmiddle":3023,"Ġrheumatic":3024,"Ġsymptomatic":3025,"Ġhallucinations":3026,"esthesia":3027,"Ġpenetrating":3028,"Ġgestational":3029,"Ġtoxoplasm":3030,"Ġlissencephaly":3031,"Ġtrophoblastic":3032,"Ġcholesterol":3033,"odigital":3034,"Ġwernicke":3035,"Ġbisphosph":3036,"Ġuniparental":3037,"Ġhydrocephalus":3038,"aut":3039,"ean":3040,"ga":3041,"ius":3042,"ks":3043,"lin":3044,"Ġsac":3045,"Ġsign":3046,"Ġsquamous":3047,"onec":3048,"ontine":3049,"Ġcock":3050,"Ġtric":3051,"iative":3052,"opontocerebellar":3053,"Ġfor":3054,"ocochlear":3055,"unn":3056,"Ġleiomy":3057,"ostotic":3058,"ipital":3059,"reif":3060,"Ġfibromatosis":3061,"Ġshock":3062,"Ġmultiplex":3063,"Ġmeningococcal":3064,"Ġschist":3065,"Ġacidemia":3066,"Ġorth":3067,"Ġrobin":3068,"Ġinsufficiencies":3069,"Ġdeformities":3070,"ittent":3071,"Ġigm":3072,"Ġapraxias":3073,"Ġreductase":3074,"Ġcapillary":3075,"Ġdiverticulum":3076,"Ġavulsions":3077,"Ġentrap":3078,"Ġmycobacterium":3079,"Ġvestibulocochlear":3080,"Ġlysosomal":3081,"Ġsudden":3082,"Ġmucolipidosis":3083,"Ġmajor":3084,"Ġolivopontocerebellar":3085,"Ġcraniosynostosis":3086,"Ġentrapment":3087,"aund":3088,"ayne":3089,"awareness":3090,"mur":3091,"spr":3092,"Ġia":3093,"inous":3094,"Ġcross":3095,"Ġmosa":3096,"omia":3097,"Ġtas":3098,"Ġtac":3099,"roma":3100,"Ġfrag":3101,"Ġrib":3102,"oler":3103,"Ġhypophosphat":3104,"Ġantib":3105,"Ġneuroc":3106,"Ġlymphedema":3107,"ophor":3108,"ovenous":3109,"ermia":3110,"ione":3111,"Ġarterios":3112,"Ġadenomatous":3113,"Ġtransections":3114,"Ġorbital":3115,"Ġunawareness":3116,"Ġinsensitivity":3117,"Ġemphys":3118,"yroidism":3119,"Ġthyroiditides":3120,"Ġretinosch":3121,"Ġinfarctions":3122,"Ġstatus":3123,"Ġvaginal":3124,"Ġconvulsion":3125,"Ġorganic":3126,"Ġcalcification":3127,"Ġfrontotemporal":3128,"Ġorofacial":3129,"Ġarteriovenous":3130,"Ġatrioventricular":3131,"Ġmurmur":3132,"Ġporphyria":3133,"Ġhirschspr":3134,"Ġcockayne":3135,"Ġmosaic":3136,"Ġhirschsprung":3137,"bacher":3138,"ez":3139,"kinetic":3140,"oat":3141,"ted":3142,"Ġet":3143,"onate":3144,"Ġpine":3145,"atures":3146,"osuccin":3147,"Ġmil":3148,"omon":3149,"Ġter":3150,"Ġham":3151,"phen":3152,"Ġsynov":3153,"uspid":3154,"Ġling":3155,"Ġhyperch":3156,"Ġhyperbil":3157,"Ġneuroectodermal":3158,"Ġalb":3159,"Ġhemophag":3160,"oids":3161,"Ġxp":3162,"Ġaber":3163,"illar":3164,"Ġpostoperative":3165,"Ġsensation":3166,"erging":3167,"Ġplaqu":3168,"rition":3169,"Ġpapul":3170,"Ġhematomas":3171,"Ġmesothel":3172,"turb":3173,"Ġpolyneuropathies":3174,"Ġdepression":3175,"Ġphenomen":3176,"Ġmethylmalonic":3177,"obulbar":3178,"Ġtick":3179,"Ġsyncopes":3180,"Ġagnosias":3181,"Ġmembrane":3182,"Ġhallucination":3183,"Ġleukoencephalopathy":3184,"Ġdelayed":3185,"Ġsecreting":3186,"erapy":3187,"erythropoietic":3188,"Ġneurodegener":3189,"Ġhyperbilirub":3190,"ds":3191,"kn":3192,"sia":3193,"tra":3194,"virus":3195,"ention":3196,"icard":3197,"Ġmut":3198,"Ġhen":3199,"Ġhab":3200,"Ġnk":3201,"Ġno":3202,"Ġnas":3203,"Ġnormal":3204,"Ġbart":3205,"Ġneoplasia":3206,"utter":3207,"adr":3208,"Ġarr":3209,"Ġlymphoid":3210,"Ġ32":3211,"Ġabor":3212,"Ġjoseph":3213,"Ġintoler":3214,"Ġmeningitides":3215,"Ġtransport":3216,"Ġsciatic":3217,"Ġaggressive":3218,"avior":3219,"Ġapnea":3220,"Ġepidemic":3221,"enteric":3222,"Ġintervertebral":3223,"Ġcomplication":3224,"Ġglycogenosis":3225,"Ġpyogenic":3226,"omycoses":3227,"Ġmyasthenia":3228,"Ġurogenital":3229,"Ġictal":3230,"osteron":3231,"Ġintermediate":3232,"Ġavian":3233,"Ġheterotopia":3234,"Ġadrenoc":3235,"Ġather":3236,"Ġglomerulonephritis":3237,"Ġmetaphyseal":3238,"feldt":3239,"Ġrickets":3240,"Ġaspergill":3241,"Ġfatigue":3242,"Ġdiaphragmatic":3243,"Ġvertigo":3244,"Ġhemophagocytic":3245,"aur":3246,"cc":3247,"mer":3248,"ycl":3249,"Ġsil":3250,"Ġsomat":3251,"Ġcoma":3252,"istic":3253,"icit":3254,"atment":3255,"Ġmild":3256,"Ġmegal":3257,"omening":3258,"Ġtemporal":3259,"Ġnarc":3260,"iap":3261,"Ġdisomy":3262,"Ġdisturb":3263,"eding":3264,"Ġinst":3265,"opros":3266,"Ġfatal":3267,"Ġbab":3268,"Ġblast":3269,"aceae":3270,"Ġrect":3271,"uric":3272,"Ġnew":3273,"Ġneoplastic":3274,"Ġdeficit":3275,"Ġdysp":3276,"elli":3277,"rophil":3278,"uscular":3279,"Ġker":3280,"Ġkle":3281,"Ġlymphatic":3282,"Ġjak":3283,"Ġjaund":3284,"abilities":3285,"Ġamino":3286,"Ġpostp":3287,"Ġarteritis":3288,"tington":3289,"Ġosteogenesis":3290,"Ġthrombotic":3291,"Ġpseudot":3292,"entil":3293,"Ġovary":3294,"Ġdementias":3295,"Ġincomp":3296,"Ġdepressive":3297,"osarcomas":3298,"Ġminimal":3299,"Ġastrocytomas":3300,"otropic":3301,"Ġintermittent":3302,"onychia":3303,"Ġtreatment":3304,"Ġcreutz":3305,"valvular":3306,"Ġamelogenesis":3307,"Ġlocalized":3308,"Ġoccipital":3309,"Ġinvolv":3310,"Ġarrhythmogenic":3311,"Ġurethral":3312,"Ġmaxillary":3313,"Ġparagangl":3314,"Ġtongue":3315,"Ġtricuspid":3316,"Ġantibody":3317,"Ġcreutzfeldt":3318,"ah":3319,"dl":3320,"nold":3321,"algia":3322,"Ġsenile":3323,"Ġsyr":3324,"Ġdreif":3325,"Ġcit":3326,"Ġaf":3327,"Ġnose":3328,"uster":3329,"ites":3330,"Ġfuc":3331,"Ġlax":3332,"actin":3333,"iduria":3334,"itin":3335,"amel":3336,"Ġhyperplasias":3337,"ancies":3338,"Ġwill":3339,"Ġwater":3340,"ading":3341,"Ġparathyroid":3342,"Ġars":3343,"Ġarnold":3344,"iller":3345,"ycan":3346,"Ġnonc":3347,"Ġqt":3348,"Ġfeatures":3349,"Ġcardiovascular":3350,"Ġemery":3351,"Ġnephritis":3352,"etaphyseal":3353,"Ġischemias":3354,"Ġverbal":3355,"Ġhistiocytosis":3356,"Ġpancreas":3357,"Ġendocard":3358,"Ġpeliz":3359,"Ġuterus":3360,"Ġglaucomas":3361,"Ġhemangiomas":3362,"Ġgalactosidase":3363,"Ġspondyloep":3364,"Ġhairy":3365,"Ġpathological":3366,"Ġcomplementation":3367,"Ġmrxs":3368,"Ġverteb":3369,"phalang":3370,"Ġorgan":3371,"Ġbulbar":3372,"Ġventricle":3373,"Ġcholedochal":3374,"Ġadhes":3375,"Ġsheath":3376,"Ġturner":3377,"Ġduodenal":3378,"Ġcamptodactyly":3379,"Ġoligodend":3380,"Ġusher":3381,"Ġparapar":3382,"Ġtactile":3383,"Ġdreifuss":3384,"aud":3385,"da":3386,"ful":3387,"hyp":3388,"iocephal":3389,"low":3390,"rull":3391,"zbacher":3392,"Ġsurg":3393,"enatal":3394,"Ġcel":3395,"Ġmps":3396,"Ġtrop":3397,"iteal":3398,"Ġinvers":3399,"Ġri":3400,"ocl":3401,"iast":3402,"Ġanox":3403,"Ġlew":3404,"ubert":3405,"Ġreading":3406,"ogy":3407,"Ġcerebrovascular":3408,"Ġsubcl":3409,"Ġcoli":3410,"Ġosteochond":3411,"Ġosteonec":3412,"stmann":3413,"Ġsensitivity":3414,"Ġmicroc":3415,"Ġapp":3416,"Ġclos":3417,"Ġangio":3418,"Ġangiopathy":3419,"rogenic":3420,"ugh":3421,"aeus":3422,"Ġoculocutaneous":3423,"Ġpsychoses":3424,"opliteal":3425,"insulin":3426,"Ġvener":3427,"Ġaspart":3428,"Ġbronchial":3429,"Ġgalactose":3430,"Ġdyskinesias":3431,"Ġmerzbacher":3432,"Ġlactic":3433,"Ġherpetic":3434,"Ġclassical":3435,"aldosteron":3436,"Ġdysmorph":3437,"Ġperiodontal":3438,"Ġadenocarcinomas":3439,"Ġbreak":3440,"Ġillness":3441,"Ġplagiocephal":3442,"ski":3443,"Ġconduction":3444,"Ġholopros":3445,"Ġsebace":3446,"Ġextremity":3447,"oulder":3448,"Ġaffective":3449,"Ġgerstmann":3450,"Ġobesity":3451,"Ġneurotoxicity":3452,"Ġpelizaeus":3453,"cemia":3454,"Ġonych":3455,"alc":3456,"erv":3457,"rot":3458,"enn":3459,"Ġcephal":3460,"Ġpp":3461,"Ġpure":3462,"Ġpopliteal":3463,"Ġmole":3464,"Ġhar":3465,"usen":3466,"Ġfore":3467,"Ġlyme":3468,"aci":3469,"Ġgerm":3470,"oli":3471,"eteral":3472,"Ġdyserythropoietic":3473,"ellular":3474,"unt":3475,"Ġcong":3476,"uctal":3477,"Ġacrom":3478,"Ġspot":3479,"Ġsperm":3480,"ances":3481,"Ġstri":3482,"Ġwell":3483,"ada":3484,"verse":3485,"Ġglioma":3486,"Ġperox":3487,"Ġxer":3488,"ibosyl":3489,"tex":3490,"Ġcystaden":3491,"Ġhypertrophy":3492,"Ġsca":3493,"ocerebral":3494,"Ġhypersomn":3495,"Ġoculo":3496,"Ġepidermolytic":3497,"Ġcataracts":3498,"Ġobstructions":3499,"okal":3500,"Ġlobe":3501,"Ġbranchio":3502,"Ġurol":3503,"Ġruptures":3504,"Ġhuntington":3505,"omegaly":3506,"Ġspongiform":3507,"igmoid":3508,"Ġfibrill":3509,"Ġphosphoribosyl":3510,"Ġcogn":3511,"Ġamaurosis":3512,"Ġhamart":3513,"Ġarrest":3514,"Ġjakob":3515,"ej":3516,"eu":3517,"fol":3518,"rate":3519,"sm":3520,"ues":3521,"ya":3522,"inuria":3523,"inosuccin":3524,"Ġdiast":3525,"ositides":3526,"Ġtak":3527,"romas":3528,"Ġfall":3529,"Ġlenti":3530,"activity":3531,"idoses":3532,"Ġchr":3533,"Ġanhid":3534,"otyp":3535,"otoxic":3536,"Ġev":3537,"Ġleak":3538,"cher":3539,"Ġhemi":3540,"Ġkyph":3541,"Ġthy":3542,"ogranul":3543,"enstr":3544,"ovag":3545,"oviridae":3546,"endoc":3547,"Ġpolys":3548,"Ġnonp":3549,"Ġshell":3550,"Ġshig":3551,"Ġshoulder":3552,"Ġmicro":3553,"Ġimmunoblastic":3554,"rodactyly":3555,"lexia":3556,"bladder":3557,"Ġwilms":3558,"Ġthrombocytopenic":3559,"Ġmyotonia":3560,"Ġsplit":3561,"Ġosteopet":3562,"Ġcytochrom":3563,"Ġlanger":3564,"Ġlambert":3565,"position":3566,"Ġthymic":3567,"Ġperitoneal":3568,"Ġamnestic":3569,"Ġschwann":3570,"Ġgallbladder":3571,"Ġerrors":3572,"Ġpassive":3573,"Ġargininosuccin":3574,"luenz":3575,"Ġfatty":3576,"Ġdensity":3577,"roditism":3578,"Ġlingual":3579,"Ġphenomenon":3580,"Ġcitrull":3581,"Ġvenereal":3582,"Ġsebaceous":3583,"ejun":3584,"Ġcytochrome":3585,"get":3586,"jer":3587,"land":3588,"nitus":3589,"ria":3590,"td":3591,"yer":3592,"inn":3593,"atoid":3594,"Ġtension":3595,"Ġtetra":3596,"pher":3597,"yndactyly":3598,"ulsive":3599,"Ġsynostosis":3600,"Ġfir":3601,"Ġband":3602,"Ġbund":3603,"ocyst":3604,"eptic":3605,"Ġconst":3606,"Ġmyok":3607,"Ġstoma":3608,"obulin":3609,"Ġlymphangi":3610,"Ġtumour":3611,"endym":3612,"Ġpharyngeal":3613,"ohum":3614,"Ġoccul":3615,"Ġsubst":3616,"Ġcatat":3617,"ophilus":3618,"Ġrefs":3619,"Ġintrauter":3620,"Ġintraepithelial":3621,"Ġarthritides":3622,"raden":3623,"Ġovine":3624,"Ġdifferentiated":3625,"Ġcardiomyopathies":3626,"Ġtuberculous":3627,"Ġsuppurative":3628,"Ġpigmentary":3629,"Ġpsychosis":3630,"Ġpsychomotor":3631,"Ġganglia":3632,"Ġcervix":3633,"Ġfailures":3634,"Ġhydroxy":3635,"ikil":3636,"Ġveget":3637,"Ġgravis":3638,"Ġprolapses":3639,"Ġmembranous":3640,"Ġpleural":3641,"Ġneutrophil":3642,"enchymal":3643,"ercise":3644,"Ġepithelioid":3645,"Ġpyruvate":3646,"Ġparanoid":3647,"Ġamnesia":3648,"Ġmercury":3649,"Ġtinnitus":3650,"Ġdipl":3651,"Ġbisphosphonate":3652,"Ġorthostatic":3653,"Ġterror":3654,"Ġadrenocortical":3655,"Ġjaundice":3656,"Ġinvolvement":3657,"Ġafric":3658,"Ġoligodendrogl":3659,"Ġperoxis":3660,"Ġosteopetrosis":3661,"Ġmyokym":3662,"Ġsubstance":3663,"Ġintrauterine":3664,"Ġvegetative":3665,"dh":3666,"ret":3667,"va":3668,"yx":3669,"Ġotor":3670,"inth":3671,"Ġsn":3672,"Ġsing":3673,"Ġpan":3674,"Ġpet":3675,"ani":3676,"atric":3677,"Ġmis":3678,"Ġtard":3679,"Ġtyph":3680,"Ġtemp":3681,"Ġnmd":3682,"Ġdissoc":3683,"Ġinapp":3684,"Ġbro":3685,"Ġlg":3686,"Ġrich":3687,"Ġgang":3688,"Ġdysarth":3689,"Ġconn":3690,"Ġacin":3691,"Ġacth":3692,"Ġeating":3693,"Ġlevel":3694,"Ġhyperth":3695,"Ġsple":3696,"adel":3697,"Ġiib":3698,"erebral":3699,"Ġarm":3700,"Ġarachnoid":3701,"ismus":3702,"achment":3703,"Ġabduc":3704,"Ġheat":3705,"Ġamo":3706,"Ġamin":3707,"Ġfibros":3708,"Ġopitz":3709,"ropriate":3710,"eger":3711,"Ġfeet":3712,"Ġpainful":3713,"glut":3714,"Ġmucosal":3715,"Ġgranulomas":3716,"ematous":3717,"Ġsupra":3718,"Ġsupratentorial":3719,"Ġganglion":3720,"Ġvalg":3721,"Ġlosses":3722,"Ġincon":3723,"Ġbronchopulmonary":3724,"ocytopenia":3725,"Ġhypothyroidism":3726,"Ġvaric":3727,"Ġnevi":3728,"Ġdiverticula":3729,"Ġtachycardias":3730,"Ġcontracture":3731,"Ġperiodontitis":3732,"arsal":3733,"Ġdesm":3734,"Ġneutrop":3735,"Ġactinic":3736,"Ġgloboid":3737,"Ġsequence":3738,"Ġcystin":3739,"Ġphenylket":3740,"Ġaddic":3741,"Ġhexosaminidase":3742,"Ġdislocation":3743,"Ġleprosy":3744,"Ġsyphilis":3745,"oneuropathy":3746,"Ġdiarrhea":3747,"Ġptosis":3748,"Ġsymptoms":3749,"ropathies":3750,"Ġbehavior":3751,"Ġcandidiasis":3752,"Ġfourth":3753,"ioneuro":3754,"Ġincompet":3755,"Ġarsenic":3756,"Ġceliac":3757,"ohumeral":3758,"Ġafrican":3759,"Ġperoxisomal":3760,"Ġinappropriate":3761,"Ġphenylketon":3762,"hr":3763,"lo":3764,"mond":3765,"niti":3766,"rum":3767,"ss":3768,"ves":3769,"enias":3770,"onan":3771,"Ġcost":3772,"Ġcycl":3773,"aric":3774,"Ġpann":3775,"ats":3776,"att":3777,"Ġmach":3778,"Ġho":3779,"Ġnan":3780,"Ġnemal":3781,"Ġinsi":3782,"Ġfif":3783,"Ġfuch":3784,"Ġbir":3785,"Ġline":3786,"thes":3787,"thesis":3788,"Ġchem":3789,"imot":3790,"ucle":3791,"Ġacyl":3792,"Ġeaton":3793,"Ġneuroax":3794,"Ġstage":3795,"Ġwall":3796,"ado":3797,"Ġatopic":3798,"ymphocytic":3799,"Ġprop":3800,"Ġreversal":3801,"Ġretrac":3802,"Ġencephalomyel":3803,"Ġcortex":3804,"ohyd":3805,"omatoid":3806,"aff":3807,"Ġprimitive":3808,"own":3809,"Ġcolitis":3810,"Ġagammaglobulinemia":3811,"akia":3812,"aved":3813,"Ġapical":3814,"Ġappend":3815,"Ġinternal":3816,"Ġglycoprotein":3817,"Ġretinopathy":3818,"Ġpigmented":3819,"Ġenamel":3820,"Ġyo":3821,"Ġossi":3822,"Ġelect":3823,"Ġachond":3824,"Ġslow":3825,"Ġchoroidal":3826,"Ġibd":3827,"pidus":3828,"Ġoutlet":3829,"Ġhsan":3830,"Ġmovements":3831,"Ġlesions":3832,"Ġcalculi":3833,"Ġchange":3834,"Ġcramp":3835,"ophyseal":3836,"Ġsolitary":3837,"Ġvariable":3838,"unnel":3839,"Ġtaste":3840,"Ġretinoschisis":3841,"Ġparaparesis":3842,"Ġtropical":3843,"Ġosteonecrosis":3844,"aldosteronism":3845,"Ġcognitive":3846,"Ġshigella":3847,"Ġconstric":3848,"Ġoccult":3849,"nitine":3850,"Ġnemaline":3851,"Ġinsipidus":3852,"Ġneuroaxonal":3853,"aemia":3854,"aine":3855,"co":3856,"ear":3857,"fish":3858,"neas":3859,"Ġom":3860,"Ġsa":3861,"Ġsag":3862,"Ġsix":3863,"Ġcur":3864,"ank":3865,"Ġts":3866,"Ġtons":3867,"usive":3868,"its":3869,"Ġing":3870,"Ġfusion":3871,"Ġbied":3872,"elf":3873,"oclastic":3874,"Ġgor":3875,"oll":3876,"athet":3877,"Ġ19":3878,"ams":3879,"odyn":3880,"Ġacne":3881,"Ġhyperkeratosis":3882,"ylor":3883,"Ġix":3884,"Ġile":3885,"Ġependym":3886,"Ġhemic":3887,"Ġtherapy":3888,"Ġcells":3889,"ector":3890,"encephalies":3891,"Ġjunctional":3892,"Ġpolar":3893,"Ġpostaxial":3894,"ycemia":3895,"ohn":3896,"ohisti":3897,"ithiasis":3898,"Ġlipid":3899,"ocytomas":3900,"Ġmyelin":3901,"Ġmyelopathy":3902,"Ġagraph":3903,"Ġhepatitides":3904,"Ġscleroses":3905,"aviridae":3906,"Ġurid":3907,"Ġinsomnia":3908,"Ġmacul":3909,"Ġcluster":3910,"Ġangiitis":3911,"Ġmedian":3912,"Ġrespons":3913,"Ġrespiration":3914,"Ġroot":3915,"Ġcervic":3916,"Ġmesenteric":3917,"Ġconvulsive":3918,"Ġreactions":3919,"Ġdependence":3920,"Ġdigestive":3921,"Ġpathologic":3922,"Ġpurpuras":3923,"oglobulin":3924,"Ġlobar":3925,"Ġhypoglycemia":3926,"Ġblocks":3927,"ciuria":3928,"Ġpsor":3929,"ficial":3930,"Ġmannosidase":3931,"Ġtendon":3932,"Ġhyperbilirubinemia":3933,"Ġshellfish":3934,"Ġbundle":3935,"Ġlgmd":3936,"Ġgangren":3937,"Ġpannicul":3938,"Ġbiedl":3939,"bb":3940,"eti":3941,"eil":3942,"ped":3943,"uinal":3944,"uage":3945,"wa":3946,"Ġon":3947,"Ġud":3948,"eric":3949,"roup":3950,"inogen":3951,"Ġsymph":3952,"Ġsigmoid":3953,"Ġduch":3954,"enne":3955,"asting":3956,"Ġcop":3957,"essions":3958,"Ġpra":3959,"orch":3960,"Ġhorn":3961,"Ġhash":3962,"Ġhyster":3963,"Ġfre":3964,"tick":3965,"Ġrectal":3966,"ocial":3967,"ecal":3968,"ecre":3969,"olase":3970,"olyses":3971,"epend":3972,"amp":3973,"Ġdysaut":3974,"imin":3975,"elliform":3976,"agi":3977,"Ġmyositis":3978,"ostomy":3979,"Ġstem":3980,"Ġstones":3981,"Ġwald":3982,"ipoproteinemia":3983,"Ġhemis":3984,"rong":3985,"Ġperiap":3986,"Ġxl":3987,"ifacial":3988,"izomelic":3989,"Ġsea":3990,"ermaph":3991,"Ġtrue":3992,"Ġpoli":3993,"Ġexercise":3994,"ohyp":3995,"Ġsubvalvular":3996,"artz":3997,"ofol":3998,"Ġosteolysis":3999,"Ġmyelitis":4000,"Ġhypertrichosis":4001,"Ġureteral":4002,"Ġmacrocephaly":4003,"Ġmacrogl":4004,"Ġangioma":4005,"Ġerythema":4006,"rogenesis":4007,"Ġcarnitine":4008,"Ġinflammations":4009,"Ġflacc":4010,"Ġenz":4011,"Ġvasculitides":4012,"Ġlacer":4013,"Ġbleeding":4014,"Ġpseudohermaph":4015,"Ġpupils":4016,"Ġrheumatoid":4017,"Ġschizophren":4018,"Ġlanguage":4019,"enthal":4020,"Ġfibromyal":4021,"Ġreticuloendothel":4022,"Ġdysphasia":4023,"Ġhypoxia":4024,"Ġosteoarthritis":4025,"Ġodontogenic":4026,"Ġgamma":4027,"omalacia":4028,"Ġsegmental":4029,"Ġstroke":4030,"Ġhypercholester":4031,"Ġintolerance":4032,"Ġpseudotum":4033,"Ġanoxia":4034,"Ġdysmorphism":4035,"Ġholoprosencephaly":4036,"Ġfibrillation":4037,"Ġrefsum":4038,"Ġaddiction":4039,"Ġfifth":4040,"Ġgorlin":4041,"Ġduchenne":4042,"ecretion":4043,"Ġperiapical":4044,"Ġflaccid":4045,"kd":4046,"kers":4047,"ou":4048,"oin":4049,"uous":4050,"Ġeth":4051,"Ġsand":4052,"Ġsof":4053,"Ġsitus":4054,"Ġsider":4055,"Ġductal":4056,"Ġcaf":4057,"Ġcbl":4058,"ara":4059,"Ġpontine":4060,"Ġmiller":4061,"Ġhh":4062,"Ġhel":4063,"Ġinh":4064,"Ġbell":4065,"Ġlact":4066,"Ġren":4067,"Ġdeg":4068,"Ġdevic":4069,"Ġgyn":4070,"olaryng":4071,"oliosis":4072,"Ġvol":4073,"Ġhypocal":4074,"Ġhypokal":4075,"ellow":4076,"igin":4077,"Ġanus":4078,"Ġcons":4079,"osomiasis":4080,"tinence":4081,"Ġpareses":4082,"Ġlymphohisti":4083,"Ġmalaria":4084,"aps":4085,"Ġasc":4086,"Ġpolyd":4087,"abs":4088,"Ġamebic":4089,"andy":4090,"Ġgenit":4091,"Ġiddm":4092,"Ġtransform":4093,"Ġscleroderma":4094,"avan":4095,"gluc":4096,"Ġemerging":4097,"Ġectrodactyly":4098,"iaceae":4099,"Ġvesicular":4100,"romatoses":4101,"Ġmigration":4102,"Ġallergy":4103,"ishman":4104,"Ġyellow":4105,"Ġdelta":4106,"Ġvision":4107,"Ġeosinophilia":4108,"Ġquadr":4109,"Ġosseous":4110,"Ġregurg":4111,"Ġspher":4112,"Ġneuronopathic":4113,"Ġocclusion":4114,"Ġhyalohyph":4115,"Ġsecretion":4116,"lebitis":4117,"Ġcalculus":4118,"Ġlabor":4119,"eoathet":4120,"Ġcirculation":4121,"Ġplacental":4122,"Ġmanifestations":4123,"osensitive":4124,"Ġeruption":4125,"Ġrhabdomy":4126,"Ġarterioscler":4127,"Ġinstability":4128,"Ġsurgical":4129,"Ġabducens":4130,"Ġincompetence":4131,"Ġmachado":4132,"imoto":4133,"Ġretraction":4134,"Ġsixth":4135,"eech":4136,"hm":4137,"iotic":4138,"ld":4139,"me":4140,"alp":4141,"Ġsan":4142,"Ġdandy":4143,"Ġcp":4144,"Ġpil":4145,"osidosis":4146,"Ġmod":4147,"Ġmcop":4148,"Ġtunnel":4149,"Ġhu":4150,"Ġhamm":4151,"Ġns":4152,"emb":4153,"Ġfunctional":4154,"Ġfinn":4155,"Ġbal":4156,"Ġbard":4157,"Ġlarynx":4158,"Ġdejer":4159,"ecific":4160,"olence":4161,"ety":4162,"utch":4163,"Ġchondrom":4164,"igo":4165,"otype":4166,"Ġleigh":4167,"Ġleishman":4168,"Ġmyopathic":4169,"Ġspeech":4170,"Ġneuropath":4171,"Ġneuroses":4172,"obstruc":4173,"Ġkap":4174,"Ġkors":4175,"Ġkinase":4176,"Ġperc":4177,"Ġxq":4178,"Ġleukocyte":4179,"Ġexfol":4180,"Ġretrog":4181,"Ġsubm":4182,"artum":4183,"Ġdiamond":4184,"Ġthromboph":4185,"Ġcoal":4186,"akary":4187,"akoff":4188,"Ġpseudobulbar":4189,"Ġrhizomelic":4190,"Ġcartil":4191,"olep":4192,"Ġcompulsive":4193,"radural":4194,"Ġchoreas":4195,"Ġchoreoathet":4196,"Ġgangli":4197,"Ġprolactin":4198,"Ġulcerative":4199,"olescent":4200,"Ġextradural":4201,"insk":4202,"Ġallergies":4203,"Ġmarch":4204,"Ġpersonalities":4205,"Ġgalactos":4206,"ramidal":4207,"Ġatresias":4208,"ourinary":4209,"Ġdermatosis":4210,"Ġgastroenter":4211,"Ġduane":4212,"Ġplasm":4213,"Ġwake":4214,"Ġcanine":4215,"Ġketoac":4216,"ushing":4217,"Ġremodeling":4218,"Ġneuromuscular":4219,"Ġthymus":4220,"odysplastic":4221,"Ġorofaci":4222,"Ġgoiter":4223,"Ġdysentery":4224,"Ġporc":4225,"blastoma":4226,"Ġosteoporosis":4227,"Ġpostpartum":4228,"Ġneutropenia":4229,"Ġfuchs":4230,"Ġyoung":4231,"Ġenzyme":4232,"Ġhypercholesterole":4233,"Ġsoft":4234,"Ġgenitourinary":4235,"Ġfinnish":4236,"Ġbardet":4237,"Ġdejerine":4238,"Ġkorsakoff":4239,"Ġorofaciodigital":4240,"dp":4241,"fm":4242,"gel":4243,"itions":4244,"vi":4245,"Ġunc":4246,"rokeratosis":4247,"Ġcs":4248,"Ġcoc":4249,"aris":4250,"Ġprom":4251,"ica":4252,"ora":4253,"Ġmus":4254,"Ġmass":4255,"omple":4256,"Ġtay":4257,"lect":4258,"Ġfil":4259,"Ġflex":4260,"elings":4261,"urs":4262,"idism":4263,"idual":4264,"utrition":4265,"Ġvess":4266,"amide":4267,"Ġchar":4268,"Ġinfest":4269,"Ġinfratentorial":4270,"uron":4271,"Ġhyperphen":4272,"ylalan":4273,"Ġwr":4274,"Ġwasting":4275,"Ġhemoch":4276,"Ġklip":4277,"Ġarv":4278,"Ġlymphocyte":4279,"ocyth":4280,"Ġpall":4281,"Ġmyelomon":4282,"Ġtransfusion":4283,"avian":4284,"Ġurine":4285,"Ġporokeratosis":4286,"Ġposition":4287,"yria":4288,"Ġresorption":4289,"Ġresidual":4290,"Ġnephrotic":4291,"oleuk":4292,"ptomatic":4293,"istian":4294,"Ġenzo":4295,"anthine":4296,"Ġpelger":4297,"oretinal":4298,"Ġstrept":4299,"uchi":4300,"Ġmaple":4301,"Ġserous":4302,"Ġwilson":4303,"Ġswe":4304,"Ġgraft":4305,"enberg":4306,"Ġcamp":4307,"Ġasthmatic":4308,"Ġlamellar":4309,"Ġeds":4310,"Ġburk":4311,"Ġremodell":4312,"Ġremodelings":4313,"Ġconjunctivitis":4314,"Ġprotozo":4315,"Ġhypoxanthine":4316,"Ġscotomas":4317,"Ġschwartz":4318,"Ġsuperficial":4319,"Ġmatur":4320,"Ġblepharosp":4321,"Ġhypercalcemia":4322,"Ġsteroid":4323,"Ġatelectasis":4324,"Ġatelectases":4325,"Ġperforation":4326,"Ġhurler":4327,"Ġfinger":4328,"Ġprosthesis":4329,"Ġpineal":4330,"Ġneurodegenerative":4331,"Ġhenoch":4332,"Ġnoonan":4333,"Ġbartter":4334,"Ġdysprax":4335,"Ġsyrup":4336,"ycanopathy":4337,"Ġsubclavian":4338,"Ġcongestive":4339,"Ġphosphoribosyltransferase":4340,"Ġchristian":4341,"Ġanhidrotic":4342,"Ġneuropathic":4343,"Ġvessel":4344,"Ġhyperphenylalan":4345,"Ġklippel":4346,"Ġmyelomonocytic":4347,"Ġenzootic":4348,"crine":4349,"gnes":4350,"loid":4351,"men":4352,"mel":4353,"oromandibular":4354,"vn":4355,"Ġsj":4356,"Ġdo":4357,"isc":4358,"Ġpud":4359,"Ġpust":4360,"anese":4361,"atosis":4362,"Ġmeck":4363,"omorphic":4364,"Ġaw":4365,"Ġnor":4366,"iam":4367,"itant":4368,"openia":4369,"opsia":4370,"Ġful":4371,"Ġborder":4372,"Ġlind":4373,"acet":4374,"aciduria":4375,"Ġra":4376,"Ġgust":4377,"Ġneovascular":4378,"ences":4379,"Ġvo":4380,"Ġhypoma":4381,"Ġhypov":4382,"sias":4383,"igu":4384,"igan":4385,"Ġinfer":4386,"Ġhyperl":4387,"Ġhyperkal":4388,"Ġstable":4389,"Ġwart":4390,"Ġaltern":4391,"Ġhemifacial":4392,"Ġkra":4393,"Ġkall":4394,"Ġadolescent":4395,"oidal":4396,"atism":4397,"Ġglom":4398,"iffer":4399,"rex":4400,"Ġphil":4401,"Ġimm":4402,"Ġmultis":4403,"kinase":4404,"Ġshar":4405,"Ġqter":4406,"odermia":4407,"iore":4408,"Ġtour":4409,"Ġurtic":4410,"Ġtube":4411,"Ġmonocl":4412,"Ġpoor":4413,"Ġpneumococcal":4414,"Ġpneumonitis":4415,"Ġangiomatosis":4416,"Ġnephrogenic":4417,"Ġcry":4418,"Ġgranulomatosis":4419,"Ġhypersecretion":4420,"Ġpsychotic":4421,"Ġchoriore":4422,"Ġeyel":4423,"Ġneurological":4424,"Ġeccrine":4425,"Ġhypotonia":4426,"Ġvagin":4427,"Ġoxid":4428,"till":4429,"ierre":4430,"olipid":4431,"Ġmorqu":4432,"Ġminor":4433,"Ġachal":4434,"otropin":4435,"Ġcanavan":4436,"Ġnails":4437,"Ġocclusive":4438,"Ġthumbs":4439,"Ġbulb":4440,"Ġconjunctivitides":4441,"Ġblackfan":4442,"Ġhydatidiform":4443,"Ġscotoma":4444,"Ġpseudohypo":4445,"Ġcommunicable":4446,"Ġiris":4447,"Ġtracheal":4448,"Ġepilepticus":4449,"Ġrosenthal":4450,"Ġvulvar":4451,"Ġbronchiol":4452,"Ġembryonal":4453,"Ġeczema":4454,"Ġmeningoencephalitis":4455,"Ġmulticystic":4456,"Ġmediastinal":4457,"Ġnewborn":4458,"Ġfucosidase":4459,"Ġendocarditis":4460,"phalangeal":4461,"Ġxeroderma":4462,"Ġsingle":4463,"Ġtemporomandibular":4464,"Ġinguinal":4465,"Ġresponse":4466,"Ġpoliomyelitis":4467,"Ġchoreoathetosis":4468,"Ġblepharospasm":4469,"Ġmeckel":4470,"Ġhypomagnes":4471,"Ġmonoclonal":4472,"aum":4473,"agen":4474,"fd":4475,"gs":4476,"pal":4477,"stein":4478,"yte":4479,"inc":4480,"Ġsti":4481,"Ġsite":4482,"Ġstick":4483,"ester":4484,"oskeletal":4485,"Ġmood":4486,"Ġmutism":4487,"Ġah":4488,"Ġaz":4489,"lein":4490,"usal":4491,"edull":4492,"itar":4493,"ittal":4494,"elia":4495,"Ġlens":4496,"Ġlister":4497,"ocranial":4498,"Ġgef":4499,"Ġgold":4500,"Ġneed":4501,"ode":4502,"Ġconfusion":4503,"rand":4504,"ranuclear":4505,"otr":4506,"udative":4507,"Ġebs":4508,"chond":4509,"Ġhyperinsulin":4510,"Ġneuroepithelial":4511,"Ġalport":4512,"Ġkne":4513,"Ġarticul":4514,"Ġarticular":4515,"Ġpred":4516,"Ġdystrogl":4517,"Ġjejun":4518,"Ġ42":4519,"nev":4520,"tism":4521,"Ġexostoses":4522,"Ġexudative":4523,"andular":4524,"orrhag":4525,"Ġmultif":4526,"rocytic":4527,"Ġbrux":4528,"Ġislet":4529,"Ġscalp":4530,"Ġoroph":4531,"Ġoromandibular":4532,"Ġund":4533,"Ġintracerebral":4534,"Ġlungs":4535,"Ġpigmentosum":4536,"ophthalmos":4537,"Ġprolymphocytic":4538,"insic":4539,"Ġechin":4540,"Ġsymmetric":4541,"okes":4542,"Ġpolyendoc":4543,"Ġdepress":4544,"omelia":4545,"Ġpathway":4546,"Ġotorrhea":4547,"Ġdermatoses":4548,"Ġlange":4549,"Ġbreath":4550,"Ġphotosensitive":4551,"ygium":4552,"Ġendometri":4553,"Ġrhinorrhea":4554,"Ġadrenoleuk":4555,"Ġaura":4556,"Ġgluten":4557,"inflamm":4558,"Ġlesion":4559,"Ġcommunication":4560,"Ġpolyps":4561,"Ġwolff":4562,"Ġchanges":4563,"Ġambly":4564,"Ġbifid":4565,"Ġviii":4566,"Ġfusari":4567,"Ġpterygium":4568,"Ġpachy":4569,"Ġfasciculation":4570,"Ġdystrophica":4571,"Ġwilli":4572,"Ġadhesion":4573,"Ġinversus":4574,"Ġclosed":4575,"Ġforeign":4576,"Ġspermat":4577,"Ġoligodendroglioma":4578,"Ġmyokymia":4579,"Ġdissociative":4580,"Ġspleen":4581,"Ġfibrosing":4582,"Ġencephalomyelitides":4583,"Ġachondrogenesis":4584,"Ġudp":4585,"Ġfibromyalgia":4586,"Ġretrograde":4587,"Ġporcine":4588,"Ġhemochromatosis":4589,"Ġhypomagnesemia":4590,"edullary":4591,"Ġgefs":4592,"aert":4593,"bd":4594,"bismus":4595,"ck":4596,"capul":4597,"equ":4598,"hs":4599,"iogenic":4600,"less":4601,"ool":4602,"pp":4603,"rimal":4604,"trom":4605,"Ġof":4606,"Ġirid":4607,"erfusion":4608,"Ġseas":4609,"Ġsomatic":4610,"onogenesis":4611,"Ġcav":4612,"ises":4613,"Ġpot":4614,"ander":4615,"ornea":4616,"Ġmu":4617,"Ġmandibular":4618,"ometaphyseal":4619,"Ġhdl":4620,"phia":4621,"Ġnuclear":4622,"Ġfran":4623,"Ġbird":4624,"Ġbite":4625,"ely":4626,"Ġly":4627,"acillary":4628,"ocellular":4629,"Ġdeb":4630,"Ġdet":4631,"Ġdecr":4632,"idemia":4633,"Ġvin":4634,"Ġchest":4635,"Ġinfancy":4636,"Ġinfluenz":4637,"odontia":4638,"Ġanter":4639,"Ġanirid":4640,"Ġleyd":4641,"Ġmyofib":4642,"Ġhyperactivity":4643,"Ġstone":4644,"Ġwest":4645,"Ġwied":4646,"Ġepi":4647,"Ġepimer":4648,"Ġals":4649,"Ġhemophilia":4650,"Ġkn":4651,"ubular":4652,"Ġadip":4653,"Ġproger":4654,"Ġglc":4655,"Ġperic":4656,"Ġleukopl":4657,"uppurative":4658,"enstrom":4659,"Ġselec":4660,"Ġphys":4661,"Ġpharyng":4662,"Ġphae":4663,"ermal":4664,"othi":4665,"Ġretro":4666,"Ġcortic":4667,"Ġsubepend":4668,"Ġnonf":4669,"Ġfibroses":4670,"ullous":4671,"Ġmicros":4672,"Ġschon":4673,"Ġpseudop":4674,"Ġplan":4675,"Ġimmunoglobulin":4676,"Ġpoikil":4677,"Ġcleaved":4678,"Ġempy":4679,"Ġdihyd":4680,"ophilic":4681,"ioscapul":4682,"Ġnode":4683,"Ġlimbs":4684,"iculo":4685,"Ġhematologic":4686,"Ġesophagus":4687,"Ġmarrow":4688,"ospasm":4689,"Ġmrt":4690,"Ġfacioscapul":4691,"Ġpalmoplantaris":4692,"Ġnonsuppurative":4693,"Ġglomerulosclerosis":4694,"Ġcanal":4695,"Ġpapilloma":4696,"Ġreperfusion":4697,"Ġplague":4698,"Ġtestis":4699,"sky":4700,"fication":4701,"Ġglomerulonephritides":4702,"Ġglobal":4703,"Ġeffusion":4704,"Ġhypoparathyroidism":4705,"Ġparanasal":4706,"Ġtetras":4707,"Ġdislocations":4708,"Ġleprosies":4709,"Ġhypercalciuria":4710,"Ġworker":4711,"Ġhidraden":4712,"Ġtwin":4713,"Ġplacent":4714,"Ġmanifestation":4715,"Ġattacks":4716,"Ġgastr":4717,"Ġhyperparathyroidism":4718,"Ġmegakary":4719,"Ġmdd":4720,"Ġhmn":4721,"Ġgreat":4722,"Ġrigidity":4723,"Ġstrabismus":4724,"Ġemphysema":4725,"Ġaspergillosis":4726,"Ġkeratitis":4727,"iting":4728,"Ġspondyloepiphyseal":4729,"Ġtyphus":4730,"adelphia":4731,"Ġamoebic":4732,"Ġdesmoplastic":4733,"Ġbirth":4734,"Ġlinear":4735,"Ġhemicran":4736,"orchidism":4737,"Ġdysauton":4738,"Ġwaldenstrom":4739,"Ġpseudohermaphroditism":4740,"Ġgynec":4741,"absorption":4742,"Ġvoice":4743,"Ġphiladelphia":4744,"Ġmorquio":4745,"Ġdepressed":4746,"Ġdecreas":4747,"Ġaniridia":4748,"Ġwiedemann":4749,"Ġepimerase":4750,"Ġselective":4751,"Ġsubependymal":4752,"Ġfacioscapulohumeral":4753,"eh":4754,"fs":4755,"gd":4756,"li":4757,"mm":4758,"qt":4759,"rid":4760,"zen":4761,"Ġuse":4762,"tier":4763,"Ġsi":4764,"Ġsur":4765,"enh":4766,"asilar":4767,"Ġcro":4768,"Ġpylor":4769,"anal":4770,"Ġmyp":4771,"Ġmenstr":4772,"Ġta":4773,"Ġhi":4774,"Ġhl":4775,"Ġhosp":4776,"Ġnph":4777,"Ġninth":4778,"ulosis":4779,"ulitis":4780,"Ġfur":4781,"Ġfet":4782,"Ġbot":4783,"Ġbog":4784,"Ġlaf":4785,"Ġlight":4786,"Ġlatent":4787,"ocolitis":4788,"idine":4789,"Ġgil":4790,"etz":4791,"ummer":4792,"Ġvw":4793,"Ġhypn":4794,"amyd":4795,"ationary":4796,"Ġdysplastic":4797,"Ġdyslexia":4798,"imosis":4799,"unar":4800,"Ġ28":4801,"rant":4802,"irin":4803,"Ġlem":4804,"Ġspi":4805,"Ġspine":4806,"Ġneurohyp":4807,"Ġsturg":4808,"Ġstasis":4809,"Ġstokes":4810,"Ġstationary":4811,"Ġih":4812,"Ġalex":4813,"Ġauts":4814,"opharyng":4815,"Ġprote":4816,"ogroup":4817,"ricult":4818,"upational":4819,"ifferentiated":4820,"Ġjam":4821,"Ġmuscul":4822,"ionic":4823,"Ġnonket":4824,"Ġlipomatosis":4825,"odermas":4826,"Ġide":4827,"Ġrelaps":4828,"Ġthrombocyth":4829,"Ġscar":4830,"Ġscid":4831,"Ġagricult":4832,"Ġassociation":4833,"Ġdermal":4834,"Ġhydrop":4835,"Ġcleid":4836,"Ġclub":4837,"Ġarthropathy":4838,"Ġgranulocytic":4839,"Ġgranulosa":4840,"Ġsupranuclear":4841,"Ġverr":4842,"Ġextram":4843,"Ġvitelliform":4844,"Ġenteropathies":4845,"Ġfold":4846,"okerat":4847,"Ġpregnancies":4848,"Ġaspiration":4849,"Ġaspirin":4850,"Ġincreas":4851,"Ġtransitional":4852,"Ġglucosidase":4853,"itted":4854,"Ġzoster":4855,"Ġserogroup":4856,"Ġcarbohyd":4857,"Ġpseudoobstruc":4858,"umbil":4859,"Ġlacunar":4860,"Ġpathwa":4861,"Ġpatella":4862,"Ġhepato":4863,"Ġmastocytosis":4864,"Ġattention":4865,"esthesias":4866,"Ġedemas":4867,"cious":4868,"Ġpenis":4869,"amoeb":4870,"Ġoccupational":4871,"Ġpresenile":4872,"Ġlevin":4873,"Ġeczematous":4874,"Ġaldolase":4875,"Ġasymptomatic":4876,"omalacias":4877,"rinopathy":4878,"nathia":4879,"Ġpemphigoid":4880,"Ġlymphadenitis":4881,"Ġchlamyd":4882,"Ġhyperglycinemia":4883,"Ġsynovial":4884,"Ġatheroscler":4885,"Ġsilver":4886,"entilation":4887,"Ġrieger":4888,"Ġangioedema":4889,"Ġlentig":4890,"Ġcitrullinemia":4891,"Ġfirst":4892,"Ġotorhin":4893,"Ġincontinence":4894,"Ġhashimoto":4895,"Ġregurgitation":4896,"Ġburkitt":4897,"Ġfulm":4898,"Ġborderline":4899,"Ġlindau":4900,"Ġkallmann":4901,"Ġachalasia":4902,"Ġlisteria":4903,"Ġdystroglycanopathy":4904,"Ġmultifocal":4905,"Ġechinococc":4906,"Ġseasonal":4907,"Ġdetachment":4908,"Ġpoikiloderma":4909,"Ġdecreased":4910,"Ġhospital":4911,"Ġbogaert":4912,"Ġsturge":4913,"Ġnonketotic":4914,"Ġrelapsing":4915,"Ġagricultural":4916,"Ġcarbohydrate":4917,"Ġpathways":4918,"cro":4919,"dd":4920,"iety":4921,"larg":4922,"ni":4923,"nutrition":4924,"oz":4925,"syn":4926,"sessive":4927,"uj":4928,"uz":4929,"xiety":4930,"yositis":4931,"yamo":4932,"inz":4933,"inoses":4934,"Ġsert":4935,"Ġdyt":4936,"Ġdsd":4937,"asms":4938,"onitides":4939,"Ġcas":4940,"Ġpub":4941,"Ġpox":4942,"Ġport":4943,"Ġpfe":4944,"antic":4945,"atus":4946,"orum":4947,"Ġms":4948,"Ġtal":4949,"Ġhor":4950,"Ġnf":4951,"Ġnig":4952,"iae":4953,"Ġsynostoses":4954,"Ġintr":4955,"Ġbec":4956,"Ġbour":4957,"elor":4958,"Ġlute":4959,"acyt":4960,"ocul":4961,"ocrine":4962,"urn":4963,"Ġge":4964,"Ġgh":4965,"Ġgol":4966,"Ġgigan":4967,"Ġvip":4968,"Ġvog":4969,"Ġvacc":4970,"rations":4971,"Ġhyposp":4972,"Ġanxiety":4973,"Ġacrocephal":4974,"udinal":4975,"ouse":4976,"Ġlept":4977,"Ġsteal":4978,"Ġwarb":4979,"Ġparam":4980,"Ġkik":4981,"Ġthom":4982,"Ġthiam":4983,"ronmental":4984,"Ġ31":4985,"Ġproduc":4986,"Ġprocess":4987,"Ġgliomas":4988,"Ġperthes":4989,"Ġleukodystrophies":4990,"encephalic":4991,"Ġmalabsorption":4992,"Ġmuller":4993,"dermatitis":4994,"Ġprimord":4995,"Ġshap":4996,"Ġadenomatosis":4997,"Ġadenomatoid":4998,"Ġopac":4999,"stetric":5000,"Ġmyelocytic":5001,"Ġhypertrophies":5002,"Ġhypertelor":5003,"Ġendemic":5004,"Ġtransferase":5005,"Ġtransverse":5006,"Ġscapul":5007,"osphate":5008,"Ġmonil":5009,"Ġplus":5010,"Ġobsessive":5011,"Ġobstetric":5012,"rotia":5013,"Ġnephron":5014,"Ġcaus":5015,"Ġflav":5016,"Ġretinoblastoma":5017,"onged":5018,"Ġpsychogenic":5019,"etalipoproteinemia":5020,"Ġprolonged":5021,"Ġepidermal":5022,"Ġhematological":5023,"Ġenvi":5024,"Ġenlarg":5025,"Ġneurile":5026,"Ġmoyamo":5027,"Ġincomple":5028,"Ġmaha":5029,"Ġface":5030,"Ġserum":5031,"Ġerythrokerat":5032,"Ġmelanocytic":5033,"Ġmelanotic":5034,"Ġsalmon":5035,"Ġlacrimal":5036,"Ġtrichothi":5037,"Ġiga":5038,"Ġige":5039,"Ġgastroesophageal":5040,"iplegia":5041,"phosphatase":5042,"Ġlou":5043,"Ġsickle":5044,"Ġlegs":5045,"Ġpleomorphic":5046,"Ġneuronopathy":5047,"Ġhyaline":5048,"Ġtransmitted":5049,"Ġconductive":5050,"Ġamnesias":5051,"Ġcollagen":5052,"Ġankylosing":5053,"Ġblepharoph":5054,"Ġembolisms":5055,"Ġhomocys":5056,"Ġhaemophilus":5057,"Ġasymmetric":5058,"Ġcirculating":5059,"Ġbifida":5060,"umscr":5061,"Ġaccid":5062,"Ġhemiplegia":5063,"Ġperforations":5064,"osensory":5065,"Ġcondition":5066,"Ġcircumscr":5067,"Ġelevated":5068,"Ġtriphalangeal":5069,"Ġsacral":5070,"Ġsigns":5071,"Ġhypophosphatemic":5072,"Ġplaque":5073,"Ġplaques":5074,"Ġabortion":5075,"Ġparagangliomas":5076,"Ġlaxa":5077,"Ġplagiocephaly":5078,"Ġhamartoma":5079,"otypic":5080,"Ġnmdar":5081,"Ġpsoriasis":5082,"Ġprader":5083,"Ġschizophrenias":5084,"Ġgustatory":5085,"Ġglomus":5086,"Ġmultisystem":5087,"orrhagic":5088,"Ġleydig":5089,"Ġpharyngo":5090,"Ġphaeohyph":5091,"Ġpyloric":5092,"Ġbotul":5093,"Ġverruc":5094,"Ġsertoli":5095,"Ġbecker":5096,"Ġthiamine":5097,"Ġproducing":5098,"Ġprimordial":5099,"Ġenvironmental":5100,"Ġmoyamoya":5101,"Ġincomplete":5102,"Ġmahaim":5103,"Ġhomocystin":5104,"aid":5105,"hans":5106,"lam":5107,"nd":5108,"nith":5109,"oal":5110,"oen":5111,"okinase":5112,"ractory":5113,"uod":5114,"zd":5115,"Ġoth":5116,"Ġromb":5117,"inh":5118,"Ġsyst":5119,"Ġsay":5120,"Ġstim":5121,"Ġder":5122,"Ġpenile":5123,"Ġpeptic":5124,"anine":5125,"attic":5126,"atum":5127,"osquamous":5128,"orenal":5129,"Ġmoles":5130,"Ġtap":5131,"Ġhist":5132,"ula":5133,"Ġdist":5134,"usual":5135,"eman":5136,"emper":5137,"Ġfunction":5138,"Ġbd":5139,"Ġbun":5140,"Ġbern":5141,"Ġland":5142,"Ġlattic":5143,"action":5144,"ocard":5145,"ocortic":5146,"ocystic":5147,"Ġdev":5148,"iltra":5149,"Ġgram":5150,"entation":5151,"Ġhypoxic":5152,"Ġdysg":5153,"Ġcheil":5154,"unistic":5155,"Ġ26":5156,"Ġacyltransferase":5157,"Ġeb":5158,"irect":5159,"chole":5160,"Ġhyperg":5161,"Ġhyperal":5162,"yll":5163,"Ġwat":5164,"Ġword":5165,"antom":5166,"adias":5167,"Ġatonic":5168,"Ġpark":5169,"omastia":5170,"ipp":5171,"ipolar":5172,"Ġkin":5173,"Ġkel":5174,"Ġarachn":5175,"uble":5176,"Ġadams":5177,"Ġthan":5178,"Ġthre":5179,"Ġthermal":5180,"ophth":5181,"Ġ30":5182,"Ġxii":5183,"ensor":5184,"izing":5185,"Ġmalnutrition":5186,"Ġphob":5187,"Ġphantom":5188,"Ġimage":5189,"Ġmetat":5190,"Ġcarcinoid":5191,"Ġbrun":5192,"Ġopport":5193,"ofasc":5194,"Ġthrombophilia":5195,"Ġscoliosis":5196,"Ġotitis":5197,"Ġtoes":5198,"ighth":5199,"avy":5200,"Ġorigin":5201,"Ġornith":5202,"Ġuni":5203,"Ġunna":5204,"Ġunkn":5205,"Ġunusual":5206,"glandular":5207,"rodysplasia":5208,"Ġnephropathies":5209,"ophila":5210,"Ġulna":5211,"Ġrefractory":5212,"Ġsmo":5213,"Ġesotrop":5214,"aminase":5215,"igmentation":5216,"oproteinemias":5217,"iformis":5218,"Ġspina":5219,"ophthalmia":5220,"Ġchore":5221,"Ġmesomelic":5222,"Ġech":5223,"Ġveno":5224,"ospasms":5225,"Ġincis":5226,"oretin":5227,"Ġpolyglandular":5228,"Ġhallux":5229,"Ġgalactosyl":5230,"Ġdepriv":5231,"Ġmycoplasm":5232,"Ġcarbamo":5233,"Ġcraniopharyng":5234,"Ġphenotype":5235,"Ġjoubert":5236,"Ġpreaxial":5237,"Ġmorv":5238,"Ġbarre":5239,"Ġcryptorchidism":5240,"Ġcaps":5241,"Ġbranchial":5242,"Ġophthalmoplegias":5243,"Ġfasci":5244,"Ġcytomegal":5245,"Ġmastocytoses":5246,"roblast":5247,"Ġsphen":5248,"Ġrepeti":5249,"Ġneuroma":5250,"Ġauricular":5251,"Ġperitonitis":5252,"Ġirr":5253,"Ġtrache":5254,"Ġsuperior":5255,"Ġpolymorphic":5256,"Ġaddison":5257,"Ġsyphil":5258,"Ġdysenteries":5259,"Ġtwelf":5260,"Ġantenatal":5261,"organic":5262,"Ġhpc":5263,"Ġmulticentric":5264,"Ġpunctata":5265,"Ġconditions":5266,"opausal":5267,"thrombin":5268,"operoneal":5269,"ocystis":5270,"Ġexcitation":5271,"Ġvitreous":5272,"Ġvitreoretin":5273,"Ġstrauss":5274,"Ġmediastin":5275,"oatrial":5276,"Ġmesothelioma":5277,"traum":5278,"Ġabortions":5279,"Ġdisturbance":5280,"Ġlewy":5281,"Ġhypersomnolence":5282,"Ġmicroangi":5283,"Ġlangerhans":5284,"Ġstomatitis":5285,"Ġneutrophilic":5286,"Ġhyperthermia":5287,"Ġsagittal":5288,"ollis":5289,"Ġuridyl":5290,"Ġpanniculitis":5291,"Ġhysterical":5292,"ofollicular":5293,"Ġsideroblastic":5294,"inski":5295,"Ġhyperphenylalaninemia":5296,"Ġpseudohypoaldosteronism":5297,"Ġstiff":5298,"Ġknee":5299,"Ġjejunal":5300,"Ġtetrasomy":5301,"Ġplacenta":5302,"Ġdysautonomia":5303,"Ġhydrops":5304,"Ġcleidocranial":5305,"Ġpseudoobstruction":5306,"umbilical":5307,"Ġpfeiffer":5308,"Ġbournev":5309,"Ġhypertelorism":5310,"Ġblepharophimosis":5311,"Ġhomocystinuria":5312,"oalveolar":5313,"Ġother":5314,"Ġsystolic":5315,"Ġlattice":5316,"Ġopportunistic":5317,"Ġunknown":5318,"Ġtwelfth":5319,"cm":5320,"do":5321,"fman":5322,"flow":5323,"rias":5324,"ratory":5325,"right":5326,"vascular":5327,"we":5328,"xy":5329,"ying":5330,"Ġarc":5331,"Ġili":5332,"tian":5333,"inical":5334,"inelli":5335,"Ġda":5336,"Ġdam":5337,"ena":5338,"astic":5339,"Ġcow":5340,"arter":5341,"arse":5342,"Ġpanic":5343,"Ġpontocerebellar":5344,"atophor":5345,"osi":5346,"Ġmad":5347,"Ġmody":5348,"Ġmandib":5349,"Ġmater":5350,"Ġtenth":5351,"Ġsynostotic":5352,"Ġdispl":5353,"Ġdisability":5354,"itch":5355,"opal":5356,"Ġfa":5357,"Ġfoss":5358,"Ġbod":5359,"Ġbroc":5360,"Ġbbs":5361,"Ġbites":5362,"Ġlaryng":5363,"Ġlqt":5364,"Ġdex":5365,"Ġdepos":5366,"ided":5367,"Ġgam":5368,"ete":5369,"Ġdefective":5370,"Ġhypodontia":5371,"Ġdysraph":5372,"ellosis":5373,"unit":5374,"odular":5375,"Ġanth":5376,"Ġander":5377,"Ġanesthesia":5378,"Ġ27":5379,"ranean":5380,"Ġacrof":5381,"urop":5382,"Ġej":5383,"Ġeighth":5384,"aginous":5385,"Ġdisordered":5386,"ostasis":5387,"ardinelli":5388,"Ġwag":5389,"Ġiis":5390,"Ġalve":5391,"Ġkear":5392,"uber":5393,"Ġlymphangiect":5394,"Ġlymphocytopenia":5395,"Ġprogr":5396,"ibed":5397,"ibri":5398,"apillary":5399,"Ġseip":5400,"Ġheavy":5401,"ova":5402,"Ġameric":5403,"axy":5404,"Ġcornea":5405,"ycer":5406,"Ġsubunit":5407,"Ġparotid":5408,"Ġnonpro":5409,"rocalc":5410,"Ġmetast":5411,"artment":5412,"Ġfibroc":5413,"Ġcolic":5414,"Ġadenomatoses":5415,"Ġmyeloproliferative":5416,"ergic":5417,"Ġisomer":5418,"Ġmicrom":5419,"Ġmicrod":5420,"Ġmicrog":5421,"Ġmicrotia":5422,"akening":5423,"Ġoi":5424,"Ġmononeuropathy":5425,"Ġimmuno":5426,"Ġcardio":5427,"Ġdigenic":5428,"Ġerythropoietic":5429,"Ġmediter":5430,"Ġsinoatrial":5431,"Ġmucocutaneous":5432,"Ġmucinous":5433,"Ġcompartment":5434,"physes":5435,"Ġvesic":5436,"Ġrot":5437,"Ġvalvular":5438,"Ġproliferative":5439,"Ġfove":5440,"Ġaneurysmal":5441,"Ġhands":5442,"Ġparaplegias":5443,"Ġenteritis":5444,"Ġpolyneur":5445,"Ġpalmito":5446,"orean":5447,"Ġvarus":5448,"Ġoxy":5449,"Ġmethylglut":5450,"Ġmethylcro":5451,"Ġpancreatitis":5452,"oacylase":5453,"Ġreduc":5454,"Ġbarret":5455,"Ġpatter":5456,"Ġloop":5457,"Ġmidline":5458,"Ġsubcutaneous":5459,"Ġrepair":5460,"Ġocclusions":5461,"Ġconcussion":5462,"Ġhippel":5463,"Ġsequard":5464,"Ġporphyrias":5465,"Ġphenylalan":5466,"Ġwounds":5467,"Ġtyrosinemia":5468,"Ġsegment":5469,"Ġberardinelli":5470,"Ġfingers":5471,"Ġeleventh":5472,"Ġtoxoplasmosis":5473,"Ġmilk":5474,"icardi":5475,"Ġnasopharyngeal":5476,"Ġnarcolep":5477,"Ġbabinski":5478,"Ġspots":5479,"Ġargininosuccinic":5480,"Ġconnective":5481,"Ġphenylketonuria":5482,"Ġossification":5483,"Ġhorner":5484,"Ġpseudotumor":5485,"Ġinhal":5486,"Ġhypokalemic":5487,"Ġleishmaniasis":5488,"uronate":5489,"Ġmaturity":5490,"Ġsjog":5491,"Ġdouble":5492,"Ġawakening":5493,"Ġpolyendocrinopathy":5494,"Ġadrenoleukodystrophy":5495,"Ġpachyonychia":5496,"Ġlyase":5497,"Ġhiatal":5498,"Ġlafora":5499,"Ġincreased":5500,"Ġgigantism":5501,"Ġvogt":5502,"Ġhypospadias":5503,"Ġwarburg":5504,"Ġkikuchi":5505,"Ġmullerian":5506,"Ġerythrokeratodermia":5507,"Ġsalmonella":5508,"Ġcircumscribed":5509,"Ġromberg":5510,"Ġstimul":5511,"Ġbernard":5512,"Ġthanatophor":5513,"Ġuniversal":5514,"Ġbourneville":5515,"Ġdisplac":5516,"Ġfossa":5517,"rocalcinosis":5518,"Ġmediterranean":5519,"Ġmethylcroton":5520,"Ġphenylalanine":5521,"Ġthanatophoric":5522,"cer":5523,"ey":5524,"horm":5525,"igenic":5526,"ky":5527,"ken":5528,"ligo":5529,"mas":5530,"monic":5531,"oa":5532,"oas":5533,"put":5534,"rs":5535,"riasis":5536,"ser":5537,"yan":5538,"Ġell":5539,"Ġog":5540,"Ġush":5541,"Ġench":5542,"erit":5543,"inoma":5544,"inemic":5545,"Ġsat":5546,"Ġslip":5547,"Ġstill":5548,"Ġsummer":5549,"Ġdimin":5550,"Ġcast":5551,"Ġcri":5552,"arning":5553,"anz":5554,"ature":5555,"osseous":5556,"oride":5557,"Ġmg":5558,"Ġmpt":5559,"Ġmolar":5560,"Ġmanic":5561,"omb":5562,"Ġten":5563,"Ġtortic":5564,"Ġtarsal":5565,"Ġai":5566,"leuk":5567,"Ġnar":5568,"Ġnorm":5569,"ulent":5570,"Ġdiscr":5571,"emens":5572,"ypan":5573,"Ġfh":5574,"Ġfer":5575,"Ġfar":5576,"Ġfrom":5577,"Ġfow":5578,"Ġbeck":5579,"eli":5580,"els":5581,"Ġlgl":5582,"Ġrath":5583,"Ġdeple":5584,"Ġgyr":5585,"Ġgout":5586,"Ġgaz":5587,"ola":5588,"olymph":5589,"ents":5590,"eterm":5591,"itiligo":5592,"eps":5593,"Ġvitiligo":5594,"Ġhypoc":5595,"une":5596,"ingement":5597,"Ġcontrac":5598,"Ġconversion":5599,"Ġactiv":5600,"cles":5601,"Ġlearning":5602,"eberg":5603,"Ġhyperostoses":5604,"Ġspind":5605,"ylation":5606,"Ġstric":5607,"Ġstrain":5608,"Ġstrong":5609,"obility":5610,"ystrophy":5611,"Ġkl":5612,"Ġarg":5613,"Ġarch":5614,"ubercul":5615,"Ġprenatal":5616,"versions":5617,"Ġ36":5618,"Ġ37":5619,"ectomy":5620,"Ġperine":5621,"Ġherma":5622,"neys":5623,"teur":5624,"endal":5625,"Ġphak":5626,"Ġtrypan":5627,"Ġexcess":5628,"Ġexostosis":5629,"ogenital":5630,"Ġretrop":5631,"Ġpostchole":5632,"Ġposttraum":5633,"ohl":5634,"Ġdominantly":5635,"Ġosteodysplastic":5636,"Ġlipoid":5637,"Ġeros":5638,"ivirus":5639,"astric":5640,"Ġcough":5641,"avicular":5642,"Ġmonocular":5643,"rix":5644,"Ġmalignancy":5645,"glot":5646,"ertrophic":5647,"Ġmacro":5648,"Ġectopia":5649,"acteristic":5650,"Ġangiomatoses":5651,"Ġcarpal":5652,"Ġautoinflamm":5653,"inding":5654,"Ġflank":5655,"Ġsinusitis":5656,"Ġdry":5657,"Ġnodule":5658,"ituitar":5659,"Ġinfarct":5660,"Ġkidneys":5661,"Ġhistiocyte":5662,"Ġhistiocytoses":5663,"Ġmigrain":5664,"Ġmarfan":5665,"Ġpelvis":5666,"ospermia":5667,"ished":5668,"Ġophthalmopathy":5669,"Ġimpingement":5670,"Ġdepressions":5671,"Ġvagina":5672,"Ġhumeral":5673,"Ġvara":5674,"Ġcalcinosis":5675,"Ġmycotic":5676,"oplegic":5677,"tonasal":5678,"Ġdilat":5679,"Ġgingivitis":5680,"Ġloe":5681,"Ġhypogammaglobulinemia":5682,"Ġdysmorphic":5683,"Ġpetit":5684,"Ġfascicular":5685,"Ġphoto":5686,"Ġsphing":5687,"Ġleukoencephalitis":5688,"Ġcholec":5689,"Ġdysphasias":5690,"Ġglutaric":5691,"Ġpseudohypertrophic":5692,"arboxylase":5693,"Ġventricul":5694,"Ġankylosis":5695,"Ġpasteur":5696,"Ġrestless":5697,"Ġuveitis":5698,"Ġmeningoencephalitides":5699,"Ġcramps":5700,"Ġpemphigus":5701,"Ġemphysemas":5702,"Ġmesotheliomas":5703,"Ġparaganglioma":5704,"Ġurological":5705,"Ġfallot":5706,"Ġhemiat":5707,"Ġtumours":5708,"Ġterrors":5709,"Ġpetrous":5710,"Ġtardive":5711,"Ġbroad":5712,"Ġsaint":5713,"Ġtonsillar":5714,"odynia":5715,"Ġsymphysis":5716,"Ġhemispher":5717,"Ġhypercholesterolemia":5718,"Ġcharacteristic":5719,"Ġpudendal":5720,"Ġeyelid":5721,"Ġstickler":5722,"Ġundifferentiated":5723,"Ġvincent":5724,"Ġmenstru":5725,"Ġotorhinolaryng":5726,"Ġacrocephalos":5727,"Ġscapuloperoneal":5728,"Ġornithine":5729,"Ġsyphilitic":5730,"Ġamerican":5731,"Ġpatterson":5732,"Ġsjogren":5733,"Ġslipped":5734,"Ġdiminished":5735,"Ġmptp":5736,"Ġtorticollis":5737,"Ġdepletion":5738,"Ġstrict":5739,"Ġhermaph":5740,"Ġposttraumatic":5741,"ituitarism":5742,"aj":5743,"bor":5744,"bum":5745,"bullous":5746,"cn":5747,"cid":5748,"ek":5749,"eochrom":5750,"ge":5751,"hoff":5752,"iological":5753,"ield":5754,"kel":5755,"lant":5756,"pen":5757,"rillar":5758,"sens":5759,"tz":5760,"tum":5761,"vid":5762,"ws":5763,"yb":5764,"ye":5765,"Ġti":5766,"Ġeas":5767,"Ġil":5768,"alac":5769,"Ġday":5770,"Ġcic":5771,"Ġcms":5772,"Ġcochlear":5773,"arin":5774,"isian":5775,"Ġpector":5776,"Ġpierre":5777,"Ġmag":5778,"Ġmend":5779,"Ġterm":5780,"Ġtoni":5781,"Ġhyg":5782,"Ġhigm":5783,"Ġhutch":5784,"Ġakinetic":5785,"Ġnuch":5786,"iations":5787,"Ġdistr":5788,"Ġdisabilities":5789,"usch":5790,"iters":5791,"opoietic":5792,"Ġfish":5793,"Ġfiss":5794,"Ġbix":5795,"elic":5796,"acr":5797,"acu":5798,"oci":5799,"iderm":5800,"etts":5801,"umm":5802,"Ġverm":5803,"Ġvacu":5804,"Ġdyssyn":5805,"Ġdyshorm":5806,"ima":5807,"odal":5808,"odent":5809,"Ġcontin":5810,"Ġactivity":5811,"otransferase":5812,"rophia":5813,"irium":5814,"Ġmyalgia":5815,"Ġhyperm":5816,"Ġspect":5817,"Ġws":5818,"Ġwer":5819,"adh":5820,"Ġkal":5821,"Ġare":5822,"iley":5823,"Ġthi":5824,"oides":5825,"Ġgli":5826,"Ġperin":5827,"Ġcerebros":5828,"Ġjap":5829,"Ġjack":5830,"omyx":5831,"orylase":5832,"ref":5833,"retin":5834,"Ġmalt":5835,"Ġphon":5836,"Ġpheochrom":5837,"rosarc":5838,"Ġpostc":5839,"kinesia":5840,"orrheas":5841,"Ġnonbullous":5842,"ductal":5843,"Ġarteritides":5844,"Ġgenicul":5845,"Ġpulmonic":5846,"Ġintes":5847,"Ġcollec":5848,"ropod":5849,"Ġmyelopathies":5850,"Ġmicron":5851,"Ġsche":5852,"Ġtransfer":5853,"Ġsczd":5854,"akness":5855,"Ġimmunologic":5856,"Ġapneas":5857,"Ġhydro":5858,"Ġsleb":5859,"Ġnephrosis":5860,"Ġnephritides":5861,"Ġnecro":5862,"Ġnecrob":5863,"Ġcarney":5864,"Ġintraventricular":5865,"Ġintraductal":5866,"acker":5867,"Ġretinopathies":5868,"Ġdrusen":5869,"Ġnodoventricular":5870,"Ġroland":5871,"Ġsarcoid":5872,"Ġhistiocytoma":5873,"Ġmigratory":5874,"Ġglandular":5875,"arthritis":5876,"Ġdeformans":5877,"Ġdelirium":5878,"ittle":5879,"omelan":5880,"Ġfacio":5881,"Ġweakness":5882,"Ġhydroxyster":5883,"ocarcinoma":5884,"Ġmorg":5885,"Ġdermatomy":5886,"Ġpattern":5887,"Ġdissection":5888,"Ġhepatocellular":5889,"Ġsulfate":5890,"rovirus":5891,"orphyrinogen":5892,"Ġlegg":5893,"Ġlegion":5894,"Ġperiodontitides":5895,"esthetic":5896,"Ġbreech":5897,"Ġoligoph":5898,"Ġequin":5899,"Ġheterotopias":5900,"Ġfibromas":5901,"Ġguanine":5902,"Ġactinomyc":5903,"Ġhypertensions":5904,"Ġwolf":5905,"Ġxanthogranul":5906,"Ġdentinogenesis":5907,"Ġuveal":5908,"ĠÃ¶":5909,"Ġhemiplegic":5910,"Ġhypoal":5911,"Ġmegac":5912,"Ġteratoma":5913,"Ġexcessive":5914,"time":5915,"Ġsemantic":5916,"Ġnaj":5917,"Ġmurmurs":5918,"Ġmosaicism":5919,"Ġalbright":5920,"Ġsomatosensory":5921,"omeningeal":5922,"Ġkleine":5923,"uberty":5924,"Ġappar":5925,"Ġillnesses":5926,"Ġplagiocephalies":5927,"Ġacromegal":5928,"ovaginal":5929,"Ġpolysyndactyly":5930,"Ġdiplopia":5931,"Ġdiplopias":5932,"Ġcystinosis":5933,"Ġependymoma":5934,"Ġagraphia":5935,"Ġgangrene":5936,"Ġreticuloendotheliosis":5937,"Ġsandhoff":5938,"Ġcaffe":5939,"Ġconscious":5940,"Ġlymphohistiocytosis":5941,"Ġthrombophlebitis":5942,"Ġgalactosemia":5943,"Ġpositional":5944,"Ġsweat":5945,"Ġcampomelic":5946,"Ġpustular":5947,"Ġurticaria":5948,"Ġazorean":5949,"Ġofc":5950,"Ġdebre":5951,"Ġmyofibrillar":5952,"Ġschonlein":5953,"Ġtrichothiodystrophy":5954,"Ġlouis":5955,"Ġcheilitis":5956,"Ġhyperalg":5957,"Ġcarbamoyl":5958,"Ġmorvan":5959,"Ġbodies":5960,"Ġacrofacial":5961,"Ġfibrocystic":5962,"Ġpalmitoyltransferase":5963,"Ġbarrett":5964,"Ġuniversalis":5965,"Ġmethylcrotonyl":5966,"eritoneal":5967,"Ġspindle":5968,"Ġretroperitoneal":5969,"Ġmigraines":5970,"Ġterminal":5971,"Ġnuchal":5972,"Ġbixler":5973,"Ġcerebroside":5974,"Ġgeniculate":5975,"Ġcollecting":5976,"Ġhydroxysteroid":5977,"atin":5978,"atine":5979,"bat":5980,"gal":5981,"hi":5982,"ietal":5983,"king":5984,"litz":5985,"oj":5986,"ove":5987,"ptic":5988,"pyr":5989,"ring":5990,"uy":5991,"uer":5992,"ution":5993,"Ġ'":5994,"Ġumbilical":5995,"erent":5996,"Ġsr":5997,"Ġsant":5998,"Ġsach":5999,"Ġsore":6000,"Ġsuccin":6001,"Ġdb":6002,"Ġdur":6003,"Ġcb":6004,"Ġcob":6005,"Ġcof":6006,"ark":6007,"Ġpc":6008,"Ġpd":6009,"Ġpig":6010,"Ġpity":6011,"osamine":6012,"orid":6013,"orax":6014,"Ġml":6015,"Ġmang":6016,"Ġmink":6017,"Ġtyp":6018,"Ġhal":6019,"Ġhib":6020,"Ġhort":6021,"philis":6022,"Ġaor":6023,"leptic":6024,"yns":6025,"uli":6026,"ules":6027,"uses":6028,"ops":6029,"opar":6030,"opos":6031,"openic":6032,"Ġfis":6033,"Ġfle":6034,"Ġbs":6035,"Ġbuc":6036,"Ġball":6037,"Ġbrad":6038,"Ġbio":6039,"Ġbusch":6040,"ysp":6041,"Ġla":6042,"Ġlh":6043,"acill":6044,"oca":6045,"ocost":6046,"Ġgel":6047,"Ġgard":6048,"Ġgood":6049,"Ġhypomyel":6050,"Ġdyscal":6051,"Ġchil":6052,"imetaphyseal":6053,"elloses":6054,"odium":6055,"Ġanis":6056,"Ġanos":6057,"Ġconver":6058,"ranodal":6059,"Ġacad":6060,"otroph":6061,"ages":6062,"agnos":6063,"Ġspecific":6064,"Ġneurotic":6065,"Ġneurosy":6066,"Ġneuroblastoma":6067,"Ġneuroleptic":6068,"Ġstre":6069,"Ġwet":6070,"Ġwool":6071,"adass":6072,"Ġparenchymal":6073,"Ġparietal":6074,"Ġepstein":6075,"Ġalkal":6076,"iproc":6077,"Ġkenn":6078,"Ġadduc":6079,"Ġadverse":6080,"Ġpreling":6081,"ronous":6082,"Ġprog":6083,"Ġperman":6084,"Ġpericard":6085,"ograph":6086,"ogastric":6087,"Ġherlitz":6088,"Ġleukocyt":6089,"ifer":6090,"Ġjadass":6091,"Ġcombat":6092,"teg":6093,"Ġpharynx":6094,"Ġreciproc":6095,"aba":6096,"abdominal":6097,"Ġextrac":6098,"Ġsubglot":6099,"Ġnonl":6100,"Ġbruc":6101,"owsky":6102,"Ġgenu":6103,"Ġfibers":6104,"Ġdiaphyseal":6105,"Ġerb":6106,"Ġtransc":6107,"akias":6108,"Ġscleredema":6109,"Ġmonocytic":6110,"Ġmalignancies":6111,"ayer":6112,"Ġpouch":6113,"Ġhydroc":6114,"yrin":6115,"ferr":6116,"Ġangiitides":6117,"Ġspasticity":6118,"Ġmedia":6119,"Ġester":6120,"Ġstenosing":6121,"Ġarthropod":6122,"Ġlimited":6123,"hydrotic":6124,"Ġproteinosis":6125,"Ġproteinuria":6126,"Ġbrachym":6127,"Ġmesodermal":6128,"Ġextensor":6129,"Ġextranodal":6130,"Ġmotility":6131,"Ġophthalmopathies":6132,"tured":6133,"Ġfetalis":6134,"Ġpyramidal":6135,"Ġweill":6136,"nesic":6137,"Ġseropos":6138,"Ġcraniocerebral":6139,"Ġcoronal":6140,"Ġaxen":6141,"Ġneglect":6142,"Ġoto":6143,"Ġbare":6144,"Ġruptured":6145,"Ġtrigger":6146,"Ġcmh":6147,"eptual":6148,"Ġneurofibromatoses":6149,"ordination":6150,"Ġdysmnesic":6151,"Ġrheumatism":6152,"robasilar":6153,"Ġketotic":6154,"Ġsphinc":6155,"Ġtraits":6156,"Ġmanson":6157,"verted":6158,"Ġplagues":6159,"Ġhunter":6160,"Ġrhinitis":6161,"Ġmycobacterial":6162,"infarc":6163,"ocephaly":6164,"Ġamyotrophy":6165,"Ġdentoalveolar":6166,"Ġosteoarthropathy":6167,"Ġepithelioma":6168,"erapeu":6169,"Ġambigu":6170,"Ġsicknesses":6171,"Ġnutrition":6172,"Ġduoden":6173,"ococcus":6174,"Ġacetylgal":6175,"Ġpunctate":6176,"Ġmercurial":6177,"Ġberry":6178,"Ġlymphadenopathy":6179,"Ġprecurs":6180,"Ġstrokes":6181,"Ġschistosomiasis":6182,"Ġfragile":6183,"Ġneurodegeneration":6184,"Ġdisturbances":6185,"Ġvertebrobasilar":6186,"Ġmicrocornea":6187,"Ġschwannoma":6188,"Ġargininosuccinate":6189,"Ġdysarthria":6190,"Ġacinar":6191,"Ġnanism":6192,"Ġlaceration":6193,"Ġtransformation":6194,"Ġkaposi":6195,"Ġperceptual":6196,"Ġgangliogl":6197,"Ġgastroenteritis":6198,"Ġmuscles":6199,"Ġprotozoal":6200,"Ġdyspraxia":6201,"Ġhypoventilation":6202,"Ġalternari":6203,"Ġoxidative":6204,"Ġneedles":6205,"Ġconfusional":6206,"Ġbreathing":6207,"ckeberg":6208,"Ġepiphyses":6209,"Ġpericardial":6210,"Ġempyema":6211,"Ġgynecomastia":6212,"Ġneurohypophyseal":6213,"Ġjampel":6214,"Ġleptomeningeal":6215,"Ġshaped":6216,"Ġcaused":6217,"ocorticoid":6218,"Ġarachnodactyly":6219,"Ġgalactosylcer":6220,"Ġmediastinum":6221,"Ġmaternal":6222,"Ġnonprogressive":6223,"Ġmethylglutac":6224,"Ġeastern":6225,"Ġdistress":6226,"Ġdyshormonogenesis":6227,"Ġspectrum":6228,"Ġcaffey":6229,"Ġbiotin":6230,"Ġdyscalcul":6231,"Ġconverg":6232,"Ġneurosyphilis":6233,"Ġwoolly":6234,"Ġprelingual":6235,"Ġleukocytoclastic":6236,"Ġjadassohn":6237,"Ġsubglottic":6238,"Ġsphincter":6239,"erapeutic":6240,"Ġacetylgalact":6241,"Ġprecursor":6242,"aple":6243,"aortic":6244,"bi":6245,"cf":6246,"don":6247,"hn":6248,"kan":6249,"mr":6250,"ng":6251,"oe":6252,"oast":6253,"rd":6254,"uen":6255,"ually":6256,"wer":6257,"with":6258,"zlow":6259,"Ġure":6260,"era":6261,"erated":6262,"ernal":6263,"inas":6264,"inson":6265,"Ġsen":6266,"Ġsad":6267,"Ġds":6268,"Ġdari":6269,"Ġcyc":6270,"Ġcild":6271,"Ġcushing":6272,"esani":6273,"Ġpn":6274,"Ġpes":6275,"Ġpont":6276,"Ġpilar":6277,"Ġpuberty":6278,"atch":6279,"osuria":6280,"orneal":6281,"orbital":6282,"omo":6283,"Ġtm":6284,"Ġtar":6285,"Ġtym":6286,"Ġtone":6287,"Ġhard":6288,"phleb":6289,"Ġaa":6290,"Ġaort":6291,"Ġaicardi":6292,"leman":6293,"Ġnag":6294,"opian":6295,"Ġfem":6296,"Ġfum":6297,"Ġfsh":6298,"Ġbf":6299,"Ġbones":6300,"Ġler":6301,"Ġlar":6302,"Ġlumb":6303,"Ġlaur":6304,"ocar":6305,"occl":6306,"uration":6307,"eption":6308,"eptive":6309,"Ġvel":6310,"aryl":6311,"amidase":6312,"Ġchyl":6313,"Ġcharge":6314,"imotor":6315,"eller":6316,"unay":6317,"Ġann":6318,"Ġanoxic":6319,"Ġanophthalmia":6320,"Ġacal":6321,"Ġacral":6322,"Ġacrop":6323,"Ġeg":6324,"agon":6325,"chol":6326,"osomiases":6327,"Ġmyofasc":6328,"Ġhyperam":6329,"Ġhyperpy":6330,"Ġhyperuric":6331,"Ġneurosis":6332,"Ġstomat":6333,"Ġwar":6334,"obar":6335,"Ġepic":6336,"Ġinclusions":6337,"Ġaltit":6338,"opharynx":6339,"ophalang":6340,"Ġ33":6341,"atial":6342,"ift":6343,"Ġjohn":6344,"Ġ43":6345,"izations":6346,"opathia":6347,"Ġexocrine":6348,"Ġimbal":6349,"Ġpostural":6350,"Ġiiia":6351,"Ġsubaortic":6352,"Ġpauc":6353,"omata":6354,"dermatitides":6355,"Ġarteries":6356,"Ġfibular":6357,"uncal":6358,"Ġlipidosis":6359,"Ġmeningocele":6360,"Ġhypertonia":6361,"Ġhypertonias":6362,"Ġmicrocephal":6363,"Ġscheu":6364,"Ġtransloc":6365,"Ġtransposition":6366,"aker":6367,"Ġtoe":6368,"Ġuremic":6369,"rier":6370,"glu":6371,"Ġmacros":6372,"Ġpneumocystis":6373,"Ġerythrocyt":6374,"Ġrhythm":6375,"Ġcarol":6376,"Ġrefrac":6377,"Ġmucosa":6378,"Ġcompound":6379,"Ġdifferenti":6380,"Ġflo":6381,"hyde":6382,"Ġpapular":6383,"Ġaphth":6384,"Ġsinusitides":6385,"Ġhypersomnia":6386,"Ġnodules":6387,"Ġphosphorylase":6388,"Ġchori":6389,"Ġvertical":6390,"Ġendocardial":6391,"Ġcontagi":6392,"utisms":6393,"omicron":6394,"Ġspondylo":6395,"Ġweiss":6396,"ification":6397,"Ġblindnesses":6398,"Ġserocon":6399,"Ġerythroblast":6400,"Ġlatex":6401,"Ġtachyp":6402,"Ġglomerulopathy":6403,"Ġeleph":6404,"Ġsplen":6405,"Ġdengue":6406,"dehyde":6407,"phalocele":6408,"Ġfluent":6409,"ciuric":6410,"ompaction":6411,"Ġhyperlipidemia":6412,"Ġheterotaxy":6413,"Ġhyalinosis":6414,"Ġguill":6415,"Ġextrahepatic":6416,"Ġjaws":6417,"Ġoutflow":6418,"odysgenesis":6419,"haus":6420,"Ġgoiters":6421,"Ġsialaden":6422,"Ġcystine":6423,"Ġvulva":6424,"Ġmatter":6425,"Ġricketts":6426,"Ġmyxoid":6427,"Ġregional":6428,"Ġfibrillary":6429,"Ġphosphorylation":6430,"rolithiasis":6431,"Ġhidrotic":6432,"Ġkozlow":6433,"orge":6434,"Ġhemiplegias":6435,"Ġeruptions":6436,"Ġmannosidosis":6437,"oconjunctiv":6438,"Ġhemoglobinuria":6439,"Ġcerebellum":6440,"Ġbiphen":6441,"Ġneurocutaneous":6442,"Ġarteriosus":6443,"omonas":6444,"Ġaberrations":6445,"Ġhabit":6446,"Ġnasopharynx":6447,"Ġrectum":6448,"Ġkeratitides":6449,"Ġnoncompaction":6450,"Ġspondyloepimetaphyseal":6451,"Ġaspartate":6452,"Ġfallopian":6453,"Ġkyphosis":6454,"Ġthyrot":6455,"Ġschwannomas":6456,"Ġstomatitides":6457,"Ġdysarthrias":6458,"Ġpropionic":6459,"Ġagraphias":6460,"Ġlacerations":6461,"Ġhyalohyphomycosis":6462,"Ġhyalohyphomycoses":6463,"Ġhuet":6464,"Ġchondromalac":6465,"Ġsubmandibular":6466,"Ġmarchesani":6467,"Ġremodelling":6468,"acetoac":6469,"Ġneovascularization":6470,"Ġtouret":6471,"Ġchorioretinal":6472,"Ġebstein":6473,"Ġhemicrania":6474,"Ġalexia":6475,"Ġlentiginosis":6476,"acytoid":6477,"Ġgoltz":6478,"Ġbotulism":6479,"Ġhypergonad":6480,"Ġwatson":6481,"Ġdeprivation":6482,"Ġmandibul":6483,"ibrio":6484,"Ġinhalation":6485,"yanagi":6486,"Ġnarrow":6487,"Ġfowl":6488,"Ġbeckwith":6489,"Ġphotoall":6490,"Ġhutchinson":6491,"Ġdyssynerg":6492,"Ġperinatal":6493,"Ġmicronucle":6494,"Ġrolandic":6495,"Ġoligophrenia":6496,"Ġsachs":6497,"Ġpityriasis":6498,"Ġbuschke":6499,"Ġgardner":6500,"Ġpermanent":6501,"Ġaxenfeld":6502,"Ġmethylglutaconic":6503,"Ġcycle":6504,"Ġtymp":6505,"Ġhyperpyrex":6506,"Ġscheuermann":6507,"Ġrefractive":6508,"Ġdifferentiation":6509,"Ġkozlowski":6510,"Ġbiphenotypic":6511,"bc":6512,"bing":6513,"bts":6514,"eker":6515,"fb":6516,"fact":6517,"fold":6518,"ges":6519,"growth":6520,"hed":6521,"hart":6522,"house":6523,"kl":6524,"kling":6525,"mias":6526,"medullary":6527,"neph":6528,"oot":6529,"oyl":6530,"oron":6531,"oemb":6532,"qtl":6533,"renic":6534,"to":6535,"viridae":6536,"xual":6537,"tid":6538,"inomas":6539,"inate":6540,"Ġsitu":6541,"Ġsella":6542,"Ġsound":6543,"Ġdm":6544,"Ġdon":6545,"Ġdic":6546,"Ġdor":6547,"Ġdiplegia":6548,"enner":6549,"enetrating":6550,"Ġcant":6551,"esc":6552,"essi":6553,"anical":6554,"atr":6555,"osc":6556,"Ġmi":6557,"Ġmech":6558,"Ġmga":6559,"Ġmutisms":6560,"ome":6561,"omies":6562,"omandibular":6563,"omiting":6564,"Ġtest":6565,"Ġht":6566,"Ġaqu":6567,"Ġaper":6568,"Ġarous":6569,"iams":6570,"emerging":6571,"opsias":6572,"opagnos":6573,"opyrin":6574,"Ġfemin":6575,"Ġbed":6576,"Ġbit":6577,"Ġbacillary":6578,"Ġlig":6579,"Ġlca":6580,"acea":6581,"Ġrud":6582,"Ġray":6583,"iding":6584,"Ġgan":6585,"Ġgun":6586,"olitides":6587,"ology":6588,"Ġneiss":6589,"umulation":6590,"Ġvacter":6591,"Ġventil":6592,"Ġvomiting":6593,"ellaceae":6594,"igral":6595,"igler":6596,"united":6597,"odes":6598,"oduod":6599,"Ġanton":6600,"terin":6601,"ucent":6602,"Ġache":6603,"otence":6604,"otubular":6605,"Ġew":6606,"Ġeis":6607,"Ġeig":6608,"Ġeie":6609,"ymening":6610,"agia":6611,"ire":6612,"Ġlep":6613,"Ġleuc":6614,"ebius":6615,"Ġmyositides":6616,"Ġhyperc":6617,"Ġhyperox":6618,"Ġhyperimmun":6619,"Ġhyperthy":6620,"ostriate":6621,"ardiogenic":6622,"Ġwin":6623,"adian":6624,"Ġiic":6625,"Ġparac":6626,"Ġhemophilus":6627,"Ġki":6628,"Ġthin":6629,"Ġthost":6630,"verrich":6631,"Ġlymphogranul":6632,"ophob":6633,"ophyt":6634,"Ġproc":6635,"Ġpern":6636,"Ġreye":6637,"Ġreemerging":6638,"Ġleukokerat":6639,"ache":6640,"ife":6641,"Ġjer":6642,"Ġjunction":6643,"Ġjbts":6644,"aptic":6645,"Ġreckling":6646,"rosidase":6647,"oxyl":6648,"Ġrett":6649,"Ġpostphleb":6650,"Ġblenn":6651,"Ġnoninsulin":6652,"Ġbrug":6653,"Ġfibroid":6654,"Ġopca":6655,"Ġperioral":6656,"ofac":6657,"Ġlipoproteinemia":6658,"ochondrom":6659,"lich":6660,"Ġataxic":6661,"Ġfryns":6662,"Ġschinz":6663,"Ġurach":6664,"Ġureter":6665,"Ġtubal":6666,"Ġplat":6667,"Ġimmunological":6668,"Ġunverrich":6669,"Ġpool":6670,"prs":6671,"Ġempt":6672,"Ġpneumocon":6673,"Ġpneumonitides":6674,"Ġangiofollicular":6675,"ocerebrosidase":6676,"Ġsleeper":6677,"Ġcaud":6678,"Ġcrigler":6679,"Ġsecret":6680,"oglut":6681,"vely":6682,"Ġintravascular":6683,"Ġflat":6684,"Ġretina":6685,"Ġdeletions":6686,"Ġears":6687,"ticulostriate":6688,"Ġoculocereb":6689,"Ġsarcogl":6690,"Ġbrachy":6691,"Ġkeratoconjunctiv":6692,"Ġengel":6693,"Ġesophagitis":6694,"Ġneuralgic":6695,"Ġmoebius":6696,"Ġsexually":6697,"psia":6698,"Ġvarieg":6699,"Ġimplant":6700,"Ġimpotence":6701,"Ġdfn":6702,"Ġvaras":6703,"Ġfaci":6704,"Ġcalcium":6705,"Ġoxal":6706,"cracker":6707,"ocarcinomas":6708,"Ġvasculopathy":6709,"ikov":6710,"obacteriaceae":6711,"Ġimperfor":6712,"omnias":6713,"roglossal":6714,"Ġbeat":6715,"Ġbeats":6716,"Ġosler":6717,"Ġcryptococc":6718,"Ġpatent":6719,"Ġcholang":6720,"Ġloose":6721,"Ġasthmas":6722,"Ġmembranoproliferative":6723,"Ġmidb":6724,"osterone":6725,"orphyria":6726,"Ġphototoxic":6727,"Ġsliding":6728,"Ġpsors":6729,"Ġburn":6730,"Ġburning":6731,"Ġneutral":6732,"Ġcalcifications":6733,"Ġhunt":6734,"Ġdysphonia":6735,"Ġentamoeb":6736,"Ġglutam":6737,"hausen":6738,"Ġhypogonadotropic":6739,"Ġplexiform":6740,"Ġconjunctival":6741,"Ġovergrowth":6742,"Ġdentate":6743,"Ġsteat":6744,"ammaglobulin":6745,"Ġrosacea":6746,"Ġholm":6747,"Ġbronchiect":6748,"Ġtrophoblast":6749,"Ġmyxoma":6750,"Ġwolman":6751,"Ġpolymic":6752,"Ġembryopathy":6753,"Ġnutcracker":6754,"Ġlenticulostriate":6755,"Ġkoj":6756,"oneuropathies":6757,"Ġelast":6758,"Ġaccumulation":6759,"Ġamniotic":6760,"Ġpachymening":6761,"Ġfasciculations":6762,"alangism":6763,"Ġmassive":6764,"Ġdecarboxylase":6765,"Ġcerebello":6766,"ewski":6767,"Ġboeck":6768,"Ġprosopagnos":6769,"Ġtoxoplasma":6770,"Ġtoxoplasmoses":6771,"Ġentrapments":6772,"Ġfragility":6773,"Ġneurocardiogenic":6774,"Ġsynovitis":6775,"Ġaberration":6776,"Ġmutation":6777,"uttering":6778,"Ġaspergilloses":6779,"Ġmegaloblastic":6780,"Ġfucosidosis":6781,"Ġwilliams":6782,"Ġendocarditides":6783,"untary":6784,"Ġurologic":6785,"Ġevent":6786,"Ġthyroglossal":6787,"Ġnonpenetrating":6788,"Ġmisfold":6789,"Ġacinic":6790,"Ġvalgus":6791,"Ġileal":6792,"Ġonly":6793,"Ġcopper":6794,"Ġethyl":6795,"Ġdegos":6796,"Ġquadriple":6797,"Ġspherocytosis":6798,"Ġrhabdomyosarcoma":6799,"Ġcartilage":6800,"Ġcsnb":6801,"Ġcocaine":6802,"Ġinfestation":6803,"Ġinfestations":6804,"Ġarvc":6805,"Ġarvd":6806,"Ġinfertility":6807,"Ġhyperlucent":6808,"Ġkrabb":6809,"Ġshared":6810,"Ġcryopyrin":6811,"Ġahus":6812,"Ġarticulation":6813,"Ġbruxism":6814,"Ġamblyopia":6815,"Ġprogeria":6816,"Ġmegakaryocytic":6817,"Ġsiemens":6818,"Ġsurfact":6819,"Ġlightning":6820,"Ġgilbert":6821,"Ġvwd":6822,"Ġmusculoskeletal":6823,"Ġfolding":6824,"Ġatherosclerotic":6825,"ozyg":6826,"Ġpubis":6827,"Ġintrinsic":6828,"Ġnephronophth":6829,"Ġenlarged":6830,"Ġphaeohyphomycosis":6831,"lampsia":6832,"inhib":6833,"Ġsayre":6834,"Ġsmooth":6835,"Ġincisor":6836,"Ġrepetitive":6837,"Ġstraussler":6838,"Ġuridylyltransferase":6839,"Ġdamage":6840,"Ġdeposits":6841,"Ġkearns":6842,"Ġfoveal":6843,"Ġnarcolepsy":6844,"Ġdisplacement":6845,"Ġenchondrom":6846,"Ġcastleman":6847,"Ġrathke":6848,"Ġphakomatosis":6849,"Ġpostcholedoch":6850,"Ġdilatation":6851,"Ġhemisphere":6852,"Ġmenstruation":6853,"Ġacrocephalosyndactyly":6854,"Ġcontinuous":6855,"Ġjapanese":6856,"Ġtypes":6857,"Ġhorton":6858,"Ġurea":6859,"Ġdarier":6860,"Ġfemur":6861,"Ġlarva":6862,"Ġacalcul":6863,"Ġhyperammon":6864,"Ġjohnson":6865,"Ġmicrocephalic":6866,"Ġcontagious":6867,"Ġelephanti":6868,"Ġhypergonadotropic":6869,"Ġmechanical":6870,"Ġaqued":6871,"Ġarousal":6872,"Ġneisser":6873,"Ġvacterl":6874,"Ġeiee":6875,"Ġhyperthyrox":6876,"Ġpostphlebitic":6877,"Ġbrugada":6878,"Ġschinzel":6879,"Ġunverricht":6880,"Ġempty":6881,"Ġpneumoconiosis":6882,"Ġsecretory":6883,"Ġmisfolding":6884,"Ġsurfactant":6885,"Ġnephronophthisis":6886,"agener":6887,"bow":6888,"bilis":6889,"cb":6890,"cq":6891,"cith":6892,"ctive":6893,"dactyl":6894,"eosinophil":6895,"fl":6896,"fel":6897,"jd":6898,"jar":6899,"kh":6900,"kmann":6901,"nier":6902,"peral":6903,"pecific":6904,"rt":6905,"rel":6906,"sed":6907,"tb":6908,"tosis":6909,"wick":6910,"Ġoh":6911,"Ġroc":6912,"Ġigh":6913,"alamin":6914,"rote":6915,"ineral":6916,"Ġset":6917,"Ġsug":6918,"Ġstern":6919,"Ġsector":6920,"Ġsided":6921,"Ġdav":6922,"Ġdopa":6923,"Ġdhm":6924,"assi":6925,"astr":6926,"ontic":6927,"Ġct":6928,"Ġcath":6929,"Ġcomas":6930,"Ġclic":6931,"are":6932,"arm":6933,"articular":6934,"isia":6935,"esomelic":6936,"esigenic":6937,"Ġpf":6938,"Ġpof":6939,"Ġpott":6940,"ori":6941,"ores":6942,"Ġmim":6943,"Ġmir":6944,"Ġmant":6945,"Ġmgr":6946,"Ġmorph":6947,"Ġmarg":6948,"Ġmtd":6949,"omias":6950,"Ġtdp":6951,"Ġhap":6952,"Ġak":6953,"Ġau":6954,"led":6955,"ynch":6956,"Ġnic":6957,"Ġnond":6958,"Ġdistin":6959,"ussi":6960,"edion":6961,"edemas":6962,"Ġinversion":6963,"Ġfrax":6964,"Ġbm":6965,"Ġbp":6966,"Ġbest":6967,"Ġbatt":6968,"Ġbipolar":6969,"active":6970,"Ġrag":6971,"Ġruss":6972,"Ġriley":6973,"Ġdebran":6974,"idi":6975,"ides":6976,"idemias":6977,"ency":6978,"athisia":6979,"the":6980,"ther":6981,"utt":6982,"Ġvill":6983,"aryls":6984,"Ġhypoh":6985,"Ġhypomat":6986,"Ġchann":6987,"imidine":6988,"ellw":6989,"Ġinfiltra":6990,"odis":6991,"odontic":6992,"Ġantis":6993,"Ġacrod":6994,"ude":6995,"ymic":6996,"agille":6997,"Ġlecith":6998,"ebiasis":6999,"Ġmyh":7000,"Ġhyperpro":7001,"Ġhyperkinetic":7002,"Ġhypereosinophil":7003,"Ġneurosens":7004,"ylin":7005,"ylosis":7006,"ardt":7007,"ardia":7008,"Ġstu":7009,"Ġstart":7010,"Ġstuttering":7011,"Ġwis":7012,"Ġworm":7013,"Ġparv":7014,"oplasmacytoid":7015,"essor":7016,"Ġalper":7017,"Ġalagille":7018,"ipt":7019,"ipple":7020,"Ġkr":7021,"Ġkary":7022,"Ġkell":7023,"Ġkart":7024,"Ġkline":7025,"Ġaref":7026,"ubo":7027,"Ġadj":7028,"Ġadie":7029,"Ġthalam":7030,"Ġprem":7031,"Ġprion":7032,"Ġcellular":7033,"Ġlymphoplasmacytoid":7034,"Ġ35":7035,"Ġ38":7036,"Ġprof":7037,"ects":7038,"ricans":7039,"Ġdystonic":7040,"tren":7041,"Ġ47":7042,"izz":7043,"apid":7044,"Ġphalang":7045,"Ġpolio":7046,"quin":7047,"Ġexst":7048,"andowsky":7049,"Ġencephalomy":7050,"Ġencephalocele":7051,"Ġoch":7052,"Ġsubt":7053,"Ġ51":7054,"Ġbrill":7055,"Ġgenito":7056,"Ġfiber":7057,"Ġintoxic":7058,"Ġshy":7059,"Ġadenohyp":7060,"Ġosteochondrom":7061,"Ġlipase":7062,"Ġlipoat":7063,"Ġsensations":7064,"Ġsensitivities":7065,"Ġmyeloma":7066,"Ġangioneuro":7067,"Ġidi":7068,"Ġiduronate":7069,"Ġfreck":7070,"Ġmicrovascular":7071,"Ġfeil":7072,"Ġscr":7073,"Ġagangl":7074,"Ġagranul":7075,"Ġpseudogl":7076,"Ġmyocard":7077,"eating":7078,"ritic":7079,"print":7080,"ickness":7081,"Ġintracellular":7082,"Ġclo":7083,"formis":7084,"Ġdiath":7085,"Ġdieker":7086,"Ġresorp":7087,"Ġnephrolithiasis":7088,"Ġcryst":7089,"Ġcrcs":7090,"Ġnecroses":7091,"Ġmediated":7092,"indness":7093,"radi":7094,"Ġlimit":7095,"Ġparalytic":7096,"undus":7097,"Ġradicul":7098,"Ġradio":7099,"Ġradicular":7100,"Ġradius":7101,"Ġspinobulbar":7102,"Ġparainf":7103,"Ġinfarcts":7104,"Ġrous":7105,"Ġround":7106,"Ġcranium":7107,"Ġamyloidoses":7108,"Ġaneup":7109,"ethyl":7110,"anthus":7111,"anthoma":7112,"Ġhistiocytomas":7113,"Ġmelkers":7114,"Ġmigrans":7115,"instein":7116,"Ġfollic":7117,"Ġherniation":7118,"Ġgiedion":7119,"Ġhypoten":7120,"Ġpolychond":7121,"ansky":7122,"Ġglucocerebrosidase":7123,"Ġmethem":7124,"Ġspondylometaphyseal":7125,"blindness":7126,"Ġsimp":7127,"Ġzone":7128,"Ġzyg":7129,"Ġzellw":7130,"Ġmarote":7131,"Ġfrontonasal":7132,"Ġcolorblindness":7133,"Ġmelanomas":7134,"ulfatase":7135,"Ġglomerular":7136,"Ġbasophilic":7137,"rorenal":7138,"Ġnonspecific":7139,"Ġmorb":7140,"Ġbarr":7141,"Ġdermatofib":7142,"Ġfollicularis":7143,"Ġhepatocerebral":7144,"Ġlobular":7145,"Ġchoanal":7146,"phalip":7147,"Ġketosis":7148,"Ġpolycyth":7149,"yotonia":7150,"Ġdesmin":7151,"Ġpapillomatosis":7152,"ochromic":7153,"Ġmedulloblastoma":7154,"Ġleukoencephalopathies":7155,"Ġextras":7156,"Ġillusion":7157,"Ġillusions":7158,"Ġfibroma":7159,"Ġneuromas":7160,"Ġankle":7161,"Ġtree":7162,"Ġathet":7163,"Ġtibia":7164,"Ġgestosis":7165,"odysplasias":7166,"Ġacetyltransferase":7167,"Ġarteriopathy":7168,"Ġtoxicity":7169,"Ġdisks":7170,"Ġprotection":7171,"lebitides":7172,"Ġpseudohypop":7173,"Ġmurine":7174,"Ġseborrh":7175,"Ġpresentation":7176,"Ġbronchiolitis":7177,"Ġrubber":7178,"Ġhexose":7179,"Ġimpairments":7180,"Ġtetan":7181,"Ġworkers":7182,"eoesophageal":7183,"Ġlentis":7184,"Ġrestric":7185,"Ġgammap":7186,"Ġxanthomatosis":7187,"Ġportal":7188,"Ġelbow":7189,"Ġtyrosinase":7190,"Ġtyrosinemias":7191,"Ġantley":7192,"Ġacanthosis":7193,"ĠÃ©":7194,"ĠÃ«":7195,"Ġmaxill":7196,"minth":7197,"Ġgreen":7198,"atonigral":7199,"Ġteratoid":7200,"illed":7201,"ropathic":7202,"Ġvariabilis":7203,"Ġcandidiases":7204,"Ġprecoci":7205,"Ġpolyradiculoneuropathy":7206,"Ġsacro":7207,"Ġfores":7208,"Ġleiomyomatosis":7209,"Ġaberrant":7210,"Ġsyring":7211,"Ġlaxity":7212,"Ġlewandowsky":7213,"Ġosteochondrosis":7214,"Ġmicrocystic":7215,"Ġclosure":7216,"Ġaspartoacylase":7217,"Ġbreakage":7218,"Ġacromesomelic":7219,"Ġstriatonigral":7220,"Ġcatatonia":7221,"Ġnmda":7222,"Ġcystinuria":7223,"Ġcosta":7224,"Ġchemical":7225,"Ġappendic":7226,"odynias":7227,"Ġsymphalangism":7228,"Ġreticuloendothelioses":7229,"Ġhelminth":7230,"Ġrenotubular":7231,"Ġdegrad":7232,"Ġvolkmann":7233,"Ġconsump":7234,"Ġlymphohistiocytoses":7235,"Ġtransformations":7236,"glucose":7237,"Ġexfoliation":7238,"Ġpromin":7239,"Ġremodellings":7240,"Ġinferior":7241,"Ġvaginitis":7242,"aumann":7243,"Ġhyperinsulinism":7244,"Ġpredis":7245,"Ġspermatogenic":7246,"Ġudpglucose":7247,"Ġpotassi":7248,"Ġphysiological":7249,"Ġdihydrop":7250,"Ġmddg":7251,"Ġcrouz":7252,"Ġthrombocythemia":7253,"Ġnigricans":7254,"Ġvaccinal":7255,"Ġopacities":7256,"ippo":7257,"Ġmycoplasma":7258,"opalat":7259,"Ġdext":7260,"Ġandersen":7261,"Ġejm":7262,"Ġmicrognathia":7263,"Ġcontraction":7264,"Ġtrypanosomiasis":7265,"Ġmacrothromb":7266,"Ġhermaphroditism":7267,"Ġjackson":7268,"Ġpheochromocytoma":7269,"Ġnajjar":7270,"Ġconsciousness":7271,"uerperal":7272,"Ġdba":7273,"Ġmanganese":7274,"Ġhibern":7275,"Ġtmj":7276,"Ġannular":7277,"Ġmyofascial":7278,"Ġaphthous":7279,"Ġphotoallergic":7280,"Ġhyperpyrexia":7281,"oembolism":7282,"Ġdorfman":7283,"Ġapert":7284,"Ġurachal":7285,"Ġimperforate":7286,"Ġethylmalonic":7287,"Ġhyperthyroxinemia":7288,"felter":7289,"Ġdhmn":7290,"Ġmantle":7291,"Ġrussell":7292,"arylsulfatase":7293,"Ġhypomaturation":7294,"Ġchannel":7295,"Ġlecithin":7296,"Ġhyperprol":7297,"Ġneurosensory":7298,"Ġkartagener":7299,"Ġklinefelter":7300,"Ġthalamic":7301,"Ġadenohypophyseal":7302,"Ġangioneurotic":7303,"Ġresorptions":7304,"Ġparainfluenz":7305,"Ġmelkersson":7306,"Ġprecocious":7307,"Ġpotassium":7308,"Ġcrouzon":7309,"ai":7310,"aux":7311,"burg":7312,"blastic":7313,"di":7314,"dn":7315,"foot":7316,"gf":7317,"ged":7318,"iq":7319,"iella":7320,"iatric":7321,"junction":7322,"kle":7323,"len":7324,"lory":7325,"lycer":7326,"nick":7327,"ois":7328,"oke":7329,"oimmune":7330,"otine":7331,"por":7332,"porphyrinogen":7333,"rach":7334,"rup":7335,"tle":7336,"uan":7337,"uel":7338,"utional":7339,"vas":7340,"vanc":7341,"vasive":7342,"worm":7343,"wang":7344,"wart":7345,"xia":7346,"Ġow":7347,"Ġull":7348,"Ġest":7349,"Ġarylsulfatase":7350,"tii":7351,"tiform":7352,"tigin":7353,"roplasia":7354,"Ġsomn":7355,"Ġself":7356,"Ġsocial":7357,"Ġdh":7358,"Ġdol":7359,"Ġdim":7360,"Ġdow":7361,"Ġdown":7362,"ensi":7363,"enorrhea":7364,"enmen":7365,"onne":7366,"Ġcyp":7367,"Ġcub":7368,"Ġcatal":7369,"Ġcecal":7370,"arias":7371,"isata":7372,"Ġpk":7373,"Ġpin":7374,"Ġpir":7375,"Ġpch":7376,"Ġpied":7377,"Ġpedi":7378,"Ġpili":7379,"icogenic":7380,"icore":7381,"atz":7382,"osine":7383,"osensitivity":7384,"orhin":7385,"Ġmp":7386,"Ġmt":7387,"Ġmeas":7388,"Ġmec":7389,"Ġhost":7390,"Ġhak":7391,"phet":7392,"lepha":7393,"lequin":7394,"ynaud":7395,"Ġnos":7396,"iad":7397,"ulous":7398,"uloses":7399,"ulbar":7400,"usor":7401,"embran":7402,"Ġinde":7403,"Ġfal":7404,"Ġfra":7405,"Ġfab":7406,"Ġfav":7407,"Ġfilar":7408,"Ġbu":7409,"Ġbin":7410,"Ġbing":7411,"Ġbins":7412,"ellect":7413,"elerated":7414,"Ġlait":7415,"Ġlars":7416,"Ġlynch":7417,"acs":7418,"Ġrat":7419,"Ġram":7420,"Ġruv":7421,"Ġrta":7422,"ura":7423,"uris":7424,"Ġdetr":7425,"idia":7426,"idox":7427,"olyposis":7428,"Ġnear":7429,"entral":7430,"athion":7431,"epiphyseal":7432,"utane":7433,"Ġva":7434,"Ġvib":7435,"ament":7436,"amberg":7437,"Ġdysostoses":7438,"Ġdyskeratosis":7439,"Ġdysref":7440,"Ġcholes":7441,"immel":7442,"Ġantic":7443,"Ġanet":7444,"Ġanencephaly":7445,"Ġanhydrotic":7446,"Ġanhed":7447,"Ġ29":7448,"terinary":7449,"Ġconj":7450,"Ġcontig":7451,"Ġeurop":7452,"ebi":7453,"osomes":7454,"tines":7455,"Ġhypergl":7456,"ostom":7457,"Ġstriate":7458,"Ġwhe":7459,"Ġwohl":7460,"inea":7461,"obular":7462,"obronch":7463,"Ġparat":7464,"Ġinfective":7465,"ystrophic":7466,"Ġepul":7467,"Ġali":7468,"erebrate":7469,"Ġarb":7470,"Ġadam":7471,"Ġthph":7472,"Ġthorac":7473,"Ġprur":7474,"Ġpreterm":7475,"Ġprune":7476,"versible":7477,"amilial":7478,"ophakia":7479,"Ġfamily":7480,"Ġ34":7481,"ralogy":7482,"Ġproct":7483,"Ġxi":7484,"ogoni":7485,"Ġleuko":7486,"Ġjeg":7487,"reg":7488,"angiopathic":7489,"onstit":7490,"Ġ45":7491,"Ġmallory":7492,"apular":7493,"netii":7494,"teat":7495,"Ġasd":7496,"Ġphag":7497,"Ġphlebitis":7498,"Ġrecall":7499,"Ġreconstit":7500,"Ġtrip":7501,"Ġtrench":7502,"Ġtrena":7503,"Ġtriad":7504,"abolic":7505,"Ġamphet":7506,"que":7507,"Ġexanth":7508,"Ġexpos":7509,"Ġheredit":7510,"otherapy":7511,"Ġepileptiform":7512,"ionosis":7513,"Ġpostencephal":7514,"Ġsubd":7515,"afd":7516,"rocyte":7517,"Ġbrca":7518,"Ġbrenner":7519,"Ġfibula":7520,"Ġintellect":7521,"Ġadenovirus":7522,"aneurysm":7523,"Ġosteoid":7524,"Ġosteomyelitis":7525,"Ġosteolyses":7526,"Ġlipomatoses":7527,"Ġliposarcoma":7528,"Ġanginas":7529,"Ġisa":7530,"Ġschm":7531,"Ġschaumann":7532,"Ġendodontic":7533,"Ġthrombopenic":7534,"Ġtranspor":7535,"Ġscald":7536,"Ġagain":7537,"Ġurb":7538,"Ġtuber":7539,"Ġmonochrom":7540,"ossia":7541,"ichsen":7542,"Ġapple":7543,"Ġapros":7544,"Ġapolip":7545,"Ġorb":7546,"ayas":7547,"Ġcentrocytic":7548,"Ġpostin":7549,"prt":7550,"Ġgrand":7551,"lexias":7552,"yrinth":7553,"Ġectasia":7554,"Ġepidid":7555,"Ġcln":7556,"Ġclock":7557,"Ġclaw":7558,"Ġsma":7559,"oglobulinemia":7560,"Ġmucous":7561,"Ġcompens":7562,"Ġesthes":7563,"vulsive":7564,"Ġflutter":7565,"Ġpigmentation":7566,"Ġparaesophageal":7567,"romatopsia":7568,"Ġroth":7569,"Ġcatarrh":7570,"Ġvalga":7571,"Ġhematopoietic":7572,"Ġesophagitides":7573,"Ġlowry":7574,"Ġverlo":7575,"Ġvertigin":7576,"Ġpancyt":7577,"Ġvenez":7578,"Ġimmunodeficiencies":7579,"Ġsepsis":7580,"Ġmotion":7581,"Ġmarin":7582,"osporon":7583,"Ġgier":7584,"Ġhypotonic":7585,"Ġdupuy":7586,"Ġglucoseph":7587,"Ġglucocorticoid":7588,"ained":7589,"Ġspondylocost":7590,"Ġembolic":7591,"Ġpyel":7592,"Ġpyrex":7593,"Ġerythroblastic":7594,"Ġcarbon":7595,"Ġsweating":7596,"awa":7597,"Ġdigit":7598,"Ġmerr":7599,"asthenia":7600,"Ġschizoid":7601,"Ġtrichosporon":7602,"Ġpreinfarc":7603,"Ġveterinary":7604,"Ġgraves":7605,"Ġantithrombin":7606,"oglobinemia":7607,"yelitis":7608,"Ġhepatoma":7609,"Ġcoxiella":7610,"Ġcholangi":7611,"Ġcholera":7612,"Ġteebi":7613,"Ġconcentric":7614,"Ġpneumoniae":7615,"Ġdiverticulosis":7616,"Ġtics":7617,"phosphate":7618,"Ġdysmyel":7619,"Ġuroporphyrinogen":7620,"Ġfancier":7621,"Ġganglioside":7622,"Ġophthalmoplegic":7623,"Ġpeel":7624,"Ġpeutz":7625,"Ġmastocytoma":7626,"Ġphotosensitivity":7627,"Ġdesquam":7628,"ompens":7629,"Ġpapillomas":7630,"Ġburnetii":7631,"Ġextrinsic":7632,"Ġfibromyositis":7633,"Ġhsn":7634,"Ġhscr":7635,"Ġfronto":7636,"lingual":7637,"Ġcreatine":7638,"omegalies":7639,"Ġoveruse":7640,"Ġoverlo":7641,"Ġamelia":7642,"Ġfungus":7643,"Ġtracheoesophageal":7644,"oepithel":7645,"Ġpyridox":7646,"Ġeffort":7647,"Ġeffusions":7648,"Ġsponge":7649,"Ġlissencephalies":7650,"Ġhypopituitarism":7651,"Ġcoagul":7652,"Ġinvolutional":7653,"Ġarrhythmia":7654,"Ġtetralogy":7655,"Ġkoyanagi":7656,"Ġhaemorrhagic":7657,"Ġasperger":7658,"blastomas":7659,"Ġsterility":7660,"Ġurethra":7661,"Ġaccelerated":7662,"Ġacrodermatitis":7663,"Ġosteoporoses":7664,"rinogen":7665,"Ġhpe":7666,"Ġpuncture":7667,"Ġoligodontia":7668,"Ġpachyg":7669,"Ġafferent":7670,"Ġrhabdoid":7671,"Ġfasciculoventricular":7672,"Ġfoodbor":7673,"Ġdecerebrate":7674,"Ġnaeg":7675,"Ġschistosomal":7676,"Ġhypophosphatemia":7677,"Ġretinoschises":7678,"Ġalbers":7679,"Ġpapulosquamous":7680,"Ġmutant":7681,"Ġhabermann":7682,"Ġbarton":7683,"adrenal":7684,"Ġintolerances":7685,"Ġatherosclerosis":7686,"Ġinstabilities":7687,"Ġklein":7688,"Ġwaterhouse":7689,"Ġvertebro":7690,"Ġinversa":7691,"Ġsubclinical":7692,"Ġaspartyl":7693,"alcaba":7694,"Ġharada":7695,"Ġcystadenoma":7696,"Ġhypersomnias":7697,"Ġoculoaur":7698,"ovagin":7699,"Ġpolyser":7700,"Ġnonpolyposis":7701,"Ġtetraple":7702,"obulinemic":7703,"Ġcatatonic":7704,"Ġotorenal":7705,"Ġtarda":7706,"Ġaminotransferase":7707,"Ġvalgas":7708,"ioneuroblastoma":7709,"Ġchemotherapy":7710,"affin":7711,"Ġappendage":7712,"Ġomphalocele":7713,"Ġsaguen":7714,"Ġtonsil":7715,"Ġpanniculitides":7716,"Ġmacroglobulinemia":7717,"Ġpseudotumors":7718,"Ġcafe":7719,"Ġbelly":7720,"Ġascites":7721,"Ġpolydip":7722,"Ġarteriosclerotic":7723,"Ġpilocytic":7724,"Ġexfoliative":7725,"Ġthrombophlebitides":7726,"Ġcartilaginous":7727,"Ġgastroenteritides":7728,"Ġplasmodium":7729,"Ġmusicogenic":7730,"Ġmasseter":7731,"Ġflexib":7732,"Ġpallid":7733,"Ġstreptococcus":7734,"Ġprotozoan":7735,"Ġdyspraxias":7736,"Ġraynaud":7737,"Ġhyperlys":7738,"Ġhyperkalemic":7739,"Ġwarts":7740,"Ġtouraine":7741,"Ġchorioretin":7742,"Ġbronchiolo":7743,"Ġhyperinsulinemic":7744,"Ġbruxisms":7745,"Ġoropharyngeal":7746,"Ġsymmetrical":7747,"Ġamblyopias":7748,"Ġiridogoni":7749,"Ġplanus":7750,"Ġgastritis":7751,"Ġlemli":7752,"Ġspiroch":7753,"Ġextramedullary":7754,"Ġfulminant":7755,"Ġfulminating":7756,"Ġhorse":7757,"Ġvipoma":7758,"Ġneurilem":7759,"Ġpharyngoesophageal":7760,"Ġtapet":7761,"Ġdistemper":7762,"Ġdysgraph":7763,"Ġthree":7764,"Ġbruns":7765,"Ġecho":7766,"Ġsphenoid":7767,"Ġirritant":7768,"Ġtracheobronch":7769,"Ġvitreoretinopathy":7770,"Ġiliops":7771,"Ġwagr":7772,"Ġsaturn":7773,"Ġactivator":7774,"Ġerosion":7775,"Ġautoinflammatory":7776,"Ġcicatric":7777,"Ġpectoris":7778,"Ġhygroma":7779,"Ġmaltase":7780,"rosarcoma":7781,"Ġintestines":7782,"Ġacromegaly":7783,"ojejun":7784,"Ġfisher":7785,"yspondyl":7786,"Ġchilaid":7787,"Ġanosmia":7788,"Ġstreak":7789,"Ġadducted":7790,"Ġpericarditis":7791,"tegration":7792,"Ġreciprocal":7793,"Ġambiguus":7794,"Ġfumaryl":7795,"Ġlaurence":7796,"Ġerythrocytosis":7797,"Ġguillain":7798,"acetoacetase":7799,"Ġtourette":7800,"Ġsituational":7801,"Ġbitemporal":7802,"Ġventilator":7803,"Ġeisenmen":7804,"Ġhyperoxal":7805,"Ġplatyspondyl":7806,"Ġmidbrain":7807,"Ġbronchiectasis":7808,"Ġkrabbe":7809,"ozygous":7810,"Ġhyperammonemia":7811,"Ġsugar":7812,"Ġmtdps":7813,"Ġragged":7814,"Ġdebrancher":7815,"Ġantisocial":7816,"Ġmyhre":7817,"Ġhypereosinophilic":7818,"Ġkelly":7819,"Ġlipoatrophic":7820,"Ġaganglionosis":7821,"Ġintracellulare":7822,"Ġmaroteaux":7823,"Ġpolycythemia":7824,"Ġextrasyst":7825,"Ġseborrhe":7826,"illedema":7827,"Ġsacroili":7828,"Ġforestier":7829,"Ġprominent":7830,"Ġmacrothrombocytopenia":7831,"Ġullrich":7832,"Ġestrogen":7833,"Ġpiriformis":7834,"Ġpediatric":7835,"lepharon":7836,"embranous":7837,"Ġindex":7838,"Ġbinswang":7839,"Ġruvalcaba":7840,"Ġdetrusor":7841,"Ġcholesteat":7842,"Ġcontiguous":7843,"Ġeuropean":7844,"Ġhyperglobulinemic":7845,"Ġreconstitution":7846,"Ġtrenaunay":7847,"Ġamphetamine":7848,"Ġintellectual":7849,"Ġtransporter":7850,"Ġscalded":7851,"Ġagainst":7852,"Ġapolipoprotein":7853,"Ġvertiginous":7854,"Ġspondylocostal":7855,"Ġpreinfarction":7856,"Ġoverload":7857,"Ġfoodborne":7858,"Ġsaguenay":7859,"Ġiliopsoas":7860,"Ġfumarylacetoacetase":7861,"aired":7862,"be":7863,"but":7864,"borg":7865,"car":7866,"cular":7867,"dino":7868,"eus":7869,"fil":7870,"fting":7871,"gh":7872,"gers":7873,"garis":7874,"han":7875,"iqu":7876,"mo":7877,"mic":7878,"met":7879,"np":7880,"oon":7881,"oroid":7882,"tac":7883,"uit":7884,"uese":7885,"utier":7886,"ueller":7887,"vens":7888,"venth":7889,"xx":7890,"za":7891,"Ġ0":7892,"Ġitch":7893,"ales":7894,"align":7895,"algias":7896,"rough":7897,"ini":7898,"Ġsus":7899,"Ġsed":7900,"Ġsting":7901,"Ġdend":7902,"Ġdural":7903,"Ġdrop":7904,"Ġdors":7905,"Ġdyx":7906,"Ġdirect":7907,"eni":7908,"enosis":7909,"enostomy":7910,"onyl":7911,"ontal":7912,"onvulsive":7913,"Ġcf":7914,"Ġcod":7915,"Ġcps":7916,"Ġcigu":7917,"arch":7918,"ission":7919,"Ġpi":7920,"Ġpic":7921,"Ġpom":7922,"Ġpec":7923,"Ġpep":7924,"Ġpdh":7925,"ication":7926,"ano":7927,"anur":7928,"osider":7929,"ortion":7930,"oretic":7931,"orhe":7932,"Ġmadel":7933,"Ġmobility":7934,"Ġmng":7935,"Ġmafd":7936,"ometa":7937,"omphal":7938,"Ġtn":7939,"Ġtob":7940,"Ġtog":7941,"Ġtab":7942,"Ġhb":7943,"Ġhant":7944,"Ġhog":7945,"leod":7946,"Ġnem":7947,"Ġnid":7948,"Ġnucle":7949,"Ġnadh":7950,"iab":7951,"Ġdism":7952,"edo":7953,"itor":7954,"itting":7955,"itamin":7956,"Ġinner":7957,"Ġinorganic":7958,"opard":7959,"Ġfec":7960,"Ġfuk":7961,"Ġfundus":7962,"Ġbc":7963,"Ġbes":7964,"Ġbra":7965,"Ġbase":7966,"elsen":7967,"elberg":7968,"ysip":7969,"Ġlad":7970,"Ġlub":7971,"Ġlock":7972,"Ġldl":7973,"acob":7974,"Ġric":7975,"Ġreb":7976,"Ġrend":7977,"Ġrams":7978,"Ġdeaminase":7979,"ilder":7980,"olon":7981,"olaryngeal":7982,"Ġhypt":7983,"ama":7984,"ame":7985,"Ġchag":7986,"iger":7987,"Ġinfund":7988,"Ġanib":7989,"Ġanaphyl":7990,"Ġanonychia":7991,"Ġconradi":7992,"ranencephaly":7993,"otes":7994,"udness":7995,"udley":7996,"Ġek":7997,"Ġeph":7998,"agni":7999,"Ġleopard":8000,"Ġhyperemia":8001,"Ġhyperphosph":8002,"Ġspik":8003,"Ġsparse":8004,"ostoma":8005,"Ġneuroendoc":8006,"Ġneurodermatitis":8007,"Ġneurodermatitides":8008,"ylomicron":8009,"Ġwel":8010,"Ġwbs":8011,"ads":8012,"Ġattr":8013,"oblepharon":8014,"ystectomy":8015,"Ġalacr":8016,"Ġhemostatic":8017,"Ġkau":8018,"Ġadne":8019,"ronuclear":8020,"Ġlymphoretic":8021,"Ġreent":8022,"Ġreticular":8023,"ibitor":8024,"Ġleukemic":8025,"iforn":8026,"ifying":8027,"Ġabuses":8028,"Ġjerv":8029,"Ġjacob":8030,"rey":8031,"retinal":8032,"Ġ48":8033,"Ġseventh":8034,"oves":8035,"Ġaseptic":8036,"Ġphac":8037,"Ġphyt":8038,"Ġphyll":8039,"erman":8040,"Ġtriple":8041,"tising":8042,"Ġexer":8043,"Ġexotrop":8044,"Ġexomphal":8045,"othorax":8046,"Ġretention":8047,"Ġimmer":8048,"Ġencephaloceles":8049,"Ġpostv":8050,"Ġpalat":8051,"ycephal":8052,"mentary":8053,"Ġblister":8054,"Ġchromosomes":8055,"ohem":8056,"Ġsublux":8057,"Ġpav":8058,"Ġnont":8059,"Ġnonorganic":8060,"Ġ50":8061,"Ġ53":8062,"Ġbrittle":8063,"Ġfibromatoses":8064,"osteolysis":8065,"Ġcolus":8066,"Ġshprint":8067,"Ġadenosine":8068,"Ġosteodystrophy":8069,"Ġosteosclerosis":8070,"Ġlipoma":8071,"Ġlipodystrophies":8072,"ochoroid":8073,"ropic":8074,"Ġcystathion":8075,"Ġerysip":8076,"Ġmyelodysplastic":8077,"Ġangel":8078,"lices":8079,"Ġfrench":8080,"Ġmicrop":8081,"Ġschueller":8082,"estone":8083,"Ġendolymph":8084,"Ġthromboembolism":8085,"Ġtransaminase":8086,"Ġcoordination":8087,"Ġoro":8088,"Ġtubul":8089,"Ġmonone":8090,"Ġheaded":8091,"rie":8092,"ayan":8093,"Ġcentr":8094,"Ġcentronuclear":8095,"Ġdermoid":8096,"Ġinsect":8097,"ertrophy":8098,"Ġcataple":8099,"Ġpneumocephal":8100,"Ġangiomas":8101,"Ġnephrocalcinosis":8102,"Ġanomalous":8103,"Ġcriss":8104,"Ġcrisis":8105,"uctural":8106,"uguese":8107,"indler":8108,"radren":8109,"vulus":8110,"Ġcalv":8111,"Ġcaliforn":8112,"Ġaphonia":8113,"orphous":8114,"Ġperiodont":8115,"Ġphosphatase":8116,"Ġpsychos":8117,"Ġclefts":8118,"yphen":8119,"Ġrol":8120,"Ġrobert":8121,"Ġeyes":8122,"Ġmesoblastic":8123,"Ġkeratoses":8124,"Ġenur":8125,"uffy":8126,"Ġichthyoses":8127,"Ġmelnick":8128,"Ġmoon":8129,"ospinal":8130,"Ġshortness":8131,"Ġenterocolitis":8132,"heim":8133,"arthritides":8134,"Ġhemangiomatosis":8135,"ansen":8136,"Ġimpaired":8137,"Ġstructural":8138,"Ġductus":8139,"blestone":8140,"Ġzen":8141,"nesium":8142,"Ġcalcifying":8143,"Ġmycoses":8144,"Ġhydroxyphen":8145,"Ġcraniomandibular":8146,"Ġsaldino":8147,"Ġremitting":8148,"iere":8149,"ieri":8150,"Ġmerosin":8151,"Ġtricho":8152,"Ġtrichorhin":8153,"Ġsynthesis":8154,"Ġnonspher":8155,"Ġveins":8156,"Ġaudiogenic":8157,"Ġhypothalamus":8158,"Ġhepatorenal":8159,"Ġmigrations":8160,"Ġloudness":8161,"Ġachromatopsia":8162,"roviridae":8163,"Ġattachment":8164,"Ġnielsen":8165,"Ġbowen":8166,"Ġmedulloblastomas":8167,"Ġleukoencephalitides":8168,"Ġburns":8169,"atera":8170,"Ġguinea":8171,"Ġvasospasm":8172,"Ġvasospasms":8173,"Ġvasoplegic":8174,"Ġmicrophthalmos":8175,"Ġneuromyelitis":8176,"Ġextrapy":8177,"Ġchondrodystrophy":8178,"acco":8179,"Ġvulgaris":8180,"Ġdysphagia":8181,"Ġageus":8182,"Ġgonadotropin":8183,"Ġmeig":8184,"Ġmeval":8185,"Ġdiscs":8186,"Ġerythrodermas":8187,"Ġamnesic":8188,"Ġsteely":8189,"Ġstevens":8190,"Ġprotop":8191,"Ġcilia":8192,"Ġscott":8193,"Ġosteoarthropathies":8194,"Ġepithelium":8195,"Ġpolyposes":8196,"Ġgoutier":8197,"Ġcolloid":8198,"Ġcollins":8199,"Ġspgf":8200,"Ġodontoma":8201,"Ġankyloblepharon":8202,"rogyria":8203,"Ġrubra":8204,"Ġlevy":8205,"Ġarginase":8206,"Ġsheep":8207,"Ġhidradren":8208,"Ġaldrich":8209,"luent":8210,"Ġcogan":8211,"Ġasymmet":8212,"Ġmucolipidoses":8213,"Ġfatig":8214,"Ġindirect":8215,"Ġpemphigoids":8216,"oendothelioma":8217,"Ġhmgic":8218,"Ġgrisc":8219,"Ġsolid":8220,"Ġteratomas":8221,"Ġhurst":8222,"Ġhemianopia":8223,"Ġhemianopias":8224,"Ġhemianopsia":8225,"Ġhemianopsias":8226,"ozoa":8227,"enzyme":8228,"Ġhodgkins":8229,"roditisms":8230,"Ġcrossed":8231,"Ġhyperchylomicron":8232,"Ġnonconvulsive":8233,"Ġadhesions":8234,"Ġharlequin":8235,"Ġwells":8236,"Ġcystadenomas":8237,"Ġdiastolic":8238,"Ġtakayas":8239,"Ġleakage":8240,"Ġkyphoses":8241,"Ġkyphosc":8242,"enstrual":8243,"Ġmicroangiopathic":8244,"Ġcitrullinemias":8245,"obulinaemia":8246,"Ġcatatonias":8247,"Ġoligodendrogliomas":8248,"Ġmyokymias":8249,"Ġrichieri":8250,"Ġhyperthyroidism":8251,"Ġsupravalvular":8252,"Ġelectro":8253,"Ġconstriction":8254,"Ġependymomas":8255,"Ġmaculopathy":8256,"Ġcoprop":8257,"ofollic":8258,"Ġmacroglobulinaemia":8259,"Ġinhibitor":8260,"Ġvolvulus":8261,"Ġarteriosclerosis":8262,"Ġsanfil":8263,"Ġmodif":8264,"Ġmcops":8265,"Ġhammond":8266,"Ġbaltic":8267,"Ġtaybi":8268,"vnikov":8269,"Ġnorth":8270,"Ġalternating":8271,"Ġpoorly":8272,"Ġvaginitides":8273,"Ġbulbospinal":8274,"Ġbronchiolitides":8275,"Ġoropharynx":8276,"Ġendometrium":8277,"Ġfusariosis":8278,"Ġfusarioses":8279,"equal":8280,"Ġcavus":8281,"Ġhdlcq":8282,"Ġinfluenza":8283,"Ġprogeroid":8284,"Ġleukoplakia":8285,"Ġnonfamilial":8286,"Ġnonfluent":8287,"Ġproteus":8288,"Ġthrombocythemias":8289,"Ġclubfoot":8290,"Ġechinococcosis":8291,"Ġportuguese":8292,"Ġtalip":8293,"Ġthomsen":8294,"Ġprocessing":8295,"Ġmoniliasis":8296,"Ġneurilemm":8297,"Ġverrucous":8298,"Ġkeloidal":8299,"Ġmetatarsal":8300,"Ġesotropia":8301,"Ġesotropias":8302,"Ġcraniopharyngioma":8303,"Ġcraniopharyngiomas":8304,"Ġfasciitis":8305,"roblastoma":8306,"Ġmicroangiopathy":8307,"Ġmicroangiopathies":8308,"Ġcowden":8309,"Ġmicrodontia":8310,"Ġstimulating":8311,"Ġellipt":8312,"Ġcritical":8313,"Ġklump":8314,"Ġstricture":8315,"ajo":8316,"Ġtietz":8317,"Ġmagnesium":8318,"Ġnecrotising":8319,"Ġmorgagni":8320,"Ġdermatomyositis":8321,"Ġequinus":8322,"Ġapparent":8323,"pyruvate":8324,"Ġcobblestone":8325,"Ġgoodman":8326,"Ġconvergence":8327,"agonoma":8328,"ophalangeal":8329,"Ġcaroli":8330,"Ġchondromalacia":8331,"Ġmethylglutaconicaciduria":8332,"Ġtympanic":8333,"Ġtestes":8334,"Ġfeminization":8335,"Ġligament":8336,"oduodenostomy":8337,"Ġewing":8338,"Ġrecklinghausen":8339,"Ġcholangitis":8340,"ammaglobulinemias":8341,"inhibition":8342,"Ġighd":8343,"ineralization":8344,"Ġclick":8345,"Ġmarginal":8346,"Ġnicotine":8347,"Ġbmiq":8348,"Ġhypohid":8349,"Ġochron":8350,"Ġintoxication":8351,"Ġscratch":8352,"Ġcrystall":8353,"Ġroussy":8354,"Ġaneuploid":8355,"Ġhypotensions":8356,"Ġzellweger":8357,"Ġpseudohypoparathyroidism":8358,"Ġrestrictive":8359,"Ġconsumption":8360,"Ġdihydropyr":8361,"uelan":8362,"Ġowren":8363,"Ġdowling":8364,"Ġhakim":8365,"Ġarbovirus":8366,"Ġexposure":8367,"Ġhereditaria":8368,"Ġschmid":8369,"Ġtuberous":8370,"Ġpancytopenia":8371,"Ġvenezuelan":8372,"Ġpyridoxine":8373,"Ġpachygyria":8374,"Ġnaegeli":8375,"Ġiridogoniodysgenesis":8376,"ojejunostomy":8377,"alignment":8378,"Ġciguatera":8379,"Ġmadelung":8380,"Ġtobacco":8381,"Ġrendu":8382,"Ġramsay":8383,"Ġchagas":8384,"Ġinfundib":8385,"Ġhyperphosphat":8386,"Ġneuroendocrine":8387,"Ġadnex":8388,"Ġjervell":8389,"Ġphyllodes":8390,"Ġexotropia":8391,"Ġexomphalos":8392,"Ġimmersion":8393,"Ġshprintzen":8394,"Ġerysipel":8395,"Ġendolymphatic":8396,"Ġpneumocephalus":8397,"Ġcalifornia":8398,"Ġtrichorhinophalangeal":8399,"Ġnonspherocytic":8400,"Ġextrapyramidal":8401,"Ġgoutieres":8402,"Ġgriscelli":8403,"dig":8404,"euk":8405,"fec":8406,"function":8407,"fusions":8408,"ford":8409,"go":8410,"got":8411,"gda":8412,"ih":8413,"ient":8414,"iver":8415,"kus":8416,"kit":8417,"lan":8418,"lonus":8419,"no":8420,"ny":8421,"nik":8422,"naviridae":8423,"oimmun":8424,"pase":8425,"prop":8426,"pontine":8427,"res":8428,"rell":8429,"rion":8430,"sc":8431,"sp":8432,"sug":8433,"uent":8434,"vr":8435,"yos":8436,"zy":8437,"zation":8438,"ziger":8439,"Ġrom":8440,"Ġenc":8441,"Ġub":8442,"ali":8443,"tium":8444,"erary":8445,"erkal":8446,"roy":8447,"room":8448,"rotal":8449,"inar":8450,"inia":8451,"Ġsd":8452,"Ġso":8453,"Ġsut":8454,"Ġsna":8455,"Ġsores":8456,"Ġdd":8457,"ened":8458,"enohumeral":8459,"asmus":8460,"onim":8461,"onym":8462,"onium":8463,"onizing":8464,"Ġcac":8465,"Ġcum":8466,"Ġcoh":8467,"Ġcann":8468,"Ġcpt":8469,"Ġcacch":8470,"arn":8471,"arus":8472,"aret":8473,"arate":8474,"arrhythm":8475,"esco":8476,"Ġpock":8477,"Ġpitt":8478,"Ġpits":8479,"Ġpkd":8480,"Ġpuerperal":8481,"icz":8482,"icus":8483,"atose":8484,"osyn":8485,"osoma":8486,"osedi":8487,"oria":8488,"ored":8489,"Ġmh":8490,"Ġmv":8491,"Ġmol":8492,"Ġmun":8493,"Ġmiosis":8494,"Ġmcd":8495,"Ġmush":8496,"Ġmks":8497,"Ġmumm":8498,"omial":8499,"omotic":8500,"omembranous":8501,"Ġtod":8502,"Ġtrous":8503,"Ġtamp":8504,"Ġtemper":8505,"Ġhop":8506,"Ġheal":8507,"Ġhay":8508,"Ġhyt":8509,"Ġhoff":8510,"Ġaat":8511,"Ġazo":8512,"leaved":8513,"Ġnr":8514,"Ġnav":8515,"Ġnemat":8516,"Ġnaff":8517,"iating":8518,"Ġsynch":8519,"Ġdisprop":8520,"edy":8521,"itas":8522,"Ġiniti":8523,"Ġinad":8524,"Ġintract":8525,"Ġinequal":8526,"optic":8527,"opur":8528,"opapular":8529,"Ġfm":8530,"Ġfox":8531,"Ġbud":8532,"Ġbang":8533,"Ġbert":8534,"Ġbaz":8535,"ysplasias":8536,"ystitis":8537,"Ġlc":8538,"Ġlu":8539,"Ġlis":8540,"Ġlum":8541,"Ġlysis":8542,"Ġlamin":8543,"Ġlund":8544,"Ġlaw":8545,"Ġlayer":8546,"actic":8547,"acil":8548,"Ġrcd":8549,"Ġrash":8550,"Ġrapid":8551,"ocomial":8552,"urnal":8553,"urida":8554,"Ġdew":8555,"idurias":8556,"ilic":8557,"ecial":8558,"Ġgon":8559,"Ġgnath":8560,"Ġgraden":8561,"older":8562,"olateral":8563,"vex":8564,"entulous":8565,"etti":8566,"etast":8567,"thle":8568,"umerary":8569,"utam":8570,"utsug":8571,"Ġvitus":8572,"Ġhypom":8573,"Ġhypob":8574,"Ġhypopharyngeal":8575,"amy":8576,"amush":8577,"Ġchds":8578,"Ġchudley":8579,"imination":8580,"elling":8581,"Ġanast":8582,"Ġanore":8583,"Ġanca":8584,"Ġconvex":8585,"Ġea":8586,"Ġehr":8587,"yma":8588,"irrh":8589,"Ġmyofacial":8590,"Ġhyperv":8591,"Ġspr":8592,"Ġspider":8593,"Ġstab":8594,"Ġstability":8595,"Ġstabilities":8596,"Ġwt":8597,"Ġwea":8598,"Ġwood":8599,"adal":8600,"Ġatel":8601,"Ġatod":8602,"Ġatfb":8603,"Ġionizing":8604,"obius":8605,"Ġparis":8606,"Ġpartum":8607,"oplasmic":8608,"Ġinfected":8609,"Ġepm":8610,"Ġalter":8611,"Ġaleuk":8612,"Ġhemipar":8613,"Ġhemosider":8614,"Ġaren":8615,"Ġarmd":8616,"Ġadvanc":8617,"plasm":8618,"Ġthec":8619,"Ġtherapeutic":8620,"ront":8621,"Ġlymphotropic":8622,"Ġlymphomatoid":8623,"ophan":8624,"Ġ39":8625,"Ġprothrombin":8626,"Ġprower":8627,"Ġglm":8628,"Ġglenohumeral":8629,"Ġperia":8630,"Ġperim":8631,"Ġperineural":8632,"Ġpervasive":8633,"Ġreversible":8634,"ograde":8635,"ognath":8636,"Ġherman":8637,"Ġleukomalacia":8638,"Ġleukomalacias":8639,"achond":8640,"enstein":8641,"Ġdystrophia":8642,"Ġjoh":8643,"Ġjanz":8644,"Ġcomatose":8645,"Ġ44":8646,"Ġ49":8647,"Ġsez":8648,"Ġasrt":8649,"tibial":8650,"inking":8651,"Ġamput":8652,"Ġamenorrhea":8653,"ogenetic":8654,"othoracic":8655,"othymic":8656,"axis":8657,"axia":8658,"Ġpostmen":8659,"Ġpalms":8660,"kins":8661,"seg":8662,"seau":8663,"Ġblunt":8664,"ohisian":8665,"Ġoca":8666,"omaternal":8667,"Ġ59":8668,"eningeal":8669,"Ġbrgda":8670,"Ġgenomic":8671,"Ġgenome":8672,"gruent":8673,"Ġopa":8674,"Ġopsoc":8675,"ochle":8676,"stable":8677,"Ġmyelofib":8678,"Ġmeningomyel":8679,"ival":8680,"Ġfras":8681,"Ġfrider":8682,"Ġisoimmun":8683,"Ġschilder":8684,"Ġthrombasthenia":8685,"Ġtransfusions":8686,"Ġcoarse":8687,"Ġcoenzyme":8688,"Ġscrotal":8689,"Ġscirrh":8690,"Ġagg":8691,"Ġagm":8692,"aka":8693,"Ġpseudoc":8694,"Ġsclerosus":8695,"ichia":8696,"Ġassociative":8697,"Ġcenter":8698,"Ġunstable":8699,"Ġpoint":8700,"Ġnervosa":8701,"Ġgranule":8702,"lexic":8703,"Ġcattle":8704,"Ġcll":8705,"Ġdiph":8706,"Ġdietz":8707,"Ġdiurnal":8708,"Ġobl":8709,"Ġobli":8710,"Ġerythrocyte":8711,"osexual":8712,"Ġcrushing":8713,"ophilias":8714,"Ġhypoplasias":8715,"Ġintraabdominal":8716,"Ġmucoep":8717,"Ġautokinetic":8718,"Ġescher":8719,"Ġdiabete":8720,"Ġoval":8721,"Ġmalformed":8722,"Ġcalici":8723,"amina":8724,"Ġtuberculoid":8725,"Ġpapilledema":8726,"Ġsuppr":8727,"Ġsupern":8728,"Ġspino":8729,"Ġnodal":8730,"Ġphospholipid":8731,"Ġvesical":8732,"Ġoculopharyngeal":8733,"Ġpsychosexual":8734,"etales":8735,"Ġchorio":8736,"romatous":8737,"Ġrokit":8738,"Ġprolifer":8739,"Ġproteins":8740,"Ġepidermoid":8741,"Ġmesenter":8742,"Ġmesenchymal":8743,"Ġlowe":8744,"Ġvernal":8745,"Ġhistid":8746,"Ġ135":8747,"Ġextensi":8748,"Ġsepto":8749,"Ġmartin":8750,"Ġmarkes":8751,"Ġgalen":8752,"Ġherniated":8753,"Ġpalmaris":8754,"Ġinco":8755,"Ġbronchogenic":8756,"Ġpolyostotic":8757,"Ġyin":8758,"aitser":8759,"Ġhallermann":8760,"Ġgalactorrhea":8761,"Ġspondylosis":8762,"blatt":8763,"icularis":8764,"Ġsimian":8765,"Ġpyelect":8766,"Ġpykn":8767,"Ġzon":8768,"Ġoxyph":8769,"Ġcraniometaphyseal":8770,"ulfov":8771,"Ġprostatitis":8772,"Ġbasement":8773,"Ġtrichin":8774,"Ġtrichomonas":8775,"Ġquerv":8776,"obacterial":8777,"yptophan":8778,"Ġthrombocytopenias":8779,"Ġotosclerosis":8780,"Ġotolaryng":8781,"Ġmorax":8782,"Ġbaraitser":8783,"Ġantiphosph":8784,"Ġbleed":8785,"Ġgingivitides":8786,"Ġcmm":8787,"Ġmyotubular":8788,"Ġpatellar":8789,"Ġdissec":8790,"Ġsulfatid":8791,"Ġdysmet":8792,"Ġbranched":8793,"Ġdentine":8794,"echiae":8795,"Ġprolapsed":8796,"Ġmidf":8797,"Ġaches":8798,"Ġgroove":8799,"Ġcytogenetic":8800,"phalipoproteinemia":8801,"Ġgenitalia":8802,"robial":8803,"arsk":8804,"arseness":8805,"Ġketoglut":8806,"plenia":8807,"Ġedentulous":8808,"Ġavascular":8809,"Ġrodent":8810,"Ġdesulfov":8811,"Ġpapillitis":8812,"Ġvasa":8813,"Ġreticulum":8814,"Ġextraocular":8815,"Ġextrapontine":8816,"Ġoutput":8817,"ashi":8818,"Ġtreacher":8819,"Ġrhinitides":8820,"Ġathle":8821,"Ġauriculo":8822,"Ġgestural":8823,"Ġmycobacteriosis":8824,"ustment":8825,"Ġherpesvirus":8826,"ercular":8827,"Ġatriohisian":8828,"asmidia":8829,"arathyroidisms":8830,"Ġpagets":8831,"Ġmcc":8832,"Ġmckus":8833,"Ġanagen":8834,"Ġoveractive":8835,"Ġstein":8836,"Ġpseudohyperkal":8837,"Ġsequest":8838,"Ġpolyploid":8839,"Ġsialic":8840,"Ġeffects":8841,"Ġankyloses":8842,"Ġmetaplasia":8843,"Ġcolobomatous":8844,"glycinuria":8845,"Ġinvoluntary":8846,"Ġrubinstein":8847,"Ġpolymyositis":8848,"Ġcirrhoses":8849,"Ġviscer":8850,"Ġlabhart":8851,"Ġadhd":8852,"Ġembryo":8853,"Ġextremely":8854,"Ġhomonym":8855,"Ġanalges":8856,"Ġeczemas":8857,"Ġlenz":8858,"Ġlenticular":8859,"Ġaldosterone":8860,"Ġporencephaly":8861,"Ġelastic":8862,"Ġantral":8863,"Ġacanthocytosis":8864,"Ġolivo":8865,"Ġosteopoikil":8866,"Ġacetylgluc":8867,"Ġgrinding":8868,"Ġparagonim":8869,"Ġchloride":8870,"Ġplantaris":8871,"Ġsepticemia":8872,"Ġcircadian":8873,"Ġobesities":8874,"Ġweights":8875,"Ġtinea":8876,"Ġpolyradiculopathy":8877,"Ġpolyradiculopathies":8878,"Ġforamina":8879,"Ġschistosoma":8880,"Ġorthomyx":8881,"Ġmutase":8882,"Ġsilo":8883,"Ġsomatotropin":8884,"Ġnarcotic":8885,"Ġbabes":8886,"Ġnoncleaved":8887,"Ġsurgery":8888,"oclavicular":8889,"Ġappear":8890,"Ġonychodystrophy":8891,"Ġonychodysplasia":8892,"Ġmolecular":8893,"Ġstriata":8894,"Ġdiastasis":8895,"Ġtako":8896,"Ġlentigin":8897,"Ġlymphangioma":8898,"Ġpeters":8899,"Ġbroken":8900,"Ġrichard":8901,"Ġspleens":8902,"glutaric":8903,"Ġsupraventricular":8904,"Ġganglionic":8905,"Ġvaricose":8906,"Ġphenylketonurias":8907,"Ġcyclothymic":8908,"Ġhoarseness":8909,"Ġnanophthalmos":8910,"Ġelectric":8911,"Ġconstrictive":8912,"Ġcursive":8913,"Ġtsubo":8914,"Ġtsutsug":8915,"Ġmaculopapular":8916,"Ġonc":8917,"Ġfrey":8918,"Ġschizophreniform":8919,"Ġethm":8920,"Ġhht":8921,"Ġhelic":8922,"Ġhypocalciuric":8923,"Ġhypokalemia":8924,"Ġascar":8925,"emberm":8926,"Ġleishmaniases":8927,"Ġhypercholesterolemias":8928,"Ġuncompens":8929,"Ġcoccid":8930,"Ġpustulosis":8931,"Ġhyperkalemia":8932,"Ġbulbo":8933,"Ġneedle":8934,"Ġarticulatory":8935,"Ġendometrioid":8936,"Ġanterograde":8937,"Ġadipic":8938,"Ġleukoplakias":8939,"Ġphysical":8940,"Ġretroverted":8941,"iculovertebral":8942,"Ġhidradenitis":8943,"Ġmegakaryoblastic":8944,"Ġhemicranias":8945,"Ġtaylor":8946,"Ġfurrow":8947,"Ġfetomaternal":8948,"Ġlemierre":8949,"Ġproteostasis":8950,"Ġideomotor":8951,"Ġideational":8952,"Ġextramammary":8953,"Ġchlamydophila":8954,"Ġatheroscleroses":8955,"Ġechinococcoses":8956,"Ġcaspase":8957,"Ġthomson":8958,"Ġaccidental":8959,"Ġmultisystemic":8960,"Ġkinesthetic":8961,"Ġthreat":8962,"Ġxiii":8963,"Ġchoreatic":8964,"Ġcytomegalic":8965,"Ġcytomegalovirus":8966,"Ġbroca":8967,"Ġalveolitis":8968,"Ġisomerism":8969,"Ġmicromelic":8970,"Ġmicrometast":8971,"Ġstimulus":8972,"Ġtenosyn":8973,"Ġfertility":8974,"Ġgyrate":8975,"Ġgaze":8976,"Ġgazali":8977,"Ġloeys":8978,"Ġloeff":8979,"Ġcholecystitis":8980,"Ġpasteurella":8981,"Ġotorhinolaryngological":8982,"Ġotorhinolaryngologic":8983,"buminemia":8984,"penning":8985,"Ġmendel":8986,"Ġfissure":8987,"idermoid":8988,"Ġvermicularis":8989,"Ġareolar":8990,"Ġglioblastoma":8991,"Ġscheie":8992,"Ġnecrobiotic":8993,"Ġsarcoidosis":8994,"Ġhyperalgesia":8995,"Ġmethylcrotonylglycinuria":8996,"Ġduring":8997,"Ġcofactor":8998,"Ġaortitis":8999,"Ġflea":9000,"Ġalkalosis":9001,"Ġkennedy":9002,"ographic":9003,"Ġmansoni":9004,"Ġmercurialism":9005,"Ġacetylgalactosaminidase":9006,"Ġponto":9007,"Ġegg":9008,"Ġstomatognath":9009,"Ġaltitudinal":9010,"Ġimbalance":9011,"Ġfloor":9012,"Ġtachypnea":9013,"Ġsialadenitis":9014,"Ġthyrotoxic":9015,"Ġmandibulofacial":9016,"Ġdyssynergia":9017,"Ġmicronuclei":9018,"Ġcantrell":9019,"Ġlepromatous":9020,"oxylate":9021,"Ġcaudal":9022,"Ġsarcoglycan":9023,"Ġholmes":9024,"reliosis":9025,"Ġbpes":9026,"Ġstuart":9027,"Ġareflexic":9028,"Ġadjustment":9029,"Ġpremenstrual":9030,"Ġfreckle":9031,"Ġmaxillofacial":9032,"Ġhelminthiasis":9033,"Ġpredisposition":9034,"Ġdextroc":9035,"Ġmeasles":9036,"Ġnosocomial":9037,"Ġfalse":9038,"Ġfabry":9039,"Ġbinasal":9040,"Ġvibration":9041,"Ġwheat":9042,"Ġthoraco":9043,"Ġpostencephalitic":9044,"Ġisaacs":9045,"Ġpostinfec":9046,"Ġverloes":9047,"Ġmarinesco":9048,"Ġgierke":9049,"Ġdupuytren":9050,"Ġpyeloneph":9051,"Ġpyrexial":9052,"rinogenemia":9053,"Ġcicatricial":9054,"Ġchilaiditi":9055,"Ġeisenmenger":9056,"Ġhyperoxaluria":9057,"Ġseborrheic":9058,"Ġbinswanger":9059,"Ġdendritic":9060,"Ġpicorn":9061,"Ġhantavirus":9062,"Ġdismemberm":9063,"Ġfecd":9064,"Ġrebound":9065,"Ġwelander":9066,"Ġexertional":9067,"Ġcataplexy":9068,"Ġkyphoscoliosis":9069,"Ġsanfilippo":9070,"Ġmodifier":9071,"Ġtalipes":9072,"Ġklumpke":9073,"Ġdihydropyrimidine":9074,"Ġadnexal":9075,"yoshi":9076,"Ġsnake":9077,"osediphosphatase":9078,"Ġmushroom":9079,"Ġtrousseau":9080,"Ġtamponad":9081,"Ġtemperature":9082,"Ġazoospermia":9083,"Ġnavajo":9084,"Ġnaffziger":9085,"Ġdisproportion":9086,"Ġintractable":9087,"Ġbertrand":9088,"Ġlaminar":9089,"Ġlundborg":9090,"amushi":9091,"Ġanastomotic":9092,"Ġehrlich":9093,"Ġweaver":9094,"Ġadvanced":9095,"Ġpostmenopausal":9096,"Ġopsoclonus":9097,"Ġfriderichsen":9098,"Ġscirrhous":9099,"Ġoblique":9100,"Ġmucoepidermoid":9101,"Ġescherichia":9102,"Ġsupernumerary":9103,"Ġrokitansky":9104,"Ġextensively":9105,"Ġantiphospholipid":9106,"Ġketoglutarate":9107,"Ġmckusick":9108,"Ġpseudohyperkalemia":9109,"Ġhomonymous":9110,"Ġanalgesic":9111,"Ġacetylglucosamine":9112,"Ġappearance":9113,"Ġtsutsugamushi":9114,"Ġtenosynov":9115,"Ġstomatognathic":9116,"Ġpostinfectious":9117,"bur":9118,"bite":9119,"beh":9120,"dr":9121,"din":9122,"ev":9123,"eon":9124,"eorge":9125,"fav":9126,"gm":9127,"gn":9128,"hof":9129,"hers":9130,"ieth":9131,"kott":9132,"ll":9133,"lak":9134,"lenia":9135,"nus":9136,"otia":9137,"otile":9138,"pk":9139,"pox":9140,"ris":9141,"relia":9142,"sn":9143,"sz":9144,"sack":9145,"tation":9146,"tomia":9147,"uated":9148,"uill":9149,"vs":9150,"water":9151,"xosidase":9152,"yle":9153,"yric":9154,"yhan":9155,"Ġtime":9156,"erup":9157,"roduc":9158,"Ġsic":9159,"Ġsun":9160,"Ġsuc":9161,"Ġsap":9162,"Ġsyd":9163,"Ġsry":9164,"Ġsister":9165,"Ġsoul":9166,"Ġdub":9167,"ene":9168,"enou":9169,"enuated":9170,"asemia":9171,"Ġcc":9172,"Ġcn":9173,"Ġcen":9174,"Ġcad":9175,"Ġcush":9176,"Ġcoff":9177,"Ġcroup":9178,"Ġcvid":9179,"istr":9180,"esmann":9181,"Ġped":9182,"Ġpent":9183,"Ġpental":9184,"Ġpcc":9185,"Ġpbc":9186,"Ġpuffy":9187,"Ġputam":9188,"anol":9189,"antin":9190,"atoses":9191,"atabolic":9192,"osity":9193,"Ġmm":9194,"Ġmos":9195,"Ġmies":9196,"Ġmea":9197,"Ġmert":9198,"Ġmcal":9199,"Ġmiss":9200,"Ġmik":9201,"Ġmhs":9202,"Ġton":9203,"Ġtdh":9204,"Ġhies":9205,"Ġhsd":9206,"Ġhutter":9207,"Ġhisian":9208,"Ġhprt":9209,"phyx":9210,"Ġagen":9211,"Ġaural":9212,"Ġaromat":9213,"Ġaplastic":9214,"Ġawareness":9215,"Ġayer":9216,"leaf":9217,"Ġnile":9218,"Ġnyc":9219,"Ġnatal":9220,"Ġnckeberg":9221,"Ġnyhan":9222,"iafav":9223,"uloplasm":9224,"ulitides":9225,"ulman":9226,"usis":9227,"eder":9228,"edia":9229,"eddon":9230,"itable":9231,"itudinal":9232,"opo":9233,"opy":9234,"oppy":9235,"openias":9236,"opterin":9237,"ypass":9238,"Ġfig":9239,"Ġfolic":9240,"Ġfhl":9241,"Ġford":9242,"Ġfair":9243,"Ġfitz":9244,"Ġfecal":9245,"Ġfuj":9246,"Ġbh":9247,"Ġbic":9248,"Ġbann":9249,"Ġbony":9250,"Ġbaker":9251,"Ġbypass":9252,"elon":9253,"elast":9254,"elme":9255,"Ġlm":9256,"Ġlut":9257,"Ġlok":9258,"Ġlux":9259,"Ġlosing":9260,"Ġlutz":9261,"Ġlvn":9262,"acral":9263,"Ġrls":9264,"Ġrussi":9265,"Ġrasmus":9266,"oconus":9267,"ocapillary":9268,"Ġdecal":9269,"Ġdeposition":9270,"Ġdeglu":9271,"ilian":9272,"Ġgem":9273,"Ġgass":9274,"Ġgutt":9275,"olus":9276,"olop":9277,"olmia":9278,"epiderm":9279,"umeni":9280,"Ġvers":9281,"rae":9282,"Ġhypochromic":9283,"ami":9284,"amylase":9285,"Ġdysth":9286,"Ġdysch":9287,"Ġdyschond":9288,"Ġdysseg":9289,"Ġcher":9290,"Ġchot":9291,"sile":9292,"imia":9293,"iment":9294,"omavirus":9295,"ellig":9296,"unning":9297,"inger":9298,"Ġconus":9299,"Ġconotr":9300,"ucous":9301,"Ġacs":9302,"Ġaction":9303,"Ġacamp":9304,"rophag":9305,"Ġeec":9306,"Ġeuth":9307,"ymethyl":9308,"Ġmyopias":9309,"Ġmyomelan":9310,"Ġhyperand":9311,"Ġhyperplastic":9312,"Ġhyperkerat":9313,"Ġhyperesthesia":9314,"Ġhyperaldosteronism":9315,"Ġhyperesthesias":9316,"Ġspur":9317,"ostrong":9318,"Ġneurobeh":9319,"ylv":9320,"Ġsteph":9321,"Ġstap":9322,"Ġward":9323,"Ġwine":9324,"Ġwiss":9325,"Ġwester":9326,"Ġwander":9327,"Ġwieth":9328,"obut":9329,"Ġparad":9330,"ymphoblastic":9331,"ipa":9332,"ippl":9333,"Ġhemimotor":9334,"Ġkas":9335,"Ġkink":9336,"Ġkoch":9337,"Ġkuster":9338,"Ġpring":9339,"roneph":9340,"Ġcellulitis":9341,"verleaf":9342,"Ġproper":9343,"atis":9344,"Ġglanz":9345,"Ġregr":9346,"uki":9347,"ukenberg":9348,"ogn":9349,"Ġleukosis":9350,"Ġleukoses":9351,"ensis":9352,"encephalitis":9353,"Ġjew":9354,"reh":9355,"angial":9356,"Ġcompr":9357,"izontal":9358,"Ġmaloccl":9359,"apse":9360,"neuro":9361,"Ġheub":9362,"Ġash":9363,"Ġasphyx":9364,"Ġpha":9365,"Ġphp":9366,"ydactyl":9367,"Ġtryptophan":9368,"oxy":9369,"oxanthoma":9370,"abas":9371,"abis":9372,"illes":9373,"Ġretrob":9374,"mund":9375,"Ġcore":9376,"Ġmultin":9377,"ionyl":9378,"Ġpalatal":9379,"yce":9380,"Ġiiic":9381,"ohep":9382,"omatosa":9383,"Ġnoninf":9384,"Ġnonepiderm":9385,"Ġmetal":9386,"owitz":9387,"Ġcolitides":9388,"Ġshfm":9389,"Ġshield":9390,"Ġshoke":9391,"Ġadenyl":9392,"Ġoperative":9393,"Ġoptb":9394,"Ġopales":9395,"Ġperios":9396,"Ġosteoma":9397,"Ġosteomas":9398,"Ġosteosarcoma":9399,"Ġosteoclastic":9400,"Ġlipomas":9401,"Ġliposarcomas":9402,"kew":9403,"key":9404,"ropion":9405,"storp":9406,"Ġcystoid":9407,"Ġsensiti":9408,"Ġmyelomas":9409,"Ġmyelopathic":9410,"Ġmyeloblastic":9411,"Ġmyelodysplasia":9412,"Ġmyelomening":9413,"Ġmeningoceles":9414,"Ġidenti":9415,"erger":9416,"Ġisland":9417,"Ġschoen":9418,"Ġschamberg":9419,"lyte":9420,"Ġthrombus":9421,"uvic":9422,"Ġpseudoxanthoma":9423,"Ġoat":9424,"Ġsclerae":9425,"Ġsclerocystic":9426,"Ġacidoses":9427,"Ġmonoblastic":9428,"Ġmonoplegic":9429,"Ġmonckeberg":9430,"Ġapop":9431,"erstein":9432,"Ġunipolar":9433,"Ġporoma":9434,"Ġhydranencephaly":9435,"Ġhydroneph":9436,"angiocapillary":9437,"Ġ79":9438,"Ġclefting":9439,"erton":9440,"yryl":9441,"roxy":9442,"Ġcla":9443,"Ġclin":9444,"Ġclinical":9445,"Ġangiosarcoma":9446,"Ġangiokerat":9447,"Ġnephros":9448,"Ġnecrol":9449,"Ġcerule":9450,"Ġceramide":9451,"Ġcaries":9452,"Ġseckel":9453,"Ġsmed":9454,"oglycer":9455,"Ġintraosseous":9456,"Ġinterse":9457,"Ġchildren":9458,"Ġgranulomatosa":9459,"ioskeletal":9460,"Ġovotes":9461,"Ġoll":9462,"Ġhae":9463,"Ġfloppy":9464,"Ġ91":9465,"Ġretinoblastomas":9466,"Ġsuppression":9467,"Ġdrinking":9468,"iforme":9469,"ituation":9470,"Ġpsychiatric":9471,"Ġlimbic":9472,"thyretin":9473,"Ġallodynia":9474,"Ġalloimmune":9475,"Ġvalley":9476,"Ġbrachydactyl":9477,"Ġmesial":9478,"Ġmesangial":9479,"Ġmesangiocapillary":9480,"Ġkeratoconus":9481,"eletion":9482,"Ġvery":9483,"Ġpancoast":9484,"Ġneurinoma":9485,"Ġparkinsonian":9486,"Ġeclampsia":9487,"Ġseptum":9488,"Ġenteritides":9489,"Ġfolling":9490,"oked":9491,"Ġasplenia":9492,"hexosidase":9493,"Ġdehydroch":9494,"Ġpolyomavirus":9495,"Ġreflexes":9496,"Ġdeforming":9497,"Ġyang":9498,"Ġbacteremia":9499,"Ġhemangioper":9500,"Ġglucosamin":9501,"Ġimpact":9502,"Ġspondylitis":9503,"Ġductular":9504,"Ġembolus":9505,"Ġpurulent":9506,"tilaginous":9507,"Ġrecurrence":9508,"Ġrecurrences":9509,"Ġhydroxymethyl":9510,"Ġcysticerc":9511,"Ġdigeorge":9512,"Ġmethylmal":9513,"Ġmerkel":9514,"Ġpseudoachond":9515,"Ġprostatitides":9516,"Ġherpeti":9517,"Ġborrelia":9518,"Ġlocomo":9519,"Ġgravid":9520,"Ġotsc":9521,"Ġhormonogenesis":9522,"Ġtrigon":9523,"Ġmyotonias":9524,"Ġcryptophthalmos":9525,"yelocytic":9526,"Ġpatell":9527,"Ġcoxpd":9528,"Ġcoxsack":9529,"Ġjoints":9530,"Ġmineral":9531,"bery":9532,"echt":9533,"Ġcdgi":9534,"Ġplasmin":9535,"Ġgroenou":9536,"olesterol":9537,"Ġcytos":9538,"Ġattenuated":9539,"Ġpleurop":9540,"robi":9541,"onephosphate":9542,"Ġlambd":9543,"plt":9544,"Ġavium":9545,"Ġpapillitides":9546,"Ġhyperlipemia":9547,"Ġhyperlipidemias":9548,"Ġsubcorneal":9549,"Ġcomplices":9550,"Ġreproduc":9551,"Ġvasogenic":9552,"Ġvasovag":9553,"Ġherniations":9554,"ediens":9555,"Ġreticulosis":9556,"Ġreticuloses":9557,"Ġupsh":9558,"Ġconcussions":9559,"Ġlongitudinal":9560,"Ġnocturnus":9561,"Ġdisseminata":9562,"Ġhunermann":9563,"Ġtelangiectasias":9564,"Ġauric":9565,"Ġperitonitides":9566,"Ġtoxemia":9567,"Ġmeier":9568,"Ġmeara":9569,"Ġmeesmann":9570,"Ġatrio":9571,"Ġvestibulopathy":9572,"Ġmcph":9573,"iterans":9574,"Ġoveractivity":9575,"Ġsteatosis":9576,"Ġcommunicating":9577,"Ġrosai":9578,"Ġmeniere":9579,"Ġcolli":9580,"arbamylase":9581,"Ġandrade":9582,"Ġneurotrophic":9583,"Ġodontomas":9584,"Ġfelty":9585,"Ġhypopigmentation":9586,"Ġendothelioma":9587,"Ġmatern":9588,"Ġrubella":9589,"Ġmyxomatous":9590,"Ġblepharop":9591,"Ġembryonic":9592,"Ġlichthe":9593,"Ġambulation":9594,"Ġlysine":9595,"Ġgammopathy":9596,"Ġdysenteriae":9597,"Ġmetachronous":9598,"Ġuveitides":9599,"Ġtwins":9600,"Ġturc":9601,"Ġlipoproteinemias":9602,"Ġtyrosine":9603,"Ġacanthoma":9604,"Ġacroosteolysis":9605,"Ġxyy":9606,"Ġhyperpigmentation":9607,"ophysial":9608,"oendotheliomas":9609,"Ġgruber":9610,"Ġdiaphragm":9611,"Ġmastitis":9612,"Ġhurthle":9613,"Ġhemianopic":9614,"Ġsepticaemia":9615,"Ġlichenoides":9616,"Ġsemd":9617,"Ġbiphosphate":9618,"Ġtrihexosidase":9619,"Ġleiomyoma":9620,"Ġschistosomiases":9621,"Ġneurocyt":9622,"Ġhabituation":9623,"avioral":9624,"Ġblastomycosis":9625,"Ġdeficits":9626,"phalangy":9627,"Ġorganizing":9628,"Ġriver":9629,"Ġosteochondroses":9630,"Ġosteochondrodysplasia":9631,"Ġholoprosencephalies":9632,"Ġcephalgia":9633,"Ġcystadenocarcinoma":9634,"Ġcystadenocarcinomas":9635,"okalemic":9636,"Ġarrests":9637,"Ġanhidrosis":9638,"otypes":9639,"Ġhemihyp":9640,"Ġpolysplenia":9641,"Ġtetrahyd":9642,"Ġfire":9643,"ocyste":9644,"Ġhydroxyglutaric":9645,"Ġsneddon":9646,"Ġaminoac":9647,"Ġvalgum":9648,"Ġvaricella":9649,"Ġvaricelliform":9650,"hrig":9651,"Ġcyclic":9652,"Ġlineage":9653,"Ġwallenberg":9654,"Ġpropionyl":9655,"Ġomodysplasia":9656,"Ġuridyltransferase":9657,"Ġhemisp":9658,"Ġmacroglossia":9659,"ouzy":9660,"Ġhhf":9661,"Ġhypocalcemia":9662,"Ġhypocalciuria":9663,"Ġquadriplegia":9664,"Ġarterioscleroses":9665,"Ġcpeo":9666,"Ġmodels":9667,"Ġnsrd":9668,"Ġsubmucous":9669,"insky":9670,"Ġmarchiafav":9671,"Ġketoacidosis":9672,"Ġuncinate":9673,"Ġpromyelocytic":9674,"Ġflexor":9675,"uronidase":9676,"Ġwriting":9677,"Ġpallister":9678,"Ġmaturation":9679,"Ġpudlak":9680,"Ġimmediate":9681,"Ġimmotile":9682,"Ġgoldblatt":9683,"Ġgefsp":9684,"Ġmutil":9685,"Ġfranc":9686,"Ġfrank":9687,"Ġinfluenzae":9688,"Ġempyemas":9689,"Ġgynecologic":9690,"Ġcrohn":9691,"Ġspielme":9692,"Ġmusculorum":9693,"Ġdetachments":9694,"Ġdsds":9695,"Ġhorizontal":9696,"Ġgeographic":9697,"Ġgehrig":9698,"Ġenlargement":9699,"Ġphaeohyphomycoses":9700,"Ġhistological":9701,"Ġbdplt":9702,"Ġbunion":9703,"Ġlandouzy":9704,"Ġdeviation":9705,"iltrating":9706,"Ġphobia":9707,"Ġcapsular":9708,"roblastomas":9709,"Ġirritable":9710,"Ġgamstorp":9711,"Ġalveolitides":9712,"Ġlymphangiectasia":9713,"Ġprogressi":9714,"Ġmetastasis":9715,"Ġcolics":9716,"Ġpolyneuritic":9717,"Ġreduction":9718,"Ġnormokalemic":9719,"Ġfrommel":9720,"Ġmarfanoid":9721,"Ġsphingomyel":9722,"Ġventriculomegaly":9723,"Ġhemiatrophy":9724,"Ġstrictures":9725,"buminemic":9726,"Ġlegionna":9727,"Ġxanthogranulomatous":9728,"Ġmegacolon":9729,"Ġpigeon":9730,"uliar":9731,"Ġlaron":9732,"Ġhypomyelinating":9733,"Ġnonlymphocytic":9734,"Ġnonlymphoblastic":9735,"Ġtranscarbamylase":9736,"Ġhydroceles":9737,"Ġbrachymes":9738,"Ġseropositivity":9739,"Ġganglioglioma":9740,"Ġgangliogliomas":9741,"Ġalternariosis":9742,"Ġalternarioses":9743,"Ġgalactosylceramide":9744,"Ġgalactosylceramidase":9745,"Ġdyscalculia":9746,"Ġdyscalculias":9747,"Ġsenior":9748,"Ġharding":9749,"Ġaorta":9750,"choline":9751,"Ġepicanthus":9752,"Ġpauci":9753,"Ġseroconversion":9754,"Ġsplenomegaly":9755,"hauser":9756,"Ġmiyoshi":9757,"Ġhypercatabolic":9758,"Ġhyperimmunoglobulinemia":9759,"Ġwinter":9760,"Ġlymphogranuloma":9761,"Ġoculocerebrorenal":9762,"Ġbrachyolmia":9763,"Ġkeratoconjunctivitis":9764,"Ġengelmann":9765,"Ġpolymicrogyria":9766,"Ġkojew":9767,"Ġprosopagnosia":9768,"Ġquadriplegic":9769,"Ġelephantiasis":9770,"Ġaqueductal":9771,"Ġakathisia":9772,"Ġnondis":9773,"Ġdistinctive":9774,"Ġfraxe":9775,"Ġinfiltrative":9776,"Ġstartle":9777,"Ġwiskott":9778,"Ġparvovirus":9779,"Ġalpers":9780,"Ġkrukenberg":9781,"Ġkaryotype":9782,"Ġexstrophy":9783,"Ġagranulocytosis":9784,"Ġcloverleaf":9785,"Ġmethemoglobinemia":9786,"Ġsimplices":9787,"Ġathetoid":9788,"Ġelbows":9789,"Ġhibernation":9790,"Ġparainfluenza":9791,"uana":9792,"Ġsomnolence":9793,"Ġcubital":9794,"Ġmeconium":9795,"Ġfraumeni":9796,"Ġbinge":9797,"Ġurbach":9798,"Ġesthesioneuroblastoma":9799,"Ġrothmund":9800,"Ġdesquamative":9801,"Ġaspartylgluc":9802,"Ġoculoauriculovertebral":9803,"iquitin":9804,"Ġdorsal":9805,"Ġpeculiar":9806,"Ġalacrima":9807,"Ġpavor":9808,"Ġpsychosocial":9809,"Ġenuresis":9810,"Ġzenker":9811,"Ġasymmetry":9812,"Ġfatigable":9813,"Ġhyperchylomicronemia":9814,"Ġtakayasu":9815,"Ġelectrolyte":9816,"Ġelliptocytosis":9817,"Ġhypohidrotic":9818,"Ġochronosis":9819,"Ġcrystalline":9820,"Ġubiquitin":9821,"Ġsouth":9822,"Ġcohen":9823,"Ġcannabis":9824,"arnyx":9825,"oreductase":9826,"Ġmvcd":9827,"Ġsynchronous":9828,"Ġlumpy":9829,"Ġgradenigo":9830,"Ġhypobetalipoproteinemia":9831,"Ġanorexia":9832,"Ġsprue":9833,"Ġhemosiderosis":9834,"Ġsezary":9835,"Ġobliterans":9836,"Ġsuppressor":9837,"Ġmesenteritis":9838,"Ġmarkesbery":9839,"Ġzonular":9840,"Ġquervain":9841,"Ġelasticum":9842,"Ġosteopoikilosis":9843,"Ġrichardson":9844,"Ġdextrocardia":9845,"Ġsydenh":9846,"Ġsoulier":9847,"Ġcushion":9848,"Ġcoffin":9849,"Ġpentalogy":9850,"Ġmiescher":9851,"Ġhutterite":9852,"Ġaromatase":9853,"Ġfordyce":9854,"Ġbannayan":9855,"Ġloken":9856,"Ġlvnc":9857,"Ġrussian":9858,"Ġrasmussen":9859,"Ġdegluti":9860,"Ġdyssegmental":9861,"Ġchotzen":9862,"Ġconotruncal":9863,"Ġacampomelic":9864,"Ġeuthyroid":9865,"Ġmyomelanocytic":9866,"Ġneurobehavioral":9867,"Ġstapes":9868,"Ġwandering":9869,"Ġwiethe":9870,"Ġkinky":9871,"Ġproperdin":9872,"Ġglanzmann":9873,"Ġregression":9874,"Ġretrobulbar":9875,"Ġnoninfiltrating":9876,"Ġnonepidermolytic":9877,"Ġshields":9878,"Ġshokeir":9879,"Ġopalescent":9880,"Ġidentity":9881,"Ġschoenlein":9882,"Ġcerulean":9883,"Ġovotesticular":9884,"Ġdehydrocholesterol":9885,"Ġhemangioperic":9886,"Ġglucosaminide":9887,"Ġmethylmalonyl":9888,"Ġherpetiformis":9889,"Ġlocomotion":9890,"Ġcoxsackie":9891,"Ġreproductive":9892,"Ġvasovagal":9893,"Ġupshaw":9894,"Ġlichtheim":9895,"Ġmarchiafava":9896,"Ġspielmeyer":9897,"ains":9898,"bu":9899,"bia":9900,"card":9901,"cad":9902,"copic":9903,"citation":9904,"dyn":9905,"dem":9906,"ding":9907,"ei":9908,"fly":9909,"front":9910,"gth":9911,"hal":9912,"hem":9913,"ham":9914,"hiasis":9915,"histi":9916,"horn":9917,"ief":9918,"jective":9919,"lage":9920,"loch":9921,"lers":9922,"mor":9923,"metal":9924,"nant":9925,"natal":9926,"nogenic":9927,"nuclear":9928,"nelia":9929,"oro":9930,"oix":9931,"oepithelial":9932,"oosseous":9933,"pc":9934,"pan":9935,"pol":9936,"pet":9937,"pric":9938,"pre":9939,"ruct":9940,"sin":9941,"suit":9942,"tter":9943,"tmann":9944,"uys":9945,"uosity":9946,"uerstein":9947,"vt":9948,"voix":9949,"wor":9950,"will":9951,"yers":9952,"zilian":9953,"Ġuv":9954,"Ġeast":9955,"Ġito":9956,"alyc":9957,"albuminemic":9958,"tide":9959,"erin":9960,"roplastic":9961,"inopathy":9962,"Ġss":9963,"Ġsul":9964,"Ġsth":9965,"Ġscl":9966,"Ġsir":9967,"Ġsak":9968,"Ġsuff":9969,"Ġsoles":9970,"Ġsott":9971,"Ġsonne":9972,"Ġdg":9973,"Ġdos":9974,"Ġdac":9975,"Ġduc":9976,"Ġdot":9977,"Ġdanc":9978,"Ġdail":9979,"Ġdiple":9980,"Ġderc":9981,"Ġdutch":9982,"enolep":9983,"onema":9984,"onidal":9985,"onodular":9986,"Ġci":9987,"Ġcrow":9988,"Ġcbs":9989,"Ġcada":9990,"Ġcgd":9991,"Ġcprs":9992,"Ġcjd":9993,"Ġcylin":9994,"aration":9995,"arpal":9996,"esus":9997,"esaur":9998,"Ġpm":9999,"Ġpv":10000,"Ġpend":10001,"Ġpill":10002,"Ġpow":10003,"icidal":10004,"ania":10005,"anut":10006,"anter":10007,"atom":10008,"atter":10009,"osep":10010,"osigmoid":10011,"orary":10012,"oreg":10013,"orectal":10014,"Ġmmd":10015,"Ġmfm":10016,"omm":10017,"omous":10018,"Ġtc":10019,"Ġtem":10020,"Ġtular":10021,"Ġtangi":10022,"Ġtort":10023,"Ġtail":10024,"Ġtors":10025,"Ġtau":10026,"Ġtsh":10027,"Ġtylosis":10028,"Ġhym":10029,"Ġhag":10030,"Ġhone":10031,"Ġhfe":10032,"Ġhyb":10033,"Ġhistr":10034,"romial":10035,"Ġais":10036,"Ġait":10037,"Ġautis":10038,"Ġafib":10039,"Ġaarsk":10040,"levoix":10041,"Ġnys":10042,"Ġnbl":10043,"Ġnominal":10044,"Ġnova":10045,"uloma":10046,"ulant":10047,"ulse":10048,"ulative":10049,"ulinemia":10050,"ulating":10051,"ulenburg":10052,"ulicz":10053,"Ġsyndactyl":10054,"Ġsynechiae":10055,"Ġsynpol":10056,"Ġdistic":10057,"itol":10058,"itating":10059,"opd":10060,"opr":10061,"opontine":10062,"ypsin":10063,"Ġfg":10064,"Ġfors":10065,"Ġftl":10066,"Ġfcd":10067,"Ġflec":10068,"Ġfalc":10069,"Ġftd":10070,"Ġfgs":10071,"Ġbass":10072,"Ġbald":10073,"Ġbcc":10074,"Ġbinding":10075,"Ġbacill":10076,"eland":10077,"Ġlog":10078,"Ġlign":10079,"Ġlav":10080,"Ġller":10081,"Ġlaz":10082,"Ġlittle":10083,"Ġlprs":10084,"acyl":10085,"activ":10086,"acarpal":10087,"Ġrit":10088,"Ġrna":10089,"ocin":10090,"oclas":10091,"ocran":10092,"ocerc":10093,"ocornea":10094,"uren":10095,"uritis":10096,"urity":10097,"urati":10098,"ilobar":10099,"ectin":10100,"Ġgc":10101,"Ġgs":10102,"Ġgond":10103,"Ġgord":10104,"olor":10105,"olent":10106,"olith":10107,"olpyruvate":10108,"oluys":10109,"vefront":10110,"encycl":10111,"lash":10112,"ett":10113,"ather":10114,"therapeutic":10115,"through":10116,"uminating":10117,"Ġvl":10118,"Ġvam":10119,"Ġvir":10120,"Ġhypochond":10121,"Ġhypesthesia":10122,"Ġhypomelan":10123,"amen":10124,"icious":10125,"Ġdyslip":10126,"Ġdyscr":10127,"Ġdysinhibition":10128,"Ġdysalbuminemic":10129,"Ġchias":10130,"Ġchand":10131,"Ġchurg":10132,"imm":10133,"imean":10134,"igar":10135,"iglycer":10136,"unken":10137,"odia":10138,"odental":10139,"odont":10140,"Ġanomic":10141,"Ġanarch":10142,"Ġanlage":10143,"Ġanatom":10144,"Ġanorectal":10145,"Ġcontr":10146,"Ġacroc":10147,"Ġactive":10148,"Ġacatal":10149,"Ġacrosp":10150,"clp":10151,"ouston":10152,"Ġeulenburg":10153,"ymy":10154,"ympathetic":10155,"agnant":10156,"irection":10157,"Ġletal":10158,"chrom":10159,"chocerc":10160,"ebl":10161,"ebiases":10162,"tinin":10163,"tinism":10164,"Ġhyperins":10165,"Ġhyperneph":10166,"Ġspurs":10167,"Ġspecial":10168,"Ġstases":10169,"Ġstagnant":10170,"Ġwing":10171,"Ġwides":10172,"ineau":10173,"adi":10174,"Ġatkin":10175,"Ġatrich":10176,"Ġie":10177,"Ġip":10178,"Ġiid":10179,"Ġiod":10180,"obullous":10181,"obasilar":10182,"obacill":10183,"obalamin":10184,"Ġparson":10185,"Ġparry":10186,"arce":10187,"Ġalps":10188,"Ġalarm":10189,"ipec":10190,"Ġheme":10191,"Ġhemim":10192,"Ġhemeral":10193,"Ġhemolysis":10194,"Ġku":10195,"Ġking":10196,"Ġkug":10197,"Ġkinetic":10198,"Ġarsen":10199,"Ġada":10200,"Ġthc":10201,"Ġthro":10202,"Ġthick":10203,"Ġthesaur":10204,"Ġprep":10205,"Ġprinz":10206,"rone":10207,"ealed":10208,"oiduronate":10209,"Ġlymphomatous":10210,"Ġlymphosarcoma":10211,"Ġlymphosarcomas":10212,"Ġlymphofollicular":10213,"Ġprotr":10214,"ativis":10215,"Ġglue":10216,"Ġperip":10217,"Ġrele":10218,"Ġreiter":10219,"Ġheroin":10220,"aches":10221,"uping":10222,"iff":10223,"Ġdystopic":10224,"Ġabd":10225,"Ġcerebrum":10226,"Ġjones":10227,"rew":10228,"trypsin":10229,"Ġ41":10230,"ovarus":10231,"Ġphencycl":10232,"Ġreceptive":10233,"Ġrecogn":10234,"rose":10235,"roste":10236,"ydii":10237,"Ġtrep":10238,"Ġtruncal":10239,"oxical":10240,"oxide":10241,"Ġpoland":10242,"tish":10243,"inkel":10244,"abach":10245,"Ġamc":10246,"Ġamish":10247,"quito":10248,"quois":10249,"illa":10250,"ills":10251,"illing":10252,"Ġexit":10253,"ogenes":10254,"Ġretroc":10255,"Ġretrof":10256,"Ġretained":10257,"Ġencephalofacial":10258,"Ġcornelia":10259,"ional":10260,"Ġpostex":10261,"Ġpostnatal":10262,"ycomb":10263,"allow":10264,"Ġblo":10265,"Ġblow":10266,"Ġiiis":10267,"Ġsubs":10268,"Ġsublingual":10269,"Ġparoti":10270,"omatose":10271,"Ġnonne":10272,"Ġnonthromb":10273,"Ġnonmedullary":10274,"Ġnonneph":10275,"Ġnontherapeutic":10276,"Ġmetacarpal":10277,"Ġ55":10278,"Ġcarcinomatosis":10279,"Ġbrief":10280,"Ġgenotoxic":10281,"Ġpulsion":10282,"osteosis":10283,"osteogenesis":10284,"Ġintention":10285,"Ġshw":10286,"Ġshuff":10287,"Ġshift":10288,"Ġadenoid":10289,"Ġopd":10290,"Ġperianeurysm":10291,"ofetal":10292,"ofemoral":10293,"ofruct":10294,"Ġosteitis":10295,"strom":10296,"ergy":10297,"ivided":10298,"Ġmich":10299,"Ġmicrosp":10300,"Ġschindler":10301,"Ġschulman":10302,"Ġschilling":10303,"Ġfeuerstein":10304,"Ġfetish":10305,"antid":10306,"lytic":10307,"Ġendophthalm":10308,"Ġendogenous":10309,"Ġtransves":10310,"Ġtransneuro":10311,"Ġcoq":10312,"Ġcoin":10313,"Ġcoarc":10314,"Ġcoup":10315,"Ġaga":10316,"Ġags":10317,"Ġagnathia":10318,"Ġagglu":10319,"Ġagnogenic":10320,"Ġpseudomembranous":10321,"Ġsclerodactyly":10322,"Ġsclerodermas":10323,"Ġacidemias":10324,"Ġacidurias":10325,"Ġmonon":10326,"Ġmonostotic":10327,"Ġmonoxide":10328,"Ġpls":10329,"Ġplumb":10330,"eau":10331,"Ġabstinence":10332,"ffner":10333,"Ġapocrine":10334,"entia":10335,"ersinia":10336,"Ġcentrot":10337,"Ġdermopathy":10338,"Ġporomas":10339,"Ġhydrocephaly":10340,"Ġhydrotic":10341,"Ġpositivity":10342,"Ġinsomnias":10343,"Ġcardiogenic":10344,"Ġmacrocytic":10345,"lexy":10346,"Ġcatech":10347,"Ġectasias":10348,"Ġclaud":10349,"Ġdiphosphatase":10350,"Ġpneumonic":10351,"Ġpneumocyst":10352,"Ġpneumophila":10353,"Ġangiopathies":10354,"Ġangiogenesis":10355,"Ġerythr":10356,"Ġerythemas":10357,"orticate":10358,"Ġsleeping":10359,"Ġrhesus":10360,"Ġnephroses":10361,"Ġoptica":10362,"Ġcrib":10363,"Ġcrest":10364,"Ġcrack":10365,"Ġcrimean":10366,"Ġhearts":10367,"Ġcarp":10368,"oley":10369,"oleiomy":10370,"Ġintradural":10371,"Ġintraoperative":10372,"Ġintramedullary":10373,"Ġmedication":10374,"Ġinterdig":10375,"Ġglycer":10376,"Ġglycine":10377,"Ġcompreh":10378,"ugate":10379,"Ġneonator":10380,"radiation":10381,"Ġgranulomous":10382,"Ġoliver":10383,"Ġolsz":10384,"Ġcalve":10385,"Ġtuberculin":10386,"Ġpapa":10387,"Ġaphonias":10388,"Ġdrunken":10389,"Ġgeneralisata":10390,"Ġbilirub":10391,"Ġnodosum":10392,"Ġphosphatid":10393,"Ġphosphoen":10394,"Ġphosphofruct":10395,"Ġvesicul":10396,"Ġpsychological":10397,"Ġpsychophys":10398,"Ġrogers":10399,"Ġcranio":10400,"mani":10401,"Ġbrachyte":10402,"Ġmesomelia":10403,"Ġesophago":10404,"Ġneurinomas":10405,"Ġeca":10406,"Ġseparation":10407,"Ġmount":10408,"Ġmoya":10409,"Ġcomplexes":10410,"Ġmarburg":10411,"Ġmarmor":10412,"ospir":10413,"osporid":10414,"Ġfolate":10415,"Ġvarix":10416,"Ġvariola":10417,"Ġaspg":10418,"roxysmal":10419,"head":10420,"Ġpuppet":10421,"arthrosis":10422,"Ġpolyarter":10423,"Ġpolyarthritis":10424,"Ġtransition":10425,"Ġyersinia":10426,"Ġophthalmia":10427,"Ġbactericidal":10428,"Ġimpulsive":10429,"Ġimpulse":10430,"Ġhumer":10431,"Ġfibroelast":10432,"Ġfibrohisti":10433,"Ġfibroather":10434,"bling":10435,"Ġpursuit":10436,"Ġdiabeticorum":10437,"neri":10438,"Ġwear":10439,"Ġweil":10440,"Ġwears":10441,"ifications":10442,"Ġfootwart":10443,"Ġtissues":10444,"Ġoxoprol":10445,"Ġmycosis":10446,"Ġerythrohepatic":10447,"Ġcarbam":10448,"Ġswiss":10449,"Ġswallow":10450,"Ġvariants":10451,"Ġdigits":10452,"Ġcoronavirus":10453,"Ġmethyltransferase":10454,"Ġsubacromial":10455,"Ġinvag":10456,"Ġpseudoex":10457,"Ġastatic":10458,"Ġschizotyp":10459,"Ġfactors":10460,"Ġeosinophilias":10461,"Ġprematurity":10462,"Ġquad":10463,"Ġaxial":10464,"Ġlocoreg":10465,"Ġpreec":10466,"Ġpreex":10467,"Ġpretibial":10468,"Ġchondro":10469,"Ġchondrocalcinosis":10470,"Ġnegativis":10471,"olipomas":10472,"Ġgraef":10473,"Ġhypothalamo":10474,"oureteral":10475,"Ġantitrypsin":10476,"Ġsulfoiduronate":10477,"oscleroses":10478,"Ġcapital":10479,"Ġconcealed":10480,"Ġsensorimotor":10481,"Ġsyncopal":10482,"Ġlouping":10483,"Ġhypogammaglobulinemias":10484,"Ġcdgii":10485,"Ġwavefront":10486,"Ġgangliosidoses":10487,"Ġmembranes":10488,"Ġiceland":10489,"Ġpeep":10490,"Ġpeeling":10491,"Ġpeanut":10492,"Ġpearce":10493,"gerigar":10494,"osteroid":10495,"Ġground":10496,"Ġcontractural":10497,"Ġcytotoxic":10498,"Ġpleuris":10499,"Ġtorti":10500,"Ġtorre":10501,"Ġphotopa":10502,"Ġedm":10503,"Ġedmd":10504,"Ġdesbu":10505,"Ġpapillon":10506,"Ġreplication":10507,"Ġheterotopic":10508,"Ġilluminating":10509,"Ġhyaloid":10510,"Ġguam":10511,"Ġreticuloid":10512,"Ġpena":10513,"accharide":10514,"Ġtreated":10515,"Ġcommunity":10516,"Ġspasmodic":10517,"Ġrhinotr":10518,"Ġdemyelination":10519,"Ġtelangiectatic":10520,"Ġfrontobasilar":10521,"tyoca":10522,"Ġconducting":10523,"Ġmcard":10524,"Ġmcleod":10525,"Ġanaplasm":10526,"Ġactinobacill":10527,"Ġdentator":10528,"Ġdentatus":10529,"Ġsteele":10530,"oradicul":10531,"Ġlesch":10532,"iparum":10533,"Ġcommunicative":10534,"Ġirradiation":10535,"Ġsuperinf":10536,"Ġmenkes":10537,"Ġcollapse":10538,"Ġsialuria":10539,"Ġcystitis":10540,"Ġcystitides":10541,"Ġspongi":10542,"Ġspongy":10543,"Ġlipofuscin":10544,"oglobinuria":10545,"Ġvulvovaginal":10546,"Ġpresb":10547,"Ġpreserv":10548,"Ġcmtx":10549,"Ġpolymy":10550,"Ġlabyrinth":10551,"Ġarginino":10552,"Ġarrhythmias":10553,"Ġphosphorus":10554,"Ġhomg":10555,"Ġhomozygous":10556,"Ġcholesteryl":10557,"Ġwork":10558,"bilane":10559,"Ġlength":10560,"Ġkozhe":10561,"Ġuveopa":10562,"Ġsudek":10563,"Ġmajewski":10564,"Ġdiarrhetic":10565,"Ġsterile":10566,"Ġxxy":10567,"Ġpagetoid":10568,"ĠÃ¼":10569,"Ġichthyosiforme":10570,"Ġichthyosiformes":10571,"Ġcamptomelic":10572,"Ġfused":10573,"Ġfusospir":10574,"nathism":10575,"Ġindepend":10576,"Ġindolent":10577,"Ġhmg":10578,"Ġinfants":10579,"Ġlymphadenitides":10580,"Ġmasoch":10581,"Ġvertigos":10582,"Ġandrogenetic":10583,"Ġtongues":10584,"operi":10585,"Ġdecorticate":10586,"Ġprecalyc":10587,"Ġcerebroocul":10588,"Ġcerebelloretinal":10589,"Ġvitreoretinal":10590,"Ġboydii":10591,"Ġhyperglycemic":10592,"Ġhyperglycinemias":10593,"Ġtriat":10594,"Ġfournier":10595,"Ġpolyradiculoneuropathies":10596,"Ġrobinson":10597,"Ġhypophosphatasia":10598,"Ġetf":10599,"Ġpineocytoma":10600,"Ġmilroy":10601,"Ġlingu":10602,"Ġpapulosis":10603,"Ġnoise":10604,"Ġmegalencephaly":10605,"omeningitis":10606,"Ġbaby":10607,"Ġpostprand":10608,"Ġpseudotubercul":10609,"Ġincompati":10610,"Ġvertebrogenic":10611,"Ġorganoid":10612,"Ġparapareses":10613,"Ġosteochondritis":10614,"Ġangioedemas":10615,"Ġbreaks":10616,"Ġbreakthrough":10617,"ervical":10618,"Ġforehead":10619,"Ġgermin":10620,"Ġstriatal":10621,"Ġfibrillations":10622,"Ġhamartomas":10623,"Ġhamartomatous":10624,"foliation":10625,"Ġchrist":10626,"Ġevr":10627,"ocystoma":10628,"Ġhydroxybut":10629,"Ġmiscar":10630,"Ġtemporary":10631,"Ġamoebiasis":10632,"Ġaminoacylase":10633,"Ġincontin":10634,"Ġvarices":10635,"Ġhoard":10636,"Ġelectron":10637,"Ġconstrictions":10638,"Ġmyelinoclastic":10639,"Ġmyelinoclas":10640,"Ġcervico":10641,"Ġpsoriatic":10642,"Ġonchocerc":10643,"Ġdysautonomic":10644,"iminatory":10645,"ohypogastric":10646,"Ġethanol":10647,"Ġdevice":10648,"apsulating":10649,"Ġpolydystrophic":10650,"Ġregurgitant":10651,"Ġpilonidal":10652,"Ġhammer":10653,"Ġbalantid":10654,"Ġperception":10655,"Ġcoalwor":10656,"Ġplasmacyt":10657,"Ġketoaciduria":10658,"Ġflexneri":10659,"Ġcharlevoix":10660,"Ġwrist":10661,"Ġstreptococcal":10662,"Ġstreptoz":10663,"Ġsweet":10664,"Ġsteroidogenesis":10665,"Ġnorrie":10666,"Ġhypovole":10667,"Ġsharp":10668,"Ġurticarias":10669,"Ġoxidoreductase":10670,"Ġgoldberg":10671,"inflammatory":10672,"equate":10673,"Ġanterolateral":10674,"Ġanterosep":10675,"Ġcorticotropin":10676,"Ġmicroscopic":10677,"Ġschonberg":10678,"Ġdihydroxy":10679,"Ġcanalicular":10680,"Ġpapillomavirus":10681,"Ġhidradenitides":10682,"Ġmddga":10683,"Ġnphp":10684,"Ġhypnic":10685,"Ġhypnogenic":10686,"Ġneurohypophysial":10687,"Ġihps":10688,"ddr":10689,"Ġmsud":10690,"Ġluteoma":10691,"Ġparamyotonia":10692,"Ġprocesses":10693,"Ġmoniliases":10694,"Ġaccident":10695,"Ġbotulisms":10696,"Ġverruciformis":10697,"Ġbuny":10698,"ocardiac":10699,"Ġdeviations":10700,"Ġkinesigenic":10701,"Ġphobic":10702,"Ġsmoke":10703,"Ġincisors":10704,"Ġrepetition":10705,"Ġvitreoretinochoroid":10706,"Ġiliohypogastric":10707,"Ġdysraphism":10708,"Ġanthrax":10709,"Ġlymphangiectasis":10710,"Ġisomerisms":10711,"Ġvesicoureteral":10712,"Ġreduced":10713,"Ġoguchi":10714,"Ġmolars":10715,"Ġdiscrete":10716,"Ġdiscriminatory":10717,"Ġgyrata":10718,"Ġstrongyl":10719,"Ġstrongyle":10720,"uberculous":10721,"Ġperineur":10722,"Ġautoinflammation":10723,"Ġsainton":10724,"Ġdiminisheds":10725,"Ġilio":10726,"Ġhypermobility":10727,"Ġwerdn":10728,"Ġglioblastomas":10729,"Ġpostcomatose":10730,"Ġhydrolase":10731,"Ġnecrolytic":10732,"Ġmorgell":10733,"Ġdermatomyositides":10734,"Ġlegionella":10735,"Ġequinovarus":10736,"Ġapparatus":10737,"Ġhyperalgesias":10738,"Ġsrxy":10739,"Ġsantos":10740,"Ġcofs":10741,"Ġbuccal":10742,"Ġballoon":10743,"Ġbrady":10744,"Ġgelineau":10745,"Ġhypomyelination":10746,"Ġkenny":10747,"Ġextracerebral":10748,"Ġhydrocele":10749,"ferritin":10750,"Ġbrachymorph":10751,"Ġseropositivities":10752,"Ġacetylgalactosamine":10753,"oastrocyt":10754,"Ġleri":10755,"Ġlumbar":10756,"Ġvelopharyngeal":10757,"Ġhyperuricemia":10758,"Ġhyperuricemic":10759,"Ġepicondyl":10760,"Ġtranslocation":10761,"Ġmacrosomia":10762,"Ġseroconversions":10763,"Ġerythroblastosis":10764,"tidase":10765,"Ġdictyoca":10766,"Ġrudiment":10767,"Ġkienb":10768,"Ġpernicious":10769,"Ġleukokeratosis":10770,"Ġleukokeratoses":10771,"Ġblennorrhagic":10772,"ofacioskeletal":10773,"Ġcryptococcosis":10774,"Ġcryptococcoses":10775,"Ġsteatocystoma":10776,"Ġpachymeningitis":10777,"Ġpachymeningitides":10778,"Ġdisplacements":10779,"Ġsetting":10780,"Ġdavis":10781,"Ġcatheter":10782,"Ġmims":10783,"Ġmorphine":10784,"Ġbatten":10785,"Ġvillonodular":10786,"Ġacrodys":10787,"Ġsubtotal":10788,"Ġidiocy":10789,"Ġmyocardium":10790,"Ġdiathesis":10791,"Ġfolliculitis":10792,"Ġpolychondritis":10793,"Ġzygomatic":10794,"phalipoproteinemias":10795,"Ġgammapathy":10796,"Ġappendiceal":10797,"Ġdegradation":10798,"Ġmddgb":10799,"opalatodigital":10800,"Ġhyperprolinemia":10801,"Ġdolich":10802,"Ġpinpric":10803,"Ġlarsen":10804,"Ġvault":10805,"Ġanticip":10806,"Ġconjugate":10807,"Ġwohlwill":10808,"Ġalien":10809,"Ġadamantin":10810,"Ġjeghers":10811,"regate":10812,"Ġphagocyte":10813,"Ġsubdivided":10814,"Ġendodontically":10815,"Ġglucosephosphate":10816,"Ġmerritt":10817,"oepithelioma":10818,"Ġcoagulations":10819,"Ġtapetoretinal":10820,"Ġsaturnism":10821,"Ġplatyspondylic":10822,"Ġstings":10823,"anurus":10824,"Ġmngie":10825,"Ġniddm":10826,"Ġbrazilian":10827,"Ġricci":10828,"Ġanaphylactic":10829,"Ġkaufman":10830,"Ġphacomatosis":10831,"ycephaly":10832,"Ġnontuberculous":10833,"Ġcystathionine":10834,"Ġrolling":10835,"Ġstevenson":10836,"Ġprotoporphyria":10837,"Ġinfundibular":10838,"Ġromano":10839,"Ġencapsulating":10840,"Ġsutural":10841,"Ġcumulative":10842,"Ġcacchi":10843,"Ġhoffman":10844,"Ġnrclp":10845,"Ġinitiation":10846,"Ġinadequate":10847,"Ġbudgerigar":10848,"Ġconvexity":10849,"Ġhyperventilation":10850,"Ġatelosteogenesis":10851,"Ġaleukemic":10852,"Ġtheca":10853,"Ġfraser":10854,"Ġaggregate":10855,"Ġpointes":10856,"Ġdiphther":10857,"Ġoxyphilic":10858,"Ġbleedings":10859,"Ġparagonimus":10860,"Ġascarid":10861,"Ġcoccidioid":10862,"Ġloeffler":10863,"Ġsicca":10864,"Ġsaposin":10865,"Ġmosquito":10866,"Ġmikulicz":10867,"Ġayerza":10868,"Ġfujimoto":10869,"Ġdyschromatosis":10870,"Ġhyperandrogen":10871,"ylvian":10872,"Ġstephanurus":10873,"Ġwissler":10874,"Ġwestermani":10875,"Ġparadoxical":10876,"Ġkasabach":10877,"Ġpringle":10878,"Ġjewish":10879,"Ġmalocclusion":10880,"Ġheubner":10881,"Ġadenylosuccin":10882,"Ġapoplexy":10883,"Ġhydronephrosis":10884,"oglycerate":10885,"Ġhydroxymethylbilane":10886,"Ġcysticercosis":10887,"Ġtrigonocephaly":10888,"Ġgroenouw":10889,"Ġpleuropneum":10890,"Ġauricle":10891,"Ġmaternally":10892,"Ġblepharoptosis":10893,"Ġprogressiva":10894,"Ġsphingomyelinase":10895,"Ġsydenham":10896,"pread":10897,"Ġsthag":10898,"Ġsakati":10899,"Ġsottas":10900,"Ġsonnei":10901,"Ġdacry":10902,"Ġdancing":10903,"Ġdaily":10904,"Ġcylindrom":10905,"anteric":10906,"Ġtangier":10907,"Ġtortuosity":10908,"Ġtorsad":10909,"Ġhymenolep":10910,"Ġhoneycomb":10911,"Ġhybrid":10912,"Ġhistrionic":10913,"Ġautistic":10914,"Ġaarskog":10915,"Ġnblst":10916,"Ġsynpolydactyly":10917,"Ġdistichiasis":10918,"Ġfalciparum":10919,"Ġlignac":10920,"Ġgondii":10921,"Ġgordon":10922,"oluysian":10923,"Ġvamas":10924,"Ġchiasmatic":10925,"Ġanarchic":10926,"Ġanatomical":10927,"Ġacrospi":10928,"irectional":10929,"Ġhyperinsulinemia":10930,"Ġwidespread":10931,"Ġatrichia":10932,"Ġparsonage":10933,"Ġkugelberg":10934,"Ġarsenical":10935,"Ġthesaurism":10936,"Ġprinzmetal":10937,"Ġphencyclidine":10938,"Ġrecognition":10939,"Ġretrocochlear":10940,"Ġretroflex":10941,"Ġnonnephropathic":10942,"Ġgenotoxicant":10943,"Ġshuffling":10944,"Ġperianeurysmal":10945,"Ġtransneuronal":10946,"Ġagglutinin":10947,"Ġplumbism":10948,"Ġcentrotemporal":10949,"Ġcatechol":10950,"Ġinterdigitating":10951,"Ġcomprehension":10952,"Ġneonatorum":10953,"Ġolszewski":10954,"Ġdrunkenness":10955,"Ġphosphoenolpyruvate":10956,"Ġphosphofructokinase":10957,"Ġvesiculobullous":10958,"Ġbrachytele":10959,"Ġfibrohistiocytic":10960,"Ġswallowing":10961,"Ġpseudoexfoliation":10962,"Ġschizotypal":10963,"Ġlocoregional":10964,"Ġpreexcitation":10965,"Ġnegativistic":10966,"Ġicelandic":10967,"Ġphotoparoxysmal":10968,"Ġdesbuquois":10969,"Ġrhinotrache":10970,"Ġdentatorub":10971,"Ġindependent":10972,"Ġprecalyceal":10973,"Ġpostprandial":10974,"Ġmiscarria":10975,"Ġanteroseptal":10976,"Ġvitreoretinochoroidopathy":10977,"Ġwerdnig":10978,"Ġdictyocaul":10979,"Ġpinprick":10980,"aes":10981,"aun":10982,"bh":10983,"bm":10984,"bp":10985,"bom":10986,"bility":10987,"best":10988,"bank":10989,"cation":10990,"ceral":10991,"ception":10992,"cification":10993,"dx":10994,"dan":10995,"det":10996,"eol":10997,"eogenic":10998,"evnikov":10999,"fying":11000,"farin":11001,"hk":11002,"hodgkin":11003,"iro":11004,"iph":11005,"iel":11006,"iologic":11007,"joen":11008,"kc":11009,"kos":11010,"ked":11011,"kam":11012,"lobular":11013,"lhof":11014,"nios":11015,"ncr":11016,"oect":11017,"oaff":11018,"pm":11019,"po":11020,"px":11021,"par":11022,"ping":11023,"pect":11024,"past":11025,"pigin":11026,"rus":11027,"sang":11028,"tamy":11029,"uosp":11030,"uori":11031,"uedo":11032,"vp":11033,"ven":11034,"vie":11035,"veness":11036,"yron":11037,"zol":11038,"Ġut":11039,"ale":11040,"ties":11041,"eruloplasm":11042,"rointestinal":11043,"inii":11044,"inester":11045,"integration":11046,"Ġsoc":11047,"Ġsne":11048,"Ġsly":11049,"Ġsack":11050,"Ġsock":11051,"Ġstil":11052,"Ġsemin":11053,"Ġdc":11054,"Ġdunc":11055,"Ġdactyl":11056,"Ġdance":11057,"Ġdrag":11058,"enis":11059,"enoses":11060,"enopausal":11061,"eney":11062,"asp":11063,"onin":11064,"onemias":11065,"onomo":11066,"Ġcph":11067,"Ġced":11068,"Ġcot":11069,"Ġcca":11070,"Ġcfe":11071,"Ġcpd":11072,"arte":11073,"arson":11074,"articul":11075,"arino":11076,"isch":11077,"estion":11078,"esch":11079,"estern":11080,"Ġpac":11081,"Ġpell":11082,"Ġpant":11083,"Ġpect":11084,"Ġpgl":11085,"Ġppr":11086,"Ġpomp":11087,"Ġpfm":11088,"Ġpvn":11089,"Ġpads":11090,"ices":11091,"icemia":11092,"anotic":11093,"atous":11094,"osh":11095,"osas":11096,"ositol":11097,"orb":11098,"oriasis":11099,"orific":11100,"Ġmarc":11101,"Ġmay":11102,"Ġmele":11103,"Ġmosch":11104,"Ġmioses":11105,"Ġmott":11106,"Ġmayer":11107,"Ġmopd":11108,"Ġmymy":11109,"Ġtb":11110,"Ġtop":11111,"Ġtauro":11112,"Ġhc":11113,"Ġhg":11114,"Ġhn":11115,"Ġhr":11116,"Ġhan":11117,"Ġheb":11118,"Ġhyst":11119,"Ġhbl":11120,"Ġheck":11121,"Ġhpl":11122,"romy":11123,"Ġaer":11124,"Ġaase":11125,"Ġaplasias":11126,"Ġakinesia":11127,"Ġnh":11128,"Ġnat":11129,"Ġnance":11130,"Ġnavicular":11131,"Ġnipple":11132,"Ġnbia":11133,"Ġsynaptic":11134,"Ġdisori":11135,"Ġdisjunction":11136,"Ġdisintegration":11137,"usea":11138,"edural":11139,"edow":11140,"emer":11141,"itone":11142,"Ġinverted":11143,"Ġintegration":11144,"ope":11145,"opel":11146,"opituitarism":11147,"opeau":11148,"Ġfc":11149,"Ġfro":11150,"Ġfin":11151,"Ġfine":11152,"Ġformal":11153,"Ġfhm":11154,"Ġba":11155,"Ġbos":11156,"Ġburg":11157,"Ġbech":11158,"eless":11159,"elock":11160,"elalgia":11161,"Ġlud":11162,"Ġlag":11163,"Ġlib":11164,"Ġlass":11165,"Ġlife":11166,"Ġlncr":11167,"acunc":11168,"Ġrt":11169,"Ġrac":11170,"Ġrid":11171,"Ġrum":11172,"Ġrms":11173,"Ġrare":11174,"Ġrunning":11175,"oco":11176,"oconi":11177,"ocomelia":11178,"ocolitides":11179,"ocervical":11180,"Ġdep":11181,"idg":11182,"ilogy":11183,"ilobular":11184,"ilitas":11185,"iljoen":11186,"eco":11187,"Ġgar":11188,"Ġgay":11189,"Ġgpd":11190,"Ġgunn":11191,"Ġgbb":11192,"olithiasis":11193,"olences":11194,"Ġneth":11195,"enteral":11196,"entration":11197,"etch":11198,"etting":11199,"ialis":11200,"ialdehyde":11201,"athies":11202,"uton":11203,"Ġvs":11204,"Ġviv":11205,"Ġvibrio":11206,"Ġvkh":11207,"Ġviljoen":11208,"Ġhypopro":11209,"Ġhypour":11210,"Ġhypoproteinemia":11211,"Ġhypesthesias":11212,"Ġcha":11213,"Ġche":11214,"Ġchat":11215,"Ġcham":11216,"sier":11217,"ulare":11218,"ello":11219,"odactyl":11220,"odisc":11221,"terstitial":11222,"terew":11223,"uckle":11224,"Ġaceta":11225,"otonia":11226,"otrich":11227,"otass":11228,"otarsal":11229,"udwick":11230,"rophosphate":11231,"Ġeu":11232,"Ġeag":11233,"Ġleud":11234,"cha":11235,"chester":11236,"ebe":11237,"ebaut":11238,"Ġmyd":11239,"Ġhypertr":11240,"Ġhyperhid":11241,"Ġhyperref":11242,"Ġhyperfunction":11243,"Ġhyperferritin":11244,"Ġspax":11245,"Ġspren":11246,"Ġspace":11247,"Ġspring":11248,"Ġspatial":11249,"ostri":11250,"ostrid":11251,"Ġneurop":11252,"Ġneurovis":11253,"Ġneurobor":11254,"Ġneuroblastomas":11255,"yler":11256,"ylic":11257,"Ġstup":11258,"Ġstarg":11259,"Ġstraw":11260,"Ġstreif":11261,"Ġwestern":11262,"adip":11263,"Ġatroph":11264,"obrach":11265,"Ġparina":11266,"Ġparesthesia":11267,"Ġparesthesias":11268,"Ġparenteral":11269,"Ġalg":11270,"Ġalk":11271,"Ġalar":11272,"Ġalph":11273,"Ġalobar":11274,"Ġalstrom":11275,"Ġkb":11276,"Ġkt":11277,"Ġkar":11278,"Ġkur":11279,"Ġkab":11280,"Ġkann":11281,"Ġkuss":11282,"Ġklu":11283,"Ġkfs":11284,"Ġkohl":11285,"Ġkimmel":11286,"Ġkolop":11287,"Ġarcl":11288,"Ġarhin":11289,"uberg":11290,"Ġadysplasia":11291,"Ġthomas":11292,"Ġprl":11293,"rontonasal":11294,"ronectin":11295,"verulent":11296,"Ġlymphocytosis":11297,"ophyma":11298,"pled":11299,"plementary":11300,"Ġglial":11301,"Ġgliosis":11302,"Ġperst":11303,"Ġreif":11304,"Ġcongenitally":11305,"ible":11306,"ibacillary":11307,"ibrey":11308,"Ġleukaemia":11309,"Ġleukopenia":11310,"Ġleukostasis":11311,"upr":11312,"ensen":11313,"ifting":11314,"Ġdystasia":11315,"Ġabri":11316,"Ġabrup":11317,"Ġjc":11318,"Ġjug":11319,"Ġjux":11320,"Ġjean":11321,"Ġjorge":11322,"Ġjansen":11323,"Ġjuberg":11324,"Ġjensen":11325,"onscious":11326,"Ġcomm":11327,"Ġcomitant":11328,"Ġseeman":11329,"Ġheel":11330,"oval":11331,"Ġasa":11332,"Ġasbest":11333,"Ġphocomelia":11334,"Ġrecr":11335,"Ġtumoral":11336,"Ġtumorigenic":11337,"ermias":11338,"ermelon":11339,"Ġtrunc":11340,"Ġtrilogy":11341,"abular":11342,"Ġamebiasis":11343,"Ġexpan":11344,"Ġexsang":11345,"andez":11346,"Ġrete":11347,"Ġreturn":11348,"Ġimd":11349,"Ġencephalitic":11350,"Ġencephalomalacia":11351,"Ġencephalomalacias":11352,"Ġcorne":11353,"Ġmulibrey":11354,"Ġpostm":11355,"kinesias":11356,"kinesigenic":11357,"allid":11358,"Ġblv":11359,"Ġchromophob":11360,"Ġchromaffin":11361,"Ġiiib":11362,"ohr":11363,"Ġsubnormal":11364,"Ġsubfer":11365,"Ġmultimin":11366,"Ġnonobstruc":11367,"Ġnonchrom":11368,"Ġnonhodgkin":11369,"Ġnonkinesigenic":11370,"Ġprimum":11371,"Ġmetopic":11372,"Ġarterio":11373,"Ġcarcinomatoses":11374,"Ġbruton":11375,"Ġpulverulent":11376,"Ġfibronectin":11377,"Ġcolum":11378,"Ġsheld":11379,"Ġadenine":11380,"Ġadenomy":11381,"Ġoppen":11382,"Ġperiorific":11383,"ofrontonasal":11384,"Ġosteocar":11385,"Ġosteopathia":11386,"Ġosteophyt":11387,"ocytoid":11388,"Ġdiaper":11389,"ropin":11390,"Ġerections":11391,"Ġsense":11392,"Ġmyelodis":11393,"Ġmeningo":11394,"Ġiduronidase":11395,"lications":11396,"iorenal":11397,"Ġschimmel":11398,"astrointestinal":11399,"Ġendomy":11400,"Ġendodermal":11401,"Ġtransthyretin":11402,"Ġcoat":11403,"Ġscn":11404,"Ġscax":11405,"Ġscaph":11406,"Ġscdo":11407,"Ġsckl":11408,"Ġaging":11409,"Ġagyria":11410,"Ġovern":11411,"Ġsclera":11412,"Ġscleroat":11413,"avuori":11414,"Ġuric":11415,"Ġuracil":11416,"Ġtubercular":11417,"Ġmong":11418,"Ġmononeuropathies":11419,"Ġmonkey":11420,"Ġplant":11421,"Ġimmunoproliferative":11422,"ritional":11423,"ayama":11424,"Ġlieo":11425,"Ġdermoids":11426,"Ġunder":11427,"Ġunerup":11428,"gliel":11429,"Ġjuven":11430,"Ġpositivities":11431,"prech":11432,"rodyses":11433,"Ġectropion":11434,"Ġclls":11435,"Ġclostrid":11436,"ulty":11437,"Ġdiencephalic":11438,"Ġpneumoconi":11439,"Ġangiomy":11440,"Ġangiomatous":11441,"Ġformimin":11442,"Ġerythrophag":11443,"Ġerythrodyses":11444,"Ġnephroma":11445,"Ġnephropathic":11446,"Ġoptical":11447,"Ġcritch":11448,"Ġnecrotic":11449,"Ġ81":11450,"Ġ84":11451,"Ġuleryth":11452,"Ġcarey":11453,"Ġcarinii":11454,"Ġintram":11455,"Ġintrav":11456,"Ġmedium":11457,"Ġmucinosis":11458,"Ġmucha":11459,"Ġarthromy":11460,"Ġcalf":11461,"aminidase":11462,"Ġfldem":11463,"hered":11464,"igmented":11465,"Ġaphakia":11466,"Ġsinuses":11467,"Ġthyroidal":11468,"Ġsupplementary":11469,"Ġdress":11470,"Ġdrash":11471,"Ġdracunc":11472,"Ġdrifting":11473,"Ġhyperstim":11474,"Ġnodes":11475,"Ġnodofasc":11476,"Ġvesiculo":11477,"Ġoculodent":11478,"Ġparaph":11479,"Ġvalpro":11480,"Ġsarcomatous":11481,"nai":11482,"Ġhematocele":11483,"Ġhematoceles":11484,"Ġhematopo":11485,"ethre":11486,"Ġkeratoac":11487,"Ġkeratodermas":11488,"Ġeng":11489,"Ġenergy":11490,"Ġcdls":11491,"Ġhistiocytoid":11492,"Ġmelker":11493,"Ġmelorhe":11494,"Ġcontre":11495,"Ġcontrol":11496,"Ġneuritic":11497,"Ġneurally":11498,"Ġneuraminidase":11499,"insser":11500,"Ġecch":11501,"Ġeccent":11502,"Ġeconomo":11503,"Ġvena":11504,"Ġmoore":11505,"Ġmark":11506,"Ġmarble":11507,"Ġmarsh":11508,"Ġmarks":11509,"osplen":11510,"Ġenteric":11511,"okinetic":11512,"Ġhernandez":11513,"maul":11514,"Ġbronchospasm":11515,"ocytopenias":11516,"arthropathy":11517,"arthroses":11518,"irales":11519,"Ġvisuosp":11520,"Ġdupre":11521,"Ġhallopeau":11522,"Ġhemangioblastoma":11523,"Ġhemangioendothelioma":11524,"Ġmrd":11525,"Ġglucosaminidase":11526,"Ġglucagonoma":11527,"Ġglycogenoses":11528,"Ġgalactokinase":11529,"Ġstrump":11530,"Ġstretch":11531,"Ġstrudwick":11532,"Ġspondylometa":11533,"Ġfibroepithelial":11534,"Ġhairs":11535,"ramnios":11536,"Ġpyoderma":11537,"Ġzonan":11538,"Ġzinsser":11539,"Ġweyers":11540,"tillo":11541,"Ġserpigin":11542,"Ġiva":11543,"Ġerythroleuk":11544,"Ġcarboxy":11545,"Ġmelanosis":11546,"Ġswyer":11547,"Ġremission":11548,"ocarcinosarcoma":11549,"Ġpseudoinflammatory":11550,"Ġgaits":11551,"Ġschizoaff":11552,"Ġbasedow":11553,"Ġtracts":11554,"Ġaxon":11555,"Ġigd":11556,"Ġborj":11557,"Ġbordet":11558,"Ġprev":11559,"Ġdilation":11560,"Ġgingf":11561,"olipidosis":11562,"oacral":11563,"oactive":11564,"oacoustic":11565,"Ġcorticalis":11566,"Ġgraham":11567,"Ġotc":11568,"Ġotopalatodigital":11569,"Ġmorsier":11570,"Ġbeemer":11571,"Ġbleb":11572,"Ġparasomnia":11573,"Ġparasomnias":11574,"Ġoster":11575,"Ġostium":11576,"Ġpaternal":11577,"Ġhepatomas":11578,"Ġhepatosplen":11579,"Ġulcerans":11580,"Ġduhr":11581,"osclerotic":11582,"Ġminer":11583,"Ġminicore":11584,"Ġneurofibroma":11585,"Ġneurofibromas":11586,"Ġcapitis":11587,"Ġconcentration":11588,"berry":11589,"Ġlobstein":11590,"Ġcamurati":11591,"Ġice":11592,"Ġicp":11593,"Ġicter":11594,"Ġpee":11595,"Ġpeoa":11596,"Ġpearson":11597,"Ġachm":11598,"Ġwhyte":11599,"ythmic":11600,"Ġcytopathy":11601,"Ġcanker":11602,"Ġpleuro":11603,"Ġketo":11604,"Ġbreeder":11605,"Ġlamb":11606,"Ġphotophob":11607,"Ġslo":11608,"Ġslit":11609,"Ġslsn":11610,"Ġavoid":11611,"Ġparkinsonisms":11612,"Ġpsaum":11613,"Ġpsuedo":11614,"Ġbowing":11615,"Ġcomplicated":11616,"positions":11617,"Ġfibromuscular":11618,"stiel":11619,"Ġhyalinoses":11620,"Ġguadal":11621,"Ġgugliel":11622,"Ġreticulate":11623,"Ġibm":11624,"orptive":11625,"Ġchondrodysplasias":11626,"Ġbulimia":11627,"accular":11628,"Ġthymine":11629,"Ġtelangiectasis":11630,"Ġathabas":11631,"Ġauricul":11632,"Ġgestation":11633,"odysplas":11634,"Ġtoxemias":11635,"Ġcretinism":11636,"Ġmeatal":11637,"Ġglossitis":11638,"Ġvestibulopathies":11639,"Ġameloblastic":11640,"Ġhydatidosis":11641,"Ġhydatidoses":11642,"Ġhypoxias":11643,"Ġcorpse":11644,"Ġosteoarthritides":11645,"Ġrosenberg":11646,"Ġmenet":11647,"Ġmenopausal":11648,"Ġsialurias":11649,"Ġneurotox":11650,"Ġdeaths":11651,"Ġpresyn":11652,"Ġmetaplasias":11653,"Ġendotheliomas":11654,"Ġcmtd":11655,"Ġpolymorphous":11656,"Ġcholedochostomy":11657,"Ġcholedochoduodenostomy":11658,"Ġcholedochojejunostomy":11659,"Ġlevine":11660,"Ġfibrinogen":11661,"Ġextreme":11662,"Ġextremities":11663,"azi":11664,"Ġworinger":11665,"Ġsheeh":11666,"Ġerythemato":11667,"shot":11668,"Ġnutritional":11669,"Ġrestenosis":11670,"Ġgammopathies":11671,"Ġxanthoma":11672,"Ġxanthomatous":11673,"Ġxanthomatoses":11674,"Ġhaemophilia":11675,"Ġdiarrheogenic":11676,"Ġacanthomas":11677,"apulo":11678,"Ġhypokinesia":11679,"Ġhypoadrenal":11680,"Ġhyperpipec":11681,"Ġmulticore":11682,"Ġeruptive":11683,"Ġmega":11684,"Ġindiffer":11685,"hidrotic":11686,"Ġusual":11687,"Ġgrebe":11688,"alangy":11689,"Ġteratocarcinosarcoma":11690,"thrombinemia":11691,"Ġchlo":11692,"Ġcircum":11693,"opericard":11694,"operitone":11695,"Ġviib":11696,"Ġcerebroretinal":11697,"Ġcerebellopar":11698,"apping":11699,"Ġamaurotic":11700,"Ġsemilobar":11701,"Ġsemialdehyde":11702,"Ġdipetal":11703,"Ġnausea":11704,"Ġbiological":11705,"Ġbiphosphatase":11706,"Ġbouill":11707,"umping":11708,"Ġbisphosphatase":11709,"Ġforamen":11710,"Ġforelock":11711,"Ġleiomyomas":11712,"Ġleiomyosarcoma":11713,"Ġleiomyosarcomas":11714,"Ġshocks":11715,"Ġrobinow":11716,"Ġtasting":11717,"Ġfragment":11718,"Ġmilker":11719,"Ġpapulous":11720,"Ġpapuloses":11721,"Ġphenomenons":11722,"Ġhyperbilirubinemias":11723,"Ġsilic":11724,"Ġsomatotroph":11725,"Ġmegalocornea":11726,"Ġnarcosis":11727,"Ġrectus":11728,"Ġrectocolitis":11729,"Ġrectosigmoid":11730,"Ġkleffner":11731,"Ġjaundices":11732,"Ġpostpoli":11733,"Ġwatery":11734,"Ġvertebrae":11735,"hypopituitarism":11736,"Ġanoxias":11737,"Ġlewis":11738,"Ġosteonecroses":11739,"aldosteronisms":11740,"Ġonycholysis":11741,"Ġcephalgias":11742,"Ġcephalothoracic":11743,"Ġppa":11744,"Ġppn":11745,"Ġhypersomnolences":11746,"Ġurolithiasis":11747,"Ġdiastrophic":11748,"Ġtakah":11749,"Ġthyro":11750,"Ġbands":11751,"Ġlymphangiomas":11752,"Ġhydroxyacyl":11753,"Ġpanhypopituitarism":11754,"Ġmisalignment":11755,"Ġtyphoid":11756,"Ġganglionitis":11757,"Ġdesmoid":11758,"ioneuroblastomas":11759,"Ġphenylketonuric":11760,"Ġhook":11761,"ucleosis":11762,"Ġossifying":11763,"Ġachondroplasia":11764,"Ġconstricted":11765,"Ġsaethre":11766,"Ġingrown":11767,"Ġileitis":11768,"Ġmyelinolysis":11769,"Ġresponses":11770,"Ġgangrenes":11771,"Ġpraev":11772,"Ġhysteria":11773,"Ġfree":11774,"Ġfibromyalgias":11775,"ointerstitial":11776,"Ġsiderius":11777,"Ġcbla":11778,"Ġcblb":11779,"Ġlactation":11780,"Ġlactate":11781,"Ġlactose":11782,"Ġreno":11783,"Ġpolydactyl":11784,"Ġspherophakia":11785,"Ġrhabdomyomas":11786,"Ġrhabdomyosarcomas":11787,"Ġmcopcb":11788,"Ġhamman":11789,"Ġnsaid":11790,"Ġbalo":11791,"Ġbalkan":11792,"Ġcoalition":11793,"Ġgangliocytoma":11794,"Ġgalactosamine":11795,"Ġketoacidoses":11796,"omplement":11797,"Ġpallidal":11798,"Ġvessels":11799,"Ġawadi":11800,"acetonephosphate":11801,"Ġcrying":11802,"Ġbulboca":11803,"Ġpseudohypoaldosteronisms":11804,"Ġgoldenh":11805,"otrach":11806,"Ġprediab":11807,"Ġbreathings":11808,"Ġadrenoleukodystrophies":11809,"Ġpachyderm":11810,"Ġspermatozoa":11811,"Ġcava":11812,"Ġcavity":11813,"Ġinfluenzas":11814,"Ġwestphal":11815,"Ġknuckle":11816,"Ġadipose":11817,"Ġcorticostri":11818,"Ġpseudopseud":11819,"Ġpseudopsych":11820,"Ġgastrin":11821,"ridic":11822,"enhall":11823,"Ġhla":11824,"Ġnphs":11825,"Ġfurunc":11826,"Ġfetus":11827,"Ġfetofetal":11828,"Ġgilford":11829,"Ġjames":11830,"Ġhepatoerythropoietic":11831,"uji":11832,"Ġcastillo":11833,"Ġluteomas":11834,"Ġvaccin":11835,"Ġcausalgia":11836,"Ġaccidents":11837,"Ġlandau":11838,"ocardia":11839,"Ġebv":11840,"Ġwatermelon":11841,"Ġkeloids":11842,"Ġphobias":11843,"Ġmetatropic":11844,"Ġvenooccl":11845,"Ġdeprivations":11846,"Ġaddisonian":11847,"Ġdeposit":11848,"Ġdysraphisms":11849,"Ġwagner":11850,"Ġkearn":11851,"Ġprogression":11852,"Ġmetastatic":11853,"Ġmetastases":11854,"Ġmicrodeletion":11855,"Ġoxygen":11856,"Ġsegmentation":11857,"Ġnarcoleptic":11858,"Ġawakenings":11859,"Ġdisplaced":11860,"Ġsatur":11861,"Ġmgors":11862,"epsin":11863,"Ġhypocupr":11864,"Ġhypocomplement":11865,"Ġcontractions":11866,"Ġperineph":11867,"Ġtrypanosomiases":11868,"Ġcholecystectomy":11869,"Ġventriculomegalies":11870,"Ġhemiatrophies":11871,"Ġhermaphroditisms":11872,"ajara":11873,"Ġdaytime":11874,"Ġpectori":11875,"Ġmendenhall":11876,"Ġvacuolar":11877,"Ġwerlhof":11878,"Ġareata":11879,"Ġthiebaut":11880,"omyxoma":11881,"Ġphonation":11882,"rosarcomas":11883,"Ġintestine":11884,"Ġactinomyces":11885,"Ġhypoalphalipoproteinemia":11886,"Ġhypoalbuminemia":11887,"Ġhypoalphalipoproteinemias":11888,"Ġacromegaloid":11889,"Ġsantavuori":11890,"Ġsuccinyl":11891,"Ġsuccinase":11892,"Ġcobalamin":11893,"Ġaortitides":11894,"Ġbucy":11895,"Ġgoodpast":11896,"Ġanisomet":11897,"Ġbrucellosis":11898,"Ġbrucelloses":11899,"Ġduodenum":11900,"Ġneedlestick":11901,"Ġconvergent":11902,"Ġsaddan":11903,"Ġdsap":11904,"Ġpilaris":11905,"Ġtaru":11906,"Ġaortopulmonary":11907,"Ġnager":11908,"Ġlerich":11909,"Ġchylous":11910,"Ġacropapulo":11911,"Ġwarfarin":11912,"Ġaltitude":11913,"Ġpaucibacillary":11914,"Ġfloating":11915,"Ġchoriocarcinoma":11916,"Ġtachypneas":11917,"Ġsialadenitides":11918,"Ġrickettsial":11919,"Ġthyrotropin":11920,"Ġmandibuloacral":11921,"Ġdyssynergias":11922,"Ġmicronucleus":11923,"Ġsounds":11924,"Ġdonnai":11925,"Ġhtx":11926,"Ġhyperimmunoglobulin":11927,"Ġwinchester":11928,"Ġlymphogranulomas":11929,"Ġprocedural":11930,"Ġkeratoconjunctivitides":11931,"Ġdfnx":11932,"Ġentamoebiasis":11933,"Ġentamoebiases":11934,"Ġglutamate":11935,"Ġkojevnikov":11936,"Ġprosopagnosias":11937,"Ġeventration":11938,"Ġquadriplegias":11939,"Ġacalculia":11940,"Ġelephantiases":11941,"Ġaqueduct":11942,"Ġctpp":11943,"Ġcathepsin":11944,"Ġpfh":11945,"Ġmirror":11946,"Ġmirizz":11947,"ylinositol":11948,"Ġphalanges":11949,"Ġencephalomyopathic":11950,"Ġdiatheses":11951,"Ġpolychondritides":11952,"Ġmorbid":11953,"Ġdermatofibrosarcoma":11954,"phalipoprotein":11955,"Ġgammapathies":11956,"Ġappendicitis":11957,"Ġmddgc":11958,"Ġhyperprolactin":11959,"Ġcyprus":11960,"Ġpku":11961,"Ġpiedra":11962,"Ġpiedras":11963,"Ġfavre":11964,"Ġdysreflexia":11965,"Ġdysreflexias":11966,"Ġanetoderma":11967,"Ġanetodermas":11968,"Ġanhedonia":11969,"Ġanhedonias":11970,"ostomiasis":11971,"ostomiases":11972,"Ġepulis":11973,"Ġepulides":11974,"Ġproctocolitis":11975,"Ġaprosencephaly":11976,"Ġorbito":11977,"Ġepididym":11978,"Ġepididymal":11979,"Ġflutters":11980,"Ġcatarrhs":11981,"Ġtrichosporonosis":11982,"Ġtrichosporonoses":11983,"Ġdysmyelinating":11984,"ovaginitis":11985,"ovaginitides":11986,"Ġpolyserositis":11987,"Ġpolyserositides":11988,"Ġtetraplegia":11989,"Ġtetraplegias":11990,"Ġpolydipsia":11991,"Ġpolydipsias":11992,"Ġpallidoluysian":11993,"Ġhyperlysinemia":11994,"Ġhyperlysinemias":11995,"Ġchorioretinopathy":11996,"Ġneurilemoma":11997,"Ġneurilemomas":11998,"Ġdistempers":11999,"Ġdysgraphia":12000,"Ġdysgraphias":12001,"Ġstreaks":12002,"Ġextrasystole":12003,"Ġextrasystoles":12004,"Ġsacroiliitis":12005,"Ġsacroiliitides":12006,"Ġcholesteatoma":12007,"Ġcholesteatomas":12008,"Ġpomt":12009,"Ġtogaviridae":12010,"Ġbesnier":12011,"Ġlubs":12012,"Ġlocked":12013,"Ġekbom":12014,"Ġspikes":12015,"Ġreentrant":12016,"Ġjacobsen":12017,"Ġphytanic":12018,"Ġpostviral":12019,"Ġsubluxation":12020,"Ġangelman":12021,"Ġmicropenis":12022,"Ġtubulointerstitial":12023,"Ġrobertson":12024,"Ġhydroxyphenyl":12025,"Ġmeige":12026,"Ġmevalonate":12027,"Ġhidradrenoma":12028,"Ġcoproporphyria":12029,"aretrovirus":12030,"arrhythmia":12031,"Ġhopf":12032,"Ġinequality":12033,"Ġluft":12034,"Ġhypomineralization":12035,"Ġhermansky":12036,"Ġmyelofibrosis":12037,"Ġproliferation":12038,"Ġdissecting":12039,"Ġsulfatidosis":12040,"Ġmidface":12041,"Ġlentigines":12042,"Ġhelicobacter":12043,"Ġthoracoabdominal":12044,"Ġpyelonephritis":12045,"Ġtenosynovitis":12046,"bury":12047,"Ġsucrose":12048,"Ġcenani":12049,"Ġputaminal":12050,"Ġnyct":12051,"Ġfairbank":12052,"Ġluxation":12053,"Ġversus":12054,"Ġhyperkeratoses":12055,"Ġcompressions":12056,"Ġmultinodular":12057,"Ġsensitization":12058,"Ġnephroso":12059,"Ġintersex":12060,"Ġollier":12061,"Ġimpacted":12062,"Ġpseudoachondroplastic":12063,"Ġcytosolic":12064,"Ġhemihypertrophy":12065,"Ġaminoaciduria":12066,"Ġnondisjunction":12067,"Ġsiren":12068,"Ġdgi":12069,"Ġdercum":12070,"Ġcadaver":12071,"Ġtemtamy":12072,"Ġhageman":12073,"Ġaitd":12074,"Ġftld":12075,"Ġritter":12076,"odiaphyseal":12077,"Ġacatalasemia":12078,"Ġhemeralopia":12079,"Ġthroat":12080,"Ġrelease":12081,"Ġtrepon":12082,"Ġbloom":12083,"Ġmononucleosis":12084,"Ġcarpenter":12085,"Ġmountain":12086,"Ġmarmorata":12087,"Ġcarbamyl":12088,"Ġpreeclampsia":12089,"Ġchondroectodermal":12090,"Ġgraefe":12091,"Ġtelangiectatica":12092,"Ġmcardle":12093,"Ġpreserved":12094,"Ġhydroxybutyric":12095,"Ġcoalworker":12096,"Ġplasmacytoma":12097,"Ġmorgellons":12098,"Ġbrachymorphia":12099,"Ġrudimentary":12100,"Ġacrodysgenital":12101,"Ġhyperandrogenism":12102,"Ġadenylosuccinate":12103,"Ġdentatorubral":12104,"zolamide":12105,"inesterase":12106,"Ġstills":12107,"Ġdrager":12108,"Ġcphd":12109,"Ġcfeom":12110,"articulation":12111,"Ġpectus":12112,"Ġpvnh":12113,"Ġmarcus":12114,"Ġmeleda":12115,"Ġmottled":12116,"Ġhystrix":12117,"Ġhplh":12118,"Ġdisorientation":12119,"opelvic":12120,"Ġbechterew":12121,"Ġgbbb":12122,"Ġhypouricemia":12123,"Ġacetazolamide":12124,"Ġeagle":12125,"Ġhyperferritinemia":12126,"Ġsprengel":12127,"Ġneurovisceral":12128,"Ġstargardt":12129,"Ġstrawberry":12130,"Ġstreiff":12131,"Ġparinaud":12132,"Ġkussmaul":12133,"Ġkluver":12134,"Ġkimmelstiel":12135,"Ġkolopp":12136,"Ġperstans":12137,"Ġreifenstein":12138,"Ġabrikos":12139,"Ġjugulare":12140,"Ġseemanova":12141,"Ġtruncus":12142,"Ġexsangu":12143,"Ġchromophobe":12144,"Ġsubfertility":12145,"Ġmultiminicore":12146,"Ġnonobstructive":12147,"Ġnonchromaffin":12148,"Ġsheldon":12149,"Ġoppenheim":12150,"Ġperiorificial":12151,"Ġosteocartilaginous":12152,"Ġmyelodisplastic":12153,"Ġschimmelpenning":12154,"Ġovernutrition":12155,"Ġlieou":12156,"Ġunerupted":12157,"prechaun":12158,"Ġclostridium":12159,"Ġpneumoconioses":12160,"Ġerythrophagocytic":12161,"Ġerythrodysesth":12162,"Ġcritchley":12163,"Ġhyperstimulation":12164,"Ġnodofascicular":12165,"Ġmelkerson":12166,"Ġeccentro":12167,"Ġvisuospatial":12168,"Ġstrumpell":12169,"Ġspondylometaepiphyseal":12170,"Ġzonana":12171,"Ġcarboxykinase":12172,"Ġschizoaffective":12173,"Ġbordetella":12174,"Ġhepatosplenomegaly":12175,"Ġpsaume":12176,"Ġguadalajara":12177,"Ġathabaskan":12178,"opericardium":12179,"Ġcerebelloparenchymal":12180,"Ġbouillaud":12181,"Ġpostpoliomyelitis":12182,"Ġgoldenhar":12183,"Ġcorticostriatal":12184,"Ġvenoocclusive":12185,"10":12186,"78":12187,"ays":12188,"ave":12189,"aam":12190,"arop":12191,"aetales":12192,"bed":12193,"bec":12194,"betalipoproteinemia":12195,"cend":12196,"cross":12197,"cipital":12198,"canthus":12199,"cystectomy":12200,"cobalamin":12201,"dheim":12202,"ezing":12203,"eotypic":12204,"fj":12205,"fart":12206,"full":12207,"fld":12208,"field":12209,"gc":12210,"gem":12211,"gve":12212,"gart":12213,"gav":12214,"gnos":12215,"gastr":12216,"gastrointestinal":12217,"hh":12218,"har":12219,"hom":12220,"hole":12221,"hara":12222,"holder":12223,"hythmic":12224,"iate":12225,"irosis":12226,"iomatous":12227,"iophor":12228,"ja":12229,"jb":12230,"js":12231,"jme":12232,"juana":12233,"ka":12234,"lot":12235,"lism":12236,"lov":12237,"lav":12238,"loride":12239,"mt":12240,"mers":12241,"mium":12242,"maker":12243,"noc":12244,"ners":12245,"oy":12246,"ooste":12247,"oea":12248,"otil":12249,"oaden":12250,"oese":12251,"oocular":12252,"oude":12253,"pose":12254,"pps":12255,"potarsal":12256,"rp":12257,"rect":12258,"rase":12259,"riform":12260,"ratase":12261,"ressor":12262,"sf":12263,"ster":12264,"sman":12265,"sgs":12266,"tp":12267,"tes":12268,"tomy":12269,"tend":12270,"tophyma":12271,"taretrovirus":12272,"uve":12273,"uate":12274,"vd":12275,"vital":12276,"vre":12277,"vival":12278,"wh":12279,"wal":12280,"wig":12281,"whe":12282,"yon":12283,"yder":12284,"yogenic":12285,"yoxylate":12286,"ze":12287,"zell":12288,"zwe":12289,"Ġorm":12290,"Ġoph":12291,"Ġond":12292,"Ġoss":12293,"Ġita":12294,"Ġomen":12295,"alcoh":12296,"alima":12297,"timal":12298,"tificial":12299,"ere":12300,"eri":12301,"erer":12302,"erophor":12303,"rolase":12304,"iner":12305,"inder":12306,"intill":12307,"inodent":12308,"invas":12309,"Ġsg":12310,"Ġsab":12311,"Ġspha":12312,"Ġsaph":12313,"Ġsacch":12314,"Ġsternal":12315,"Ġsunct":12316,"Ġsump":12317,"Ġsiam":12318,"Ġsodium":12319,"Ġskew":12320,"Ġdk":12321,"Ġdp":12322,"Ġded":12323,"Ġdog":12324,"Ġdenti":12325,"Ġdrow":12326,"Ġdmd":12327,"Ġdyg":12328,"Ġdrown":12329,"Ġdunn":12330,"Ġdark":12331,"Ġdumping":12332,"enozoa":12333,"asitic":12334,"onch":12335,"onasal":12336,"onnev":12337,"onception":12338,"Ġcec":12339,"Ġcing":12340,"Ġccl":12341,"Ġcros":12342,"Ġcest":12343,"Ġcgl":12344,"Ġcement":12345,"Ġcurr":12346,"Ġccm":12347,"Ġcochle":12348,"arial":12349,"aries":12350,"aract":12351,"isic":12352,"isth":12353,"isural":12354,"isson":12355,"isella":12356,"isylvian":12357,"eson":12358,"esian":12359,"esothel":12360,"esidi":12361,"esickness":12362,"esetting":12363,"Ġpb":12364,"Ġping":12365,"Ġpong":12366,"Ġpct":12367,"Ġpca":12368,"Ġpigm":12369,"Ġpisc":12370,"Ġprone":12371,"iceptive":12372,"iculty":12373,"aneal":12374,"anized":12375,"anopia":12376,"anarin":12377,"atas":12378,"atrophic":12379,"ataceae":12380,"atrogenic":12381,"ataract":12382,"osud":12383,"osening":12384,"osystem":12385,"osite":12386,"osive":12387,"osecretion":12388,"osacral":12389,"osympathetic":12390,"orth":12391,"orine":12392,"orsion":12393,"orpha":12394,"orsions":12395,"oripa":12396,"Ġmn":12397,"Ġmard":12398,"Ġmorn":12399,"Ġmili":12400,"Ġmobius":12401,"Ġmohr":12402,"oman":12403,"omed":12404,"omst":12405,"omorpha":12406,"Ġtd":12407,"Ġtu":12408,"Ġtus":12409,"Ġtol":12410,"Ġtall":12411,"Ġtele":12412,"Ġtypical":12413,"Ġtcs":12414,"Ġtenn":12415,"Ġtensor":12416,"Ġhd":12417,"Ġhic":12418,"Ġhed":12419,"Ġhoc":12420,"Ġhig":12421,"Ġhot":12422,"Ġhole":12423,"Ġholes":12424,"Ġhitt":12425,"Ġhors":12426,"Ġhour":12427,"Ġhld":12428,"Ġhysp":12429,"Ġhcf":12430,"Ġhgf":12431,"Ġhnp":12432,"Ġhansen":12433,"Ġhatter":12434,"romeric":12435,"romelic":12436,"phan":12437,"phot":12438,"physis":12439,"phomotor":12440,"phrenic":12441,"Ġao":12442,"Ġaure":12443,"Ġaversion":12444,"yneb":12445,"ynostotic":12446,"yndactyl":12447,"ynesian":12448,"Ġnc":12449,"Ġnp":12450,"Ġnit":12451,"Ġnad":12452,"Ġnov":12453,"Ġnagl":12454,"Ġncf":12455,"Ġndn":12456,"Ġname":12457,"Ġnesidi":12458,"iativ":12459,"iaphrag":12460,"ulo":12461,"ulam":12462,"ulate":12463,"ultr":12464,"ulosa":12465,"ulnar":12466,"ulator":12467,"ulavirus":12468,"Ġsyns":12469,"Ġsyntac":12470,"Ġdisch":12471,"Ġdisper":12472,"Ġdisuse":12473,"Ġdisorg":12474,"Ġdisrup":12475,"Ġdisaccharide":12476,"Ġdisarticulation":12477,"ustr":12478,"ussion":12479,"edenic":12480,"edish":12481,"ems":12482,"emoid":12483,"embacher":12484,"itte":12485,"itrous":12486,"Ġinoc":12487,"Ġinert":12488,"Ġinatt":12489,"Ġinocul":12490,"Ġinversions":12491,"Ġinactiv":12492,"Ġinnoc":12493,"Ġintimal":12494,"opach":12495,"opapillary":12496,"optosis":12497,"opallid":12498,"Ġfk":12499,"Ġfoc":12500,"Ġfim":12501,"Ġfill":12502,"Ġfemor":12503,"Ġfixed":12504,"Ġfram":12505,"Ġfrob":12506,"Ġfaz":12507,"Ġfiller":12508,"Ġfunnel":12509,"Ġfgd":12510,"Ġfnd":12511,"Ġfield":12512,"Ġfoci":12513,"Ġfsgs":12514,"Ġbel":12515,"Ġbol":12516,"Ġbanc":12517,"Ġbign":12518,"Ġboth":12519,"Ġbick":12520,"Ġbout":12521,"Ġbarth":12522,"Ġbfic":12523,"Ġbutter":12524,"Ġbjer":12525,"Ġbonnev":12526,"elin":12527,"elatase":12528,"ystis":12529,"Ġlr":12530,"Ġlop":12531,"Ġlond":12532,"Ġliv":12533,"Ġlice":12534,"Ġlds":12535,"Ġlah":12536,"Ġlouse":12537,"acy":12538,"acer":12539,"acytic":12540,"acopl":12541,"aceum":12542,"acinar":12543,"Ġrs":12544,"Ġry":12545,"Ġrach":12546,"Ġrab":12547,"Ġraph":12548,"Ġrsh":12549,"Ġrcc":12550,"Ġrcm":12551,"Ġrippl":12552,"ocity":12553,"ocont":12554,"ocardial":12555,"ocortical":12556,"occo":12557,"ocarboxylase":12558,"ocorneal":12559,"ocutane":12560,"ocochle":12561,"octophyma":12562,"ured":12563,"uring":12564,"uriasis":12565,"uriases":12566,"urata":12567,"Ġdeut":12568,"idian":12569,"idae":12570,"idirectional":12571,"ilia":12572,"ilibri":12573,"ilvie":12574,"Ġgd":12575,"Ġgg":12576,"Ġglas":12577,"Ġgob":12578,"Ġgarc":12579,"Ġgron":12580,"Ġgarg":12581,"Ġgulf":12582,"Ġgbd":12583,"Ġggf":12584,"Ġgjb":12585,"olk":12586,"olys":12587,"olog":12588,"olate":12589,"olian":12590,"olpos":12591,"Ġneoin":12592,"entea":12593,"etens":12594,"etrop":12595,"etobacter":12596,"etoff":12597,"etozo":12598,"etoj":12599,"itida":12600,"itiformis":12601,"athoracic":12602,"ths":12603,"thec":12604,"thetic":12605,"tharg":12606,"eping":12607,"epressor":12608,"umin":12609,"umph":12610,"umatoid":12611,"umarin":12612,"uta":12613,"uted":12614,"Ġvur":12615,"Ġvig":12616,"Ġventral":12617,"Ġvidian":12618,"raft":12619,"ratia":12620,"Ġhypohyd":12621,"Ġhypophyseal":12622,"Ġhypoproteinemias":12623,"Ġhyposecretion":12624,"genis":12625,"genmann":12626,"ampt":12627,"amura":12628,"derh":12629,"dercl":12630,"derate":12631,"derson":12632,"dergem":12633,"Ġdyssoc":12634,"Ġdyskinetic":12635,"Ġdysequ":12636,"Ġdyshydrotic":12637,"Ġdyshidrotic":12638,"Ġchanc":12639,"Ġchik":12640,"Ġchester":12641,"Ġchng":12642,"Ġchedia":12643,"Ġchoked":12644,"Ġchanarin":12645,"siella":12646,"sification":12647,"simm":12648,"iman":12649,"imke":12650,"imally":12651,"imitar":12652,"ellino":12653,"igeminal":12654,"igraft":12655,"unuch":12656,"unya":12657,"undercl":12658,"odend":12659,"odisomy":12660,"odepressor":12661,"Ġanc":12662,"Ġans":12663,"Ġante":12664,"Ġanank":12665,"Ġanophthalmos":12666,"Ġanni":12667,"inguinal":12668,"Ġconstruc":12669,"Ġcongruent":12670,"ucagonoma":12671,"ranc":12672,"Ġaca":12673,"Ġacn":12674,"Ġacrodysplasia":12675,"Ġacrorenal":12676,"otomy":12677,"otox":12678,"otretin":12679,"otonin":12680,"urotomy":12681,"ropharyngeal":12682,"oustical":12683,"Ġeunuch":12684,"ymptomatic":12685,"aga":12686,"agh":12687,"agogic":12688,"agittal":12689,"ircul":12690,"irick":12691,"irurida":12692,"irhythmic":12693,"Ġlean":12694,"Ġlefe":12695,"Ġletter":12696,"Ġleprechaun":12697,"Ġletharg":12698,"chior":12699,"choff":12700,"chalima":12701,"itish":12702,"ebald":12703,"ebetalipoproteinemia":12704,"Ġmyers":12705,"Ġmyoblastoma":12706,"Ġmyoblastomas":12707,"Ġmyoepithelial":12708,"Ġmyoglobinuria":12709,"Ġhyperac":12710,"Ġhyperre":12711,"Ġhyperopia":12712,"Ġhyperesthetic":12713,"Ġsprain":12714,"Ġsport":12715,"Ġspott":12716,"Ġspatz":12717,"Ġspirurida":12718,"osteal":12719,"ostatin":12720,"ostenosis":12721,"Ġneurogenesis":12722,"Ġneurohepatic":12723,"Ġneuroenteric":12724,"Ġneurogastrointestinal":12725,"Ġneurothec":12726,"ylobacter":12727,"ardiosis":12728,"Ġstar":12729,"Ġstun":12730,"Ġstorm":12731,"Ġstatic":12732,"Ġstain":12733,"Ġstump":12734,"Ġstrand":12735,"Ġstgd":12736,"Ġstocco":12737,"Ġwitt":12738,"Ġwaxy":12739,"Ġwoude":12740,"antral":12741,"adt":12742,"adia":12743,"adren":12744,"adnaviridae":12745,"Ġatd":12746,"italized":12747,"Ġira":12748,"Ġiud":12749,"Ġips":12750,"Ġibs":12751,"Ġiatrogenic":12752,"ephrenic":12753,"obia":12754,"obilities":12755,"obloch":12756,"Ġpartur":12757,"oplasmosis":12758,"essin":12759,"Ġepire":12760,"Ġaleu":12761,"Ġalme":12762,"Ġaldehyde":12763,"Ġaltid":12764,"Ġalphalipoprotein":12765,"Ġautosome":12766,"Ġautolysis":12767,"Ġautolyses":12768,"ipavirus":12769,"ipient":12770,"iplash":12771,"Ġke":12772,"Ġkos":12773,"Ġkim":12774,"Ġkob":12775,"Ġkorn":12776,"Ġkash":12777,"Ġkleb":12778,"Ġkinn":12779,"Ġkey":12780,"Ġkaes":12781,"Ġarh":12782,"Ġarias":12783,"Ġartificial":12784,"ubal":12785,"ubitus":12786,"plasma":12787,"Ġthri":12788,"Ġthrob":12789,"Ġthomp":12790,"Ġtheil":12791,"Ġthickness":12792,"Ġthundercl":12793,"Ġpriap":12794,"Ġprene":12795,"ronodular":12796,"Ġcellulitides":12797,"oidosis":12798,"oidea":12799,"oidaceae":12800,"Ġlymphocytoses":12801,"Ġlymphofollic":12802,"Ġglyoxylate":12803,"Ġperich":12804,"Ġperoperative":12805,"Ġperisylvian":12806,"Ġperigraft":12807,"Ġreis":12808,"Ġreich":12809,"Ġreovirus":12810,"Ġreoviridae":12811,"Ġreinh":12812,"Ġreferr":12813,"Ġxm":12814,"Ġxu":12815,"Ġxyl":12816,"ibrion":12817,"Ġhers":12818,"Ġleukonychia":12819,"Ġleukemoid":12820,"descend":12821,"ensory":12822,"encephalia":12823,"ancerous":12824,"Ġabras":12825,"Ġabetalipoproteinemia":12826,"Ġcerebri":12827,"Ġcerebrov":12828,"Ġjail":12829,"Ġjarg":12830,"omyotonia":12831,"rea":12832,"anginal":12833,"onsillar":12834,"Ġcommin":12835,"ize":12836,"Ġmallet":12837,"Ġmalunited":12838,"Ġmalarias":12839,"Ġmalalignment":12840,"Ġmalacopl":12841,"Ġmaldergem":12842,"apt":12843,"apomp":12844,"neval":12845,"nekam":12846,"Ġasl":12847,"Ġass":12848,"Ġaschoff":12849,"Ġphth":12850,"Ġphleb":12851,"Ġphasmidia":12852,"Ġpharnyx":12853,"Ġtrabec":12854,"rosthetic":12855,"tibacillary":12856,"ermitte":12857,"Ġtrit":12858,"Ġtremat":12859,"Ġtrps":12860,"Ġtrismus":12861,"Ġtrifacial":12862,"Ġtremens":12863,"oxidase":12864,"Ġpollen":12865,"Ġpolynesian":12866,"tisms":12867,"inker":12868,"abh":12869,"abi":12870,"abyrinth":12871,"Ġamy":12872,"Ġameg":12873,"quency":12874,"illivirus":12875,"Ġexag":12876,"Ġexophthalm":12877,"Ġexpl":12878,"ogeneses":12879,"othrix":12880,"Ġretrol":12881,"Ġretrot":12882,"Ġretrovirus":12883,"Ġretroviridae":12884,"Ġretropharyngeal":12885,"ically":12886,"Ġcori":12887,"Ġcortis":12888,"Ġcorrect":12889,"Ġcoryneb":12890,"Ġmultibacillary":12891,"Ġpostper":12892,"Ġpostdural":12893,"Ġpostsyn":12894,"Ġpostgastr":12895,"Ġpostanginal":12896,"Ġpalatin":12897,"ycosis":12898,"ycoses":12899,"kinesis":12900,"arioidea":12901,"ments":12902,"sey":12903,"allic":12904,"allosal":12905,"Ġblomst":12906,"Ġiiid":12907,"Ġsubwa":12908,"Ġsubchond":12909,"Ġsubjective":12910,"Ġsubphrenic":12911,"Ġparov":12912,"Ġsusceptibilities":12913,"sonia":12914,"Ġmultiinfarc":12915,"dermal":12916,"Ġnonimmune":12917,"Ġnonarter":12918,"Ġnonleuk":12919,"Ġnongo":12920,"Ġnonodont":12921,"Ġnonvital":12922,"Ġnonalcoh":12923,
[...]
